<unk>	0
<s>	0
</s>	0
▁the	-3.27859
,	-3.3689
.	-3.5956
▁of	-3.5959
s	-3.82286
▁and	-3.87884
▁in	-4.01772
▁to	-4.22825
▁	-4.36868
▁a	-4.44683
-	-4.52601
▁(	-4.53809
▁that	-4.80174
▁is	-4.88067
▁for	-5.19524
▁with	-5.31338
▁are	-5.36836
)	-5.44963
▁be	-5.48659
▁by	-5.50497
▁as	-5.52041
ing	-5.52209
e	-5.55767
▁al	-5.61524
▁The	-5.61563
▁et	-5.63884
ed	-5.64736
▁on	-5.70025
▁from	-5.73098
▁have	-5.87292
▁this	-5.87845
d	-5.88677
.,	-5.94304
▁not	-5.98119
ly	-6.0035
▁an	-6.02482
▁or	-6.03279
▁In	-6.05603
▁we	-6.09002
▁species	-6.09313
▁which	-6.11087
▁at	-6.11928
a	-6.13084
▁was	-6.17527
g	-6.17597
▁A	-6.20792
▁between	-6.22973
▁S	-6.33103
▁been	-6.33785
▁these	-6.34012
al	-6.35219
▁were	-6.36547
▁may	-6.37207
2	-6.38896
▁can	-6.38981
▁also	-6.39085
▁has	-6.42234
i	-6.4347
1	-6.43702
▁it	-6.48616
▁gene	-6.49442
▁their	-6.50094
▁genes	-6.51563
er	-6.53292
C	-6.53788
▁other	-6.5381
▁C	-6.55121
in	-6.5573
).	-6.56558
▁more	-6.57314
▁P	-6.58118
or	-6.58837
▁than	-6.58908
▁This	-6.59502
b	-6.60499
y	-6.62983
▁two	-6.66244
A	-6.66325
▁different	-6.6711
;	-6.68578
S	-6.68777
o	-6.69111
▁study	-6.69519
▁but	-6.69592
▁data	-6.70342
n	-6.71499
B	-6.71866
t	-6.72166
▁We	-6.72977
▁our	-6.73773
▁during	-6.74415
▁model	-6.78814
M	-6.80855
▁such	-6.8111
),	-6.82521
p	-6.82953
c	-6.84084
es	-6.84868
▁both	-6.87581
▁T	-6.88143
/	-6.89347
r	-6.90071
m	-6.90333
H	-6.90519
(	-6.91813
▁found	-6.91994
▁H	-6.93605
D	-6.9421
▁only	-6.94447
▁M	-6.9542
▁all	-6.963
G	-6.96871
▁However	-6.97373
F	-6.97553
▁studies	-6.9865
▁high	-7.00081
▁results	-7.01157
▁F	-7.01203
▁D	-7.0184
▁one	-7.02388
us	-7.02459
▁E	-7.03039
f	-7.05047
R	-7.05843
P	-7.06562
ation	-7.06595
N	-7.06756
▁L	-7.07026
▁G	-7.0782
▁expression	-7.08008
l	-7.08884
▁could	-7.09126
ic	-7.09186
▁time	-7.09859
:	-7.09943
▁protein	-7.11795
▁within	-7.13332
▁[	-7.13414
▁B	-7.13924
L	-7.15474
▁most	-7.15524
▁when	-7.16781
▁used	-7.17118
▁N	-7.17623
▁s	-7.18448
T	-7.18975
▁its	-7.20737
3	-7.2239
▁some	-7.23467
▁would	-7.23541
▁R	-7.23555
▁into	-7.2369
▁genetic	-7.24155
▁cell	-7.243
▁number	-7.2471
▁analysis	-7.25142
K	-7.26538
▁present	-7.27775
▁observed	-7.28551
▁well	-7.2988
▁p	-7.30351
▁cells	-7.31421
E	-7.31528
▁rate	-7.31531
'	-7.31655
▁they	-7.32509
u	-7.32731
on	-7.32866
en	-7.33022
▁evolution	-7.34345
▁response	-7.35404
▁changes	-7.35671
▁system	-7.36049
4	-7.36422
▁selection	-7.37058
▁proteins	-7.37175
▁similar	-7.38409
0	-7.39766
▁3	-7.40635
▁using	-7.40683
ar	-7.40803
k	-7.41288
▁populations	-7.41488
▁O	-7.42053
▁important	-7.42534
▁non	-7.42545
O	-7.42895
re	-7.43749
▁It	-7.4378
▁body	-7.44098
▁2	-7.44956
▁re	-7.45018
▁levels	-7.45154
V	-7.45218
▁co	-7.45498
▁among	-7.45724
h	-7.46205
▁no	-7.46272
▁network	-7.46773
▁size	-7.47098
▁under	-7.47128
▁function	-7.47414
▁higher	-7.47605
▁For	-7.48017
5	-7.48313
an	-7.48353
▁large	-7.49148
x	-7.49237
▁each	-7.4927
ion	-7.49392
▁I	-7.49998
▁low	-7.50254
it	-7.50273
▁increase	-7.50374
is	-7.50383
▁m	-7.50413
▁there	-7.50931
▁These	-7.51779
▁because	-7.52423
▁differences	-7.52737
id	-7.53161
ur	-7.53419
th	-7.53449
▁f	-7.54225
▁same	-7.54998
▁activity	-7.5506
▁over	-7.55706
▁shown	-7.56397
▁population	-7.56615
▁evolutionary	-7.57019
▁three	-7.57159
▁c	-7.57602
▁metabolic	-7.57888
▁1	-7.58103
▁Our	-7.58286
▁K	-7.58414
ia	-7.5858
–	-7.58581
▁muscle	-7.5877
▁likely	-7.58973
▁b	-7.59254
▁will	-7.5931
▁role	-7.59347
▁de	-7.59693
▁based	-7.5998
6	-7.60072
I	-7.60667
▁many	-7.6084
▁through	-7.61039
▁effects	-7.61068
▁might	-7.61184
to	-7.61805
um	-7.61841
▁4	-7.6194
▁conditions	-7.62402
▁first	-7.63516
▁genome	-7.63994
el	-7.64439
ive	-7.64575
▁where	-7.64664
▁variation	-7.65054
▁5	-7.66166
▁increased	-7.66739
le	-7.66958
ta	-7.67156
▁show	-7.67387
ity	-7.67438
ol	-7.6765
▁level	-7.67717
▁fish	-7.67923
▁several	-7.68626
at	-7.68687
▁those	-7.69045
▁effect	-7.69218
il	-7.69306
▁result	-7.70176
▁group	-7.7025
st	-7.70397
▁associated	-7.71372
▁due	-7.72571
▁example	-7.72622
▁suggest	-7.73121
▁known	-7.73227
▁single	-7.73372
▁models	-7.74044
▁do	-7.74266
▁relative	-7.74393
▁evidence	-7.74505
▁h	-7.74532
▁sequence	-7.74638
▁phylogenetic	-7.74812
ent	-7.75204
▁use	-7.75269
ro	-7.75435
▁range	-7.75484
Fig	-7.7693
▁complex	-7.77028
’	-7.77034
▁work	-7.7716
▁after	-7.77167
▁significant	-7.77218
▁possible	-7.77478
W	-7.78003
▁small	-7.79717
▁while	-7.79792
▁water	-7.80403
8	-7.81161
▁rates	-7.81202
▁if	-7.81247
▁structure	-7.81787
▁sequences	-7.82003
▁lower	-7.82041
▁related	-7.82058
▁V	-7.82374
▁un	-7.82512
▁growth	-7.82658
9	-7.82823
▁sub	-7.82944
ment	-7.83148
▁control	-7.83333
▁patterns	-7.83619
▁compared	-7.84283
▁including	-7.84323
and	-7.84608
as	-7.84903
▁molecular	-7.84949
[	-7.85161
▁further	-7.85174
▁host	-7.85997
▁functional	-7.86197
▁information	-7.86556
▁temperature	-7.86734
▁across	-7.87083
▁specific	-7.87287
▁pattern	-7.87632
▁potential	-7.8775
▁energy	-7.87785
ate	-7.8841
▁should	-7.89075
▁long	-7.89201
▁new	-7.89581
te	-7.89746
▁approach	-7.89811
▁very	-7.90144
▁development	-7.904
▁flow	-7.90452
▁mechanisms	-7.91081
▁t	-7.9113
▁thus	-7.91452
▁contrast	-7.91535
ry	-7.91626
▁As	-7.9181
▁any	-7.92239
▁identified	-7.9294
li	-7.93562
et	-7.94019
ma	-7.94384
▁provide	-7.95053
▁even	-7.95099
▁so	-7.95395
ally	-7.95635
▁hypothesis	-7.96115
ter	-7.96291
▁animals	-7.96353
▁change	-7.96734
▁whether	-7.96742
▁mass	-7.9687
▁human	-7.96897
▁set	-7.97003
▁less	-7.9741
▁Although	-7.97472
▁Thus	-7.97634
▁19	-7.97775
▁addition	-7.97842
▁reported	-7.98256
▁To	-7.98493
▁how	-7.98798
▁stress	-7.98834
ine	-7.9902
the	-8.00027
specific	-8.00173
▁showed	-8.00243
co	-8.00423
7	-8.00794
▁analyses	-8.00879
▁distribution	-8.01022
▁l	-8.01199
ul	-8.01521
tic	-8.01801
▁interactions	-8.0202
▁region	-8.02138
ated	-8.02143
▁common	-8.02347
▁case	-8.02436
▁suggests	-8.02496
▁multiple	-8.02669
▁values	-8.03123
▁involved	-8.03276
▁6	-8.03624
▁e	-8.03759
▁systems	-8.04126
▁method	-8.0424
▁support	-8.04241
▁groups	-8.04308
▁divergence	-8.04502
v	-8.0483
▁about	-8.04942
▁W	-8.05266
▁previous	-8.05413
▁d	-8.05797
ant	-8.05981
▁methods	-8.06728
U	-8.06884
▁had	-8.07078
▁factors	-8.07218
▁process	-8.07355
lo	-8.07386
▁highly	-8.07572
▁did	-8.07678
▁therefore	-8.07872
▁networks	-8.07905
▁lineages	-8.08047
▁production	-8.08079
▁experimental	-8.08328
▁regions	-8.08345
▁pathway	-8.08407
▁individual	-8.0858
▁g	-8.08662
ad	-8.08727
▁however	-8.09083
ill	-8.09382
▁diversity	-8.09622
ase	-8.10529
▁biological	-8.1055
▁U	-8.10791
ra	-8.10947
z	-8.10999
▁processes	-8.11357
▁out	-8.11953
ating	-8.12931
+	-8.13061
▁order	-8.13121
▁recent	-8.13288
▁significantly	-8.13657
▁presence	-8.13979
▁DNA	-8.13979
▁mechanism	-8.14416
▁force	-8.14823
▁performance	-8.14824
om	-8.14981
ae	-8.15064
▁here	-8.1587
▁previously	-8.16477
▁family	-8.16738
▁frequency	-8.16842
vi	-8.16994
son	-8.17179
▁7	-8.17633
▁form	-8.17698
▁either	-8.17723
=	-8.17817
▁does	-8.1785
▁pre	-8.1801
▁per	-8.18021
la	-8.1843
ous	-8.18595
▁test	-8.1863
▁pathways	-8.18726
▁sites	-8.18766
▁acid	-8.18775
ir	-8.19055
▁state	-8.19566
▁major	-8.19603
▁experiments	-8.19677
▁consistent	-8.20033
▁individuals	-8.20121
▁pro	-8.20359
de	-8.20704
est	-8.21426
▁light	-8.21677
▁reduced	-8.21749
man	-8.21868
▁length	-8.22238
able	-8.22243
▁males	-8.22247
▁mitochondrial	-8.23093
▁male	-8.23124
im	-8.23237
▁con	-8.24493
▁females	-8.24847
X	-8.25243
▁positive	-8.25387
ial	-8.255
uc	-8.25733
▁environmental	-8.25773
▁suggested	-8.25986
ri	-8.2629
see	-8.26695
▁particular	-8.2673
▁regulation	-8.26807
ian	-8.26972
10	-8.27702
▁greater	-8.27703
▁much	-8.28006
▁early	-8.28052
▁10	-8.2816
▁responses	-8.28975
ut	-8.29008
▁available	-8.29104
▁An	-8.29275
▁often	-8.29463
▁short	-8.29474
ch	-8.29739
▁i	-8.29839
▁food	-8.29877
Figure	-8.29914
▁general	-8.30036
▁four	-8.30348
▁environment	-8.30415
▁least	-8.30606
▁taxa	-8.30639
▁up	-8.30894
▁events	-8.30929
▁relationship	-8.30974
▁strong	-8.31225
ce	-8.31296
▁given	-8.31319
▁proposed	-8.31472
▁behavior	-8.31948
-1	-8.31949
▁surface	-8.32018
mo	-8.32243
▁expected	-8.32392
▁indicate	-8.32612
▁Therefore	-8.32733
▁larger	-8.33082
▁functions	-8.33183
▁tree	-8.33257
▁then	-8.33351
▁loss	-8.33576
▁lineage	-8.34134
▁birds	-8.34192
▁ability	-8.34581
▁signal	-8.34603
▁physiological	-8.34653
am	-8.3469
w	-8.34762
me	-8.34863
▁natural	-8.34893
ig	-8.34942
▁described	-8.35059
▁type	-8.35358
ox	-8.35526
▁although	-8.35608
▁parameters	-8.35961
▁distinct	-8.36006
▁regulatory	-8.36335
based	-8.36423
▁inter	-8.36951
ers	-8.36991
▁additional	-8.3706
▁file	-8.37693
like	-8.37705
▁visual	-8.3779
▁whereas	-8.37858
▁female	-8.38156
▁difference	-8.38217
▁amino	-8.38323
▁domain	-8.38564
ization	-8.38823
os	-8.38969
▁‘	-8.39038
ac	-8.3908
▁mammals	-8.3949
ot	-8.39504
▁conserved	-8.39621
ci	-8.39716
▁suggesting	-8.39788
ne	-8.40256
Y	-8.40358
▁tissue	-8.40625
▁Re	-8.40661
▁being	-8.40663
▁interaction	-8.40726
▁genomes	-8.4094
▁Furthermore	-8.41557
–1	-8.41653
▁binding	-8.41736
un	-8.41887
▁8	-8.42271
up	-8.42321
▁properties	-8.42464
▁traits	-8.42564
age	-8.42725
▁rather	-8.43286
▁organisms	-8.43332
▁metabolism	-8.43356
▁current	-8.43432
▁types	-8.43504
▁plant	-8.4367
▁fact	-8.43937
▁relationships	-8.43945
▁part	-8.44083
▁expressed	-8.44216
▁position	-8.44856
ct	-8.4516
idae	-8.45189
▁considered	-8.45529
▁predicted	-8.45539
▁lack	-8.45606
▁factor	-8.4571
▁flight	-8.46165
▁explain	-8.46344
▁post	-8.46465
▁cycle	-8.46687
ary	-8.46959
q	-8.47013
▁clade	-8.47065
▁cellular	-8.47296
▁prey	-8.47579
▁demonstrated	-8.47609
▁limited	-8.47609
ting	-8.47661
▁occur	-8.47712
▁few	-8.4798
▁still	-8.48372
▁via	-8.48393
ling	-8.48396
ve	-8.48489
▁reproductive	-8.48514
▁phase	-8.48684
▁oxygen	-8.48712
▁speed	-8.48738
ca	-8.48871
▁measured	-8.48916
▁increases	-8.49118
▁life	-8.49254
▁above	-8.49275
▁activation	-8.49317
▁morphological	-8.49426
na	-8.49583
▁signaling	-8.49838
▁various	-8.49974
▁local	-8.50334
▁able	-8.50432
lic	-8.51308
▁novel	-8.51372
"	-8.5153
▁transcription	-8.51569
▁animal	-8.51803
▁understanding	-8.51813
all	-8.51918
▁required	-8.52593
ized	-8.52765
em	-8.52878
▁total	-8.53254
▁Ca	-8.53479
▁increasing	-8.5374
▁–	-8.53876
▁origin	-8.54053
▁di	-8.54282
1,	-8.54343
▁feeding	-8.54574
▁point	-8.54685
▁respectively	-8.54959
▁Ma	-8.55015
▁history	-8.55572
ness	-8.55681
oc	-8.5571
ata	-8.56093
▁second	-8.56291
▁dynamics	-8.56393
▁without	-8.56635
▁along	-8.56638
▁active	-8.5668
ell	-8.56724
▁insects	-8.56785
▁fitness	-8.57289
▁period	-8.57345
▁them	-8.57507
con	-8.57781
▁Figure	-8.57819
▁studied	-8.5794
▁power	-8.58047
▁multi	-8.58055
po	-8.58192
va	-8.58311
relatively	-8.5841
▁target	-8.58425
▁influence	-8.58582
▁ex	-8.58705
ist	-8.58882
▁determine	-8.59114
▁Here	-8.59334
▁mean	-8.5973
▁membrane	-8.59773
▁Y	-8.59883
▁components	-8.59987
▁Z	-8.60165
▁revealed	-8.6026
ph	-8.60534
▁mutations	-8.60629
▁features	-8.60738
▁site	-8.60809
▁decrease	-8.60925
▁since	-8.61003
▁muscles	-8.61218
▁formation	-8.61285
▁distance	-8.61409
▁"	-8.61447
▁obtained	-8.61565
],	-8.61574
▁nuclear	-8.6159
▁pressure	-8.61916
▁While	-8.62049
▁following	-8.62118
type	-8.6213
J	-8.62422
yl	-8.6243
▁area	-8.62558
▁play	-8.62579
▁findings	-8.62589
▁probably	-8.62627
▁context	-8.62641
▁identify	-8.62955
▁reduction	-8.6316
▁represent	-8.63211
▁ancestral	-8.63266
▁adaptive	-8.63486
▁X	-8.64327
▁If	-8.64364
▁genomic	-8.64665
nt	-8.6479
▁receptor	-8.64853
▁behaviour	-8.64868
▁negative	-8.64921
▁differentiation	-8.65018
▁exposure	-8.65064
▁capacity	-8.65076
ab	-8.65211
▁affect	-8.65369
▁immune	-8.65371
▁recently	-8.65564
▁Moreover	-8.65599
▁J	-8.65697
▁sensitivity	-8.65859
mer	-8.65957
▁20	-8.66158
▁swimming	-8.66316
▁clear	-8.66387
▁plants	-8.66413
▁see	-8.66615
▁bi	-8.66881
▁end	-8.66966
▁before	-8.67132
▁resulting	-8.67163
▁provides	-8.67233
▁maximum	-8.67359
▁account	-8.67389
▁produce	-8.67404
▁key	-8.67492
ver	-8.67564
▁cannot	-8.67652
▁v	-8.6783
▁direct	-8.6784
▁against	-8.67843
▁transport	-8.68137
ies	-8.6826
▁cross	-8.6862
▁sex	-8.68665
ha	-8.68716
▁alternative	-8.6892
▁detected	-8.69049
tin	-8.69453
▁directly	-8.69557
▁brain	-8.69699
▁impact	-8.69717
▁sp	-8.69752
line	-8.69764
ted	-8.69841
▁appears	-8.69856
ton	-8.69986
▁value	-8.70143
mon	-8.70189
▁lead	-8.70213
ea	-8.70288
be	-8.70319
▁concentration	-8.7045
▁must	-8.70469
]	-8.70576
▁field	-8.70802
▁temperatures	-8.70838
ner	-8.70912
▁adult	-8.70958
▁blood	-8.71198
▁cancer	-8.71231
tion	-8.71268
▁appear	-8.71284
io	-8.71793
▁prior	-8.71817
▁better	-8.71849
art	-8.71866
ub	-8.71946
▁occurred	-8.72009
▁shows	-8.72055
▁cases	-8.72257
▁average	-8.7228
ec	-8.72545
tra	-8.7268
▁produced	-8.72809
▁RNA	-8.7282
▁dis	-8.72921
ard	-8.72976
▁independent	-8.73046
▁adaptation	-8.73067
min	-8.73085
▁central	-8.73417
pi	-8.73547
▁degree	-8.73589
▁whole	-8.73806
▁parameter	-8.73999
▁age	-8.74148
ap	-8.74163
▁line	-8.74344
▁evolved	-8.7447
▁k	-8.74493
▁generally	-8.74562
▁loci	-8.74742
▁nest	-8.74788
dependent	-8.74839
▁Fig	-8.74918
▁elements	-8.75089
▁trans	-8.75286
▁correlation	-8.75331
if	-8.75347
▁signals	-8.75367
▁Na	-8.7542
▁closely	-8.7549
op	-8.75566
▁One	-8.75571
▁=	-8.75665
▁resistance	-8.75919
▁sperm	-8.75945
▁main	-8.76042
ii	-8.76085
▁wild	-8.76099
ni	-8.76202
ho	-8.76245
▁n	-8.76293
▁disease	-8.76423
▁remains	-8.76508
▁source	-8.7665
ip	-8.7674
ang	-8.76772
▁times	-8.7683
pt	-8.76979
▁w	-8.7701
mat	-8.77164
▁mating	-8.7726
▁complete	-8.77373
▁supported	-8.77434
▁particularly	-8.7754
ob	-8.77613
▁find	-8.77654
ide	-8.77674
20	-8.77891
lin	-8.77905
▁CO	-8.78077
▁comparison	-8.78167
▁include	-8.7836
▁tissues	-8.78459
▁structures	-8.78493
▁There	-8.78784
▁another	-8.7879
▁thermal	-8.78791
▁years	-8.78801
ance	-8.78884
▁duplication	-8.79168
di	-8.79316
ga	-8.79463
▁genus	-8.79472
▁wing	-8.79485
▁sexual	-8.79552
▁selective	-8.7961
ome	-8.79635
ence	-8.79654
▁need	-8.79809
▁families	-8.79814
▁mRNA	-8.80079
▁At	-8.80247
▁absence	-8.80505
▁constant	-8.80522
▁tested	-8.80534
ty	-8.80646
▁strongly	-8.80682
▁close	-8.80702
▁essential	-8.80837
▁reaction	-8.80906
▁rapid	-8.81006
▁derived	-8.81054
▁shape	-8.81108
▁larvae	-8.81304
▁smaller	-8.81403
▁importance	-8.81867
▁exhibit	-8.82139
ba	-8.82143
α	-8.82227
land	-8.82298
j	-8.82409
ti	-8.82418
▁members	-8.82492
ler	-8.82673
2,	-8.82758
▁ratio	-8.8299
off	-8.83001
▁concentrations	-8.83131
▁initial	-8.83393
no	-8.83394
▁forces	-8.83411
▁sea	-8.83502
▁morphology	-8.83604
▁knowledge	-8.83744
ose	-8.83912
▁free	-8.84004
▁direction	-8.84019
▁9	-8.84399
▁allow	-8.84494
▁together	-8.84643
▁expansion	-8.84697
▁diversification	-8.84715
▁treatment	-8.84758
▁Additional	-8.84885
▁ecological	-8.84978
▁environments	-8.85135
▁overall	-8.85151
▁content	-8.85241
▁approaches	-8.85575
▁mutation	-8.85661
per	-8.85735
▁cost	-8.85749
▁investigated	-8.85945
▁especially	-8.8605
▁developed	-8.86142
▁heat	-8.86149
ud	-8.86149
▁applied	-8.8619
▁r	-8.86459
▁head	-8.86471
sh	-8.86551
▁unique	-8.86597
▁micro	-8.86689
▁condition	-8.86728
▁structural	-8.86744
▁amount	-8.86762
▁phylogeny	-8.86778
▁simple	-8.86926
▁Drosophila	-8.87185
iv	-8.8731
ru	-8.87398
▁ancestor	-8.87481
▁reactions	-8.87501
ex	-8.87767
▁indicates	-8.87938
red	-8.87968
▁duration	-8.88003
ke	-8.88019
▁research	-8.88032
▁transfer	-8.88058
▁performed	-8.88082
”	-8.88208
▁space	-8.8861
▁insect	-8.88655
▁phenotypic	-8.88716
tri	-8.88716
▁mammalian	-8.88783
▁pa	-8.88796
▁like	-8.8885
▁De	-8.889
▁survival	-8.88903
▁estimated	-8.88978
▁neurons	-8.88982
for	-8.89022
▁lateral	-8.89068
▁receptors	-8.8917
ids	-8.8925
▁examined	-8.8941
▁vertebrates	-8.89574
ak	-8.89621
ative	-8.89746
one	-8.89893
▁generated	-8.89898
▁occurs	-8.90071
ue	-8.90076
▁far	-8.90121
▁help	-8.90158
▁longer	-8.90225
cho	-8.9023
▁peak	-8.90255
ite	-8.90614
▁seems	-8.90628
▁observations	-8.90641
fer	-8.90678
▁glucose	-8.9084
▁little	-8.90882
▁towards	-8.91025
0%	-8.91072
▁way	-8.91237
out	-8.91305
ron	-8.91441
Z	-8.91516
do	-8.91523
▁strains	-8.9155
ium	-8.91575
▁Such	-8.91707
▁presented	-8.91802
▁developmental	-8.91859
▁By	-8.91933
▁future	-8.9196
▁yet	-8.92183
▁estimates	-8.92223
▁enzymes	-8.92228
▁2008).	-8.92381
ability	-8.92425
▁underlying	-8.92631
end	-8.92984
ts	-8.93061
▁St	-8.9307
▁contact	-8.93097
▁heart	-8.93168
▁contribute	-8.93275
▁“	-8.93294
ow	-8.93317
phy	-8.93338
▁domains	-8.93367
der	-8.93376
▁terms	-8.934
▁potentially	-8.93429
▁hand	-8.93623
ric	-8.93693
bo	-8.93909
▁necessary	-8.94283
term	-8.94428
▁tri	-8.94485
▁bio	-8.94744
▁cold	-8.94761
▁step	-8.94808
▁leading	-8.9485
▁substrate	-8.9487
▁flux	-8.94917
▁view	-8.95042
cent	-8.95178
str	-8.95197
▁reflect	-8.95264
scale	-8.95286
▁2006;	-8.95528
Table	-8.95608
▁possibility	-8.95725
▁clades	-8.95805
▁us	-8.95805
▁stage	-8.95868
▁spatial	-8.96147
ical	-8.96211
▁mice	-8.96266
▁determined	-8.96532
▁poly	-8.96647
▁experiment	-8.96858
▁Table	-8.96991
▁trees	-8.97017
▁2009).	-8.97028
▁differ	-8.97358
▁difficult	-8.9747
▁When	-8.97531
▁composition	-8.97598
▁velocity	-8.98044
▁act	-8.98114
▁normal	-8.98114
▁caused	-8.98152
▁On	-8.98358
▁correlated	-8.98378
▁Because	-8.98569
▁12	-8.98581
ev	-8.98651
▁seen	-8.98661
▁measurements	-8.9869
▁samples	-8.98795
▁sets	-8.98808
▁approximately	-8.9885
▁provided	-8.9887
ber	-8.98883
▁input	-8.98895
ka	-8.98963
▁enzyme	-8.98968
▁Finally	-8.98985
▁movement	-8.99004
▁fast	-8.99052
▁around	-8.99152
rs	-8.99337
▁variable	-8.99384
▁effective	-8.99438
▁dispersal	-8.99654
▁certain	-8.99744
▁predict	-8.99751
▁hypoxia	-8.99843
si	-8.99894
▁corresponding	-9.00032
▁density	-9.00096
▁2007).	-9.00163
▁cluster	-9.00165
▁vertebrate	-9.00204
▁combination	-9.0044
tal	-9.00461
▁mechanical	-9.00474
▁primary	-9.00503
▁markers	-9.00522
▁habitat	-9.00531
▁scale	-9.00582
▁finding	-9.00597
▁air	-9.00645
ley	-9.00979
▁2010).	-9.01009
den	-9.01048
▁affected	-9.01083
let	-9.01101
au	-9.01186
▁2007;	-9.01482
▁oxidative	-9.01496
▁critical	-9.01817
▁sampling	-9.0186
▁wide	-9.01896
▁characterized	-9.01912
▁cause	-9.01994
▁generate	-9.02093
▁volume	-9.02182
▁detect	-9.02227
2)	-9.02353
▁maintain	-9.02402
▁social	-9.02463
ten	-9.02502
▁global	-9.02635
▁Ch	-9.02698
cul	-9.02745
▁explanation	-9.02982
▁diet	-9.03045
Q	-9.03158
les	-9.03206
ep	-9.03256
ins	-9.03346
▁Indeed	-9.03397
▁similarity	-9.03528
ize	-9.03692
▁respond	-9.037
cy	-9.0376
▁class	-9.04041
▁investigate	-9.04058
▁allows	-9.0409
▁strain	-9.04208
AT	-9.04268
▁five	-9.04375
▁decreased	-9.04485
▁biology	-9.04524
▁contain	-9.04555
▁locomotion	-9.04556
▁strategy	-9.046
▁computational	-9.04692
▁make	-9.04706
he	-9.04717
▁output	-9.04718
lu	-9.04733
▁2005;	-9.04778
ern	-9.04779
12	-9.04846
▁sister	-9.04888
▁stages	-9.04952
▁design	-9.05022
▁demonstrate	-9.05122
▁throughout	-9.05165
▁become	-9.05176
ger	-9.05264
qu	-9.05273
▁indicating	-9.05352
related	-9.05374
av	-9.05575
▁min	-9.05682
▁fin	-9.05815
▁reduce	-9.05851
▁marine	-9.05854
11	-9.05883
pe	-9.05883
▁lines	-9.05901
▁Ro	-9.05988
▁chemical	-9.05995
▁[4	-9.06023
▁diverse	-9.0611
▁component	-9.06185
▁transition	-9.06316
▁cr	-9.06415
gene	-9.06549
▁motion	-9.06575
▁speciation	-9.06604
–2	-9.0676
▁2008;	-9.06771
ina	-9.06795
▁phenotype	-9.06812
ge	-9.06887
▁instance	-9.06917
ensis	-9.07041
CA	-9.07124
act	-9.07158
▁nature	-9.07306
▁best	-9.07316
▁upon	-9.07331
pla	-9.07514
▁bacteria	-9.07565
yn	-9.07604
−1	-9.07604
▁damage	-9.07621
▁what	-9.07689
▁temporal	-9.07782
▁humans	-9.07799
▁2004;	-9.07867
50	-9.0798
▁II	-9.08016
▁frequencies	-9.08031
sen	-9.0829
ps	-9.08295
und	-9.08298
▁included	-9.08426
▁0	-9.08553
hi	-9.08678
▁unknown	-9.08818
▁reproduction	-9.08832
oma	-9.08924
▁18	-9.08932
par	-9.0895
▁characteristics	-9.0895
▁red	-9.09011
▁located	-9.09117
▁estimate	-9.09287
▁question	-9.0929
res	-9.09337
▁habitats	-9.09359
bi	-9.09411
▁proportion	-9.09555
▁costs	-9.09628
▁st	-9.09628
▁indicated	-9.09681
▁remain	-9.0997
▁near	-9.09985
▁2003;	-9.10016
▁2006).	-9.10067
▁foraging	-9.10185
amp	-9.1027
▁larval	-9.10306
▁areas	-9.10464
1)	-9.10488
▁relevant	-9.10549
▁problem	-9.10634
▁down	-9.10727
▁below	-9.10803
▁made	-9.10854
▁interesting	-9.10912
▁day	-9.1102
15	-9.1109
▁responsible	-9.11112
▁Interestingly	-9.11229
▁sensory	-9.11266
▁o	-9.11434
ini	-9.11451
▁bacterial	-9.11567
▁side	-9.11656
▁induced	-9.11706
▁basis	-9.11778
▁molecules	-9.1182
▁material	-9.12033
▁hybrid	-9.12061
▁dynamic	-9.12066
▁migration	-9.12139
▁variability	-9.12247
eg	-9.12327
▁generation	-9.12425
▁defined	-9.12474
ran	-9.12498
▁combined	-9.12894
▁clearly	-9.12924
▁selected	-9.12927
ile	-9.12941
▁stimuli	-9.12964
▁synthesis	-9.12988
▁differential	-9.13
▁cues	-9.1302
▁mtDNA	-9.13037
pro	-9.13102
cor	-9.13112
▁predictions	-9.13121
▁exposed	-9.13144
▁shift	-9.13149
ula	-9.13212
▁sa	-9.133
▁bees	-9.13309
▁useful	-9.13352
▁algorithm	-9.13451
▁paper	-9.13466
▁last	-9.13524
▁drug	-9.13535
▁observation	-9.13555
induced	-9.13633
▁interest	-9.13662
▁locus	-9.13683
5%	-9.13781
rich	-9.13802
▁efficiency	-9.14024
▁Le	-9.141
▁despite	-9.14266
▁Me	-9.14282
▁though	-9.1437
▁recombination	-9.14437
▁putative	-9.1444
king	-9.1446
cl	-9.14479
▁chromosome	-9.14515
▁noise	-9.14547
▁turn	-9.14571
▁transcriptional	-9.1458
ator	-9.14704
▁clusters	-9.14711
▁needed	-9.14765
tro	-9.14847
▁β	-9.14861
▁2001;	-9.14945
▁elevated	-9.14987
▁2002;	-9.15117
ie	-9.15153
β	-9.15159
▁yeast	-9.15514
▁mouse	-9.15569
▁days	-9.15797
▁tolerance	-9.15819
▁understand	-9.15879
▁nodes	-9.16027
▁infection	-9.1612
so	-9.1613
▁2011).	-9.16427
▁thought	-9.16519
▁association	-9.16662
▁ion	-9.1675
▁isolated	-9.16835
▁genera	-9.16887
▁basal	-9.17
▁means	-9.17031
protein	-9.17287
▁variety	-9.17348
▁nucleotide	-9.17358
▁prediction	-9.17412
▁focus	-9.17601
▁targets	-9.17707
▁pairs	-9.17857
▁abundance	-9.18002
▁offspring	-9.18052
▁conservation	-9.18204
▁event	-9.18222
▁hyper	-9.1824
▁typically	-9.18303
▁ca	-9.18371
▁La	-9.18411
▁action	-9.18444
▁mono	-9.1845
isation	-9.18521
▁release	-9.18534
ions	-9.18595
▁Co	-9.18623
▁mainly	-9.18655
▁α	-9.18822
▁sample	-9.1889
▁alleles	-9.18898
▁fishes	-9.1893
▁isolation	-9.19018
sp	-9.1919
▁prevent	-9.19262
▁extent	-9.1927
▁open	-9.19429
▁branch	-9.19461
gen	-9.19465
ism	-9.19469
▁linked	-9.19487
ella	-9.19507
▁carbon	-9.19564
▁intron	-9.19568
▁constraints	-9.19575
000	-9.1962
▁identification	-9.19679
chi	-9.19694
▁μ	-9.19747
▁First	-9.19756
▁gain	-9.1982
70	-9.19844
▁hypotheses	-9.19859
▁latter	-9.19898
▁interact	-9.20276
▁secondary	-9.20309
▁acids	-9.20386
ris	-9.20427
▁limb	-9.20553
▁exchange	-9.20608
▁display	-9.20695
ov	-9.20805
–3	-9.20969
▁measure	-9.20997
fold	-9.21012
ign	-9.21166
▁take	-9.21239
▁largely	-9.21248
2].	-9.21259
▁15	-9.21263
▁date	-9.21406
▁2005).	-9.21592
▁All	-9.21651
ick	-9.21728
atus	-9.2188
sis	-9.21906
?	-9.21934
▁2009;	-9.2195
▁Since	-9.21987
▁strategies	-9.22144
▁horizontal	-9.22172
▁en	-9.22199
▁real	-9.22213
ear	-9.22236
ster	-9.22324
▁yield	-9.22328
▁sound	-9.2235
▁behavioral	-9.22415
my	-9.22577
▁11	-9.22676
▁require	-9.22765
▁He	-9.22768
▁vertical	-9.22777
ax	-9.2283
ological	-9.23019
▁usually	-9.23041
▁movements	-9.23051
▁tend	-9.23199
▁uptake	-9.23311
▁slow	-9.23357
▁stimulus	-9.23546
fish	-9.23577
aw	-9.23668
▁regulate	-9.23714
▁mo	-9.23719
▁mate	-9.23822
▁robust	-9.23927
Additional	-9.23944
▁now	-9.23957
▁linear	-9.24078
▁explained	-9.24097
ates	-9.2414
▁framework	-9.24188
▁2000;	-9.24211
▁success	-9.2424
gr	-9.2441
▁weight	-9.24413
pos	-9.24516
che	-9.24652
▁internal	-9.24688
▁represents	-9.24714
▁alter	-9.24725
▁exist	-9.2476
pa	-9.24773
▁detection	-9.24802
▁respect	-9.24813
▁vivo	-9.24815
▁resulted	-9.24837
form	-9.24958
▁organism	-9.24992
▁magnitude	-9.24996
fi	-9.25162
▁possess	-9.25178
▁subject	-9.25322
mann	-9.25401
▁self	-9.25434
▁flies	-9.25505
14	-9.25512
▁They	-9.25616
].	-9.25691
▁plasma	-9.25716
ities	-9.25726
▁section	-9.25786
ack	-9.25958
ost	-9.26
▁optimal	-9.26058
▁fully	-9.26154
max	-9.262
rid	-9.26257
▁place	-9.26371
▁Further	-9.26409
−	-9.26533
▁standard	-9.26579
▁stable	-9.26699
tor	-9.26711
cell	-9.26721
▁Ba	-9.26835
▁Al	-9.26875
▁induce	-9.26884
▁With	-9.27027
▁1.	-9.27034
▁bo	-9.27036
13	-9.2707
go	-9.27097
▁advantage	-9.27245
▁running	-9.27296
ction	-9.27322
▁already	-9.27348
▁assess	-9.27402
▁late	-9.27417
▁analyzed	-9.27508
BP	-9.27531
ele	-9.27592
▁Sch	-9.27601
▁reveal	-9.27679
▁simulation	-9.27689
▁seem	-9.27766
▁colour	-9.27766
kin	-9.27775
▁balance	-9.27792
16	-9.27958
▁sufficient	-9.27991
▁almost	-9.28013
▁according	-9.28321
▁deep	-9.28471
▁modeling	-9.28472
▁rapidly	-9.28492
▁true	-9.28505
▁Ha	-9.28515
▁gl	-9.2853
▁periods	-9.28796
ward	-9.28851
▁broad	-9.28914
_	-9.28937
▁earlier	-9.28995
▁detailed	-9.29111
mit	-9.29156
▁orientation	-9.29177
▁majority	-9.29246
▁ground	-9.29339
ier	-9.29379
▁feature	-9.29407
▁subsequent	-9.2951
▁egg	-9.29559
▁comparative	-9.29615
▁serve	-9.29629
ana	-9.29679
▁sh	-9.2968
oid	-9.29708
▁report	-9.29735
▁se	-9.29788
ens	-9.29897
▁reconstruction	-9.29993
▁vary	-9.29995
AP	-9.30111
▁shared	-9.3015
▁1999;	-9.30239
ish	-9.30242
▁roles	-9.3026
▁path	-9.30338
▁walking	-9.3039
ser	-9.30663
▁Li	-9.30796
▁Given	-9.3084
▁13	-9.3094
of	-9.30993
▁anti	-9.31103
▁laboratory	-9.31155
▁leg	-9.31179
▁geographic	-9.31292
▁requires	-9.31486
▁ATP	-9.31494
ach	-9.31503
▁restricted	-9.3159
▁intracellular	-9.31591
▁strength	-9.31616
▁feedback	-9.31618
▁16	-9.3162
▁phenotypes	-9.31635
▁external	-9.31645
▁lost	-9.31656
▁quality	-9.31715
▁joint	-9.31813
▁substitution	-9.31866
▁versus	-9.31877
group	-9.31904
5].	-9.31943
▁capture	-9.3195
▁sc	-9.32056
▁residues	-9.32177
▁Despite	-9.32195
▁contains	-9.32226
▁full	-9.32277
▁Mo	-9.32399
▁describe	-9.32472
▁possibly	-9.32486
▁he	-9.3258
▁1).	-9.32637
rm	-9.32742
tis	-9.3282
▁amplitude	-9.32983
▁trout	-9.33026
▁Pro	-9.33028
▁radiation	-9.33043
▁later	-9.33046
her	-9.33101
▁literature	-9.33217
▁showing	-9.33334
▁Con	-9.33364
▁organ	-9.33563
▁dataset	-9.33568
▁physical	-9.336
ring	-9.3361
▁core	-9.33771
▁fluid	-9.33777
▁threshold	-9.33801
low	-9.33816
▁2012).	-9.33846
▁gr	-9.33926
▁complexes	-9.33973
til	-9.34031
▁2004).	-9.34077
led	-9.34081
▁points	-9.34104
▁consider	-9.34152
6].	-9.34175
▁currently	-9.34178
8].	-9.34224
▁Some	-9.34255
cin	-9.34263
▁followed	-9.3431
cer	-9.34313
▁layer	-9.34389
▁states	-9.34403
lan	-9.34418
▁simulations	-9.34418
▁hosts	-9.34426
ans	-9.34464
▁six	-9.34523
part	-9.34757
▁pH	-9.34857
▁intermediate	-9.34906
▁2010;	-9.34946
▁hetero	-9.34956
▁having	-9.35057
▁biochemical	-9.35059
▁widely	-9.3507
▁search	-9.35083
▁learning	-9.35116
gu	-9.35321
▁angle	-9.35434
▁'	-9.3545
▁forms	-9.3546
▁profiles	-9.35506
pho	-9.35625
osa	-9.35643
▁established	-9.35657
▁plasticity	-9.35669
▁quantitative	-9.35744
▁stem	-9.35774
▁random	-9.35839
▁base	-9.35885
dy	-9.36007
▁dependent	-9.3605
▁probability	-9.36075
AR	-9.36078
▁my	-9.36104
Based	-9.36113
▁fossil	-9.36166
▁photo	-9.36182
▁Both	-9.36273
we	-9.36339
▁move	-9.36448
▁Additionally	-9.36459
▁sensitive	-9.36525
▁depth	-9.36682
▁~	-9.36726
▁good	-9.3674
▁choice	-9.36772
▁rule	-9.36897
▁Previous	-9.36955
▁load	-9.3701
ably	-9.37084
▁steady	-9.37168
▁tr	-9.3717
ort	-9.37213
log	-9.37322
▁confirm	-9.37335
▁taxonomic	-9.37387
▁inference	-9.37456
▁avoid	-9.37464
▁inferred	-9.37486
▁neuro	-9.37494
▁primarily	-9.37505
▁ants	-9.37568
▁Dur	-9.37619
▁competition	-9.37627
▁Using	-9.37658
ica	-9.37661
▁kinase	-9.37696
▁North	-9.37708
▁bats	-9.37751
▁zebrafish	-9.37876
▁background	-9.37998
▁just	-9.38188
3].	-9.38287
▁location	-9.38314
ven	-9.38355
▁start	-9.38415
▁neural	-9.38616
▁terrestrial	-9.38645
-2	-9.38775
ich	-9.38803
▁14	-9.38804
▁2014)	-9.38863
▁propose	-9.38927
▁pair	-9.38997
ray	-9.39055
▁posterior	-9.39371
ok	-9.39397
▁availability	-9.39422
▁containing	-9.39453
ey	-9.39476
4].	-9.39589
▁weak	-9.39644
tur	-9.39762
istic	-9.39822
▁variables	-9.39889
pod	-9.39891
▁share	-9.39903
ple	-9.39908
▁perform	-9.39912
▁block	-9.3992
▁sources	-9.3996
▁link	-9.40051
▁parasite	-9.40168
▁predator	-9.40366
ular	-9.4038
oph	-9.40458
MR	-9.40477
▁trade	-9.40527
ay	-9.40791
7].	-9.40812
▁promoter	-9.40919
ros	-9.41012
▁entire	-9.41035
90	-9.41063
▁consequence	-9.41099
▁highest	-9.41167
▁bone	-9.41199
▁activities	-9.41218
1].	-9.41239
▁neutral	-9.41244
▁regulated	-9.4142
▁complexity	-9.41427
yr	-9.41479
9].	-9.41513
ding	-9.41587
2+	-9.41686
▁parallel	-9.41696
ung	-9.41699
▁acclimation	-9.4176
▁divergent	-9.41859
ili	-9.41975
▁scenario	-9.42143
▁crucial	-9.42208
▁land	-9.42213
▁stability	-9.42229
30	-9.42254
-3	-9.42269
▁olfactory	-9.42273
▁apparent	-9.42284
▁Cl	-9.42446
▁secretion	-9.42516
▁Ar	-9.42532
▁freshwater	-9.42563
200	-9.42623
old	-9.4263
▁1998;	-9.42659
▁Second	-9.42659
▁separate	-9.42814
ible	-9.4288
mis	-9.42985
▁numbers	-9.42986
▁exception	-9.43005
▁extensive	-9.4306
▁signalling	-9.43077
▁Q	-9.43084
▁accumulation	-9.43112
▁lipid	-9.43156
ix	-9.43213
▁experience	-9.43224
▁car	-9.4333
▁faster	-9.43357
▁color	-9.43363
ole	-9.43377
▁str	-9.43386
IP	-9.43403
ral	-9.43412
ind	-9.4344
ller	-9.43536
▁led	-9.43641
ew	-9.43718
40	-9.43804
ren	-9.43811
▁datasets	-9.43866
▁facilitate	-9.44007
less	-9.44095
▁locomotor	-9.44154
▁j	-9.44336
mb	-9.44415
▁auto	-9.44496
▁30	-9.44525
▁melanogaster	-9.44613
▁adjust	-9.44613
▁maintenance	-9.44778
lar	-9.44789
▁hybridization	-9.44809
▁2003).	-9.44941
▁trait	-9.45192
▁situation	-9.45203
▁Nevertheless	-9.45372
bu	-9.45402
que	-9.45411
▁unlikely	-9.4542
▁alone	-9.45428
▁wall	-9.45436
▁maintained	-9.4545
▁substantial	-9.45558
ure	-9.45631
▁intra	-9.45744
▁tail	-9.45854
▁extreme	-9.45891
▁extend	-9.45919
tu	-9.46072
▁reason	-9.4613
▁motor	-9.46221
ene	-9.46222
▁fraction	-9.46305
ations	-9.46409
▁theory	-9.46447
▁improve	-9.46457
▁UV	-9.46466
▁alignment	-9.46573
▁meta	-9.4673
▁distributed	-9.46756
▁distinguish	-9.46762
▁aspects	-9.46814
▁calculated	-9.46896
ath	-9.46956
▁inhibition	-9.47073
pp	-9.47087
▁liver	-9.47169
▁clock	-9.47209
ari	-9.47244
CO	-9.47306
▁efficient	-9.47322
▁modules	-9.47323
▁intensity	-9.47348
80	-9.47397
▁depend	-9.47449
▁green	-9.47628
uch	-9.47641
▁why	-9.47666
▁leads	-9.47807
▁Similarly	-9.47812
by	-9.47833
▁matrix	-9.47855
▁x	-9.48033
▁statistical	-9.48052
han	-9.48101
▁timing	-9.48132
▁address	-9.48189
▁super	-9.4833
▁independently	-9.48352
▁Most	-9.48483
▁obtain	-9.48561
▁2002).	-9.48675
ld	-9.48695
▁rise	-9.48753
ries	-9.49029
da	-9.4908
▁series	-9.49096
▁compare	-9.49121
▁contribution	-9.49139
▁So	-9.49164
▁Ne	-9.49187
▁southern	-9.49369
▁energetic	-9.49394
▁cat	-9.49553
coding	-9.49585
▁assumed	-9.49653
▁Mar	-9.49699
▁Bo	-9.49699
▁seed	-9.49744
▁resources	-9.49766
▁African	-9.49797
▁back	-9.49844
gi	-9.49907
▁includes	-9.49909
3,	-9.49985
izing	-9.50031
▁[1].	-9.50038
▁Sp	-9.50079
SA	-9.50175
▁unclear	-9.50193
▁instead	-9.50228
▁correct	-9.50296
▁cardiac	-9.50297
▁element	-9.50445
vo	-9.50759
▁coli	-9.50788
br	-9.50795
▁stochastic	-9.50856
vis	-9.50915
▁Several	-9.50926
▁ancient	-9.50961
▁eggs	-9.51001
▁codon	-9.51021
mp	-9.51119
ida	-9.51123
▁evolve	-9.51138
▁opsin	-9.51147
▁behavioural	-9.5116
▁memory	-9.51171
▁stimulation	-9.51171
but	-9.51221
▁17	-9.51261
▁develop	-9.51295
▁attempt	-9.51417
rus	-9.51507
▁challenge	-9.51557
▁phosphorylation	-9.5159
▁examine	-9.51614
och	-9.51663
▁estimation	-9.51664
ys	-9.51795
▁electro	-9.51834
mm	-9.51892
▁Di	-9.51929
▁deg	-9.51951
▁climate	-9.52009
1-	-9.52188
aceae	-9.52227
ult	-9.52229
▁confirmed	-9.52249
▁limit	-9.52254
▁arise	-9.52268
▁2).	-9.5228
reviewed	-9.52309
▁1997;	-9.52337
▁delay	-9.52337
ocytes	-9.52424
▁whose	-9.52449
▁+	-9.52464
▁Pa	-9.52486
ST	-9.52488
▁metabolites	-9.52519
▁eukaryotic	-9.52586
▁typical	-9.52608
▁segment	-9.52684
▁original	-9.52767
▁coding	-9.52819
▁taken	-9.52821
▁identical	-9.52835
ong	-9.52856
▁[1,	-9.52893
▁dorsal	-9.53053
▁2)	-9.53086
▁24	-9.53096
▁resolution	-9.53127
▁fit	-9.53157
<	-9.53164
▁eye	-9.53205
vari	-9.53253
omy	-9.533
ust	-9.53312
▁embryos	-9.53315
inae	-9.53429
▁specifically	-9.53456
cre	-9.53507
▁distributions	-9.53593
▁always	-9.53595
▁bias	-9.53736
▁sizes	-9.53738
▁focused	-9.53769
▁morph	-9.53794
pha	-9.53839
cap	-9.53849
ura	-9.53912
eu	-9.53943
▁escape	-9.53985
sens	-9.53992
▁moment	-9.54006
▁characters	-9.54068
level	-9.54089
▁deletion	-9.54093
▁Po	-9.54194
las	-9.54259
wa	-9.54316
▁appropriate	-9.54347
ified	-9.54357
▁record	-9.544
▁depends	-9.54404
▁No	-9.5443
▁call	-9.54498
▁past	-9.54507
our	-9.54606
▁bar	-9.54634
▁breeding	-9.54671
▁reference	-9.54754
▁risk	-9.54826
▁vector	-9.54874
▁promote	-9.54981
▁sequencing	-9.55024
▁called	-9.55086
▁speeds	-9.55091
rr	-9.55151
▁consumption	-9.55184
▁Hence	-9.55211
▁skin	-9.55226
▁pheromone	-9.55257
▁motifs	-9.55257
4)	-9.55288
▁course	-9.55368
▁fixed	-9.55404
▁Another	-9.55412
▁numerous	-9.55516
▁existence	-9.55534
wi	-9.55575
ales	-9.55589
▁tests	-9.5562
▁blue	-9.55651
▁aquatic	-9.55661
▁term	-9.55683
mod	-9.55757
hr	-9.55795
ors	-9.55812
▁En	-9.55827
▁lung	-9.55922
▁northern	-9.55926
▁Car	-9.55975
▁experimentally	-9.56026
▁extended	-9.56055
▁allowed	-9.56086
matic	-9.56122
▁thereby	-9.56388
lus	-9.56408
▁positions	-9.56427
▁commonly	-9.56434
▁decline	-9.56435
▁Br	-9.56548
▁integration	-9.56583
ean	-9.56639
har	-9.5665
▁motif	-9.56805
eng	-9.56857
▁completely	-9.57052
dia	-9.57134
mal	-9.57156
▁2011;	-9.57235
▁investigation	-9.57265
▁gill	-9.57349
▁eukaryotes	-9.57364
▁maternal	-9.57364
60	-9.57373
▁Sh	-9.57388
▁Africa	-9.57417
▁assume	-9.57506
ful	-9.57628
▁recognition	-9.57664
▁anterior	-9.57702
▁culture	-9.57776
▁transmission	-9.57779
▁great	-9.57887
▁frequently	-9.57949
▁Ac	-9.58097
▁compounds	-9.58118
▁net	-9.58181
▁left	-9.58285
▁maximal	-9.58349
▁overlap	-9.58397
53	-9.58403
ER	-9.58404
▁mode	-9.58446
▁MHC	-9.58494
▁status	-9.5851
▁gap	-9.58552
ou	-9.58583
▁processing	-9.58595
▁vitro	-9.58681
▁Th	-9.58724
▁split	-9.58841
mediated	-9.58898
hy	-9.59012
▁third	-9.59022
▁graph	-9.59038
gl	-9.59042
ised	-9.59105
▁(2)	-9.59161
▁Ex	-9.59243
eno	-9.59295
▁enhance	-9.59303
tes	-9.59314
▁techniques	-9.59324
ze	-9.59444
▁classes	-9.5945
terminal	-9.59519
▁upper	-9.59571
ei	-9.59576
▁expect	-9.59582
tre	-9.59636
▁Ho	-9.5965
▁Ra	-9.59653
▁variants	-9.59657
BA	-9.59659
▁behaviors	-9.59711
ulation	-9.59739
ress	-9.59739
SP	-9.59804
▁distances	-9.5982
▁comprehensive	-9.59823
▁topology	-9.5983
rum	-9.59873
▁tumor	-9.59901
▁published	-9.60014
val	-9.60078
▁map	-9.60103
▁taxon	-9.60116
use	-9.60164
▁concept	-9.60208
▁hypothesized	-9.60226
cal	-9.6026
▁candidate	-9.60287
▁dive	-9.60288
▁enhanced	-9.60332
▁access	-9.60426
▁slightly	-9.60476
alis	-9.60486
▁drag	-9.60512
▁root	-9.60516
qui	-9.60558
atur	-9.60621
▁comparable	-9.6063
▁represented	-9.60649
▁hence	-9.60652
▁degradation	-9.60785
▁diseases	-9.608
▁2001).	-9.60922
▁(1)	-9.60925
PR	-9.6094
▁infer	-9.61057
sch	-9.611
▁half	-9.61134
ases	-9.612
▁para	-9.61245
ual	-9.61259
▁ligand	-9.61405
ving	-9.61498
▁influenced	-9.61536
▁capable	-9.61544
▁proliferation	-9.61717
▁introns	-9.6176
oll	-9.61862
▁relation	-9.61916
▁predators	-9.61929
▁epi	-9.61961
▁seasonal	-9.61989
atory	-9.62022
▁agreement	-9.6205
▁filter	-9.62069
▁Many	-9.62175
▁imp	-9.62179
east	-9.62318
▁providing	-9.62343
▁activated	-9.62359
▁eyes	-9.62371
▁downstream	-9.62385
▁assumption	-9.62389
▁axis	-9.62406
▁decreases	-9.62463
▁mediated	-9.62477
▁indeed	-9.62489
▁correspond	-9.6249
▁Ta	-9.62498
▁error	-9.62511
▁virus	-9.62545
▁mutant	-9.6267
▁final	-9.62813
▁significance	-9.62816
tus	-9.62835
▁experienced	-9.62837
▁consequences	-9.62888
▁pool	-9.62936
▁2013).	-9.63037
way	-9.63069
▁accuracy	-9.63211
▁nor	-9.63214
PP	-9.63322
▁existing	-9.63429
17	-9.63492
ood	-9.63503
▁drop	-9.63564
▁1996;	-9.63648
▁switch	-9.63648
RP	-9.6366
▁right	-9.63673
rel	-9.63732
▁causes	-9.63735
▁organization	-9.63798
▁characteristic	-9.63809
▁fundamental	-9.63847
▁extant	-9.63847
▁mol	-9.63884
▁idea	-9.63894
▁macro	-9.6393
▁rare	-9.63937
RNA	-9.63945
▁1996)	-9.64007
18	-9.64087
▁gas	-9.64111
▁representative	-9.64124
25	-9.64194
thy	-9.64436
▁elegans	-9.64447
▁1)	-9.6446
oss	-9.64484
▁respiratory	-9.64487
4,	-9.64516
SC	-9.6457
▁favor	-9.64607
▁break	-9.64645
▁application	-9.64665
▁niche	-9.64688
2-	-9.64699
rn	-9.64705
▁Lo	-9.64712
ology	-9.64717
▁allowing	-9.64732
cular	-9.64736
ote	-9.64858
▁until	-9.64905
▁manner	-9.65029
▁100	-9.6505
acc	-9.65078
mi	-9.65138
mol	-9.65178
▁theoretical	-9.65216
▁node	-9.65295
ock	-9.65312
▁parental	-9.65329
regulated	-9.65344
▁More	-9.65375
▁controlled	-9.6539
3)	-9.65458
▁mid	-9.65497
▁na	-9.65513
▁gradient	-9.65615
▁aim	-9.65695
▁acceleration	-9.65698
ny	-9.65749
▁insights	-9.65772
port	-9.65773
▁branches	-9.65799
▁mitochondria	-9.65827
rin	-9.65849
eri	-9.65859
▁aerobic	-9.6586
ogenesis	-9.65916
RF	-9.66001
▁equal	-9.66129
tho	-9.66182
▁contraction	-9.66263
▁Or	-9.66264
ridge	-9.66276
▁preference	-9.66561
▁skeletal	-9.66595
▁ammonia	-9.66595
din	-9.66614
▁ventral	-9.66636
▁interpretation	-9.66643
tz	-9.66793
tric	-9.66829
▁copy	-9.66855
▁eu	-9.66861
▁product	-9.66884
▁pulse	-9.66886
▁making	-9.66925
ero	-9.66973
su	-9.67041
CC	-9.67098
Ch	-9.67153
▁2004)	-9.67192
▁run	-9.67206
▁3).	-9.6726
▁pi	-9.67342
▁physiology	-9.67418
▁copies	-9.67418
▁Mc	-9.67468
▁achieved	-9.67535
▁authors	-9.67542
▁rec	-9.67568
▁documented	-9.67573
▁Bayesian	-9.67666
▁comparisons	-9.67729
▁jaw	-9.67762
▁discussed	-9.67769
▁profile	-9.67786
vent	-9.67839
▁rest	-9.67933
▁tendon	-9.67964
▁substrates	-9.68021
▁driven	-9.68025
omic	-9.6804
side	-9.68047
▁extension	-9.68081
▁insulin	-9.68106
▁occurring	-9.68321
▁translation	-9.68348
▁adults	-9.68351
▁acoustic	-9.68414
▁inhibit	-9.68438
fin	-9.68528
▁organs	-9.68547
▁plays	-9.68596
▁bat	-9.68628
bl	-9.68668
▁perhaps	-9.68707
▁variance	-9.68749
±	-9.68873
▁fat	-9.68892
bil	-9.68941
▁antioxidant	-9.6896
▁formed	-9.68978
▁occurrence	-9.69002
tt	-9.69063
▁exhibited	-9.6908
▁viruses	-9.69105
▁offer	-9.69146
radi	-9.69165
▁nearly	-9.69192
omorph	-9.69279
0].	-9.69293
▁itself	-9.69337
sta	-9.69347
▁depending	-9.69408
▁1,	-9.69455
▁measures	-9.69547
▁conclusion	-9.69676
ected	-9.6971
▁enough	-9.69765
▁haplotypes	-9.69773
OX	-9.69782
amine	-9.69803
▁mathematical	-9.69843
▁likelihood	-9.69878
▁myo	-9.69921
▁recorded	-9.69958
ek	-9.6996
AM	-9.69983
▁bind	-9.69988
▁involving	-9.70013
II	-9.70032
▁insight	-9.70045
▁highlight	-9.70064
▁supports	-9.70125
▁fly	-9.7013
▁basic	-9.70183
▁considerable	-9.70221
▁1994;	-9.70225
▁im	-9.70251
ped	-9.70373
species	-9.70373
▁fungi	-9.70392
▁explore	-9.70459
▁South	-9.70468
▁classification	-9.70491
ice	-9.70543
°	-9.70547
▁conflict	-9.70608
chrom	-9.70652
rp	-9.70729
▁remaining	-9.70739
▁kinematics	-9.70746
ll	-9.70849
EC	-9.70932
▁chromosomes	-9.70934
hydr	-9.71021
▁extracellular	-9.71039
▁Be	-9.71089
▁winter	-9.71091
▁calcium	-9.71121
ai	-9.71211
▁disc	-9.71211
trophic	-9.71222
▁review	-9.71241
▁2000).	-9.71258
▁continuous	-9.71305
19	-9.71333
dimensional	-9.7141
▁cycles	-9.71678
▁parts	-9.7171
▁pathogen	-9.71742
▁50	-9.71742
ull	-9.71803
▁go	-9.71825
▁parasites	-9.71972
▁white	-9.72003
▁1995;	-9.72026
▁comprise	-9.72073
nal	-9.72082
gon	-9.7219
▁Other	-9.72244
▁forward	-9.7232
▁European	-9.72477
▁Even	-9.72575
binding	-9.72601
▁clustering	-9.72758
▁chain	-9.72795
sensitive	-9.72857
▁accurate	-9.72867
▁living	-9.7287
▁acting	-9.7288
▁encode	-9.7288
ise	-9.72938
▁man	-9.72943
▁encoding	-9.72995
rac	-9.72999
tens	-9.73079
▁comparing	-9.73113
▁spectral	-9.73189
▁database	-9.73233
▁colony	-9.73304
over	-9.73327
▁Gr	-9.73347
oli	-9.73355
▁homo	-9.73369
▁Mi	-9.73414
▁forest	-9.73433
▁enter	-9.73456
quite	-9.73461
hel	-9.73465
▁zone	-9.73511
ya	-9.73591
▁spread	-9.73595
▁Gene	-9.73597
▁makes	-9.73617
▁Among	-9.73645
hen	-9.73664
IN	-9.737
▁noted	-9.7372
▁return	-9.73816
▁teleost	-9.7391
mers	-9.74015
▁season	-9.74025
1]	-9.74124
genic	-9.74179
▁channel	-9.74219
day	-9.74258
▁others	-9.74262
▁integrated	-9.74281
tru	-9.74438
▁mostly	-9.74467
▁cla	-9.74505
▁nerve	-9.7457
▁solution	-9.74583
▁NO	-9.74621
▁CD	-9.74649
▁intake	-9.74694
▁easily	-9.74789
▁widespread	-9.74833
▁altered	-9.74888
▁hind	-9.74958
morph	-9.74961
state	-9.75042
▁character	-9.75064
▁million	-9.75101
Co	-9.75126
▁dominant	-9.7519
cus	-9.752
▁allele	-9.7524
arc	-9.75325
▁tool	-9.75397
pl	-9.75405
PS	-9.75446
men	-9.7545
▁specificity	-9.75454
blast	-9.75638
38	-9.75691
▁testing	-9.75706
▁tools	-9.75716
▁shifts	-9.75729
comp	-9.7574
▁fall	-9.75971
mic	-9.76014
▁sampled	-9.76127
AS	-9.76143
CT	-9.76211
ko	-9.7631
▁kinetic	-9.76343
▁adapt	-9.76408
▁monophyletic	-9.76496
erv	-9.76524
▁shorter	-9.76528
▁[26]	-9.76543
▁fla	-9.76569
▁legs	-9.766
ns	-9.76695
Cl	-9.76793
CP	-9.76839
▁Wa	-9.7686
▁program	-9.76894
mark	-9.76923
▁top	-9.76941
▁hard	-9.77002
▁subset	-9.77024
tim	-9.77033
ning	-9.77043
wide	-9.77044
▁collected	-9.77059
▁40	-9.7708
▁scales	-9.77095
▁endo	-9.7716
▁partial	-9.77165
ification	-9.77184
TR	-9.77246
▁genetically	-9.77262
▁gait	-9.77314
▁genotype	-9.77346
ino	-9.77357
▁wings	-9.77384
zo	-9.77389
▁channels	-9.77441
▁understood	-9.77448
dis	-9.77459
sky	-9.77503
AC	-9.77509
▁array	-9.77725
▁%	-9.77738
▁conducted	-9.77793
▁regime	-9.77815
NA	-9.77867
▁connected	-9.77898
position	-9.77929
ule	-9.78065
mus	-9.78099
pr	-9.78117
▁note	-9.78154
nk	-9.78157
rain	-9.78235
cha	-9.78264
▁Bi	-9.78356
▁PO	-9.78378
cep	-9.78398
▁25	-9.78414
▁From	-9.7846
▁questions	-9.7851
▁rotation	-9.78513
▁resource	-9.78527
▁functionally	-9.78564
▁seven	-9.78572
ott	-9.78611
▁reducing	-9.78735
Ca	-9.78766
▁America	-9.78912
MP	-9.78949
bert	-9.78951
▁drift	-9.78967
▁outcome	-9.79014
table	-9.79021
lot	-9.79108
▁belong	-9.79134
▁regarding	-9.79165
▁ch	-9.79199
AD	-9.79218
▁communication	-9.79257
CR	-9.79334
▁insertion	-9.79343
▁PPI	-9.79357
▁Per	-9.79361
▁drive	-9.79387
fa	-9.79402
▁procedure	-9.79431
▁architecture	-9.79478
▁empirical	-9.79525
▁embryonic	-9.79528
▁polymorphism	-9.79564
▁opposite	-9.79571
▁trace	-9.79724
▁met	-9.79742
▁suppress	-9.79747
Ma	-9.79753
▁Two	-9.79759
▁MR	-9.79789
▁Rh	-9.79882
▁own	-9.79894
▁dark	-9.79947
iform	-9.79967
▁live	-9.79985
▁Atlantic	-9.79992
▁changing	-9.79992
▁route	-9.80093
lea	-9.8015
5)	-9.80175
berg	-9.80292
▁1993;	-9.80321
▁coral	-9.80387
▁extremely	-9.80433
▁variations	-9.80488
ez	-9.8063
time	-9.8064
▁pup	-9.80733
pin	-9.80737
can	-9.80762
▁foot	-9.80762
lum	-9.80774
▁lo	-9.80921
▁phylogenies	-9.80933
▁composed	-9.80934
▁tropical	-9.80985
cu	-9.81021
▁2003)	-9.81111
▁narrow	-9.81139
▁coupled	-9.81156
▁My	-9.81175
▁duplications	-9.81203
▁achieve	-9.81273
point	-9.81312
▁song	-9.81373
▁algorithms	-9.81394
▁outside	-9.81396
▁phenomenon	-9.81407
uk	-9.81416
▁simultaneously	-9.81451
▁recovery	-9.81573
inus	-9.81576
▁module	-9.81584
▁repeat	-9.81597
▁largest	-9.81607
hn	-9.81654
▁substitutions	-9.81758
▁face	-9.81759
▁simply	-9.81789
▁che	-9.81827
▁introduced	-9.81828
▁stiffness	-9.81844
▁Also	-9.8192
▁evaluate	-9.81941
▁correlate	-9.81942
ants	-9.81965
ever	-9.81997
▁Vi	-9.82028
▁list	-9.82082
water	-9.82095
▁ER	-9.82124
▁pressures	-9.82134
▁fluctuations	-9.8219
▁acute	-9.82222
mes	-9.82257
▁vocal	-9.82266
▁minimum	-9.82267
▁genotypes	-9.82278
1–	-9.82438
▁salmon	-9.82507
ja	-9.82536
▁directional	-9.82567
sum	-9.82686
▁exon	-9.82741
▁elastic	-9.82747
▁goal	-9.82755
▁mis	-9.82854
▁sense	-9.82915
▁1999).	-9.82982
yc	-9.8302
▁conversion	-9.83061
amb	-9.83063
DNA	-9.83071
▁black	-9.83141
ora	-9.83166
▁treatments	-9.83176
tr	-9.83235
▁sequenced	-9.83237
▁fibers	-9.8334
▁limits	-9.83454
emb	-9.83484
ble	-9.8367
int	-9.83736
▁constitute	-9.83739
▁reach	-9.83827
▁chi	-9.8384
);	-9.83852
len	-9.83855
▁severe	-9.83865
fr	-9.83973
▁juvenile	-9.8405
IS	-9.84051
▁examples	-9.84089
▁historical	-9.84153
regulation	-9.84188
▁improved	-9.84264
▁Tri	-9.84301
▁employed	-9.84321
RS	-9.84388
▁traditional	-9.84398
▁minimal	-9.84403
▁exercise	-9.84496
▁pathogens	-9.84502
▁cap	-9.8452
▁intrinsic	-9.84545
▁next	-9.84556
▁2012;	-9.84593
▁presumably	-9.84643
▁absent	-9.84692
ious	-9.84701
PC	-9.8483
▁undergo	-9.84872
loc	-9.84937
▁Consequently	-9.84938
▁double	-9.85087
▁adapted	-9.85129
▁onset	-9.85176
▁robustness	-9.8522
▁adaptations	-9.85236
▁give	-9.85281
ges	-9.85297
▁2012)	-9.85349
RE	-9.85395
MC	-9.85438
▁arm	-9.85507
▁3)	-9.8551
▁establish	-9.85584
▁comp	-9.85653
▁positively	-9.85661
▁thermo	-9.85678
▁2002)	-9.85726
▁systematic	-9.85744
▁Ka	-9.85753
RT	-9.85761
▁respiration	-9.85828
▁equivalent	-9.85829
▁units	-9.85851
rate	-9.85872
tar	-9.85943
▁rely	-9.85957
IR	-9.86012
▁affinity	-9.86027
▁cone	-9.86074
▁suitable	-9.86076
ik	-9.86094
▁peptide	-9.86117
3–	-9.86118
▁decision	-9.86276
▁segments	-9.86288
▁electron	-9.86361
▁hydro	-9.86375
za	-9.8638
▁portion	-9.86387
▁1:	-9.86474
LC	-9.86497
▁death	-9.86503
▁benefit	-9.86521
▁21	-9.86621
▁define	-9.86851
Le	-9.86879
▁semi	-9.86892
▁swim	-9.86945
try	-9.86948
▁north	-9.86964
arrow	-9.8699
▁beyond	-9.87027
▁edge	-9.87121
lay	-9.87134
▁viral	-9.87148
meric	-9.8717
▁fruit	-9.87178
ff	-9.87238
▁unit	-9.87259
▁distal	-9.87279
pul	-9.87286
car	-9.87309
phi	-9.874
▁separated	-9.87408
▁products	-9.87446
▁recognized	-9.87558
▁transcripts	-9.87766
▁center	-9.87796
▁calls	-9.87807
▁nutrient	-9.87812
▁mutants	-9.87921
▁repeated	-9.8796
ploid	-9.87998
2]	-9.88005
▁ten	-9.88028
▁poorly	-9.88059
▁add	-9.88064
ert	-9.88074
▁obvious	-9.88088
bin	-9.8817
▁colleagues	-9.8819
▁neo	-9.8823
▁determining	-9.88291
▁rat	-9.88342
unt	-9.8836
acclimated	-9.88393
▁varying	-9.88394
▁diverged	-9.88412
▁conspecific	-9.88415
▁haplo	-9.88476
▁implies	-9.88495
▁spring	-9.88527
▁Asia	-9.88562
com	-9.88628
▁cave	-9.88671
▁successful	-9.88671
trans	-9.8868
▁turtles	-9.88709
▁PR	-9.88711
IM	-9.8875
▁south	-9.88771
▁gut	-9.88876
▁nervous	-9.88904
▁affects	-9.88958
▁[32]	-9.88958
▁Recent	-9.88972
aria	-9.88976
▁involves	-9.88998
▁who	-9.8901
▁surrounding	-9.89012
▁polar	-9.89046
▁supporting	-9.89114
▁bound	-9.89122
▁hormone	-9.89214
odon	-9.89223
version	-9.89233
▁developing	-9.8928
cis	-9.89328
▁observe	-9.89345
▁task	-9.89375
tail	-9.89381
▁uni	-9.89383
▁steps	-9.89385
cle	-9.89411
▁training	-9.89418
rea	-9.89433
▁principle	-9.89521
ves	-9.89539
ture	-9.89625
▁fluxes	-9.89662
▁passive	-9.89664
▁bird	-9.89674
active	-9.89729
▁considering	-9.89749
▁predation	-9.90091
▁specimens	-9.90108
oper	-9.90112
rd	-9.90128
▁syn	-9.90184
oidea	-9.90188
pen	-9.90268
not	-9.90302
▁abundant	-9.90349
▁greatly	-9.90377
cycl	-9.90524
qua	-9.90534
▁her	-9.90584
▁carried	-9.90609
nu	-9.90635
▁circadian	-9.90661
▁melan	-9.90665
▁surprising	-9.90676
fl	-9.90695
pre	-9.90724
▁Similar	-9.9078
▁cm	-9.90787
▁becomes	-9.90817
▁description	-9.90817
▁apical	-9.90874
ATPase	-9.90921
▁CA	-9.91027
▁benefits	-9.91031
▁partially	-9.91153
▁necessarily	-9.91183
▁identifying	-9.91203
▁Alternatively	-9.91207
▁<	-9.91226
▁1990;	-9.91236
▁ant	-9.91237
▁195	-9.91268
▁combinations	-9.91271
az	-9.91302
▁representation	-9.91433
▁scaling	-9.91448
nn	-9.91596
ati	-9.91775
4]	-9.91817
zi	-9.9184
▁storage	-9.9192
▁except	-9.92066
methyl	-9.92099
▁Europe	-9.9211
0°	-9.92123
▁constraint	-9.92127
ces	-9.92142
▁remained	-9.9219
MS	-9.92238
▁encoded	-9.92288
icus	-9.92311
▁salt	-9.92377
▁ago	-9.92406
▁soil	-9.92461
▁loop	-9.92496
▁American	-9.92513
EP	-9.92554
▁Arabidopsis	-9.92555
▁homologous	-9.92659
▁diffusion	-9.92661
▁ROS	-9.92663
▁associations	-9.92688
▁locations	-9.92699
▁fungal	-9.92715
▁Mb	-9.92726
▁once	-9.92766
ink	-9.92832
▁maintaining	-9.92845
▁attack	-9.92876
that	-9.92912
functional	-9.92967
▁moving	-9.92996
wise	-9.93
▁identity	-9.93034
▁emergence	-9.93088
tan	-9.93116
▁frequent	-9.93216
Ro	-9.93239
▁wave	-9.9324
▁homolog	-9.93264
▁extinction	-9.93296
▁4).	-9.93298
▁favour	-9.93302
▁duplicated	-9.93315
▁substantially	-9.93323
▁problems	-9.93373
ency	-9.93392
▁plastid	-9.9341
▁appeared	-9.93422
ria	-9.93447
▁Par	-9.93479
associated	-9.93489
▁annotation	-9.93517
▁growing	-9.9353
▁cal	-9.93643
PA	-9.93666
▁producing	-9.93727
▁auditory	-9.93731
pers	-9.93894
▁consists	-9.9407
▁Cha	-9.94134
▁wind	-9.9418
▁optimization	-9.94216
▁subfamily	-9.94229
▁conclude	-9.94317
cc	-9.94331
▁New	-9.94443
▁objective	-9.94475
lid	-9.945
▁isoforms	-9.94637
FP	-9.9465
▁stroke	-9.94667
▁eight	-9.9468
▁regression	-9.94703
▁log	-9.9473
▁shell	-9.94795
▁trigger	-9.9484
▁wavelength	-9.94843
▁Sa	-9.94904
▁ortholog	-9.94999
▁select	-9.95004
▁exploit	-9.95084
▁attention	-9.95084
peak	-9.95098
rat	-9.95125
expression	-9.95189
▁ambient	-9.95193
▁replication	-9.95193
▁modulation	-9.95193
hl	-9.95266
icular	-9.95291
▁purpose	-9.95302
▁correlations	-9.95329
gy	-9.95342
NP	-9.9535
sc	-9.95411
▁modified	-9.95411
bit	-9.95415
0.05	-9.95433
▁limitation	-9.95518
▁read	-9.95525
▁Pleistocene	-9.95604
▁create	-9.95632
▁Si	-9.95646
ski	-9.9568
▁warm	-9.9571
▁resting	-9.95724
▁incomplete	-9.9574
med	-9.9574
mel	-9.95788
▁successfully	-9.95839
aging	-9.95865
▁simulated	-9.95979
emp	-9.96007
▁survive	-9.96014
▁every	-9.96016
▁ranges	-9.96038
▁GC	-9.9617
▁marker	-9.9623
▁[2,	-9.96248
▁implications	-9.9632
▁fatty	-9.96364
col	-9.96395
▁activate	-9.96399
▁1992;	-9.964
▁construct	-9.96406
▁division	-9.96455
27	-9.96461
9]	-9.96482
▁TF	-9.96493
▁demand	-9.96513
TP	-9.96601
▁2008)	-9.96715
▁acquired	-9.96725
▁burst	-9.96732
gan	-9.96754
▁1991;	-9.96842
▁placed	-9.96848
DA	-9.96853
▁climatic	-9.96898
▁regulating	-9.96898
▁transient	-9.96898
▁reverse	-9.969
▁diameter	-9.97009
hu	-9.97072
▁modern	-9.97074
▁poor	-9.97106
▁lengths	-9.97135
▁elevation	-9.97158
OD	-9.97163
▁nm	-9.97209
5°	-9.97237
▁peripheral	-9.97287
▁tip	-9.97288
▁[2].	-9.97293
CS	-9.97337
▁absolute	-9.97343
▁[34]	-9.97345
▁transcript	-9.97396
with	-9.97423
▁spin	-9.97423
▁vision	-9.97456
▁[35]	-9.97457
▁colon	-9.97488
SS	-9.97499
iti	-9.97503
MA	-9.97562
▁mal	-9.97618
inter	-9.9762
▁beneficial	-9.97622
pur	-9.97677
▁Cor	-9.9769
osome	-9.97724
pper	-9.97755
▁biosynthesis	-9.97789
mut	-9.97823
▁cerevisiae	-9.97845
▁hypo	-9.97854
onic	-9.98066
8]	-9.98092
▁artificial	-9.98126
▁salinity	-9.98126
▁ST	-9.98127
▁colonies	-9.98144
▁ratios	-9.98155
3]	-9.98171
lia	-9.98208
▁feed	-9.98219
▁hold	-9.98384
▁dose	-9.98422
▁special	-9.98424
▁[3,	-9.98464
▁paralogs	-9.98532
▁percentage	-9.98576
▁express	-9.9858
▁avian	-9.98583
ines	-9.98613
gal	-9.98679
▁ocean	-9.9869
▁miRNA	-9.98694
▁demographic	-9.98746
▁upstream	-9.98809
▁apoptosis	-9.98915
▁moderate	-9.9898
▁2007)	-9.98998
>	-9.99016
▁introgression	-9.99028
pec	-9.9905
7]	-9.99055
▁2001)	-9.99055
van	-9.99062
▁1998).	-9.99104
▁attributed	-9.99131
▁representing	-9.99156
▁lab	-9.99173
▁shallow	-9.99199
ale	-9.9923
▁acquisition	-9.99255
▁mutual	-9.99256
36	-9.99256
▁mouth	-9.99266
▁boundary	-9.99278
cellular	-9.99282
ural	-9.99294
GC	-9.99301
ivity	-9.99302
▁evident	-9.99369
▁intestinal	-9.99369
▁exceed	-9.9937
▁vs	-9.99407
▁ML	-9.99419
nic	-9.99427
▁MC	-9.99437
ogen	-9.99467
▁requirements	-9.99505
ki	-9.99527
▁feather	-9.99597
▁newly	-9.99607
▁evolving	-9.99639
▁stronger	-9.99683
▁driving	-9.99711
▁detail	-9.99767
▁phylogeographic	-9.99768
ane	-9.99816
▁supply	-9.99825
lip	-9.99866
▁medium	-9.99883
late	-9.99901
ano	-10.0002
▁Of	-10.0015
▁[1]	-10.0017
▁Sea	-10.0019
▁exists	-10.0033
▁curve	-10.0034
▁excess	-10.0034
▁contained	-10.004
pel	-10.0045
26	-10.0053
▁tract	-10.0055
▁metazoan	-10.0057
▁reasons	-10.0065
▁analyze	-10.007
▁actually	-10.0082
▁loading	-10.0087
▁seawater	-10.0088
▁characterize	-10.0089
▁Col	-10.009
▁fold	-10.0093
▁western	-10.0098
▁proto	-10.01
▁subunits	-10.0101
▁[3].	-10.0102
▁toward	-10.0102
▁parent	-10.0102
2%	-10.0107
▁geographical	-10.0108
▁discovery	-10.0109
lat	-10.0114
▁microsatellite	-10.0115
▁immunity	-10.0121
▁TR	-10.0123
▁actual	-10.0127
▁East	-10.0138
▁considerably	-10.014
▁defense	-10.0144
▁lizards	-10.0144
58	-10.0146
▁iron	-10.0147
▁metabolite	-10.0149
▁absorption	-10.0155
▁After	-10.0167
lock	-10.0168
▁young	-10.017
▁effort	-10.0173
▁decreasing	-10.0173
▁chemo	-10.018
34	-10.0186
▁cover	-10.0188
▁proximal	-10.019
▁reliable	-10.0192
▁Bl	-10.0196
▁cilia	-10.0209
▁follow	-10.021
▁microarray	-10.0214
▁MS	-10.0221
▁involve	-10.0224
chy	-10.0227
uth	-10.0232
6]	-10.0232
▁colonization	-10.0239
▁trend	-10.0241
▁gland	-10.0246
branch	-10.0247
ani	-10.0248
▁elucidate	-10.0249
▁quantify	-10.0249
▁[10]	-10.025
▁year	-10.0256
▁databases	-10.0262
▁discrimination	-10.0267
rk	-10.0268
▁inhabit	-10.0272
▁islands	-10.0282
▁eastern	-10.0284
DH	-10.0287
▁edges	-10.0291
▁immuno	-10.0293
uck	-10.0294
tract	-10.0299
▁splicing	-10.0302
▁hybrids	-10.0305
pol	-10.0309
▁apparently	-10.0311
▁[36]	-10.032
5]	-10.0329
IC	-10.0329
▁coefficient	-10.0336
fo	-10.0341
▁mm	-10.0347
▁issue	-10.0349
▁domestic	-10.0358
▁1989;	-10.0373
▁hearing	-10.0373
SE	-10.0376
▁oscillations	-10.0379
del	-10.0381
ites	-10.0381
▁recovered	-10.0384
ech	-10.0387
▁count	-10.0388
▁Under	-10.0391
PT	-10.0396
▁thin	-10.041
▁2000)	-10.0411
▁plan	-10.0411
▁again	-10.0416
▁Su	-10.0418
▁germ	-10.0424
zy	-10.0427
▁project	-10.043
▁separation	-10.0432
▁fusion	-10.0433
▁drugs	-10.0434
▁miRNAs	-10.0435
▁amounts	-10.0436
ophil	-10.044
don	-10.0441
▁limitations	-10.0448
24	-10.0455
▁details	-10.0455
▁attract	-10.0456
▁kind	-10.0459
▁modifications	-10.0467
ius	-10.0473
ons	-10.048
▁technique	-10.0481
23	-10.0489
era	-10.0508
▁[9]	-10.0509
▁[4].	-10.0518
▁compartment	-10.0519
▁fibres	-10.0522
▁snakes	-10.0523
▁measurement	-10.0527
▁phases	-10.0528
pon	-10.0533
▁away	-10.0539
du	-10.0545
▁According	-10.0546
▁zero	-10.0547
▁exclusively	-10.0547
▁PC	-10.0551
▁silk	-10.0553
dr	-10.0556
▁connect	-10.0557
▁excretion	-10.0565
▁stretch	-10.0565
nate	-10.0567
▁cur	-10.0569
illa	-10.0572
▁subsequently	-10.0575
▁heterogeneity	-10.0577
▁Str	-10.0583
6)	-10.0586
22	-10.0587
▁perturbations	-10.0591
▁[6,	-10.0592
▁induction	-10.0592
spir	-10.0593
HT	-10.0603
▁workers	-10.0608
genetic	-10.0609
▁III	-10.061
▁Pe	-10.061
▁subunit	-10.0615
▁differentially	-10.0615
logical	-10.0618
▁Ko	-10.0619
▁reflects	-10.0619
▁released	-10.0625
▁invertebrates	-10.0631
▁burrow	-10.0638
ulus	-10.0642
▁Compar	-10.0642
▁Recently	-10.0642
rop	-10.0645
▁2,	-10.0648
▁sounds	-10.0648
uri	-10.0655
▁similarities	-10.0658
▁22	-10.0659
▁pigment	-10.066
▁interpreted	-10.0663
CL	-10.0668
OR	-10.067
cur	-10.0683
biotic	-10.0683
▁[4,	-10.0683
▁analysed	-10.0684
▁jump	-10.069
▁pass	-10.069
▁[8]	-10.0696
▁originated	-10.0697
▁Cr	-10.0697
▁ways	-10.0699
▁HGT	-10.07
▁[9].	-10.07
▁precise	-10.0705
▁striking	-10.0705
MT	-10.0707
▁mortality	-10.0711
▁web	-10.0714
▁dietary	-10.0717
unc	-10.072
▁[5].	-10.072
▁counter	-10.0729
▁[12].	-10.0732
ulate	-10.0732
▁trials	-10.0733
▁modelling	-10.0737
▁[7].	-10.0739
▁ring	-10.074
▁specialized	-10.0744
▁community	-10.0748
ttle	-10.0749
osis	-10.0749
light	-10.0752
▁complement	-10.0752
FA	-10.0757
▁conclusions	-10.076
▁kg	-10.0763
oides	-10.0763
elli	-10.0767
▁[13]	-10.0776
ivo	-10.0778
▁primates	-10.078
▁precursor	-10.0785
▁preparation	-10.0785
value	-10.0787
hatch	-10.0791
▁equations	-10.0795
ecto	-10.0796
▁molecule	-10.0803
▁[37]	-10.0804
▁plane	-10.0806
▁rats	-10.0808
▁GO	-10.0813
▁adjacent	-10.0816
▁[6].	-10.0821
99	-10.0822
▁frame	-10.0822
▁slope	-10.0823
▁Overall	-10.0823
+/	-10.0825
▁2013;	-10.0827
=1	-10.0829
3%	-10.0846
▁native	-10.0847
▁connectivity	-10.0854
▁resolve	-10.0857
▁chloroplast	-10.086
▁added	-10.0865
▁perspective	-10.0866
▁dimension	-10.0868
▁indirect	-10.0871
▁homeostasis	-10.0872
▁[38]	-10.0872
▁peptides	-10.0874
▁enriched	-10.0878
▁apply	-10.0883
33	-10.0884
AG	-10.0887
key	-10.0892
worm	-10.0896
dam	-10.0897
pine	-10.0902
▁code	-10.0904
37	-10.0905
▁designed	-10.0909
▁image	-10.091
▁rDNA	-10.0912
▁[7,	-10.0912
PK	-10.0913
mar	-10.0924
▁[5,	-10.0928
toxin	-10.0931
▁brood	-10.0935
▁haplotype	-10.0935
▁sym	-10.0935
▁mmol	-10.0936
)(	-10.0938
4%	-10.094
population	-10.0941
cephal	-10.0944
▁embryo	-10.0944
▁Do	-10.0946
▁Eu	-10.0947
▁generating	-10.0949
▁qualitative	-10.0954
gel	-10.0959
▁extra	-10.0964
section	-10.0964
▁ne	-10.0965
▁intact	-10.0967
=0	-10.0969
▁former	-10.0972
▁rainbow	-10.0973
▁know	-10.0974
75	-10.0977
▁follows	-10.0978
▁respective	-10.0978
ook	-10.0979
▁needs	-10.0984
▁depression	-10.0988
flow	-10.0993
▁explored	-10.0995
▁varies	-10.0998
▁endogenous	-10.101
▁spectrum	-10.101
ux	-10.1011
▁label	-10.1011
lis	-10.1012
▁generations	-10.1014
32	-10.1014
▁regulators	-10.1017
▁regard	-10.1017
▁Within	-10.1017
emi	-10.1019
▁hair	-10.1029
▁arrangement	-10.1029
▁inside	-10.1033
▁[12]	-10.1034
▁surfaces	-10.1039
▁[11]	-10.104
EA	-10.1041
▁chronic	-10.1042
5,	-10.1046
▁Specifically	-10.1049
▁queen	-10.1049
▁du	-10.106
▁odour	-10.1061
▁biomass	-10.1062
▁2009)	-10.1063
▁CR	-10.1067
▁compensate	-10.1068
cr	-10.1068
▁modulate	-10.1072
▁setting	-10.1073
▁GS	-10.1074
▁barriers	-10.1083
▁sum	-10.1087
▁exert	-10.109
▁localization	-10.1092
▁pan	-10.1093
▁synthetic	-10.1093
plant	-10.1098
▁demands	-10.1099
▁plate	-10.1109
▁affecting	-10.111
NO	-10.1114
row	-10.1114
▁reached	-10.112
▁diploid	-10.1121
fu	-10.1124
▁slower	-10.1128
own	-10.1131
metabol	-10.1138
▁2006)	-10.1138
▁enable	-10.1139
▁constrained	-10.114
▁too	-10.1142
▁prim	-10.1143
▁nitrogen	-10.1144
1%	-10.1146
▁[10].	-10.115
TA	-10.1151
▁hi	-10.1151
▁middle	-10.1157
▁1990)	-10.1164
crit	-10.1168
▁[39]	-10.117
▁river	-10.117
▁collect	-10.1171
PO	-10.1172
▁terminal	-10.1176
ham	-10.1177
▁1997).	-10.1178
▁[9,	-10.1179
▁subspecies	-10.1182
ope	-10.1194
▁done	-10.1194
ck	-10.1198
pri	-10.1201
▁constructed	-10.1205
▁ecology	-10.1215
▁vir	-10.1216
▁effectively	-10.122
ogenic	-10.1225
▁transitions	-10.1227
▁fed	-10.1227
▁manipulation	-10.1228
▁1988;	-10.1235
▁mixture	-10.1235
▁temperate	-10.1235
▁fewer	-10.1238
▁initially	-10.124
back	-10.1241
7%	-10.1242
▁employ	-10.1245
uro	-10.1245
▁teleosts	-10.1247
8%	-10.1248
▁[8].	-10.1258
▁clinical	-10.1273
▁missing	-10.1275
▁unpublished	-10.1281
▁neuronal	-10.1281
▁transduction	-10.1281
▁retro	-10.1283
▁orthologs	-10.1284
▁definition	-10.1286
0–	-10.1287
6%	-10.1289
▁leaf	-10.1293
▁fine	-10.1296
▁column	-10.13
▁But	-10.1308
▁older	-10.1313
▁similarly	-10.1316
▁chromosomal	-10.1319
▁>	-10.1321
ight	-10.1321
▁Hz	-10.1321
▁op	-10.1322
▁cichlid	-10.1326
▁[6]	-10.1328
▁PS	-10.133
▁dolphin	-10.1332
▁learn	-10.1338
axis	-10.1341
hol	-10.1342
▁kinetics	-10.1344
▁(3)	-10.1349
▁minor	-10.1354
imp	-10.1355
▁initiation	-10.1358
press	-10.1359
▁ear	-10.1364
▁discrete	-10.1365
well	-10.1367
▁sugar	-10.1371
▁0.1	-10.1376
▁PI	-10.1382
▁virulence	-10.1385
▁statistically	-10.1386
▁false	-10.1398
genes	-10.14
▁never	-10.1402
▁rank	-10.1405
PI	-10.1411
▁PA	-10.1414
▁diving	-10.1414
▁deviation	-10.1418
▁patients	-10.1422
▁2013)	-10.1427
35	-10.1427
▁Instead	-10.1431
▁mature	-10.1431
▁FA	-10.1433
▁[5]	-10.1436
▁closer	-10.1436
▁intervals	-10.1437
▁[11].	-10.1439
ker	-10.1442
ough	-10.1443
63	-10.1449
exp	-10.1452
▁MT	-10.1455
range	-10.1458
ui	-10.1459
▁retina	-10.1463
▁equation	-10.1466
▁consensus	-10.147
▁[16]	-10.1474
▁reasonable	-10.1476
▁Wolbachia	-10.1477
▁cascade	-10.1477
▁varied	-10.1478
▁2010)	-10.1483
grad	-10.1484
▁Da	-10.1487
▁collection	-10.1499
▁Bar	-10.1503
▁lift	-10.1504
▁flexibility	-10.151
eck	-10.151
▁adopt	-10.1511
▁mito	-10.1517
▁subfamilies	-10.1517
500	-10.1525
▁[10,	-10.1525
ode	-10.1529
pan	-10.1529
bra	-10.153
▁[13].	-10.1533
▁carbohydrate	-10.1537
▁algae	-10.1538
▁corresponds	-10.1538
▁dry	-10.1542
▁mechanistic	-10.1544
▁scenarios	-10.1544
▁And	-10.1549
▁0.5	-10.1549
▁deleterious	-10.155
▁disrupt	-10.1552
▁signature	-10.1555
▁ranging	-10.1557
yan	-10.1559
▁[3]	-10.1566
▁2008),	-10.1569
▁software	-10.157
▁mixed	-10.1571
▁rhythm	-10.1578
sphere	-10.1579
▁[7]	-10.158
▁studying	-10.1582
tch	-10.1584
▁exact	-10.1592
▁reflected	-10.1601
rio	-10.1602
▁encounter	-10.1602
ith	-10.1605
Pa	-10.1605
▁exons	-10.1606
ras	-10.1607
▁unusual	-10.1611
▁assay	-10.1612
▁night	-10.1612
▁modes	-10.1614
▁sleep	-10.1617
IT	-10.1621
▁fixation	-10.1624
31	-10.1626
▁height	-10.1632
▁implicated	-10.1637
▁survey	-10.1637
je	-10.1641
▁infected	-10.1642
▁expenditure	-10.1644
▁challenges	-10.1645
arch	-10.1647
▁regular	-10.1651
5–	-10.1653
throughput	-10.1656
▁sand	-10.1658
▁solve	-10.166
▁[8,	-10.1661
▁equilibrium	-10.1662
▁lacking	-10.1662
▁demonstrates	-10.1664
▁sac	-10.1665
top	-10.1673
▁agent	-10.1676
▁modification	-10.1679
nes	-10.1679
▁CH	-10.168
▁Ph	-10.1683
▁discovered	-10.1684
▁[18]	-10.1688
▁tit	-10.169
▁reduces	-10.1693
▁band	-10.1697
▁Cal	-10.1701
ft	-10.1701
mid	-10.1701
▁stride	-10.1703
▁mapping	-10.1712
▁unable	-10.1713
▁influences	-10.1723
tell	-10.1728
▁interpret	-10.173
▁investigations	-10.173
offs	-10.1732
▁changed	-10.1732
ade	-10.1734
▁consistently	-10.1739
cot	-10.1741
▁mediate	-10.1741
▁look	-10.1744
LR	-10.1745
▁assembly	-10.1746
▁classical	-10.175
▁controlling	-10.1754
39	-10.1756
▁China	-10.1758
▁origins	-10.1766
▁tube	-10.1767
▁TE	-10.177
vin	-10.1775
▁glacial	-10.1776
▁landscape	-10.178
PCR	-10.178
▁Kr	-10.1782
rod	-10.1782
ago	-10.1785
▁prolonged	-10.1787
right	-10.1793
▁themselves	-10.1794
▁contributed	-10.1794
▁grow	-10.1798
atter	-10.1799
▁silico	-10.1808
▁bp	-10.1809
pping	-10.1815
▁orient	-10.1817
▁member	-10.1817
92	-10.182
▁opportunity	-10.1821
56	-10.1824
Br	-10.1828
▁repair	-10.1832
▁[2]	-10.1833
uture	-10.1833
▁nucleus	-10.1835
▁tandem	-10.1842
▁hindlimb	-10.1842
65	-10.1842
ulin	-10.1851
ET	-10.1851
graph	-10.1853
▁confidence	-10.1856
▁Note	-10.1859
▁1999)	-10.1863
idi	-10.1864
▁[41]	-10.1876
▁SC	-10.188
▁shed	-10.1881
odes	-10.1881
oni	-10.1882
▁2009),	-10.1889
▁principal	-10.189
▁summary	-10.189
▁fo	-10.1896
▁flying	-10.1908
▁[14]	-10.1913
▁TFs	-10.192
▁user	-10.192
▁interval	-10.1923
itz	-10.1923
▁seals	-10.1926
▁[15]	-10.1927
▁interface	-10.1932
▁odor	-10.1933
head	-10.1934
▁5-	-10.1936
▁carotenoid	-10.1939
▁interspecific	-10.1939
▁object	-10.1941
▁Pla	-10.1941
▁kidney	-10.1946
▁monophyly	-10.1952
▁peri	-10.1964
▁chicken	-10.1965
PD	-10.1969
ola	-10.197
▁ad	-10.1973
absorb	-10.1973
▁1989)	-10.1973
▁SO	-10.1973
47	-10.1975
app	-10.1976
▁accurately	-10.1978
free	-10.1983
order	-10.1985
▁28	-10.1988
▁High	-10.1989
receptor	-10.1993
▁transcriptome	-10.2003
▁errors	-10.2006
▁El	-10.2006
▁reject	-10.2009
▁magnetic	-10.2018
▁proportional	-10.202
21	-10.2021
▁assessed	-10.2034
▁evaluated	-10.2035
data	-10.2035
network	-10.2036
trained	-10.2045
▁[18].	-10.2048
▁hydrodynamic	-10.205
Sch	-10.2059
wing	-10.206
29	-10.2064
▁[4]	-10.207
cardi	-10.207
▁expanded	-10.207
▁[40]	-10.207
▁miR	-10.2072
▁intraspecific	-10.2072
1/	-10.2079
ometric	-10.208
▁2007),	-10.208
▁progression	-10.2083
▁controls	-10.2085
▁interacting	-10.2088
▁situ	-10.2095
▁mar	-10.2096
▁retained	-10.2096
SR	-10.2098
▁calculation	-10.2107
▁intestine	-10.2107
met	-10.2108
▁5).	-10.2112
iz	-10.2115
▁score	-10.2115
▁jet	-10.2118
▁orthologous	-10.2125
LP	-10.2127
▁[17]	-10.2136
▁[17].	-10.2141
▁1985;	-10.2142
▁ITS	-10.2142
▁predicts	-10.2144
▁displacement	-10.2149
▁microbial	-10.2149
which	-10.2151
▁illustrate	-10.2152
▁Mediterranean	-10.2156
▁signatures	-10.2158
▁[15].	-10.2161
ophore	-10.2162
▁home	-10.2162
▁magn	-10.2167
▁transporters	-10.2172
▁nutritional	-10.2174
optera	-10.2177
▁quickly	-10.2177
▁frogs	-10.2185
phil	-10.2186
win	-10.22
▁stop	-10.22
▁opening	-10.221
▁classified	-10.2216
▁ideal	-10.2219
▁Micro	-10.2221
ami	-10.2221
▁60	-10.2221
genome	-10.2222
▁span	-10.2224
▁negatively	-10.2232
▁namely	-10.2233
▁arch	-10.224
▁[16].	-10.2245
▁[42]	-10.2247
▁refer	-10.2248
▁pronounced	-10.2249
▁forelimb	-10.2249
▁restriction	-10.225
leg	-10.2255
▁compound	-10.2263
▁particle	-10.2263
▁powerful	-10.2267
▁[14].	-10.2268
▁protocol	-10.2271
▁endemic	-10.2278
set	-10.2283
▁transferred	-10.2283
▁2015).	-10.2285
▁ensure	-10.2285
▁particles	-10.2285
▁resolved	-10.2286
tional	-10.229
▁spec	-10.2294
▁urea	-10.2296
▁sometimes	-10.23
static	-10.23
▁limiting	-10.2301
CD	-10.2302
▁dependence	-10.2304
▁reports	-10.2306
▁daily	-10.2307
▁Bra	-10.231
factor	-10.2311
ML	-10.2312
▁assumptions	-10.2313
▁acts	-10.2319
▁[19]	-10.232
▁mentioned	-10.2321
▁neither	-10.2322
▁Am	-10.2325
▁NF	-10.2326
▁homologs	-10.233
▁aphid	-10.2331
ada	-10.2335
▁synonymous	-10.2338
▁River	-10.2338
▁reveals	-10.2338
64	-10.234
xi	-10.2348
▁gills	-10.2348
▁epithelial	-10.2353
▁speculate	-10.2358
54	-10.2359
▁Pre	-10.2359
lab	-10.2362
▁expand	-10.2365
▁Wnt	-10.2366
activation	-10.2369
▁travel	-10.2379
load	-10.2387
28	-10.2395
▁innate	-10.2396
▁onto	-10.2398
sulf	-10.24
▁failure	-10.2401
▁[13,	-10.2401
rist	-10.242
▁IL	-10.2437
▁inbreeding	-10.2442
▁Phy	-10.2443
▁plausible	-10.2444
▁proper	-10.2447
▁pure	-10.2448
▁[20].	-10.2448
▁consideration	-10.245
ibility	-10.2452
▁shortening	-10.2452
peptid	-10.2452
▁AS	-10.2459
▁adhesion	-10.2459
▁convert	-10.2462
57	-10.247
▁Ga	-10.247
▁barrier	-10.2471
▁belonging	-10.2471
▁thrust	-10.2474
▁smooth	-10.2474
▁Can	-10.2485
PG	-10.2493
▁uniform	-10.2496
▁topological	-10.2498
derived	-10.2503
▁Central	-10.2503
▁inner	-10.2508
lam	-10.251
▁asymmetric	-10.2518
▁causing	-10.2518
▁protect	-10.2518
▁injection	-10.2525
bel	-10.2526
▁consume	-10.2529
▁circuit	-10.2531
▁MA	-10.2531
▁epithelium	-10.2532
▁continue	-10.2534
48	-10.2535
field	-10.2539
vert	-10.254
jo	-10.2545
▁muc	-10.2549
▁inhibitor	-10.2549
▁persist	-10.2549
▁enrichment	-10.2555
▁sympatric	-10.2555
▁aspect	-10.2561
▁[11,	-10.2563
▁match	-10.2564
▁summer	-10.258
▁4)	-10.2591
▁snails	-10.2596
gue	-10.2597
▁sediment	-10.2599
test	-10.26
rip	-10.2606
▁treated	-10.2608
▁actin	-10.261
▁anatomical	-10.2614
▁hypoxic	-10.2614
▁AD	-10.2617
Mo	-10.2618
▁[22]	-10.2621
▁old	-10.2623
ju	-10.2623
▁[43]	-10.2624
duct	-10.2624
▁preferences	-10.2629
▁1987;	-10.2629
▁vortex	-10.2629
synaptic	-10.2629
▁keep	-10.2629
most	-10.263
cro	-10.2632
▁homology	-10.264
▁anaerobic	-10.2644
▁repress	-10.2645
▁stance	-10.2647
▁his	-10.2649
chemical	-10.2651
non	-10.2654
granul	-10.267
globin	-10.2674
▁actively	-10.2674
west	-10.2678
▁referred	-10.2683
▁spiders	-10.2683
▁connections	-10.2686
pus	-10.2692
▁(19	-10.2693
100	-10.2697
▁uses	-10.2709
▁marked	-10.271
flex	-10.2712
▁rRNA	-10.2714
▁2005)	-10.2718
▁1988)	-10.2719
▁[12,	-10.2719
SD	-10.272
▁agree	-10.2723
▁[22].	-10.2726
▁velocities	-10.2726
▁Mal	-10.2736
▁[20]	-10.2737
▁removal	-10.2741
▁Cu	-10.2743
▁targeted	-10.2744
▁rodents	-10.2746
AA	-10.2748
96	-10.275
▁predominantly	-10.2752
67	-10.2753
▁uncertainty	-10.2757
thal	-10.2759
▁emerge	-10.2759
▁2010),	-10.2759
▁par	-10.276
odi	-10.2769
▁linkage	-10.2769
▁biogeographic	-10.2771
%	-10.2773
DS	-10.278
▁Sc	-10.2782
42	-10.2783
Na	-10.2786
▁bootstrap	-10.2794
▁1998)	-10.2799
▁lactate	-10.2801
shi	-10.2811
▁cortisol	-10.2817
▁pollen	-10.2817
▁[19].	-10.2817
emia	-10.2818
BC	-10.2819
0.00	-10.2826
An	-10.2828
▁attachment	-10.2833
▁[44]	-10.2839
▁23	-10.2843
▁differs	-10.2844
▁1983;	-10.2847
▁[21].	-10.2847
▁assigned	-10.2856
ena	-10.2856
▁Ste	-10.2857
▁yellow	-10.2862
▁efforts	-10.2862
▁reconstruct	-10.2863
▁perturbation	-10.2868
such	-10.2871
▁photoreceptors	-10.2876
▁[21]	-10.2877
▁hy	-10.2878
Al	-10.2887
comb	-10.2889
▁displayed	-10.2889
▁concern	-10.2891
▁splice	-10.2896
▁cyto	-10.2899
▁26	-10.2899
▁extensively	-10.2905
▁investment	-10.291
95	-10.2918
BI	-10.2918
▁confer	-10.2919
cher	-10.292
lli	-10.2921
▁repeats	-10.2921
▁ultimately	-10.2922
▁shark	-10.2923
▁applications	-10.2928
▁fate	-10.293
▁raise	-10.2934
▁isolates	-10.2935
lop	-10.2938
▁neighbor	-10.2939
▁version	-10.2943
▁build	-10.2945
▁assessment	-10.295
AL	-10.2951
▁valuable	-10.2954
▁osmo	-10.2955
▁sun	-10.2962
▁dives	-10.2963
▁PD	-10.2964
▁col	-10.2969
▁methylation	-10.297
▁fins	-10.2975
▁coupling	-10.2977
aster	-10.2978
▁flat	-10.298
LS	-10.2984
stat	-10.2993
▁chosen	-10.2999
▁regulator	-10.2999
▁starting	-10.3009
▁Mor	-10.301
▁posture	-10.3013
anus	-10.3015
bacteria	-10.3016
DR	-10.3017
▁tRNA	-10.3023
▁2009	-10.3024
mate	-10.3033
Williams	-10.3039
▁addressed	-10.3042
▁divided	-10.3047
▁unexpected	-10.3047
EM	-10.3058
▁island	-10.306
AMP	-10.307
▁stores	-10.3075
▁1984;	-10.3078
▁immediately	-10.3079
▁metal	-10.3085
▁decade	-10.3086
tolerant	-10.3092
▁purifying	-10.3101
▁2006),	-10.3101
▁care	-10.3102
▁catalytic	-10.3109
▁heterogeneous	-10.3109
7)	-10.3114
▁membranes	-10.3117
race	-10.3117
▁retain	-10.3121
obacter	-10.3123
ret	-10.3123
▁Para	-10.3124
▁integrate	-10.3128
▁Lake	-10.313
cker	-10.3132
▁oscillator	-10.3132
▁nematodes	-10.3134
▁cryptic	-10.3146
▁lip	-10.3146
dri	-10.3146
▁remarkable	-10.3148
▁scheme	-10.3148
▁discuss	-10.315
▁appearance	-10.3156
▁overlapping	-10.3156
ono	-10.3156
aker	-10.3162
▁torpor	-10.3164
▁researchers	-10.3167
fusion	-10.317
▁cuticle	-10.3172
iformes	-10.3175
raw	-10.3176
▁relate	-10.3177
▁bodies	-10.318
▁flexible	-10.318
aba	-10.318
▁van	-10.3182
▁[45]	-10.3185
OM	-10.3186
▁Ber	-10.3188
war	-10.3191
att	-10.3194
▁Only	-10.3195
▁repertoire	-10.3195
▁scope	-10.3196
▁takes	-10.3201
▁orders	-10.3201
We	-10.3201
▁sign	-10.3201
▁defect	-10.3204
cut	-10.3211
▁phospho	-10.3212
▁defence	-10.3219
DP	-10.322
▁Mac	-10.3222
▁contributes	-10.3226
▁hypothesize	-10.3231
▁turnover	-10.3237
plast	-10.3237
ext	-10.3247
St	-10.3248
▁bending	-10.3251
▁removed	-10.3259
▁Dis	-10.326
rh	-10.3262
▁advance	-10.3263
▁produces	-10.3265
▁world	-10.3266
▁weeks	-10.3267
▁Yet	-10.3271
bar	-10.3277
-4	-10.3288
▁determination	-10.3298
▁fields	-10.33
▁criteria	-10.3306
▁readily	-10.3306
▁1987)	-10.3306
BS	-10.3311
▁IGF	-10.3314
▁improvement	-10.3316
domain	-10.3316
▁specialization	-10.3317
rag	-10.3321
▁elephant	-10.3322
▁created	-10.3323
▁usage	-10.3324
ira	-10.3326
dh	-10.333
▁became	-10.333
▁amphibian	-10.3338
▁investigating	-10.3346
▁extract	-10.3349
▁thread	-10.3354
▁directed	-10.3355
▁operate	-10.3358
▁Pri	-10.3359
▁migratory	-10.3362
▁gradients	-10.3362
lit	-10.3366
▁rh	-10.3366
▁house	-10.337
▁preferred	-10.3371
▁Asian	-10.3375
▁rich	-10.3377
▁monitor	-10.3378
EN	-10.338
▁Data	-10.3382
45	-10.3393
▁wake	-10.3394
opo	-10.3394
▁imply	-10.3397
PL	-10.3398
ett	-10.3402
▁leaves	-10.3404
▁differentiated	-10.3404
▁communities	-10.341
▁2011)	-10.3411
▁arthropods	-10.3412
▁isoform	-10.3413
▁distant	-10.3418
enberg	-10.3422
▁partly	-10.3423
biased	-10.343
▁elicit	-10.3431
▁cha	-10.3432
▁ice	-10.3433
▁digit	-10.3436
▁plot	-10.3437
1).	-10.3437
long	-10.3438
▁mimic	-10.3443
▁ha	-10.345
▁fragment	-10.3452
▁lowest	-10.3457
▁bottleneck	-10.3459
▁[16,	-10.346
▁polymorphisms	-10.346
94	-10.3463
8)	-10.3464
▁San	-10.3466
dic	-10.3472
▁overcome	-10.3475
▁minimize	-10.3475
▁tooth	-10.3479
▁discriminate	-10.3479
▁outer	-10.348
▁invasion	-10.3483
▁deal	-10.3487
ocyte	-10.349
▁consisting	-10.349
98	-10.3491
▁sponge	-10.3491
▁[25]	-10.3492
▁property	-10.3493
97	-10.3493
▁off	-10.3498
▁placement	-10.3503
▁dense	-10.3503
▁honeybee	-10.3507
▁connection	-10.351
▁competitive	-10.3515
▁Ru	-10.352
▁challenging	-10.3524
▁latitude	-10.3524
gna	-10.3524
▁regardless	-10.3525
▁pseudo	-10.3527
▁pitch	-10.3529
▁transformation	-10.3536
▁That	-10.3542
▁informative	-10.3548
uff	-10.3552
▁validation	-10.3555
▁somewhat	-10.3556
▁eco	-10.3559
PE	-10.356
▁attractive	-10.3563
▁numerical	-10.3564
▁sustained	-10.3565
Clark	-10.3567
▁[23]	-10.3567
▁2011	-10.357
ographic	-10.3571
▁failed	-10.3572
▁lys	-10.3572
▁Bur	-10.3573
▁dynamical	-10.3574
▁recruitment	-10.3575
▁[23].	-10.3578
GP	-10.3585
▁causal	-10.3589
▁check	-10.3589
GA	-10.3591
▁consist	-10.3592
ectin	-10.3602
▁permit	-10.3606
▁differed	-10.3606
0.4	-10.3609
46	-10.3615
55	-10.362
▁replicate	-10.3622
▁1985)	-10.3622
▁nine	-10.3625
▁kinematic	-10.3628
▁honey	-10.363
▁pump	-10.363
ense	-10.3634
▁otherwise	-10.3636
▁bra	-10.3636
▁avoidance	-10.3642
▁ones	-10.3644
▁contractions	-10.3646
▁Hox	-10.3648
▁whales	-10.3654
▁accompanied	-10.3655
ebb	-10.3656
La	-10.366
▁calibration	-10.3663
▁taking	-10.3663
talk	-10.3667
amm	-10.3668
▁prominent	-10.3671
▁[14,	-10.368
▁[15,	-10.368
▁entirely	-10.3686
▁1997)	-10.3686
▁ankle	-10.3688
Type	-10.369
+-	-10.3693
▁enzymatic	-10.3696
▁relevance	-10.3696
lated	-10.3698
ostom	-10.3701
thermic	-10.3704
characterization	-10.3706
▁[25].	-10.3712
▁1982;	-10.3713
ometry	-10.3715
▁measuring	-10.3721
▁0.2	-10.3722
troph	-10.3722
59	-10.3723
py	-10.3728
▁carp	-10.3738
▁Pacific	-10.3739
char	-10.3739
▁driver	-10.3741
▁begin	-10.3747
nch	-10.3752
cies	-10.3753
rog	-10.3755
linear	-10.3758
▁biologically	-10.3759
68	-10.376
TL	-10.3761
including	-10.3762
▁refugia	-10.3762
▁1995).	-10.3771
9%	-10.3775
▁involvement	-10.3776
▁parasitic	-10.3781
▁jumping	-10.3783
▁reproduce	-10.3788
▁GR	-10.3788
▁behind	-10.3788
▁neuron	-10.3788
▁canal	-10.3791
▁sexes	-10.3791
▁stimulate	-10.3793
66	-10.3796
▁stream	-10.3796
▁asexual	-10.3804
▁brown	-10.3804
0)	-10.3805
wer	-10.3811
▁pathogenic	-10.3813
▁assays	-10.3814
▁crabs	-10.3818
−1)	-10.3824
clade	-10.3831
▁Model	-10.3831
CE	-10.3831
49	-10.3832
▁cut	-10.3837
▁Island	-10.3838
▁predictive	-10.384
▁examining	-10.3846
containing	-10.3846
▁Hb	-10.3847
ford	-10.3857
▁pen	-10.3862
▁1986;	-10.3863
▁[24]	-10.3866
▁front	-10.3868
▁inhibitors	-10.3875
▁uncover	-10.388
phosphate	-10.388
TF	-10.3899
iger	-10.3902
chordate	-10.3905
▁solutions	-10.3911
▁Studies	-10.3914
▁simultaneous	-10.3914
▁Har	-10.3922
▁lethal	-10.3922
organ	-10.3925
vel	-10.3929
▁trajectories	-10.3931
dactyl	-10.3932
▁coincide	-10.3937
▁Mya	-10.3938
▁equally	-10.3939
▁machinery	-10.3942
▁longitudinal	-10.3948
▁angles	-10.3949
Bo	-10.3954
EL	-10.3958
▁Mus	-10.3958
▁1994).	-10.396
▁1),	-10.396
▁residue	-10.3961
▁consequently	-10.3962
▁partners	-10.3969
▁sensor	-10.3969
ij	-10.3972
▁ribosomal	-10.3982
▁increasingly	-10.3986
amide	-10.3987
▁equi	-10.3987
▁DA	-10.399
▁shock	-10.3992
▁losses	-10.3995
▁fiber	-10.3997
bre	-10.3998
▁closed	-10.3998
▁1981;	-10.3999
▁protection	-10.4005
▁diapause	-10.4007
▁±	-10.4007
▁Hsp	-10.4011
▁SR	-10.4015
▁progenitor	-10.4016
▁Gu	-10.4017
▁1993).	-10.4032
▁approximation	-10.4033
rc	-10.4034
▁alterations	-10.4036
▁thresholds	-10.4038
▁received	-10.4043
▁naturally	-10.4045
▁corals	-10.4048
regulatory	-10.4051
▁images	-10.4055
gar	-10.4058
▁hemolymph	-10.4067
virus	-10.4068
▁behaviours	-10.407
▁NR	-10.4078
▁inhibitory	-10.4083
▁predicting	-10.4084
▁ME	-10.409
▁tasks	-10.4092
▁35	-10.4092
▁resemble	-10.4102
▁retention	-10.4102
▁suction	-10.4102
▁coefficients	-10.4105
▁issues	-10.4114
ylation	-10.4117
▁inherent	-10.4119
▁50%	-10.4123
▁reside	-10.4126
▁maturation	-10.4128
base	-10.4128
▁NH	-10.413
▁zebra	-10.4135
▁chromatin	-10.4145
tory	-10.4149
put	-10.415
▁nutrients	-10.4151
▁ecosystem	-10.4154
▁27	-10.4155
▁2008	-10.416
▁believe	-10.4161
nid	-10.4161
▁rarely	-10.4164
▁suppression	-10.4164
▁Inter	-10.4164
://	-10.4171
]).	-10.4172
▁[27]	-10.4174
ney	-10.4176
▁reli	-10.418
▁localized	-10.4184
▁TLR	-10.4185
▁baseline	-10.4185
▁Results	-10.4188
gh	-10.4197
▁zones	-10.4197
▁infections	-10.4204
▁configuration	-10.4206
▁beginning	-10.4206
▁rice	-10.4212
▁evaluation	-10.4214
▁objects	-10.4223
phen	-10.4225
▁played	-10.4226
▁[24].	-10.4229
lines	-10.423
http	-10.4233
▁arms	-10.4233
▁pigments	-10.4234
▁Cell	-10.4237
▁courtship	-10.4241
▁2011),	-10.4253
▁hormones	-10.4258
▁disorder	-10.426
▁index	-10.4261
▁Bio	-10.4266
▁RH	-10.427
are	-10.4274
aff	-10.4275
▁penguin	-10.4276
▁branching	-10.4281
▁tension	-10.4285
itu	-10.4292
▁vascular	-10.4293
where	-10.43
▁methodology	-10.43
▁tubule	-10.4302
▁caudal	-10.4302
duction	-10.4303
enni	-10.4306
linked	-10.4308
▁spp	-10.4312
▁name	-10.4313
▁[46]	-10.4314
▁lipids	-10.4315
▁pha	-10.4316
script	-10.4319
▁categories	-10.432
▁expectation	-10.432
tum	-10.433
▁CORT	-10.4331
▁chance	-10.4331
product	-10.4334
volu	-10.4346
▁implemented	-10.4348
rine	-10.4351
▁partition	-10.4351
▁transporter	-10.4353
▁eliminate	-10.4355
▁emerged	-10.4361
▁2010	-10.4363
phon	-10.4366
synonymous	-10.4371
▁organic	-10.4371
▁rep	-10.4374
▁shear	-10.4376
▁mosquito	-10.4379
▁breast	-10.4382
▁squid	-10.4382
▁symbionts	-10.4386
Each	-10.439
▁stored	-10.4401
▁Tb	-10.4401
vic	-10.4402
▁altitude	-10.4404
▁Hu	-10.4407
▁hours	-10.4408
▁projection	-10.4412
▁advantages	-10.4414
▁contributing	-10.4417
▁stickleback	-10.4417
▁lymph	-10.4417
GE	-10.4421
▁oxidation	-10.4424
ME	-10.4426
▁operon	-10.4426
▁enables	-10.4431
▁ultra	-10.4436
▁GA	-10.4439
▁directions	-10.444
▁progress	-10.4442
▁trunk	-10.4444
▁SW	-10.4445
GT	-10.4445
▁hip	-10.4446
▁[28].	-10.445
ophora	-10.445
responsive	-10.4453
▁desiccation	-10.4453
▁cavity	-10.4453
▁nematode	-10.4459
▁chick	-10.4466
2/	-10.4466
▁hatching	-10.4471
▁none	-10.4472
▁accumulate	-10.4479
▁reconstructed	-10.4485
▁km	-10.4487
▁[28]	-10.4491
band	-10.4493
▁plastic	-10.4493
▁gives	-10.4495
▁Du	-10.4505
▁contributions	-10.4511
FL	-10.4512
▁frog	-10.4512
▁recover	-10.4513
▁validated	-10.4517
rap	-10.453
EG	-10.454
▁Gal	-10.4541
▁combine	-10.4542
▁[17,	-10.4543
▁Go	-10.4549
)=	-10.4549
oxy	-10.4552
air	-10.4552
▁believed	-10.4553
tel	-10.4554
▁links	-10.4555
generation	-10.4555
GI	-10.4568
▁soft	-10.4569
treated	-10.4571
▁solely	-10.4573
neu	-10.4575
▁patch	-10.458
▁aerodynamic	-10.4588
▁birth	-10.4588
▁foragers	-10.4588
▁allocation	-10.4588
0.7	-10.4594
lier	-10.4596
▁fail	-10.4597
GR	-10.4599
▁chamber	-10.4606
▁2005),	-10.4606
▁screen	-10.4611
▁loops	-10.4613
▁utilize	-10.4614
▁Phylogenetic	-10.4624
yer	-10.4624
85	-10.4624
▁sw	-10.4626
ifera	-10.4633
▁EST	-10.4638
illi	-10.4644
acet	-10.4647
rick	-10.4647
ophytes	-10.4648
▁epigenetic	-10.4652
phase	-10.4655
▁Fe	-10.4658
▁West	-10.4664
▁Hy	-10.4665
▁obstacle	-10.4669
▁click	-10.467
▁solid	-10.467
▁rib	-10.4674
▁exhibits	-10.4674
stein	-10.4678
▁proteome	-10.4679
▁invertebrate	-10.4681
▁mosquitoes	-10.4681
▁[27].	-10.4685
▁Ver	-10.4686
▁strike	-10.4688
▁fasting	-10.4688
9)	-10.469
▁[48]	-10.469
down	-10.4694
▁Ju	-10.4703
▁2016)	-10.4706
▁Neo	-10.4707
▁rearrangements	-10.4709
body	-10.4712
▁hundred	-10.4715
▁[18,	-10.4716
▁centre	-10.4719
▁mechanics	-10.4724
carboxy	-10.4727
▁Wood	-10.4732
▁reef	-10.4734
▁approximate	-10.4737
▁vast	-10.4738
▁rock	-10.4739
▁incorporate	-10.4743
ken	-10.4743
▁modify	-10.4744
▁DE	-10.4745
ID	-10.4748
▁capabilities	-10.4752
lex	-10.4761
▁building	-10.4763
▁phage	-10.4763
viruses	-10.4768
▁track	-10.477
DI	-10.4771
▁juveniles	-10.4771
▁months	-10.478
▁introduction	-10.478
▁normally	-10.4788
0.01	-10.4788
▁boundaries	-10.4789
▁dehydrogenase	-10.4789
▁indicator	-10.4798
▁bars	-10.4799
▁forming	-10.4799
▁[29]	-10.48
▁coastal	-10.4806
▁subjected	-10.4807
▁(~	-10.4807
ffer	-10.4807
▁mother	-10.4809
▁translational	-10.4812
NT	-10.4816
▁appendage	-10.4817
▁navigation	-10.4817
▁yolk	-10.4817
▁Not	-10.4817
▁codons	-10.482
▁pectoral	-10.482
▁2007	-10.4824
▁descend	-10.4835
▁limbs	-10.4837
▁pseudogene	-10.484
▁landmark	-10.4846
▁Ni	-10.4851
▁cue	-10.4854
▁cytokine	-10.4854
Ha	-10.486
▁panel	-10.4862
▁probe	-10.4863
▁spot	-10.4864
osomal	-10.4866
▁walk	-10.487
▁Methods	-10.4872
▁regional	-10.4873
aga	-10.4873
glyco	-10.4874
▁construction	-10.4874
net	-10.4876
▁[47]	-10.4882
▁Ri	-10.4886
wal	-10.4888
▁1983)	-10.4891
▁meal	-10.4896
▁candidates	-10.4899
▁convergence	-10.49
▁Accordingly	-10.4901
▁glycogen	-10.4903
natal	-10.4915
▁antigen	-10.4916
▁argue	-10.4921
inflammatory	-10.4928
▁cyanobacteria	-10.4928
▁Hol	-10.4929
▁PCR	-10.4929
flu	-10.4943
history	-10.4943
▁Australia	-10.4944
oids	-10.4945
phe	-10.4945
living	-10.4952
expressed	-10.4953
▁joints	-10.4958
▁engineering	-10.4966
▁preced	-10.4967
▁saturation	-10.4975
▁cyclin	-10.4979
var	-10.498
▁[49]	-10.4981
Taylor	-10.4985
▁48	-10.4986
ah	-10.4987
assi	-10.4991
▁scores	-10.4999
▁DR	-10.5004
mmer	-10.5005
▁hydrogen	-10.5006
▁complicated	-10.5012
▁analyzing	-10.5013
▁width	-10.5013
▁lie	-10.5015
▁circuits	-10.5015
▁effector	-10.5018
▁carry	-10.5022
0.1	-10.5027
▁sorting	-10.5032
▁Tre	-10.5033
▁draw	-10.5034
tropical	-10.5038
▁alpha	-10.5047
▁SNPs	-10.505
bus	-10.5054
▁trends	-10.5058
▁thaliana	-10.506
▁annotated	-10.506
Green	-10.5066
▁star	-10.5067
93	-10.5067
genomic	-10.5067
action	-10.5069
▁asymmetry	-10.507
▁broader	-10.5071
▁MI	-10.5072
▁discussion	-10.5073
▁coloration	-10.5078
angle	-10.5078
SI	-10.5078
▁45	-10.5082
▁swing	-10.5088
hop	-10.5088
▁Conversely	-10.5089
▁kHz	-10.5089
▁optimize	-10.5089
▁endosymbiont	-10.5089
▁bond	-10.509
▁variant	-10.5092
class	-10.5094
▁somatic	-10.5098
▁amplification	-10.5098
▁benthic	-10.5098
▁lactation	-10.5098
▁Qu	-10.5105
▁arrest	-10.5108
▁mt	-10.5115
bol	-10.5121
▁Jo	-10.5124
▁buffer	-10.5127
▁clones	-10.5129
▁crustaceans	-10.5133
horn	-10.5134
▁deeper	-10.5138
▁OR	-10.514
▁Che	-10.5144
▁perception	-10.5156
▁evolutionarily	-10.5156
▁optic	-10.516
direct	-10.5162
▁argued	-10.5165
▁symbiont	-10.5171
▁glands	-10.5173
▁fecundity	-10.5175
▁reptiles	-10.5175
cking	-10.5178
300	-10.5184
▁facilitated	-10.5189
ram	-10.5192
▁Un	-10.5198
cross	-10.5198
▁[29].	-10.5201
▁flowers	-10.5202
▁tetrapod	-10.5204
▁combining	-10.5223
▁histories	-10.5223
▁6).	-10.5223
yne	-10.5228
rey	-10.5232
▁replacement	-10.5233
▁[31].	-10.524
roid	-10.5241
feeding	-10.5242
▁advantageous	-10.5243
ozoa	-10.5243
▁polyploid	-10.5245
▁decay	-10.5252
▁1984)	-10.5252
▁toxic	-10.5253
▁hub	-10.526
▁sufficiently	-10.526
uz	-10.526
iff	-10.5262
▁concluded	-10.5263
▁[20,	-10.5263
▁breed	-10.5271
▁Different	-10.5271
▁1986)	-10.5272
▁spore	-10.5274
polar	-10.5278
▁topologies	-10.5281
▁govern	-10.5281
▁row	-10.5281
ash	-10.5283
▁morphologically	-10.5284
▁spider	-10.5288
▁turtle	-10.5299
▁waves	-10.53
▁stresses	-10.53
continent	-10.53
▁Nonetheless	-10.5301
▁platform	-10.5301
target	-10.5301
▁stimulated	-10.5309
bio	-10.5312
▁digestive	-10.5313
▁imposed	-10.5316
▁fragments	-10.5317
▁2014;	-10.532
physiological	-10.5321
ography	-10.5326
▁thick	-10.5328
▁curves	-10.5336
▁box	-10.5336
shore	-10.5341
▁aimed	-10.5341
▁junction	-10.5349
mplified	-10.5349
▁superfamily	-10.535
▁Comp	-10.535
GL	-10.5354
frequency	-10.536
epto	-10.5363
trop	-10.5365
▁vesicle	-10.5369
▁Op	-10.5371
▁[19,	-10.5379
structure	-10.538
▁strand	-10.5381
▁disperse	-10.5382
path	-10.5384
▁LD	-10.5384
▁translate	-10.5387
▁demonstrating	-10.5388
▁fuel	-10.5389
▁knockout	-10.5389
▁come	-10.5398
▁Gro	-10.5399
88	-10.54
▁1992).	-10.5407
▁inclusion	-10.5408
▁wet	-10.5408
▁retinal	-10.5411
83	-10.5417
▁[30]	-10.5418
▁slowly	-10.542
▁introduce	-10.5421
▁Due	-10.5423
▁get	-10.5426
▁coordination	-10.5428
▁indication	-10.5428
▁attribute	-10.543
rach	-10.5431
▁photoreceptor	-10.544
▁accepted	-10.5457
acea	-10.546
aud	-10.5465
▁[30].	-10.5467
▁utilization	-10.5467
▁iso	-10.547
▁abdominal	-10.5477
▁stabilize	-10.5477
▁realistic	-10.548
86	-10.5482
▁concert	-10.5487
vol	-10.5488
Net	-10.5489
▁anoxia	-10.5497
▁mini	-10.5502
▁suffer	-10.5507
▁[31]	-10.551
▁insert	-10.551
▁IV	-10.5515
▁densities	-10.5517
▁paired	-10.552
69	-10.5523
▁[33].	-10.5526
▁pairwise	-10.5528
birds	-10.5533
▁notion	-10.5539
▁manual	-10.5539
▁explicitly	-10.5541
▁biased	-10.5551
▁conduct	-10.5562
▁greatest	-10.5574
▁window	-10.5579
▁Taken	-10.5582
▁VEGF	-10.5587
▁spontaneous	-10.5587
▁therapeutic	-10.5587
chron	-10.5603
called	-10.5605
▁utilized	-10.5607
ifying	-10.5607
local	-10.5608
▁11]	-10.5611
▁Boolean	-10.5617
▁emphasize	-10.5617
▁synthesize	-10.5617
▁concerning	-10.5619
▁collagen	-10.5627
▁constitutive	-10.5627
▁29	-10.5633
onia	-10.5637
▁susceptibility	-10.5647
▁debate	-10.5649
▁coast	-10.5649
loss	-10.5652
▁excluded	-10.5653
print	-10.5654
▁dramatically	-10.566
▁targeting	-10.5663
▁dB	-10.5666
▁crystal	-10.5667
▁happen	-10.5667
In	-10.5677
▁resistant	-10.5678
▁meso	-10.5687
▁adequate	-10.5687
▁Analysis	-10.5687
▁efficiently	-10.569
▁quantified	-10.5697
▁charge	-10.5697
▁unlike	-10.5698
▁costly	-10.5702
▁detecting	-10.5702
▁denote	-10.5702
▁progressive	-10.5703
▁1991).	-10.5703
▁aggressive	-10.5717
▁corroborat	-10.5717
▁thousand	-10.5717
glacial	-10.5723
▁COM	-10.5727
▁threat	-10.5728
▁convergent	-10.5729
▁Importantly	-10.5738
▁vibration	-10.5738
▁worth	-10.5738
▁intense	-10.574
▁paralog	-10.5745
▁proximity	-10.5748
▁indicative	-10.5748
0.5	-10.5757
▁visible	-10.5758
▁antennal	-10.5763
▁Pan	-10.5767
▁clone	-10.5767
▁picture	-10.5778
▁[33]	-10.5779
locus	-10.5779
77	-10.5784
▁depletion	-10.5789
▁GH	-10.5794
▁fH	-10.5794
▁guide	-10.5797
▁dimer	-10.5798
▁contractile	-10.58
DE	-10.5825
▁Poly	-10.583
▁recordings	-10.5842
▁fibre	-10.585
▁moths	-10.5853
▁sole	-10.5855
▁reticul	-10.5863
standing	-10.5864
▁comprising	-10.5871
▁seal	-10.5873
▁Wil	-10.588
▁circulating	-10.5881
▁beetles	-10.5884
bound	-10.5884
▁rot	-10.5885
bearing	-10.5888
▁How	-10.5889
hap	-10.5891
▁eventually	-10.5891
▁angular	-10.5892
mix	-10.5898
▁Third	-10.5902
▁[22,	-10.5902
meter	-10.5904
▁[51]	-10.5912
positive	-10.592
▁injury	-10.5922
▁trail	-10.5923
The	-10.5929
▁lakes	-10.5932
▁prefer	-10.5935
▁feasible	-10.5943
AU	-10.5947
▁broadly	-10.5951
▁abilities	-10.5953
▁personal	-10.5953
▁square	-10.5954
opt	-10.5954
▁[50]	-10.5954
▁differing	-10.5957
filled	-10.5962
▁apparatus	-10.5964
▁muscular	-10.5964
▁words	-10.5965
▁multicellular	-10.5967
▁2006	-10.5969
mag	-10.5971
▁Current	-10.5974
▁ongoing	-10.5975
lateral	-10.5975
rew	-10.5976
▁disruption	-10.5982
▁analytical	-10.5985
▁motility	-10.5985
chromatic	-10.5985
uf	-10.5988
▁performing	-10.5992
▁World	-10.5995
driven	-10.5995
▁public	-10.6
arri	-10.6001
▁compromise	-10.6005
▁Unlike	-10.6008
▁arose	-10.6008
▁17]	-10.6009
Brown	-10.6014
▁hibernation	-10.6016
▁crab	-10.6017
▁Rab	-10.6017
▁periodic	-10.6023
▁kin	-10.6024
▁reward	-10.6027
zon	-10.6028
89	-10.6029
6–	-10.6034
▁examination	-10.6038
▁digestion	-10.604
▁describing	-10.6047
▁dramatic	-10.6054
centric	-10.6055
▁assuming	-10.6058
▁median	-10.606
▁calculate	-10.6061
▁ecologically	-10.6064
▁1979;	-10.6068
▁roughly	-10.6078
defined	-10.6079
directional	-10.608
–1)	-10.6085
▁por	-10.6093
▁habit	-10.6097
▁bright	-10.6097
▁separately	-10.6106
rob	-10.611
▁formula	-10.611
▁trajectory	-10.611
▁Miocene	-10.6121
producing	-10.6121
▁Over	-10.6122
▁compatible	-10.6125
▁wider	-10.6128
▁clustered	-10.6128
▁32	-10.6135
▁exclude	-10.6135
▁put	-10.6135
▁Together	-10.6142
▁1995)	-10.6142
logy	-10.6146
▁tracheal	-10.6148
▁Whether	-10.6153
▁horse	-10.6153
▁12]	-10.616
coming	-10.6163
▁requirement	-10.6164
▁inverse	-10.6174
▁constrain	-10.6174
▁detectable	-10.6176
aaa	-10.6179
▁routine	-10.6184
▁1981)	-10.6184
▁Glu	-10.6185
escent	-10.6187
▁comes	-10.619
▁switching	-10.6195
zz	-10.6196
▁myosin	-10.6197
▁tracking	-10.6198
▁figure	-10.6206
▁knee	-10.6206
▁sharp	-10.6206
▁CI	-10.6206
▁14]	-10.6207
▁media	-10.6208
lap	-10.6216
▁permeability	-10.6216
▁10]	-10.6217
▁underlie	-10.6218
▁2003	-10.6239
▁grass	-10.6242
▁initiate	-10.6242
▁establishment	-10.6246
▁harbor	-10.6248
▁relaxed	-10.6253
▁cytoplasmic	-10.6255
▁electric	-10.6255
expressing	-10.6258
pelagic	-10.6259
▁adhesive	-10.6259
▁fertilization	-10.6259
▁phenomena	-10.6259
▁freezing	-10.6259
2.5	-10.6261
▁phosphate	-10.6269
▁determinant	-10.627
nge	-10.6273
rought	-10.6275
supplementary	-10.6278
▁15]	-10.6278
▁circles	-10.628
▁tendency	-10.6282
arthropod	-10.6288
▁duplicates	-10.6297
▁kill	-10.6298
7–	-10.63
known	-10.6301
system	-10.6305
▁crickets	-10.6309
▁Man	-10.631
▁accelerated	-10.6312
▁promising	-10.6313
Xdb	-10.6313
typic	-10.6314
▁subgroup	-10.6317
▁JH	-10.6317
▁maximize	-10.6323
▁1980;	-10.6323
▁exogenous	-10.6334
▁mutational	-10.6337
ivorous	-10.6338
▁cyclic	-10.6339
more	-10.6342
▁insufficient	-10.6345
▁gonad	-10.6345
▁mask	-10.6347
▁persistence	-10.6347
▁conditioning	-10.6351
▁inertia	-10.6356
▁flowering	-10.6357
μ	-10.6359
▁nectar	-10.6367
IL	-10.6369
▁bite	-10.6369
▁16]	-10.6371
▁valid	-10.6374
▁health	-10.6375
▁disturbance	-10.6377
▁allopatric	-10.6377
Johnson	-10.6388
▁protease	-10.6388
▁static	-10.6392
Sh	-10.6399
▁reared	-10.64
transferase	-10.64
▁worms	-10.6404
▁exponential	-10.6412
▁complementary	-10.6413
▁primate	-10.6417
phyll	-10.6421
▁implementation	-10.6431
▁echolocation	-10.6432
▁marsupial	-10.6432
▁[53]	-10.6432
▁coverage	-10.6436
model	-10.644
▁shaped	-10.6441
▁cockroach	-10.6443
▁photosynthetic	-10.6453
▁[21,	-10.6454
run	-10.6456
▁Fish	-10.6461
▁Consistent	-10.6464
fit	-10.6471
▁compensatory	-10.6475
▁intriguing	-10.6475
▁osmotic	-10.6476
▁axon	-10.6476
▁fibro	-10.6479
▁20]	-10.6482
III	-10.6484
▁Unfortunately	-10.6486
▁nuclei	-10.6486
▁reinforce	-10.6486
▁lifespan	-10.6486
▁refine	-10.6494
▁practical	-10.6497
▁occasion	-10.6497
▁render	-10.6499
▁conformation	-10.6499
▁strict	-10.6499
▁stressors	-10.6501
▁elongat	-10.6502
▁angiosperms	-10.6502
▁proton	-10.6503
▁Rho	-10.6504
▁MP	-10.6508
▁indirectly	-10.6508
▁lifestyle	-10.6508
▁sexually	-10.6512
▁spike	-10.653
▁tick	-10.6537
iii	-10.6539
▁answer	-10.6542
▁recruit	-10.6548
▁cleavage	-10.6552
▁tadpole	-10.6552
▁donor	-10.6554
▁Wang	-10.6563
▁reciprocal	-10.6563
▁Late	-10.6564
stone	-10.6565
▁turning	-10.6567
79	-10.6568
eti	-10.6572
▁teeth	-10.6574
▁tuning	-10.6574
▁Com	-10.6575
▁transform	-10.6576
zoan	-10.6582
▁incorporated	-10.6585
tactic	-10.659
gram	-10.6593
74	-10.6604
▁accordance	-10.6607
▁hierarchical	-10.6607
▁sequential	-10.6607
▁1982)	-10.6607
prote	-10.661
urus	-10.6615
▁ubiquitin	-10.6618
▁[52]	-10.6619
▁taxonomy	-10.6621
iro	-10.6622
▁TGF	-10.663
length	-10.6636
▁glutamate	-10.6641
▁proteomic	-10.6641
▁contrary	-10.6652
▁AQP	-10.6652
▁extinct	-10.6653
stome	-10.6658
▁essentially	-10.6665
▁occupy	-10.6674
▁nocturnal	-10.6674
▁translocation	-10.6674
▁encompass	-10.6685
▁photoperiod	-10.6685
▁distantly	-10.6686
▁randomly	-10.6687
▁recognize	-10.6689
▁spectra	-10.6691
▁brief	-10.6696
CoA	-10.6701
▁undergone	-10.6702
▁compass	-10.6708
▁inhibited	-10.6713
Bennet	-10.6721
▁raised	-10.6726
▁regeneration	-10.6726
78	-10.6729
▁synthase	-10.673
▁annual	-10.6731
73	-10.6732
iana	-10.6733
▁lac	-10.674
▁circum	-10.6741
▁named	-10.6744
▁applying	-10.6745
▁ontogeny	-10.6752
▁clarify	-10.6753
tended	-10.6753
▁carrying	-10.6755
from	-10.6759
▁18]	-10.6759
▁tetra	-10.6763
▁1994)	-10.677
▁reflecting	-10.6772
▁pig	-10.6774
▁axial	-10.6777
▁geographically	-10.6781
distance	-10.6786
▁starvation	-10.6786
▁ventilation	-10.6786
1/2	-10.679
▁derive	-10.6793
▁claw	-10.6793
▁Uni	-10.6806
▁balancing	-10.6809
▁heavy	-10.6809
▁abnormal	-10.6809
▁gall	-10.681
▁originally	-10.6816
▁precision	-10.682
▁1977;	-10.682
▁accumulated	-10.6821
▁parasitoid	-10.6831
▁Biewener	-10.6832
▁acetyl	-10.6833
▁Hill	-10.6838
▁HCO	-10.6842
▁propulsive	-10.6843
▁twice	-10.6843
▁Considering	-10.6843
▁CYP	-10.6843
other	-10.6847
▁innervat	-10.6859
▁oil	-10.6859
▁rub	-10.686
▁congruent	-10.6866
▁pyruvate	-10.6866
xyl	-10.6872
▁operation	-10.6877
▁lake	-10.6878
evolutionary	-10.6879
ardi	-10.6881
▁universal	-10.6888
▁paradigm	-10.69
▁manipulate	-10.6911
▁Protein	-10.6911
▁wood	-10.6914
▁nonlinear	-10.6919
host	-10.6934
▁earliest	-10.6945
▁virtual	-10.6946
▁cast	-10.6946
▁ontogenetic	-10.6946
▁triggered	-10.6951
▁functionality	-10.6956
▁susceptible	-10.6957
▁histone	-10.6957
▁prevalence	-10.6968
▁sucrose	-10.6968
▁litter	-10.6969
▁viability	-10.6969
loop	-10.6971
▁immediate	-10.6978
▁mountain	-10.698
▁musculature	-10.698
▁utility	-10.698
▁[54]	-10.698
▁push	-10.698
▁13]	-10.6984
▁Daphnia	-10.6991
▁1993)	-10.6993
▁rodent	-10.6995
▁termed	-10.7001
▁crown	-10.7005
▁Notably	-10.7016
▁cysteine	-10.7026
▁steroid	-10.7026
▁Wilson	-10.703
▁matching	-10.703
▁basin	-10.7031
▁oocyte	-10.7032
▁pyr	-10.7037
▁bottom	-10.7038
▁built	-10.7038
84	-10.7039
▁modulated	-10.7042
rgic	-10.7048
▁circular	-10.7049
▁conventional	-10.7049
▁polymorphic	-10.7049
▁operating	-10.7049
▁sensing	-10.7051
▁exclusive	-10.7059
▁estimating	-10.7061
▁tribe	-10.7061
▁meet	-10.7062
▁19]	-10.7063
▁restrict	-10.7063
▁deposit	-10.7066
▁mussel	-10.7072
▁Clade	-10.7074
▁coordinated	-10.7077
▁deposition	-10.708
ebr	-10.7082
▁ovarian	-10.7084
phylo	-10.7085
hexa	-10.7089
nning	-10.7092
▁sustain	-10.7095
▁crayfish	-10.7096
▁viable	-10.7101
▁Low	-10.7104
▁shrimp	-10.7107
▁clonal	-10.7107
▁wingbeat	-10.7107
▁What	-10.7107
87	-10.7108
▁versa	-10.7109
high	-10.7116
▁GABA	-10.712
ogram	-10.7127
atum	-10.7127
▁closest	-10.7127
▁HIV	-10.7128
▁23]	-10.7129
trophy	-10.7138
▁secreted	-10.7141
hip	-10.715
▁incubation	-10.7154
▁shaping	-10.7154
▁antibiotic	-10.7156
▁certainly	-10.7162
▁antennae	-10.7164
▁emerging	-10.7166
▁[24,	-10.7166
rib	-10.7175
▁participate	-10.7177
▁steep	-10.7177
pair	-10.7182
▁conservative	-10.7189
▁[23,	-10.719
▁tightly	-10.719
▁2005	-10.719
core	-10.719
▁serotonin	-10.7201
▁Group	-10.7204
▁aerial	-10.7204
▁captured	-10.7207
cine	-10.7208
▁simulate	-10.722
▁dominance	-10.7228
▁Australian	-10.7228
▁relies	-10.7228
▁gained	-10.7233
▁moth	-10.7239
▁zinc	-10.7248
▁editing	-10.7248
▁Ocean	-10.7248
▁torque	-10.7249
▁Chi	-10.7249
▁flu	-10.7251
▁Lee	-10.7255
▁systematically	-10.7257
▁diurnal	-10.726
▁stationary	-10.726
▁0.3	-10.7261
evolution	-10.727
▁null	-10.7277
▁lag	-10.7288
shaped	-10.7289
Jones	-10.7291
▁characterised	-10.7297
itch	-10.73
scribed	-10.7303
▁crop	-10.7303
▁grey	-10.7303
▁Antarctic	-10.7307
▁Three	-10.7307
▁tight	-10.7313
▁Like	-10.7315
oste	-10.7315
▁came	-10.7317
▁goldfish	-10.7319
▁pigeons	-10.7319
thorax	-10.7319
▁kb	-10.7327
▁1978;	-10.7331
▁upregulated	-10.7338
▁machine	-10.7339
▁spent	-10.7341
▁transmembrane	-10.7344
ette	-10.7346
hiz	-10.7353
▁ubiquitous	-10.7355
chin	-10.7355
▁excellent	-10.7367
▁preferentially	-10.7367
parasite	-10.7372
mean	-10.738
auer	-10.7383
▁Pho	-10.7387
▁cetacean	-10.7391
▁minute	-10.7391
▁covered	-10.7392
▁patches	-10.7394
▁circulation	-10.7403
▁stiff	-10.7403
pass	-10.7404
ota	-10.7408
▁Smith	-10.741
▁compensation	-10.7415
▁nucleo	-10.7415
▁urine	-10.7416
▁thickness	-10.7417
igu	-10.7425
independent	-10.7427
▁kept	-10.7427
▁desert	-10.7428
▁reaching	-10.7429
▁law	-10.743
▁computation	-10.7436
▁odorant	-10.7437
▁interference	-10.7439
typical	-10.7442
mount	-10.7445
▁integrating	-10.7463
▁Comparison	-10.7463
▁distinctive	-10.7466
terior	-10.7472
ender	-10.7476
▁SNP	-10.7479
wan	-10.748
▁homing	-10.7487
▁cAMP	-10.7495
▁react	-10.7497
▁capability	-10.7503
▁initiated	-10.7507
▁paralogous	-10.7515
aki	-10.7516
▁Trans	-10.7518
activated	-10.7519
▁eel	-10.752
borne	-10.752
▁dogs	-10.7521
▁stripe	-10.7529
▁upregulation	-10.753
▁coordinate	-10.7531
▁medial	-10.7534
▁inherited	-10.7536
▁applicable	-10.7548
▁round	-10.756
▁dating	-10.7582
▁BMR	-10.7591
▁originate	-10.7592
IV	-10.7592
opsis	-10.7595
▁attraction	-10.7596
▁plus	-10.7597
▁synchroniz	-10.7597
▁ml	-10.7598
▁opportunities	-10.7621
▁statistics	-10.7621
tidae	-10.7628
▁Sub	-10.7633
▁duplicate	-10.7636
▁wasps	-10.7636
▁searching	-10.7649
uter	-10.7657
▁hummingbird	-10.7658
▁testosterone	-10.7658
▁midgut	-10.7658
▁discover	-10.766
cyto	-10.7661
▁22]	-10.7666
▁matter	-10.7668
▁lobster	-10.767
▁[57]	-10.7671
▁leuc	-10.7672
ncRNA	-10.7675
▁polarization	-10.7676
▁slight	-10.7679
arian	-10.7684
▁Van	-10.7691
▁plasmid	-10.7695
▁continuously	-10.7704
▁rigid	-10.7707
▁1979)	-10.7707
▁[55]	-10.7708
▁cooling	-10.7708
▁transmitted	-10.7709
ogn	-10.7717
▁Xenopus	-10.772
▁Western	-10.7721
▁trap	-10.7731
▁sharing	-10.7732
▁regarded	-10.7739
▁exploration	-10.7757
▁fashion	-10.7757
▁precisely	-10.7757
▁giving	-10.7757
iidae	-10.7759
▁predictor	-10.776
pot	-10.7765
▁differentiate	-10.7767
▁maneuver	-10.7782
76	-10.7785
▁dual	-10.7792
▁manifest	-10.7794
▁aggregation	-10.7794
▁elongation	-10.7802
adapted	-10.7806
▁deterministic	-10.7807
▁responsiveness	-10.7807
▁cDNA	-10.7808
▁backward	-10.781
▁butterflies	-10.7819
▁probable	-10.7819
▁organelle	-10.782
▁GRN	-10.782
▁update	-10.7824
▁reserves	-10.7832
▁NKA	-10.7832
▁difficulty	-10.7837
▁feeder	-10.7838
▁lobe	-10.7839
▁exactly	-10.784
▁toxicity	-10.785
▁discrepancy	-10.7857
▁pest	-10.7867
▁File	-10.7868
lium	-10.7869
▁neighbour	-10.7869
▁ethanol	-10.7869
▁roll	-10.787
▁24]	-10.7874
▁margin	-10.7876
▁compete	-10.7882
▁[26,	-10.7883
▁1.5	-10.7893
▁cytochrome	-10.7895
▁homogeneous	-10.7895
▁knockdown	-10.7895
▁1980)	-10.7895
▁coevolution	-10.7897
▁pore	-10.79
▁cranial	-10.7907
▁impair	-10.7911
▁fluorescence	-10.7918
this	-10.7919
▁neuromast	-10.792
▁partitioning	-10.7926
▁chimpanzee	-10.7932
▁perfect	-10.7933
▁allelic	-10.7933
Cyc	-10.7935
▁ORF	-10.7938
▁tag	-10.7948
▁rough	-10.7949
nz	-10.7954
▁computed	-10.7955
▁polymer	-10.7956
▁0.8	-10.7957
▁lizard	-10.7958
▁extrinsic	-10.7958
▁hydrophobic	-10.7958
▁management	-10.7958
▁silencing	-10.7958
▁skeleton	-10.7958
▁27]	-10.7965
▁gave	-10.7971
▁transcriptomic	-10.7972
▁extracted	-10.7976
▁bring	-10.7983
▁venom	-10.7983
▁warming	-10.7986
▁illustrated	-10.7992
▁diminish	-10.7996
▁kPa	-10.7999
▁enabled	-10.8
step	-10.8003
▁[56]	-10.8009
▁attain	-10.801
speed	-10.8019
▁associate	-10.8019
▁gradual	-10.8022
▁mismatch	-10.8034
▁Eurasia	-10.8034
▁flapping	-10.8035
▁whale	-10.8036
▁urchin	-10.8047
▁proven	-10.8059
now	-10.8064
▁Early	-10.8073
▁novo	-10.8081
▁vessel	-10.8098
flies	-10.8106
▁opposed	-10.8111
▁canonical	-10.8115
assa	-10.8116
▁geometric	-10.8124
▁careful	-10.8125
▁emission	-10.8126
chus	-10.813
▁advanced	-10.813
▁incorporation	-10.8137
▁[25,	-10.8151
▁highlighted	-10.8153
▁relaxation	-10.8155
▁analog	-10.816
▁cardiovascular	-10.8163
▁obscur	-10.8163
▁sweep	-10.8163
▁thoracic	-10.8164
▁electrical	-10.8167
▁glycolytic	-10.8176
Anderson	-10.8176
▁Southern	-10.8179
▁store	-10.8183
▁infect	-10.8186
▁computer	-10.8189
▁spatially	-10.819
injected	-10.8193
▁argument	-10.8202
▁preliminary	-10.8202
▁symbols	-10.8202
▁Besides	-10.8202
asse	-10.8212
▁criterion	-10.8215
Marshall	-10.8215
▁26]	-10.8216
▁2012	-10.8217
▁receive	-10.8219
▁crypt	-10.8232
sexual	-10.8232
▁biodiversity	-10.8241
coccus	-10.8241
▁depict	-10.8241
▁100%	-10.8246
▁HSP	-10.8252
▁Likewise	-10.8254
▁algal	-10.8257
180	-10.8259
▁category	-10.8267
▁adding	-10.8267
▁subtypes	-10.8268
AST	-10.8268
▁10%	-10.8268
▁molt	-10.8273
▁SWS	-10.8285
▁envelope	-10.8293
▁1975;	-10.8293
▁competing	-10.8293
▁easy	-10.8293
▁potent	-10.8304
acyl	-10.8316
▁cope	-10.8317
vertebral	-10.8332
▁Whereas	-10.8332
▁screening	-10.8338
▁becoming	-10.8345
▁aegypti	-10.8346
gastropod	-10.8346
▁attached	-10.8362
breathing	-10.8363
nov	-10.8363
▁supplement	-10.837
▁text	-10.8383
▁longevity	-10.8385
▁meaningful	-10.8385
▁folding	-10.8387
▁younger	-10.8391
ugu	-10.8398
start	-10.84
▁trial	-10.8402
edge	-10.8409
ptera	-10.841
▁impossible	-10.8412
▁parsimony	-10.8412
▁ram	-10.8413
▁Class	-10.8414
▁Syn	-10.8416
▁analogous	-10.8428
▁25]	-10.8428
▁rotational	-10.8429
▁Northern	-10.843
▁ODE	-10.8433
▁diagnostic	-10.8438
▁underestimate	-10.8438
▁skull	-10.8438
▁visualization	-10.8439
stance	-10.844
Par	-10.8447
phosphatase	-10.8452
present	-10.8452
▁outgroup	-10.8465
▁enhancement	-10.8466
▁BMP	-10.8466
▁Notch	-10.847
strain	-10.8473
migrant	-10.8478
▁energetically	-10.8479
▁1991)	-10.8484
▁mammal	-10.8501
▁counterparts	-10.8505
nucleotide	-10.8513
alanine	-10.8515
▁straight	-10.8519
▁antibody	-10.852
▁aggregate	-10.8526
▁lens	-10.853
▁photosynthesis	-10.8532
▁agonist	-10.8534
▁assignment	-10.8535
▁contradict	-10.8545
▁gambiae	-10.8545
▁reversal	-10.8545
▁QTL	-10.8547
▁RNAi	-10.8548
▁flagella	-10.855
▁larva	-10.8551
▁marginal	-10.8552
raft	-10.8557
▁remove	-10.8558
▁normalized	-10.8558
▁phyla	-10.8559
▁mineral	-10.856
function	-10.8563
▁RBC	-10.8573
▁glycerol	-10.8573
▁subtle	-10.8574
0.2	-10.8574
▁intervention	-10.8586
phosphorylated	-10.8589
▁Arg	-10.8596
▁contract	-10.8598
▁Section	-10.86
valent	-10.86
▁redox	-10.86
rtner	-10.8606
molecular	-10.8609
▁influenza	-10.8613
▁choose	-10.8613
control	-10.8622
▁deformation	-10.8631
udi	-10.864
▁implying	-10.864
▁obligate	-10.864
▁probabilities	-10.864
▁reversible	-10.864
▁[59]	-10.864
▁floral	-10.8644
▁repeatedly	-10.8652
▁promoting	-10.8654
▁cuticular	-10.8654
▁drastic	-10.8667
▁friction	-10.8667
▁[27,	-10.8668
▁farm	-10.8671
▁whereby	-10.8673
ground	-10.8677
stabilizing	-10.8681
▁impaired	-10.8692
terminus	-10.8693
▁integral	-10.8694
▁pollinator	-10.8694
▁acetate	-10.8695
▁Indian	-10.8696
▁endocrine	-10.8708
▁corn	-10.8711
▁mandible	-10.8722
▁1977)	-10.8722
▁surprisingly	-10.8732
▁Following	-10.8735
▁device	-10.8736
▁leak	-10.8737
▁RMR	-10.874
▁repression	-10.8746
▁gradually	-10.8748
▁lamprey	-10.8749
▁correctly	-10.875
▁cnidarian	-10.8763
mata	-10.8764
4+	-10.8771
▁capacities	-10.879
▁30]	-10.8796
▁transmit	-10.8797
▁activating	-10.8804
▁dimorphism	-10.8804
▁replaced	-10.8804
▁elicited	-10.8809
▁snail	-10.881
▁organismal	-10.881
negative	-10.8817
Alexander	-10.8818
▁accomplish	-10.8818
▁primitive	-10.8818
▁95%	-10.8827
▁continued	-10.8829
▁resist	-10.8829
temporal	-10.883
▁verified	-10.8832
▁1992)	-10.8834
▁encountered	-10.8835
▁remodeling	-10.8846
▁tongue	-10.8846
▁Pseudo	-10.8846
▁coexist	-10.8848
motor	-10.8852
individual	-10.8858
▁preserved	-10.886
▁repetitive	-10.886
▁secretory	-10.886
toxic	-10.8861
▁PIN	-10.8869
plasmic	-10.8873
▁bioinformatic	-10.8874
▁deprivation	-10.8874
▁gravity	-10.8874
▁28]	-10.8887
▁metamorphosis	-10.8887
▁geometry	-10.8887
▁[58]	-10.8888
▁polymerase	-10.8897
▁unrelated	-10.8899
▁propulsion	-10.8901
▁engage	-10.8901
uber	-10.8904
quadr	-10.8906
gluco	-10.8911
▁disappear	-10.8915
▁LWS	-10.8916
▁innovation	-10.8916
▁phyto	-10.8916
▁deliver	-10.8916
▁practice	-10.8929
▁thorough	-10.8929
▁caution	-10.8929
▁Hypo	-10.8935
▁cytoplasm	-10.8937
▁mac	-10.8946
▁matched	-10.8954
effect	-10.8957
▁Through	-10.8957
▁redundancy	-10.8971
scens	-10.8978
creased	-10.8983
▁placental	-10.8985
▁Lauder	-10.8985
▁perceived	-10.8988
▁profound	-10.8988
sperm	-10.9
▁lumen	-10.9
zen	-10.9001
▁eIF	-10.9014
▁finches	-10.9014
lived	-10.9014
▁markedly	-10.9017
▁glycolysis	-10.9028
soluble	-10.9028
life	-10.9029
▁Four	-10.9033
▁biases	-10.9037
arginine	-10.9042
hydroxy	-10.9045
▁rhythmic	-10.9053
▁fungus	-10.9056
▁1978)	-10.9056
▁sparse	-10.9056
▁arising	-10.9059
▁sprint	-10.9071
▁modular	-10.908
calibrat	-10.9084
▁residual	-10.9084
▁captive	-10.9084
▁influenc	-10.9097
▁migrate	-10.9098
▁possesses	-10.9102
▁strictly	-10.9102
UTR	-10.9102
▁scaffold	-10.9113
▁arg	-10.9125
breeding	-10.9135
▁milk	-10.9141
▁protist	-10.9141
▁accelerate	-10.9142
chromosome	-10.9145
▁reactive	-10.9149
▁2000	-10.9151
▁Caenorhabditis	-10.9155
▁MAPK	-10.9156
▁intertidal	-10.9172
ugg	-10.918
▁snake	-10.9183
formation	-10.9184
▁1974;	-10.9184
▁focal	-10.9186
▁owing	-10.919
▁antagonistic	-10.9192
▁tunnel	-10.9198
▁latency	-10.9198
▁biomechanical	-10.9199
▁mapped	-10.9201
▁entry	-10.9203
agus	-10.9211
▁upward	-10.9211
▁language	-10.9213
▁quantity	-10.9213
▁entities	-10.9213
▁Understanding	-10.9213
studied	-10.9216
▁29]	-10.9219
▁uncertain	-10.9226
▁clutch	-10.9227
▁1976;	-10.9227
0.3	-10.9236
rank	-10.9239
bach	-10.924
▁Peninsula	-10.9242
▁haemolymph	-10.9242
▁matrices	-10.9242
▁optimis	-10.9242
▁2002	-10.9246
▁spine	-10.9256
▁propagation	-10.9256
▁1000	-10.9265
▁prove	-10.927
▁recombinant	-10.9285
▁Species	-10.9285
void	-10.9289
▁KEGG	-10.9299
▁tibia	-10.93
▁optical	-10.93
shift	-10.9305
otropic	-10.9314
▁LPS	-10.9314
▁macrophage	-10.9314
▁2001	-10.9318
connect	-10.932
▁paleo	-10.9327
▁pheno	-10.9328
▁prokaryotic	-10.9328
▁holo	-10.9329
▁imaging	-10.933
▁video	-10.9336
▁stand	-10.9341
▁ganglion	-10.9343
▁phylogenomic	-10.9343
▁template	-10.9343
▁problematic	-10.9343
▁aligned	-10.9344
▁PCO	-10.9346
▁hepato	-10.9347
▁zoo	-10.935
plan	-10.9353
▁validate	-10.9354
▁proved	-10.9357
▁vegetation	-10.9358
▁plume	-10.9358
▁conspicuous	-10.9372
▁butterfly	-10.9372
▁System	-10.9372
▁pose	-10.9376
▁saline	-10.9385
▁fatigue	-10.9387
▁dominated	-10.9393
found	-10.9393
▁successive	-10.9398
copy	-10.9399
▁serine	-10.9404
▁mediating	-10.9404
regulate	-10.9409
limited	-10.941
▁relatedness	-10.9416
▁hemi	-10.9422
scopic	-10.9428
▁acquire	-10.9432
▁Meta	-10.9438
▁delivery	-10.9445
▁cooperative	-10.9446
▁fertility	-10.9446
▁breath	-10.9456
▁[1–3]	-10.946
▁Rather	-10.9475
seq	-10.9475
▁[29,	-10.9476
▁drawn	-10.9479
▁catch	-10.9481
▁humidity	-10.949
▁[30,	-10.9491
▁transgenic	-10.9495
▁document	-10.9499
olytic	-10.9503
oxygen	-10.9504
▁radical	-10.9505
▁[28,	-10.9505
layer	-10.9509
▁stick	-10.9512
▁spite	-10.9518
▁basolateral	-10.9519
▁ectotherms	-10.9519
▁plumage	-10.9519
▁32]	-10.952
▁held	-10.9525
▁artifact	-10.9534
▁salamander	-10.9534
osine	-10.9544
▁searches	-10.9547
▁enabling	-10.9549
mass	-10.9557
2°	-10.9562
▁unicellular	-10.9565
▁malaria	-10.9566
▁style	-10.9567
▁freeze	-10.957
▁angiosperm	-10.9572
▁inflammation	-10.9579
▁article	-10.9579
▁superior	-10.9579
▁chose	-10.9587
▁disadvantage	-10.9594
▁BLAST	-10.9594
▁interplay	-10.9594
▁allometric	-10.9599
▁confined	-10.9609
▁White	-10.961
▁inheritance	-10.9624
▁descent	-10.9629
▁symbiotic	-10.964
qual	-10.9641
▁vein	-10.9646
▁counteract	-10.9651
▁efflux	-10.9654
▁tentacle	-10.9654
▁ribosome	-10.9654
▁2004	-10.9661
activity	-10.9683
▁genital	-10.9684
▁simplified	-10.9684
▁mantle	-10.9684
▁partner	-10.9684
▁modularity	-10.9689
▁incline	-10.9691
▁prone	-10.9691
▁beetle	-10.9695
▁fairly	-10.9699
icola	-10.97
▁ABC	-10.9709
▁effectiveness	-10.9713
▁Subsequent	-10.9714
▁optimum	-10.9714
▁turbine	-10.9714
▁summarize	-10.9714
▁defining	-10.9714
▁flexion	-10.9714
ibly	-10.9715
▁antagonist	-10.972
▁geological	-10.973
nose	-10.9741
▁1972;	-10.9744
Burrows	-10.9745
▁tolerate	-10.9747
▁enhancer	-10.9749
▁degrade	-10.9753
▁duck	-10.9754
▁[60]	-10.976
▁pull	-10.9762
▁localities	-10.9771
▁carrier	-10.9775
▁rearing	-10.9776
▁scan	-10.9777
ocer	-10.978
▁weaker	-10.9782
▁ERK	-10.9782
green	-10.9786
▁economic	-10.979
▁microscopy	-10.979
▁biologists	-10.9791
▁conductance	-10.9792
different	-10.9801
▁protrusion	-10.9805
▁creating	-10.9805
▁Though	-10.9807
▁suite	-10.9808
▁Tak	-10.9809
▁haem	-10.9812
NAT	-10.9814
▁permanent	-10.982
▁treat	-10.9832
▁tyrosine	-10.9836
▁domestication	-10.9844
dependence	-10.9848
▁dopamine	-10.9851
▁quasi	-10.9851
▁evoke	-10.9851
▁1975)	-10.9851
▁LTM	-10.9851
▁assist	-10.9859
▁oscillation	-10.9865
▁transcribed	-10.9866
▁intensive	-10.9867
▁unresolved	-10.9868
kel	-10.9868
▁smallest	-10.987
▁game	-10.987
▁invest	-10.9877
▁Genetic	-10.9878
plankton	-10.9882
▁karyotype	-10.9882
▁ancestry	-10.9882
▁2015;	-10.9882
▁distort	-10.9884
4°	-10.9885
▁finite	-10.9891
▁efficacy	-10.9897
▁nano	-10.9899
▁pond	-10.99
▁desired	-10.9928
micro	-10.9931
▁compact	-10.9938
cluster	-10.9941
▁controversial	-10.9943
▁coherent	-10.9943
▁neck	-10.9949
▁33]	-10.9951
▁consistency	-10.996
▁geo	-10.9962
▁31]	-10.9963
opsin	-10.9963
▁augment	-10.9974
iaceae	-10.9975
iceps	-10.9987
optimal	-10.9988
▁stabilization	-10.999
▁suspect	-10.999
▁20%	-10.9995
limb	-11.0003
▁export	-11.0013
▁antibodies	-11.0021
▁contemporary	-11.0021
▁redundant	-11.0021
▁spawning	-11.0021
▁mild	-11.0023
pharyngeal	-11.0037
▁Network	-11.0037
▁cooperation	-11.0037
▁passerine	-11.0037
▁yaw	-11.0038
▁hot	-11.0041
▁knock	-11.0051
▁syndrome	-11.0052
▁[61]	-11.0053
▁stereo	-11.0062
▁fight	-11.0065
▁continental	-11.0069
▁compute	-11.0072
apoptotic	-11.0084
▁detrimental	-11.0084
▁1973;	-11.0084
▁kDa	-11.0084
labeled	-11.0087
▁segregation	-11.0088
hole	-11.0094
▁dehydration	-11.0099
environment	-11.0115
▁progeny	-11.0115
▁modest	-11.0117
▁TNF	-11.0132
▁frontal	-11.0145
▁sensitivities	-11.0146
▁EMG	-11.0147
flo	-11.016
▁spend	-11.0161
▁requiring	-11.0162
▁circumstances	-11.0162
www	-11.0162
▁gray	-11.0184
8°	-11.0185
▁voltage	-11.0194
▁Differences	-11.0194
▁corticosterone	-11.021
▁straightforward	-11.021
etti	-11.0213
▁arterial	-11.0226
▁recognis	-11.0226
translational	-11.0227
while	-11.0227
▁radial	-11.0235
▁suited	-11.0239
▁California	-11.0242
▁adipose	-11.0242
▁affinities	-11.0242
▁lemur	-11.0242
▁anatomy	-11.0242
▁valve	-11.0243
▁reaches	-11.0247
how	-11.025
▁generalized	-11.0256
▁Significant	-11.0258
▁killifish	-11.0258
▁possibilities	-11.0258
▁curvature	-11.0274
▁integrity	-11.0274
▁oyster	-11.0274
▁vital	-11.0274
▁inferring	-11.0278
▁Math	-11.0282
▁harbour	-11.029
▁profiling	-11.029
▁pharmacological	-11.029
2.1	-11.029
significant	-11.0292
▁instar	-11.0292
▁implement	-11.0304
▁synergistic	-11.0306
wood	-11.0306
MDH	-11.0313
▁Cretaceous	-11.0322
▁accommodate	-11.0322
▁estrogen	-11.0322
▁spiral	-11.0328
▁discrimina	-11.0329
▁reflex	-11.0334
▁difficulties	-11.0335
phyletic	-11.0336
satellite	-11.0336
▁Saccharomyces	-11.0338
▁compliance	-11.0338
▁extensor	-11.0338
▁postulated	-11.0338
▁cytosolic	-11.0344
▁bladder	-11.0354
▁remarkably	-11.0354
▁SBML	-11.0354
▁afferent	-11.0354
▁anuran	-11.0357
▁34]	-11.0366
▁assign	-11.0369
▁auxin	-11.037
transcriptional	-11.0373
▁healthy	-11.0373
▁richness	-11.0374
▁volatile	-11.0386
▁Eastern	-11.0389
▁admixture	-11.0402
proteobacteria	-11.0402
pathogen	-11.0403
▁depress	-11.0409
▁facilitating	-11.0419
▁persistent	-11.0428
▁exponent	-11.0431
450	-11.0431
▁hormonal	-11.0435
▁oxidase	-11.0435
▁squirrel	-11.0435
▁2013	-11.0449
rabi	-11.045
▁aggression	-11.0451
▁predominant	-11.0475
zygotic	-11.0484
▁mobility	-11.0484
Schmidt	-11.0484
▁influx	-11.0484
▁toadfish	-11.0484
consuming	-11.0486
▁Myr	-11.0489
▁albeit	-11.05
▁behave	-11.05
▁matches	-11.0509
▁Middle	-11.0516
▁annelid	-11.0516
▁heavily	-11.0533
▁incorporating	-11.0533
▁1976)	-11.0533
▁fresh	-11.0549
▁negligible	-11.0549
▁impulse	-11.0549
▁WGD	-11.0549
▁osteo	-11.0554
▁fracture	-11.0566
intuitive	-11.0582
▁[31,	-11.0583
fib	-11.0587
▁arboreal	-11.0599
▁Molecular	-11.0599
▁coalescent	-11.0599
▁bacterium	-11.0601
Changes	-11.0602
3°	-11.0604
▁cholesterol	-11.0615
▁wheat	-11.0615
family	-11.0617
▁organized	-11.0626
▁meiotic	-11.0632
modulating	-11.0632
ould	-11.0632
▁archaeal	-11.0639
▁technologies	-11.0648
▁perch	-11.0655
▁explicit	-11.0657
▁protective	-11.0659
wait	-11.0661
▁worldwide	-11.0666
▁Markov	-11.0682
▁fluorescent	-11.0698
▁39]	-11.0703
▁concomitant	-11.0715
▁century	-11.0715
▁exploring	-11.0715
▁paternal	-11.0715
▁package	-11.0715
▁diagram	-11.0715
▁accessory	-11.0715
▁35]	-11.0722
precipitation	-11.0724
take	-11.0727
▁vortices	-11.0732
▁neuropeptide	-11.0732
▁compression	-11.074
▁Female	-11.0749
▁contig	-11.0752
▁nearby	-11.0754
left	-11.0755
acanth	-11.0762
▁enhancing	-11.0765
▁warrant	-11.0765
Farrell	-11.0765
▁climbing	-11.0765
▁[62]	-11.0766
▁amphi	-11.0766
▁tilapia	-11.0782
phylogenetically	-11.0782
1.1	-11.0787
supported	-11.0791
▁acidification	-11.0792
▁abdomen	-11.0799
▁collision	-11.0799
human	-11.08
▁claim	-11.0809
▁cortex	-11.0816
▁whilst	-11.0816
▁offset	-11.0817
force	-11.0843
▁restore	-11.0847
▁stressful	-11.0848
▁Surprisingly	-11.0849
▁telomere	-11.0849
quality	-11.0858
▁1971;	-11.0866
▁morphologies	-11.0866
▁query	-11.0867
front	-11.087
▁axes	-11.0872
response	-11.0876
▁unchanged	-11.0883
▁1974)	-11.0884
▁fragmentation	-11.0885
theria	-11.0898
▁option	-11.0899
▁Iberian	-11.09
▁bivalve	-11.09
▁staining	-11.09
▁sodium	-11.09
▁dorso	-11.0901
▁patient	-11.0905
▁buoyancy	-11.0917
▁classifier	-11.0917
▁radius	-11.0918
neurotransmitter	-11.0934
▁familiar	-11.0934
▁occupied	-11.0934
▁dosage	-11.0936
carp	-11.0936
▁crustacean	-11.0941
▁gamete	-11.0943
represented	-11.0945
▁indels	-11.0946
▁analyse	-11.0948
▁leech	-11.0952
▁lamina	-11.0967
EWL	-11.0969
patric	-11.0973
▁lose	-11.0977
▁pigmentation	-11.0993
Evans	-11.0998
pteran	-11.0998
▁NHE	-11.1
▁cylinder	-11.1003
▁anticipate	-11.1003
▁bulk	-11.1003
▁handling	-11.1004
▁grown	-11.1018
▁therapy	-11.1021
▁bilaterian	-11.1037
▁[32,	-11.1038
▁prevalent	-11.1041
▁downregulation	-11.1041
▁Experimental	-11.1056
olysis	-11.107
▁mobile	-11.1072
▁gecko	-11.1072
▁substances	-11.1072
▁[64]	-11.1072
xfr	-11.1076
▁converge	-11.1088
▁collapse	-11.1089
▁noteworthy	-11.1107
▁1972)	-11.1107
▁sarcomere	-11.1124
▁dys	-11.1135
▁MYA	-11.1142
▁publication	-11.1151
Whit	-11.1154
▁biosynthetic	-11.1159
▁visit	-11.1159
▁verify	-11.116
▁invade	-11.1191
▁impose	-11.1191
▁[63]	-11.1194
▁cognitive	-11.1211
▁sudden	-11.1212
▁synteny	-11.1212
▁leaving	-11.1212
▁extraction	-11.1212
▁fauna	-11.1225
▁anthropogenic	-11.1229
▁assemblage	-11.1229
▁quantities	-11.1229
▁intensities	-11.1229
▁lifetime	-11.1237
tidal	-11.1238
harm	-11.1245
▁Evidence	-11.1247
▁coincid	-11.125
▁radio	-11.1253
▁Human	-11.1253
▁leave	-11.126
▁NADH	-11.1264
▁overexpression	-11.1281
▁elimination	-11.1282
▁elsewhere	-11.1282
▁improving	-11.1282
▁parasitism	-11.1282
▁waveform	-11.1285
▁shunt	-11.1285
▁plotted	-11.1286
7°	-11.1293
▁swarm	-11.13
▁recommend	-11.1317
▁integrative	-11.1317
▁retraction	-11.1317
▁Japanese	-11.1317
▁Assuming	-11.1317
▁ornament	-11.1318
▁binary	-11.1318
gBa	-11.1322
▁intergenic	-11.1328
▁pectoralis	-11.1329
▁hypothetical	-11.1335
▁receiver	-11.1345
▁38]	-11.1345
▁technology	-11.1353
▁Genome	-11.1353
▁assembled	-11.1353
▁thermodynamic	-11.1353
▁feet	-11.1353
▁flexor	-11.1354
▁stock	-11.1359
▁36]	-11.137
▁conjunction	-11.1371
▁macaque	-11.1371
▁Storey	-11.1371
▁increment	-11.1371
dwelling	-11.1372
▁LRR	-11.1372
opoda	-11.1372
▁oligo	-11.1388
3.5	-11.139
+]	-11.1397
▁rational	-11.1399
▁cartilage	-11.1407
deficient	-11.1424
▁fluctuating	-11.1424
▁solar	-11.1427
owski	-11.1427
ifolia	-11.1431
▁border	-11.1438
▁diversified	-11.1442
ranging	-11.1444
▁microorganisms	-11.146
▁LGT	-11.1478
▁isotope	-11.1478
distinguishable	-11.1485
▁transverse	-11.1496
▁unambiguous	-11.1496
600	-11.1497
▁[34,	-11.1497
▁anchor	-11.1502
▁Large	-11.1511
▁Effect	-11.1515
▁Madagascar	-11.1515
▁Regardless	-11.1515
▁digest	-11.1523
space	-11.1528
▁atmosphere	-11.1533
▁alternate	-11.1536
▁trachea	-11.1541
▁mainland	-11.1549
▁programming	-11.1551
▁epithelia	-11.1561
▁neglect	-11.1569
keratin	-11.1569
▁caterpillar	-11.1587
▁expensive	-11.1587
▁spiracle	-11.1587
▁defensive	-11.1605
▁nevertheless	-11.1605
▁swimbladder	-11.1605
▁40]	-11.1615
kov	-11.1623
▁provision	-11.1624
▁Amazon	-11.1624
▁Perhaps	-11.1624
▁oviposition	-11.1627
▁items	-11.1628
strict	-11.1648
▁EGFR	-11.1649
▁downward	-11.1649
▁Onc	-11.1653
▁removing	-11.166
molecule	-11.1663
▁import	-11.1664
▁secret	-11.167
▁elasmobranch	-11.1679
▁stomach	-11.1679
▁tuberculosis	-11.1679
▁Clearly	-11.1679
▁decide	-11.1679
0.02	-11.1693
▁bifurcation	-11.1697
▁gastrocnemius	-11.1697
▁propensity	-11.1697
▁rhabdom	-11.1697
▁ventricle	-11.1697
▁proceed	-11.1697
▁validity	-11.1705
▁grade	-11.1705
amino	-11.171
▁glycoprotein	-11.1716
▁phylum	-11.1716
▁taste	-11.1716
Zhang	-11.1717
▁Pliocene	-11.1734
▁hepatic	-11.1734
although	-11.1738
▁plateau	-11.1738
▁normoxic	-11.1753
▁synapse	-11.1753
▁bipedal	-11.1753
▁skew	-11.1753
▁41]	-11.1768
GenBank	-11.1771
▁heterozygosity	-11.1771
▁assimilation	-11.1773
▁recurrent	-11.1775
▁motivation	-11.1777
▁Plant	-11.1797
▁Lepidoptera	-11.1808
▁pelvic	-11.1808
▁complicat	-11.1814
▁lever	-11.1823
▁resolving	-11.1827
▁cyt	-11.1839
coupled	-11.1844
▁underwent	-11.1846
closing	-11.1847
▁gastric	-11.1849
▁catfish	-11.1851
evolving	-11.1851
placing	-11.1851
▁specialist	-11.1852
▁dissect	-11.1855
▁compress	-11.1857
▁scientific	-11.1864
▁reliably	-11.1866
▁pathogenesis	-11.1869
▁reflectance	-11.1879
▁Hetero	-11.1879
▁solitary	-11.1883
▁interfere	-11.1886
▁oldest	-11.189
▁rotate	-11.1897
blue	-11.1897
sorption	-11.1902
▁Escherichia	-11.1902
▁kingdom	-11.1902
▁morphometric	-11.1904
bird	-11.1907
▁microRNA	-11.1909
▁fitting	-11.1914
▁probabilistic	-11.1921
▁popular	-11.1921
Johnston	-11.1921
▁automated	-11.1921
TEF	-11.1934
▁surround	-11.1957
▁glaciation	-11.1959
▁mirror	-11.1959
▁[67]	-11.1959
▁LGM	-11.1959
▁loud	-11.1965
▁ruf	-11.1966
▁dissipation	-11.1978
▁incorrect	-11.1978
▁autosomal	-11.1978
▁gliding	-11.1978
▁execut	-11.1983
encoded	-11.1985
▁exclusion	-11.1997
▁outperform	-11.1997
▁presumed	-11.1997
▁specimen	-11.2009
▁90%	-11.2011
▁closure	-11.2016
zygote	-11.2016
▁spatio	-11.2016
▁1971)	-11.2016
▁scarce	-11.2016
▁[33,	-11.2016
augh	-11.2024
tendon	-11.2029
▁evaluating	-11.2035
▁vice	-11.2046
▁formulation	-11.2052
▁Maximum	-11.2054
▁accessions	-11.2059
▁colonized	-11.206
either	-11.2065
omonas	-11.2069
▁mechano	-11.2073
▁composite	-11.2073
▁arousal	-11.2073
▁Chinese	-11.2073
process	-11.2081
▁segregat	-11.2086
▁Japan	-11.2092
▁ejaculate	-11.2092
▁incongruence	-11.2092
▁utilis	-11.2092
▁HIF	-11.2092
transport	-11.2103
▁execution	-11.2106
▁deficiency	-11.2111
▁tuned	-11.2111
conjugat	-11.2112
glucose	-11.2112
oda	-11.2127
▁definitive	-11.213
▁parsimonious	-11.213
parametric	-11.215
exposed	-11.2159
▁viscosity	-11.2169
▁chill	-11.217
▁Monte	-11.2173
▁glutamine	-11.2188
▁pregnancy	-11.2188
▁copulation	-11.2188
▁bundle	-11.2189
▁tetraploid	-11.2189
▁archaea	-11.22
▁irrespective	-11.2208
▁meiosis	-11.2208
▁refuge	-11.2208
▁[35,	-11.2209
▁biofilm	-11.2227
▁retrieve	-11.2227
▁acuity	-11.2227
▁punct	-11.2229
large	-11.2231
▁37]	-11.2243
nrfifHhDYfgasaac	-11.2246
6°	-11.2246
▁kernel	-11.2247
▁unstable	-11.2247
▁[65]	-11.2247
▁extrapolat	-11.2247
wavelength	-11.2255
feaa	-11.2258
▁derivative	-11.2266
▁moult	-11.2272
Franc	-11.2282
▁incidence	-11.2286
▁unaffected	-11.2286
cerebral	-11.2286
▁Bacteria	-11.2286
▁giant	-11.2286
▁microbes	-11.2286
▁paraphyletic	-11.2286
Chen	-11.229
▁cephalopod	-11.2305
▁fascicle	-11.2305
▁normoxia	-11.2305
hardt	-11.2308
▁androgen	-11.2308
rmoregulatory	-11.2316
▁combinatorial	-11.2325
▁synchronous	-11.2325
Smith	-11.2337
▁drainage	-11.2344
▁ensemble	-11.2344
▁clean	-11.2346
▁instantaneous	-11.2364
▁mere	-11.2376
▁Neuro	-11.2377
▁delimitation	-11.2389
miRNA	-11.2399
▁administration	-11.2404
▁modulator	-11.2404
▁paradox	-11.2404
odd	-11.2408
retin	-11.2415
▁dominate	-11.2416
mandibular	-11.2423
▁glucocorticoid	-11.2423
▁attenuate	-11.2423
▁sought	-11.2423
▁deplete	-11.2425
protect	-11.2427
spanning	-11.2428
▁safety	-11.2443
▁applies	-11.2463
burg	-11.2468
▁eutherian	-11.2483
▁quantification	-11.2483
▁unravel	-11.2483
▁viscous	-11.2483
▁termination	-11.2483
Nilsson	-11.2483
fascia	-11.2485
▁Black	-11.2486
3.1	-11.2498
▁arranged	-11.2503
▁constituent	-11.2503
occur	-11.2503
▁sarco	-11.2509
▁illustrat	-11.2521
▁preclude	-11.2523
▁pulmonary	-11.2523
▁TFBS	-11.2524
▁venous	-11.2543
▁GATA	-11.2544
▁squam	-11.2544
solid	-11.2552
▁rigorous	-11.2563
▁settlement	-11.2563
▁mosaic	-11.2563
▁[66]	-11.2564
▁mixing	-11.2564
word	-11.2572
▁propagate	-11.2583
▁ovary	-11.2583
▁commercial	-11.2603
▁endothelial	-11.2603
▁AFLP	-11.2604
▁scoring	-11.2604
▁amphioxus	-11.2624
▁excursion	-11.2624
▁ingestion	-11.2624
coll	-11.2641
1.3	-11.2643
▁catabolism	-11.2644
▁resonance	-11.2644
▁maize	-11.2644
▁cricket	-11.2651
▁arrows	-11.2655
chloro	-11.2658
▁allocate	-11.2664
▁hidden	-11.2664
▁reliability	-11.2667
▁diverge	-11.2676
▁autumn	-11.2684
▁consecutive	-11.2684
▁[37,	-11.2685
agno	-11.2693
▁42]	-11.2701
two	-11.2702
complex	-11.2702
▁melatonin	-11.2705
▁sophisticated	-11.2705
introduc	-11.2705
▁bilateral	-11.2708
▁Amphi	-11.2709
▁emphasis	-11.2725
▁enlarged	-11.2725
▁trehalose	-11.2725
▁proxy	-11.2725
▁Great	-11.2729
derma	-11.2735
characterized	-11.2742
▁concatenated	-11.2746
black	-11.2747
▁locate	-11.2759
average	-11.2763
▁nitrite	-11.2766
▁outcrossing	-11.2766
▁hemisphere	-11.2767
▁isolate	-11.2782
▁pancreatic	-11.2787
▁retrotransposon	-11.2787
▁vicariance	-11.2787
▁infectious	-11.2788
▁Experiment	-11.2805
▁Plasmodium	-11.2807
▁experiencing	-11.2807
▁disparity	-11.2807
▁spacing	-11.2807
▁indices	-11.2808
condition	-11.2825
▁starch	-11.2827
▁paralogues	-11.2828
phagous	-11.2828
hereafter	-11.2835
▁stay	-11.2838
▁antenna	-11.2843
▁Expression	-11.2849
▁abbreviations	-11.2849
▁microtubule	-11.2849
utilizing	-11.2849
▁PPAR	-11.2849
kawa	-11.2868
▁identifies	-11.2869
▁computing	-11.2869
▁characterizing	-11.2873
▁hierarchy	-11.289
▁upstroke	-11.2892
stream	-11.2907
▁Symbiodinium	-11.2911
▁opossum	-11.2911
▁rearrangement	-11.2924
nuclear	-11.2952
▁endurance	-11.2953
copulatory	-11.2953
▁terrain	-11.2953
▁NMDA	-11.2973
▁trafficking	-11.2974
ocytic	-11.2987
▁Lymnaea	-11.2994
▁allopolyploid	-11.2994
▁displac	-11.3031
adaptive	-11.3037
▁dysfunction	-11.3053
▁adverse	-11.3058
▁desirable	-11.3058
▁irregular	-11.3058
▁copepod	-11.3059
evolve	-11.3074
phasic	-11.3077
▁semantic	-11.3079
xposure	-11.3097
identifiable	-11.31
▁symmetrical	-11.31
▁cortical	-11.31
▁imbalance	-11.31
▁serum	-11.3106
▁gallop	-11.3107
▁liquid	-11.3121
▁laevis	-11.3121
violet	-11.3121
▁Cyto	-11.3122
▁Mountain	-11.3142
▁1970;	-11.3142
organism	-11.3147
▁motivat	-11.3157
▁Individual	-11.3164
▁gibbon	-11.3164
▁sympatry	-11.3164
▁vitamin	-11.3164
▁maturity	-11.3164
▁reductase	-11.3164
▁dashed	-11.3164
▁diatom	-11.3164
nuclease	-11.3165
▁immunological	-11.3165
weight	-11.3169
Davis	-11.3178
▁saccade	-11.3185
▁film	-11.3186
▁cytosol	-11.3198
▁caspase	-11.3207
▁rhodopsin	-11.3207
▁tumour	-11.3207
▁tank	-11.3207
▁Quaternary	-11.3228
▁calcification	-11.3228
▁ganglia	-11.3228
▁1967;	-11.3228
muscle	-11.3233
animal	-11.3234
▁disjunct	-11.3249
▁discrepancies	-11.3249
▁japonica	-11.3249
▁Generally	-11.3249
▁paracellular	-11.3252
adrenergic	-11.3271
▁library	-11.3271
▁symbiosis	-11.3271
sample	-11.3275
▁classify	-11.3277
▁tuna	-11.329
▁embedded	-11.3293
▁eyespot	-11.3294
subunit	-11.3296
neutral	-11.3296
▁facultative	-11.3336
▁artefact	-11.3336
▁chaperone	-11.3336
▁transposon	-11.3336
▁anoxic	-11.3336
▁seemingly	-11.3337
▁concurrent	-11.3338
workers	-11.3343
0.8	-11.3351
▁preservation	-11.3358
▁confounding	-11.3358
▁arrive	-11.3358
▁participat	-11.3358
▁Southeast	-11.3361
▁illumination	-11.3379
▁buccal	-11.3379
▁femur	-11.338
▁serious	-11.338
Wainwright	-11.3401
▁arbitrary	-11.3401
▁dissimilar	-11.3401
▁reservoir	-11.3401
▁stoichiometric	-11.3401
▁Brazil	-11.3401
▁1973)	-11.3402
Seq	-11.3416
excluding	-11.3423
▁atmospheric	-11.3423
▁vocalizations	-11.3423
▁[38,	-11.3425
▁mediator	-11.3425
▁morphogenesis	-11.3427
oxidation	-11.3429
▁elaborate	-11.3445
▁latitudinal	-11.3445
▁mutated	-11.3445
mission	-11.3446
enzyme	-11.3451
▁polynomial	-11.3467
▁ambiguous	-11.3467
▁epidermal	-11.3467
▁noisy	-11.3467
Graham	-11.3468
pterid	-11.3472
‘	-11.3473
▁guarantee	-11.3489
▁plug	-11.349
normal	-11.3496
▁gamma	-11.3511
▁[36,	-11.3512
rmoregulation	-11.3529
▁congruence	-11.3533
▁senescence	-11.3533
▁symmetry	-11.3533
▁Tetra	-11.3536
▁elevat	-11.355
▁Archaea	-11.3556
first	-11.3563
▁people	-11.3578
▁multivariate	-11.36
▁downstroke	-11.3601
▁camouflage	-11.3622
▁cultivated	-11.3622
▁daughter	-11.3622
▁superficial	-11.3645
▁budget	-11.3645
▁chromatophore	-11.3645
▁sensilla	-11.3645
▁gather	-11.3645
▁Multiple	-11.3645
▁Ciona	-11.3646
▁selectivity	-11.3647
▁Hymenoptera	-11.3667
▁contralateral	-11.3667
▁dinoflagellate	-11.3667
▁technical	-11.3667
▁hypertrophy	-11.3669
analysis	-11.3676
osmotic	-11.3684
▁Sequence	-11.369
▁1969;	-11.369
▁hovering	-11.369
▁hydrocarbon	-11.369
▁firing	-11.369
▁[39,	-11.3691
▁glass	-11.3691
▁Contrary	-11.3712
▁attributable	-11.3712
▁diffuse	-11.3712
catenin	-11.3713
female	-11.3721
trivial	-11.3738
equilibrium	-11.3744
▁fire	-11.3755
▁vertebrae	-11.3757
▁abstract	-11.3757
plasma	-11.3769
▁Eocene	-11.378
▁ventilatory	-11.378
▁scallop	-11.378
▁erythrocyte	-11.378
▁supra	-11.378
▁EGF	-11.3802
▁diverging	-11.3803
▁hypothalamus	-11.3803
▁turbulence	-11.3803
efficient	-11.3807
▁inverted	-11.3828
▁Insect	-11.3849
▁sonar	-11.3851
sensitivity	-11.386
▁separating	-11.3871
▁Again	-11.3872
▁Guinea	-11.3873
▁hyoid	-11.3874
stigma	-11.3879
carbon	-11.3883
change	-11.3884
▁confident	-11.3894
saccharide	-11.3894
▁sibling	-11.3894
▁prevail	-11.3894
▁[68]	-11.3895
▁erythro	-11.3899
white	-11.3906
vector	-11.3908
Linnaeus	-11.3917
▁automatically	-11.3917
▁ligament	-11.3917
▁odontocete	-11.3917
▁falciparum	-11.394
▁musculoskeletal	-11.394
▁[69]	-11.3941
▁Siberia	-11.3941
▁specified	-11.3942
▁captivity	-11.3963
▁easier	-11.3963
▁Population	-11.3963
▁surge	-11.3963
▁blind	-11.3964
Collett	-11.3987
▁foreign	-11.3988
migration	-11.4
▁glutathione	-11.401
▁opposing	-11.401
▁shelter	-11.401
▁laying	-11.4012
Bayes	-11.4019
▁preferential	-11.4032
▁rabbit	-11.4033
▁nutrition	-11.4045
▁infra	-11.4053
▁subterranean	-11.4056
▁satisfy	-11.4056
▁wound	-11.4056
▁specify	-11.4068
▁blubber	-11.408
▁mellifera	-11.408
▁neuromuscular	-11.408
nucleat	-11.4082
posterior	-11.4097
▁mollusk	-11.4103
▁embryogenesis	-11.4126
▁deploy	-11.4126
Jackson	-11.4127
random	-11.4142
▁Anopheles	-11.415
▁Materials	-11.415
▁metabolomic	-11.415
▁modulus	-11.415
▁exhaustive	-11.4174
▁diabetes	-11.4174
▁proteasome	-11.4174
▁subgenus	-11.4174
▁heterodimer	-11.4174
▁robot	-11.4174
▁iterative	-11.4174
Walker	-11.4175
▁breakdown	-11.4175
aldehyde	-11.4197
▁pleiotropic	-11.4197
▁glycine	-11.4197
▁buzz	-11.4197
▁Variation	-11.4197
▁mega	-11.4201
generating	-11.4214
▁contamination	-11.4221
▁heritable	-11.4221
Gaai	-11.4221
▁defend	-11.4221
aabeqaa	-11.4225
▁deficit	-11.4245
▁periphery	-11.4245
▁subdivision	-11.4245
▁raising	-11.4245
caught	-11.4245
▁aware	-11.427
contraction	-11.4285
adbaqaaeGac	-11.4292
xNi	-11.4292
▁overestimate	-11.4292
▁phospholipid	-11.4292
▁dsRNA	-11.4293
fsY	-11.4296
▁perceive	-11.4312
▁premature	-11.4316
▁vicinity	-11.4316
▁retractor	-11.4316
▁murine	-11.4316
▁oxide	-11.4317
▁relating	-11.4317
measure	-11.4334
▁mechanosensory	-11.434
▁treadmill	-11.434
▁vulnerable	-11.434
▁operator	-11.434
hawk	-11.4361
▁hamsters	-11.4364
▁hermaphrodites	-11.4364
pollination	-11.4364
▁hotspot	-11.4364
▁aversive	-11.4364
▁supertree	-11.4364
facial	-11.4366
▁interrupt	-11.4388
▁voluntary	-11.4388
▁compliant	-11.4388
▁pocket	-11.4388
▁[70]	-11.4389
▁relax	-11.4392
eminal	-11.4394
▁irradiance	-11.4412
qGq	-11.4413
▁Lastly	-11.4413
▁virgin	-11.4413
▁piece	-11.4413
▁subfunctionaliz	-11.4417
2–4	-11.4418
▁Malpighian	-11.4437
▁pharmaco	-11.4437
▁crawl	-11.4438
▁ventricular	-11.4461
▁scanning	-11.4462
glycan	-11.4463
▁Mexico	-11.4485
▁alcohol	-11.4485
phospho	-11.4506
▁demonstration	-11.451
▁ovaries	-11.451
▁bimodal	-11.451
Dawson	-11.4511
▁capillary	-11.4534
▁antimicrobial	-11.4559
▁Small	-11.4569
predict	-11.458
umerous	-11.4582
▁intermittent	-11.4583
▁Rhcg	-11.4583
▁lengthening	-11.4584
▁homogeniz	-11.4584
▁conclusive	-11.4608
▁libraries	-11.4608
Peters	-11.4623
Thompson	-11.4633
▁lepidopteran	-11.4633
▁medaka	-11.4633
▁blend	-11.4633
▁inorganic	-11.4633
▁expense	-11.4657
▁synthetase	-11.4682
▁arrival	-11.4682
▁ablation	-11.4683
▁deviate	-11.4686
omycetes	-11.4702
Wiltschko	-11.4707
▁perturbed	-11.4707
Nelson	-11.4713
Wilson	-11.4731
▁Examples	-11.4732
▁flagellum	-11.4732
▁[71]	-11.4732
Harrison	-11.4733
▁entrain	-11.4743
pituitary	-11.4757
▁Oligocene	-11.4757
▁echinoderm	-11.4757
▁letters	-11.4757
▁trotting	-11.4757
▁pylori	-11.4757
▁blade	-11.4757
balance	-11.4781
▁NADPH	-11.4782
▁deleted	-11.4782
bodied	-11.4785
▁iteration	-11.4788
▁calculating	-11.4807
▁detoxification	-11.4807
▁pinniped	-11.4807
0.03	-11.4823
▁dimorphic	-11.4832
▁imprinting	-11.4832
▁Functional	-11.4858
▁pipeline	-11.4858
▁agricultural	-11.4883
▁chemotaxis	-11.4883
▁quick	-11.4888
amination	-11.49
▁elbow	-11.4908
▁emitted	-11.4908
▁hagfish	-11.4908
▁acknowledge	-11.4934
▁aforementioned	-11.4934
▁heuristic	-11.4934
▁harmonic	-11.4934
▁FGF	-11.4934
adrenal	-11.4935
▁Time	-11.4951
▁surviving	-11.4959
▁swelling	-11.4959
▁lysozyme	-11.4985
▁minimizing	-11.4985
▁instrument	-11.4985
epithelial	-11.4987
current	-11.5004
▁octopamine	-11.501
▁proboscis	-11.501
receptive	-11.5036
▁cytoskeleton	-11.5036
▁identifiability	-11.5036
▁migrating	-11.5036
▁unpredictable	-11.5036
▁hydrolysis	-11.5036
twitch	-11.5036
ologists	-11.5038
▁exoskeleton	-11.5062
▁inspection	-11.5062
▁nitrate	-11.5062
▁tactile	-11.5062
Richards	-11.5062
Jensen	-11.5064
resistant	-11.5065
ocytosis	-11.5069
▁cloud	-11.5088
▁silent	-11.5088
▁doubt	-11.5088
▁dictate	-11.509
▁abrupt	-11.5114
▁chemosensory	-11.5114
▁genotypic	-11.5114
▁Arctic	-11.5114
▁communicat	-11.5133
thermal	-11.5135
▁fructose	-11.514
▁ommatidia	-11.514
▁1968;	-11.514
▁covariance	-11.514
▁implicit	-11.514
▁ordinary	-11.514
▁phosphoryl	-11.5151
▁paternity	-11.5166
▁recipient	-11.5166
▁tunicate	-11.5166
▁amoeb	-11.5166
work	-11.5184
▁abolish	-11.5192
sequence	-11.5194
agged	-11.5205
▁archipelago	-11.5218
▁immature	-11.5218
▁territory	-11.5218
▁Darwin	-11.5218
▁huge	-11.5218
▁quadrat	-11.5226
oligomer	-11.5229
generated	-11.5243
omycota	-11.5271
▁excrete	-11.5271
▁gaze	-11.5277
cadherin	-11.5297
▁scattered	-11.5297
▁morphotype	-11.5297
aceous	-11.5312
▁asymptotic	-11.5323
▁dissociation	-11.5323
▁porpoise	-11.5323
▁fault	-11.5324
existing	-11.5326
▁Hydro	-11.5335
▁adhere	-11.5342
pterus	-11.5345
▁analysing	-11.535
▁prerequisite	-11.535
▁accompany	-11.535
▁burden	-11.535
▁siRNA	-11.535
hybrid	-11.5357
▁grasshopper	-11.5376
▁Transcript	-11.5377
▁elusive	-11.5377
▁unequal	-11.5377
▁eigen	-11.5377
▁continuum	-11.543
▁simplicity	-11.543
▁leptin	-11.543
▁Depend	-11.543
▁endoderm	-11.543
▁hamper	-11.543
▁palm	-11.5434
growth	-11.5438
number	-11.5438
▁CEACAM	-11.5457
▁Caribbean	-11.5457
▁Metabolic	-11.5457
▁stimulating	-11.5457
▁Relative	-11.5457
▁garden	-11.5457
gastrointestinal	-11.5484
▁conceivable	-11.5484
▁musculus	-11.5484
▁replicator	-11.5484
▁varieties	-11.5484
▁adulthood	-11.5484
▁revision	-11.5484
▁anemone	-11.5484
▁valley	-11.5484
▁guard	-11.5484
▁cassette	-11.5511
▁follicle	-11.5511
▁peculiar	-11.5511
▁quail	-11.5511
citrate	-11.5512
▁biomedical	-11.5538
▁methodologies	-11.5538
▁dispersion	-11.5538
▁GTPase	-11.5538
▁femora	-11.5538
▁weather	-11.5538
stained	-11.5538
surface	-11.5547
▁contributor	-11.5565
▁transduce	-11.5565
▁Golgi	-11.5592
▁firm	-11.5595
conserved	-11.5602
▁categoriz	-11.5619
▁1966;	-11.5619
▁Taiwan	-11.5619
▁budding	-11.5619
▁cleave	-11.5619
▁attenuation	-11.5646
▁bleaching	-11.5646
▁angiogenesis	-11.5646
▁hopping	-11.5647
▁haltere	-11.5674
▁cpDNA	-11.5674
▁cumulative	-11.5701
▁dissolved	-11.5701
▁pulex	-11.5701
▁Paleo	-11.5704
filtration	-11.5729
▁flutter	-11.5729
phosphorylation	-11.5741
▁proximate	-11.5756
▁[73]	-11.5757
▁ultimate	-11.576
▁Jayne	-11.5784
▁crowding	-11.5784
▁cultivar	-11.5784
▁excitation	-11.5784
▁territorial	-11.5784
▁[72]	-11.5785
dynamic	-11.5824
through	-11.5825
▁amplify	-11.584
▁sliding	-11.584
aaaaa	-11.5844
▁assortative	-11.5868
▁leatherback	-11.5868
▁NKCC	-11.5868
▁facing	-11.5868
▁gravi	-11.5868
except	-11.5889
▁traffic	-11.5895
▁aestivation	-11.5896
▁choosing	-11.5896
▁spectrometry	-11.5896
▁vegetative	-11.5896
harvest	-11.5896
Flux	-11.5901
▁Hybrid	-11.5924
▁mesenchymal	-11.5924
Hammond	-11.5924
▁benchmark	-11.5924
▁therapies	-11.5924
Stevens	-11.5951
▁epistasis	-11.5952
▁serotonergic	-11.5952
▁mesoderm	-11.5952
releasing	-11.5952
▁bream	-11.5952
▁1970)	-11.5953
▁phylogeography	-11.598
▁simplification	-11.598
▁subtilis	-11.598
▁alternating	-11.598
▁thermogenesis	-11.598
▁couple	-11.5982
growing	-11.5996
▁oviposit	-11.6003
autonomous	-11.6009
▁outbreak	-11.6009
▁succinate	-11.6009
▁divide	-11.6009
kinetic	-11.6024
▁chloride	-11.6037
▁isotopic	-11.6037
▁alligator	-11.6037
▁maxilla	-11.6037
▁[75]	-11.6038
RING	-11.6039
compatible	-11.6053
tolerance	-11.6054
▁degenerate	-11.6055
anthus	-11.606
▁medicine	-11.6065
▁ligase	-11.6066
flagell	-11.6089
▁pipiens	-11.6094
▁temporary	-11.6094
▁interconnected	-11.6094
▁cohort	-11.6094
finned	-11.6095
▁applicability	-11.6123
▁enormous	-11.6123
▁fidelity	-11.6123
▁fission	-11.6123
inositol	-11.6123
▁Direct	-11.6125
▁hemoglobin	-11.6151
▁decapod	-11.6151
▁prompt	-11.6152
▁coarse	-11.6157
▁spermatozoa	-11.618
▁stringent	-11.618
▁endosymbiotic	-11.6209
▁osmolality	-11.6209
▁perpendicular	-11.6209
▁superoxide	-11.6209
▁dissipate	-11.6209
▁frond	-11.6209
after	-11.6216
▁NANOG	-11.6238
▁quadrupedal	-11.6238
▁transposable	-11.6238
▁uncertainties	-11.6238
▁chondr	-11.6238
▁fifth	-11.6238
▁[1–4]	-11.6238
▁voles	-11.6239
lithic	-11.625
stroke	-11.6255
source	-11.6255
▁substitute	-11.6267
syllable	-11.6267
▁wheel	-11.6267
▁potato	-11.6267
▁Alaska	-11.6267
▁1967)	-11.6268
▁Wolf	-11.6268
Srinivasan	-11.6296
▁OXPHOS	-11.6296
▁centromere	-11.6296
▁fertilize	-11.6296
▁1968)	-11.6297
▁[74]	-11.6297
▁herbivores	-11.6326
▁observable	-11.6326
▁simulating	-11.6326
▁Research	-11.6326
▁shoot	-11.6326
▁clues	-11.6326
▁medical	-11.6326
▁attach	-11.6346
essential	-11.6346
▁epidermis	-11.6355
▁Zealand	-11.6355
▁dwarf	-11.6355
▁solute	-11.6355
▁convey	-11.6355
▁Estimat	-11.6355
▁Regarding	-11.6384
▁ascertain	-11.6384
▁cultivation	-11.6384
adaptation	-11.6406
predator	-11.6412
selective	-11.6436
▁biogeography	-11.6443
▁concordant	-11.6443
▁discharge	-11.6443
▁misleading	-11.6443
▁synchrony	-11.6443
▁territories	-11.6443
▁autosomes	-11.6443
▁science	-11.6443
▁drinking	-11.6473
▁Simulation	-11.6473
natural	-11.6497
▁barnacle	-11.6503
▁lamellae	-11.6503
▁Pathway	-11.6503
▁overview	-11.6503
▁Jurassic	-11.6533
▁entrance	-11.6533
▁necessity	-11.6533
▁turbulent	-11.6533
Ellington	-11.6533
supervised	-11.6534
McDonald	-11.6563
▁Achilles	-11.6563
▁Diamond	-11.6563
▁remodelling	-11.6563
▁severity	-11.6563
▁convincing	-11.6593
▁allosteric	-11.6593
▁simplify	-11.6593
mimetic	-11.6593
▁histological	-11.6593
membrane	-11.6616
▁ecdysteroid	-11.6623
▁planktonic	-11.6623
▁session	-11.6623
▁outlined	-11.6623
Swanson	-11.6623
articulate	-11.6628
▁excitatory	-11.6653
▁ipsilateral	-11.6653
▁mangrove	-11.6653
▁methionine	-11.6653
▁undertaken	-11.6653
▁proposal	-11.6653
▁pufferfish	-11.6683
▁Analyse	-11.6683
▁implied	-11.6683
▁silence	-11.6683
▁rescue	-11.6684
ophyceae	-11.6693
resolution	-11.6709
structural	-11.6709
▁fertile	-11.6714
▁simulans	-11.6714
▁vertices	-11.6714
guided	-11.6721
aspartate	-11.6726
constitut	-11.6729
▁concordance	-11.6744
▁hunting	-11.6744
▁translocate	-11.6745
▁Coast	-11.6746
▁Multi	-11.6757
▁breadth	-11.6775
▁bubble	-11.6775
▁avenue	-11.6775
▁Factor	-11.6775
▁[76]	-11.6775
▁ignored	-11.6805
threonine	-11.6836
▁bHLH	-11.6836
▁syntenic	-11.6836
▁[4–6]	-11.6836
▁terminate	-11.6842
0.04	-11.6847
▁receiving	-11.6867
▁harmful	-11.6867
restricted	-11.6896
oxidant	-11.6897
▁uplift	-11.6898
▁disparate	-11.6898
▁frozen	-11.6898
▁Arabian	-11.6898
▁nominal	-11.6899
cqWG	-11.69
▁bottlenose	-11.6929
▁discordance	-11.6929
▁disulfide	-11.6929
▁epidemic	-11.6929
▁evaporative	-11.6929
▁luminal	-11.6929
generative	-11.6931
Biewener	-11.6959
determined	-11.6959
course	-11.6959
▁undulation	-11.696
hormone	-11.699
▁Morphological	-11.6992
▁children	-11.6992
▁heterozygous	-11.6992
▁broken	-11.6992
▁1964;	-11.6992
▁backbone	-11.6992
▁capturing	-11.6992
▁contradictory	-11.6992
▁solving	-11.6992
▁microhabitat	-11.7023
▁plesiomorphic	-11.7023
depth	-11.7023
▁alkaline	-11.7023
▁remote	-11.7024
▁flora	-11.7046
swimming	-11.7054
▁spermatogenesis	-11.7054
▁coalescence	-11.7086
▁incipient	-11.7086
▁incubated	-11.7086
▁python	-11.7086
▁eggshell	-11.7086
Zhao	-11.7088
▁haemato	-11.7116
▁cuttlefish	-11.7149
▁depolarization	-11.7149
Ponganis	-11.7149
▁sheath	-11.7149
▁tensile	-11.7149
distribution	-11.715
validation	-11.715
Tobalske	-11.7181
▁overwintering	-11.7181
▁incident	-11.7181
▁recycling	-11.7181
glucan	-11.7183
▁delineate	-11.7185
energy	-11.7204
▁heritability	-11.7213
▁reprogramming	-11.7213
▁grasp	-11.7213
▁conserve	-11.7217
▁Metazoa	-11.7229
▁Holocene	-11.7245
▁achieving	-11.7245
▁adductor	-11.7245
▁decomposition	-11.7245
▁truncated	-11.7245
lamellar	-11.7277
▁aberrant	-11.7277
▁clutter	-11.7277
▁rainforest	-11.7277
▁vorticity	-11.7277
▁insecticide	-11.7277
▁Various	-11.7277
assemble	-11.7278
▁briggsae	-11.7309
▁departure	-11.7309
disease	-11.7313
frame	-11.7315
▁deuterostomes	-11.7342
▁secondarily	-11.7342
temperature	-11.7345
catalyzed	-11.7374
▁respirometry	-11.7374
▁gymnosperm	-11.7407
▁humoral	-11.7407
▁interneurons	-11.7407
▁reinhardtii	-11.7407
▁tentative	-11.7407
▁Crypt	-11.7407
▁1966)	-11.7407
faunal	-11.7414
▁[8–1	-11.7426
▁cutaneous	-11.744
▁rbcL	-11.744
▁reminiscent	-11.744
<0.001	-11.744
▁[77]	-11.744
programmed	-11.7453
Danio	-11.7454
▁constriction	-11.7472
▁industrial	-11.7472
▁mammary	-11.7472
▁raptor	-11.7472
▁deserve	-11.7473
permeable	-11.7473
▁intercept	-11.7474
approximately	-11.7478
immune	-11.7478
▁implication	-11.7487
glycero	-11.75
theoretic	-11.7505
▁convenient	-11.7505
▁ectoderm	-11.7505
▁modalities	-11.7505
▁Gibb	-11.7505
▁Cluster	-11.7505
▁Brassica	-11.7516
▁manipulating	-11.7538
▁parthenogenesis	-11.7538
▁tryptophan	-11.7538
▁lactating	-11.7538
▁recogniz	-11.7542
▁bacteri	-11.7546
▁consequent	-11.7547
▁ammonium	-11.7571
▁homeostatic	-11.7571
▁optomotor	-11.7571
▁GLUT	-11.7605
▁Increasing	-11.7605
▁reconcile	-11.7605
▁cloning	-11.7605
Nielsen	-11.7605
▁compelling	-11.7605
▁1969)	-11.7605
phenotype	-11.7612
0.06	-11.762
▁horizon	-11.7636
▁Manduca	-11.7638
▁bandwidth	-11.7638
▁dormancy	-11.7638
between	-11.7646
reproductive	-11.7646
▁hallmark	-11.7671
▁flood	-11.7671
▁methanol	-11.7673
convex	-11.7675
climate	-11.768
ccidental	-11.7705
▁CRISPR	-11.7705
▁endemism	-11.7705
▁Ontology	-11.7705
▁helices	-11.7705
▁sheep	-11.7705
▁nurse	-11.7705
ocephalus	-11.7706
▁fluctuation	-11.7725
▁guppies	-11.7739
▁irreversible	-11.7739
▁[5–7]	-11.7739
~	-11.842
“	-11.9873
