<unk>	0
<s>	0
</s>	0
▁the	-3.24833
,	-3.609
.	-3.63175
▁[	-3.69417
LI	-3.76663
NE	-3.76684
▁of	-3.84332
s	-4.11608
▁and	-4.13309
▁	-4.36318
▁in	-4.37285
▁to	-4.44623
-	-4.46782
▁a	-4.5187
▁is	-4.66306
▁(	-4.79559
)	-4.98839
(	-5.09233
#1	-5.11362
▁that	-5.14194
▁for	-5.16861
ing	-5.2554
▁with	-5.32374
ed	-5.4424
▁The	-5.46364
#2	-5.47151
▁be	-5.48301
▁are	-5.54946
e	-5.55731
▁by	-5.55797
t	-5.65813
2	-5.67811
d	-5.70488
▁as	-5.71353
▁on	-5.73677
▁from	-5.76183
ly	-5.78794
▁at	-5.83317
]	-5.85936
y	-5.99531
#3	-6.01518
a	-6.01632
▁this	-6.05119
▁we	-6.06301
▁al	-6.07323
▁was	-6.09616
▁et	-6.11804
i	-6.14506
x	-6.16489
n	-6.20243
▁an	-6.207
g	-6.2219
▁were	-6.24016
al	-6.25874
m	-6.26822
▁which	-6.29375
p	-6.30413
▁not	-6.36856
c	-6.37333
C	-6.39085
).	-6.39826
/	-6.41012
#4	-6.42193
l	-6.42627
▁have	-6.44685
r	-6.47379
▁can	-6.47836
en	-6.47929
b	-6.48363
1	-6.49014
∈	-6.51758
▁In	-6.52351
H	-6.55799
#	-6.58165
▁A	-6.5836
▁it	-6.58519
),	-6.59174
.,	-6.61038
▁This	-6.61673
+	-6.64466
▁or	-6.64598
f	-6.64757
3	-6.64852
u	-6.66342
A	-6.66449
▁between	-6.67708
▁S	-6.68547
▁H	-6.68819
▁model	-6.70798
S	-6.7151
▁than	-6.73036
▁also	-6.7571
0	-6.77456
:	-6.77682
er	-6.77727
#5	-6.80215
M	-6.80299
▁all	-6.80532
α	-6.80728
=	-6.80811
▁C	-6.80849
D	-6.81821
P	-6.81983
o	-6.83302
in	-6.84637
;	-6.86938
k	-6.8751
'	-6.87934
-1	-6.88121
▁P	-6.89319
R	-6.89415
T	-6.89462
▁two	-6.90022
▁has	-6.90091
#6	-6.9047
▁We	-6.91114
▁time	-6.94407
#7	-6.95675
▁used	-6.97399
▁using	-6.97553
▁data	-6.99144
▁more	-7.00538
I	-7.00639
G	-7.04856
▁these	-7.05532
▁Fig	-7.05617
▁c	-7.06452
▁where	-7.06998
O	-7.07398
▁each	-7.07774
or	-7.08247
▁G	-7.08442
z	-7.0926
ic	-7.0965
▁R	-7.1076
8]	-7.11287
▁p	-7.1206
7]	-7.13205
▁may	-7.1403
on	-7.1408
▁t	-7.14269
▁1	-7.14462
h	-7.14981
v	-7.15547
▁only	-7.15619
E	-7.16289
▁M	-7.16781
▁flow	-7.16956
9]	-7.17271
#8	-7.17759
▁such	-7.18027
▁different	-7.18644
▁one	-7.19071
ir	-7.19239
▁but	-7.19797
ξ	-7.19879
B	-7.20582
ν	-7.21962
▁E	-7.22804
N	-7.22927
▁number	-7.2337
▁our	-7.24213
w	-7.24284
▁high	-7.24731
▁into	-7.24782
L	-7.25687
▁f	-7.25942
▁if	-7.2618
▁3	-7.26683
▁energy	-7.27149
▁when	-7.27686
▁set	-7.28725
▁over	-7.29253
▁m	-7.30098
#9	-7.30121
▁For	-7.30752
j	-7.30816
▁s	-7.30993
▁there	-7.31918
▁other	-7.31925
▁values	-7.32976
▁case	-7.33082
V	-7.33858
)=	-7.34151
Δ	-7.34361
▁both	-7.35222
▁2	-7.35719
▁will	-7.35924
▁B	-7.3731
es	-7.37901
▁then	-7.38649
6]	-7.38937
5]	-7.38967
▁results	-7.38977
▁̄	-7.39376
4	-7.39541
[	-7.39883
2]	-7.4065
▁surface	-7.40686
4]	-7.40732
1]	-7.41045
F	-7.41801
▁lower	-7.42726
3]	-7.42935
▁system	-7.44066
|	-7.44223
0]	-7.44806
▁T	-7.45045
ar	-7.45055
▁F	-7.45577
▁K	-7.46031
+1	-7.46452
5	-7.4668
The	-7.46796
▁temperature	-7.47217
X	-7.47299
le	-7.47475
7	-7.48022
K	-7.48084
▁field	-7.48813
▁order	-7.4888
▁wind	-7.49112
an	-7.49361
▁during	-7.50272
due	-7.50509
▁low	-7.51553
▁state	-7.52083
▁well	-7.53212
▁study	-7.53408
▁observed	-7.53976
▁same	-7.55098
′	-7.55537
▁non	-7.55641
ation	-7.55704
▁result	-7.56138
▁However	-7.56818
▁large	-7.56824
▁no	-7.58087
▁its	-7.58225
▁4	-7.5907
▁higher	-7.59438
▁x	-7.59541
▁soil	-7.59711
▁some	-7.60001
▁within	-7.60487
▁O	-7.60634
Fig	-7.61143
▁analysis	-7.61639
▁show	-7.63428
▁most	-7.65303
▁CO	-7.65595
▁It	-7.65826
ε	-7.66149
⩾	-7.66197
▁I	-7.66328
▁shown	-7.6686
#10	-7.67258
▁based	-7.68962
▁any	-7.69113
▁region	-7.69153
▁D	-7.6932
▁first	-7.69982
→	-7.70014
▁5	-7.70385
▁N	-7.70673
▁present	-7.70695
able	-7.70807
ive	-7.71259
▁shows	-7.71504
▁size	-7.7301
6	-7.74249
▁velocity	-7.74825
▁value	-7.75201
▁above	-7.75507
▁relative	-7.7566
β	-7.75817
▁i	-7.76046
Z	-7.76392
▁increase	-7.76466
"	-7.76501
W	-7.76733
▁As	-7.76908
Q	-7.78167
very	-7.78524
▁conditions	-7.78963
▁Section	-7.79355
▁un	-7.79634
▁three	-7.79938
▁up	-7.80167
▁so	-7.8018
▁use	-7.80239
re	-7.80292
q	-7.80732
▁power	-7.80813
▁found	-7.82821
▁level	-7.83012
▁would	-7.83067
▁under	-7.84183
▁approach	-7.84568
▁rate	-7.8462
ion	-7.84843
▁small	-7.85674
st	-7.85903
▁6	-7.85965
▁work	-7.86017
▁network	-7.86265
×	-7.86477
▁electron	-7.86576
▁given	-7.86784
▁10	-7.86927
λ	-7.87809
it	-7.87939
▁function	-7.87955
▁similar	-7.88516
▁species	-7.8912
U	-7.89778
▁L	-7.90057
ity	-7.90242
▁"	-7.90777
▁These	-7.90889
▁Table	-7.91064
▁n	-7.91414
hose	-7.91906
▁d	-7.92266
9	-7.92443
▁levels	-7.92798
▁particles	-7.93002
us	-7.93157
▁performance	-7.93248
=1	-7.93479
▁density	-7.93518
▁re	-7.93562
▁range	-7.93734
▁depth	-7.9445
▁e	-7.95324
▁nodes	-7.95362
at	-7.96436
▁flux	-7.96482
▁turbine	-7.96995
▁ratio	-7.97298
▁water	-7.97717
▁samples	-7.98053
▁significant	-7.98114
8	-7.98125
▁possible	-7.98157
▁control	-7.9851
▁b	-7.98567
▁change	-7.99112
▁compared	-7.99118
▁through	-7.99134
▁V	-7.99622
ch	-8.00716
▁out	-8.00903
and	-8.01607
▁respectively	-8.02203
1,	-8.02309
▁observations	-8.02812
▁measured	-8.02881
θ	-8.03048
the	-8.03184
▁atmosphere	-8.0325
▁because	-8.0405
▁algorithm	-8.04092
▁after	-8.04382
ould	-8.04898
▁changes	-8.04917
uch	-8.04942
▁mean	-8.04978
▁form	-8.05025
▁upper	-8.05457
μ	-8.06159
▁represent	-8.06237
▁boundary	-8.06303
⊂	-8.06629
▁total	-8.06719
▁growth	-8.06868
▁average	-8.06922
▁peak	-8.07582
▁while	-8.07789
▁following	-8.09122
▁electrons	-8.09752
▁g	-8.10263
▁If	-8.10367
to	-8.10498
▁associated	-8.10731
▁increased	-8.10828
▁models	-8.11552
J	-8.11789
▁layer	-8.12001
ol	-8.12604
▁parameters	-8.12628
▁therefore	-8.13367
▁main	-8.13756
▁thus	-8.13983
2,	-8.14033
ent	-8.14278
▁provide	-8.14328
▁does	-8.14352
▁obtained	-8.14576
▁7	-8.1527
▁speed	-8.15446
▁point	-8.15959
bout	-8.16046
is	-8.16064
▁pressure	-8.16115
▁should	-8.16158
▁near	-8.16216
13	-8.16252
▁measurements	-8.16526
▁line	-8.17702
▁vertical	-8.17736
▁group	-8.178
▁example	-8.18027
▁second	-8.18149
▁studies	-8.18376
▁section	-8.18497
12	-8.18623
th	-8.19127
ct	-8.19211
cm	-8.19382
▁module	-8.19906
ince	-8.20154
▁cluster	-8.20235
▁area	-8.20251
▁single	-8.20321
ous	-8.20497
▁do	-8.20608
▁v	-8.20836
ro	-8.20921
▁δ	-8.21019
▁further	-8.21638
▁potential	-8.21639
▁clusters	-8.22292
▁below	-8.22826
▁effects	-8.22893
▁suggest	-8.22894
▁8	-8.23027
▁less	-8.23112
▁α	-8.23185
▁method	-8.23372
ri	-8.2365
2+	-8.23886
▁magnetic	-8.24037
▁left	-8.24077
▁difference	-8.24133
mm	-8.24172
▁effect	-8.24428
▁current	-8.2443
▁concentration	-8.24757
il	-8.24833
▁source	-8.24871
+2	-8.24912
ur	-8.25197
▁increasing	-8.25355
η	-8.25363
▁mass	-8.25393
▁properties	-8.257
▁input	-8.25805
▁w	-8.26455
10	-8.26573
▁per	-8.26941
▁activity	-8.27444
▁distribution	-8.27577
based	-8.27584
▁contain	-8.27958
▁many	-8.2815
had	-8.2819
▁important	-8.28502
▁elements	-8.28711
▁r	-8.2894
▁structure	-8.29066
▁solar	-8.29239
▁significantly	-8.29277
%	-8.29317
▁To	-8.29491
▁differences	-8.30212
▁defined	-8.30278
ra	-8.30884
▁maximum	-8.31024
out	-8.3103
▁X	-8.31246
▁test	-8.31262
▁even	-8.31289
see	-8.3148
el	-8.31721
▁approximate	-8.31815
2)	-8.31926
▁new	-8.3212
▁node	-8.32131
▁systems	-8.32345
▁output	-8.32859
▁considered	-8.32907
▁local	-8.33243
as	-8.33257
▁follows	-8.33783
▁W	-8.33892
-1)	-8.3416
▁program	-8.3538
▁material	-8.35389
▁Thus	-8.35534
▁Since	-8.35645
▁heating	-8.35969
▁consider	-8.3639
▁terms	-8.36765
▁features	-8.37151
▁information	-8.37414
▁part	-8.37641
▁rates	-8.37843
▁factor	-8.37938
<	-8.38126
▁around	-8.38193
ally	-8.38274
ary	-8.38505
12]	-8.38544
#20	-8.38629
▁regions	-8.38688
▁thermosphere	-8.39127
▁flows	-8.39339
▁cases	-8.39709
▁sets	-8.39922
▁h	-8.40418
▁stress	-8.4057
est	-8.40647
▁fraction	-8.40898
▁before	-8.40976
▁particle	-8.41034
▁initial	-8.41064
▁U	-8.41201
▁required	-8.41208
▁memory	-8.41374
2(	-8.41654
▁close	-8.41693
#11	-8.41859
ut	-8.41889
▁see	-8.41945
30]	-8.41948
▁process	-8.42053
33]	-8.42272
▁right	-8.4236
▁yield	-8.42483
▁de	-8.43006
▁Q	-8.4337
▁positive	-8.43584
te	-8.43654
⋅	-8.43756
▁addition	-8.43765
▁allow	-8.43882
▁̃	-8.4389
▁cost	-8.43915
▁sub	-8.44007
▁calculated	-8.44012
•	-8.44041
▁normal	-8.4429
▁constant	-8.4466
▁plasma	-8.4466
In	-8.45144
▁site	-8.45191
min	-8.45253
▁paper	-8.45501
▁expected	-8.45997
▁every	-8.46001
ate	-8.46003
▁turbines	-8.46028
▁long	-8.46292
yl	-8.46344
▁Then	-8.4673
▁epoxy	-8.4677
▁greater	-8.46814
▁particular	-8.47322
▁co	-8.47408
▁Si	-8.47506
⩽	-8.4763
▁free	-8.47697
▁typical	-8.47701
▁'	-8.4786
▁direction	-8.47873
▁larger	-8.4801
≤	-8.48019
▁wake	-8.48063
▁however	-8.48063
▁likely	-8.48193
23]	-8.48367
▁9	-8.48947
15]	-8.49025
▁execution	-8.49066
ther	-8.49148
29]	-8.49863
▁presented	-8.4988
24]	-8.49883
▁sediment	-8.50418
ter	-8.50548
▁here	-8.50585
▁complex	-8.51017
31]	-8.51357
0,	-8.5146
▁acid	-8.51573
▁gas	-8.51621
Di	-8.51955
▁coherent	-8.52023
▁sever	-8.52067
where	-8.52187
ce	-8.52264
14]	-8.52454
▁carbon	-8.52495
▁presence	-8.52926
17]	-8.5297
16]	-8.53026
▁ratios	-8.53034
ac	-8.53114
▁solution	-8.54043
3+	-8.54126
▁again	-8.54296
18]	-8.54439
▁condition	-8.54597
▁maximal	-8.54764
▁integral	-8.54807
▁element	-8.54816
▁corresponding	-8.54846
▁profile	-8.54911
▁problem	-8.54973
▁experimental	-8.55115
▁better	-8.55221
▁loss	-8.55616
▁lines	-8.55734
27]	-8.5585
25]	-8.55973
▁polymer	-8.56441
▁ion	-8.56505
▁algorithms	-8.5654
▁reported	-8.56766
ul	-8.56924
32]	-8.56938
∂	-8.57015
11]	-8.57017
}	-8.57092
▁organic	-8.57133
▁end	-8.57235
▁described	-8.57287
28]	-8.57288
1-	-8.57316
39]	-8.57365
dimensional	-8.57474
▁profiles	-8.57883
1)	-8.57975
▁previous	-8.58213
20]	-8.58406
▁simulations	-8.58628
▁how	-8.58761
19]	-8.58814
21]	-8.5899
▁core	-8.59144
▁l	-8.59229
▁transition	-8.59333
▁By	-8.59376
▁delay	-8.59477
▁Therefore	-8.59485
52]	-8.59678
26]	-8.59881
42]	-8.59929
▁equations	-8.59957
22]	-8.6001
41]	-8.60107
34]	-8.60143
13]	-8.60174
▁Theorem	-8.60212
37]	-8.60269
▁feature	-8.60301
▁scale	-8.60319
▁temperatures	-8.60596
35]	-8.60788
▁trace	-8.6081
ions	-8.6091
1+	-8.61131
))	-8.61253
▁finite	-8.61535
▁good	-8.61546
▁volume	-8.61785
∨	-8.61786
46]	-8.61856
▁contrast	-8.61945
▁wide	-8.61956
-2	-8.61979
un	-8.6216
id	-8.62451
36]	-8.62634
▁beach	-8.62654
lo	-8.62735
▁space	-8.63073
43]	-8.63099
▁smaller	-8.63182
▁seen	-8.63189
ian	-8.63378
ment	-8.63529
▁performed	-8.6368
ta	-8.63702
▁reduced	-8.63808
40]	-8.63827
▁standard	-8.63942
▁cycle	-8.63974
▁J	-8.63975
et	-8.64268
▁period	-8.64339
We	-8.64409
0.	-8.64459
45]	-8.64601
50]	-8.64618
▁showed	-8.64624
▁real	-8.64834
▁need	-8.64945
48]	-8.6495
30	-8.64959
51]	-8.65063
▁being	-8.65093
▁plant	-8.65103
im	-8.65299
47]	-8.65467
▁channel	-8.65479
54]	-8.65553
▁An	-8.65618
▁highly	-8.65702
▁sites	-8.6592
▁At	-8.65951
▁general	-8.65961
▁side	-8.66063
▁obtain	-8.66071
10]	-8.66262
▁transport	-8.66506
▁applied	-8.66566
▁functions	-8.66946
▁hence	-8.67029
▁additional	-8.67107
▁plants	-8.67119
▁wave	-8.67499
▁type	-8.67527
▁heavy	-8.6755
▁deposition	-8.67677
49]	-8.6807
ζ	-8.68077
Y	-8.68347
▁increases	-8.68435
▁dependence	-8.68608
▁proposed	-8.68742
38]	-8.68776
tic	-8.68799
▁class	-8.69028
▁cannot	-8.69186
▁along	-8.69208
▁means	-8.69558
▁exist	-8.6966
▁images	-8.69897
53]	-8.70002
▁k	-8.70181
▁factors	-8.70304
ad	-8.70474
Let	-8.70558
σ	-8.70561
▁major	-8.70628
▁account	-8.70764
▁implies	-8.70791
▁consistent	-8.71094
ine	-8.71393
55]	-8.71757
um	-8.71773
▁affect	-8.71953
4)	-8.72106
▁experiments	-8.722
ated	-8.72244
▁fact	-8.72289
▁response	-8.72447
▁times	-8.72614
#12	-8.72921
▁make	-8.72962
up	-8.73024
44]	-8.73062
3,	-8.73232
ve	-8.73439
▁film	-8.73543
72]	-8.73728
▁pre	-8.73773
65]	-8.73892
ry	-8.73917
▁resistance	-8.74058
62]	-8.7418
▁components	-8.74198
Si	-8.74531
56]	-8.74551
60]	-8.74881
20	-8.74894
74]	-8.74906
▁20	-8.74924
▁Lemma	-8.74934
▁top	-8.74958
▁degree	-8.75183
▁cause	-8.75235
▁interaction	-8.75266
▁available	-8.75318
▁location	-8.75432
▁linear	-8.75566
▁gene	-8.75683
66]	-8.75734
▁horizontal	-8.75752
▁least	-8.75752
57]	-8.75819
▁comparison	-8.75851
61]	-8.7588
59]	-8.7595
▁100	-8.76179
▁methods	-8.76213
▁impact	-8.76323
▁Saturn	-8.76323
▁Δ	-8.76409
▁gradient	-8.76416
▁cell	-8.76561
11	-8.76769
τ	-8.76772
▁states	-8.76796
58]	-8.76947
▁Z	-8.77072
73]	-8.77206
76]	-8.77215
km	-8.77332
li	-8.77354
75]	-8.77393
▁sample	-8.7742
▁reveal	-8.77476
▁global	-8.77476
▁formation	-8.77594
▁equal	-8.77769
64]	-8.77812
▁individual	-8.77831
}.	-8.77837
▁inter	-8.77883
▁Let	-8.78086
▁ions	-8.78138
▁attack	-8.78183
▁root	-8.78214
=(	-8.78236
63]	-8.78294
▁u	-8.78695
▁angle	-8.78775
ies	-8.78823
▁LDDoS	-8.78963
▁phase	-8.79004
▁measure	-8.79134
▁magnetosphere	-8.79264
▁Me	-8.79374
ideal	-8.79431
04]	-8.79521
▁specific	-8.79553
▁way	-8.79628
▁related	-8.79643
▁genes	-8.79744
▁threshold	-8.79828
▁age	-8.79882
84]	-8.79901
67]	-8.80044
δ	-8.80341
▁across	-8.80534
▁either	-8.8069
co	-8.81294
▁multiple	-8.81618
▁strong	-8.81799
83]	-8.81942
▁sediments	-8.82025
type	-8.82182
▁production	-8.82338
▁application	-8.82427
▁negative	-8.82458
▁Proposition	-8.8255
77]	-8.82565
▁There	-8.82683
▁sufficient	-8.82834
▁simple	-8.82834
▁fracture	-8.82925
▁although	-8.8294
▁including	-8.82956
▁known	-8.83038
kg	-8.8331
68]	-8.83352
▁Ti	-8.83407
▁evidence	-8.8345
▁19	-8.8345
)(	-8.83465
ne	-8.83834
▁precipitation	-8.84071
50	-8.84216
80]	-8.84218
71]	-8.8422
82]	-8.84231
81]	-8.84501
▁composition	-8.84686
▁efficiency	-8.84686
▁still	-8.84704
▁transit	-8.8475
05]	-8.84775
▁taken	-8.84812
ia	-8.85066
00]	-8.8507
▁Fe	-8.85107
79]	-8.85135
)+	-8.85168
▁0	-8.85214
78]	-8.85237
95]	-8.85646
de	-8.85696
▁produced	-8.85738
{	-8.85795
▁parameter	-8.85832
69]	-8.86
▁influence	-8.86004
94]	-8.86069
▁whe	-8.865
▁decrease	-8.86515
▁storage	-8.86573
▁shear	-8.86573
▁15	-8.86577
70]	-8.86627
01]	-8.86802
▁occur	-8.86845
▁polynomial	-8.86888
96]	-8.8695
93]	-8.87153
▁trees	-8.87224
ms	-8.87422
▁cross	-8.87467
89]	-8.8747
▁call	-8.87543
91]	-8.87551
▁define	-8.87644
▁four	-8.87849
▁modules	-8.8786
▁clock	-8.88152
▁Na	-8.88191
={	-8.88196
▁respect	-8.88451
▁reduce	-8.88582
85]	-8.89013
▁require	-8.8905
03]	-8.89055
▁according	-8.89212
▁produce	-8.89522
▁follow	-8.89618
▁short	-8.89683
∑	-8.89774
▁assume	-8.89794
▁exists	-8.89818
π	-8.89835
▁points	-8.89922
ha	-8.89969
▁mechanism	-8.90146
▁Co	-8.90239
▁On	-8.90326
1.	-8.90358
▁velocities	-8.90457
▁stable	-8.9046
▁include	-8.90477
▁consist	-8.90488
op	-8.90605
▁Note	-8.90711
▁determine	-8.90784
▁Ca	-8.90803
ness	-8.90822
▁signal	-8.90857
86]	-8.90861
▁basic	-8.91119
90]	-8.91209
▁resource	-8.91499
ance	-8.91519
06]	-8.91585
man	-8.9172
▁techniques	-8.9179
▁reference	-8.91793
ρ	-8.91853
02]	-8.919
ml	-8.92069
ite	-8.92076
▁generated	-8.92111
▁machine	-8.92157
▁height	-8.92164
qu	-8.92171
▁coefficient	-8.92173
▁image	-8.92177
▁Mars	-8.92464
▁variables	-8.92483
+3	-8.92647
▁interval	-8.92853
88]	-8.9288
Table	-8.92881
▁made	-8.93139
4,	-8.93159
▁identified	-8.93184
▁matrix	-8.93207
▁Although	-8.93224
▁processes	-8.93247
▁formula	-8.93527
▁determined	-8.93559
99]	-8.93782
0)	-8.93912
▁occurs	-8.9419
98]	-8.94198
▁generally	-8.94219
87]	-8.94272
os	-8.94666
most	-8.94685
▁groups	-8.94862
▁zero	-8.9499
97]	-8.95007
▁carrie	-8.95032
∗	-8.95098
ˆ	-8.95166
92]	-8.95334
ell	-8.95389
=0	-8.95664
▁concentrations	-8.95703
▁cells	-8.95768
▁magnitude	-8.95882
▁down	-8.95978
▁θ	-8.96301
▁multi	-8.96578
▁Java	-8.96581
Al	-8.9673
▁devices	-8.96883
▁term	-8.969
#30	-8.96961
Rp	-8.96983
▁approximation	-8.97071
▁direct	-8.97077
▁planet	-8.97105
▁ring	-8.97331
▁CPR	-8.97364
▁SOC	-8.97401
▁Our	-8.97575
me	-8.976
▁discussed	-8.976
▁remain	-8.97791
2.	-8.97862
1(	-8.9791
▁connectivity	-8.97995
▁Hence	-8.97999
▁best	-8.98107
▁Eq	-8.98125
▁code	-8.98288
▁12	-8.98368
0°	-8.9845
▁note	-8.98495
▁load	-8.98714
▁selection	-8.98724
▁scaling	-8.99065
},	-8.99093
▁length	-8.99288
▁correlation	-8.99305
▁component	-8.99334
For	-8.99337
‖	-8.99414
▁iron	-8.9945
▁channels	-8.99545
▁13	-8.99642
OK	-8.9965
▁now	-8.9966
xi	-8.99685
▁design	-8.99714
▁Re	-8.99715
▁equivalent	-8.99838
▁efficient	-8.99845
ill	-8.99869
▁z	-8.99919
ow	-9.00134
▁via	-9.00145
▁must	-9.00154
▁few	-9.00155
ical	-9.00165
00	-9.00226
▁find	-9.00356
▁support	-9.00446
▁predicted	-9.00588
ach	-9.00602
▁nanoparticles	-9.00617
▁complete	-9.00635
▁simulation	-9.00727
▁environment	-9.00769
▁content	-9.00883
he	-9.00886
son	-9.00992
▁14	-9.01012
eV	-9.01074
age	-9.01203
▁grain	-9.01309
for	-9.0148
25	-9.01585
_	-9.01618
▁role	-9.0163
▁deep	-9.01634
am	-9.01726
▁materials	-9.01814
▁bed	-9.02052
▁di	-9.02084
▁BS	-9.02127
▁measurement	-9.02244
▁locations	-9.02259
▁bulk	-9.02359
po	-9.02379
▁might	-9.0239
ial	-9.02397
▁minimum	-9.02431
▁lead	-9.02441
ers	-9.02659
low	-9.02725
▁ports	-9.02818
▁plate	-9.02989
▁networks	-9.03078
rather	-9.03156
▁Bo	-9.03179
▁traces	-9.03338
if	-9.0351
▁us	-9.03538
ass	-9.0364
nm	-9.03677
tion	-9.03714
▁biomass	-9.03857
▁mitochondrial	-9.03866
▁studied	-9.03901
▁tephra	-9.03954
ti	-9.04458
▁numerical	-9.04615
▁magnetospheric	-9.04625
▁slice	-9.04687
▁0.1	-9.0505
▁indicate	-9.05128
′)	-9.05248
▁auditory	-9.05378
di	-9.05755
▁All	-9.05875
ho	-9.06064
▁years	-9.0607
▁configuration	-9.06147
▁fixed	-9.06245
log	-9.06329
▁included	-9.06539
▁expression	-9.06782
-1.	-9.06837
▁implementation	-9.06856
▁balance	-9.06923
▁panel	-9.06923
▁position	-9.07221
▁reflect	-9.07231
Cl	-9.07242
ase	-9.07273
▁events	-9.07392
▁chemical	-9.07698
▁spectrum	-9.07704
ant	-9.07871
▁provided	-9.07896
▁farm	-9.08029
RA	-9.08381
CO	-9.08407
▁often	-9.08602
▁UK	-9.08605
▁neutral	-9.08629
2-	-9.08698
▁limit	-9.08745
▁estimate	-9.08988
▁previously	-9.09002
▁variable	-9.09298
▁programs	-9.09497
±	-9.09552
▁step	-9.09749
▁tree	-9.10068
▁behaviour	-9.10085
▁moon	-9.10108
▁altitude	-9.10224
▁temporal	-9.10341
▁estimated	-9.10503
▁HD	-9.10526
ast	-9.10645
▁vari	-9.10683
▁distance	-9.1088
ph	-9.10881
▁technique	-9.10886
▁affected	-9.10896
▁30	-9.11208
▁did	-9.11335
·	-9.11351
▁common	-9.11514
▁bound	-9.11602
▁plume	-9.11704
∞	-9.119
▁steady	-9.11928
▁FTLE	-9.11962
▁When	-9.11966
▁□	-9.11991
-3	-9.12056
ħ	-9.12521
▁CafRep	-9.12524
▁certain	-9.12524
▁mtDNA	-9.12524
▁equation	-9.12547
▁frequency	-9.12582
▁soils	-9.12592
▁β	-9.12693
▁feasible	-9.12699
▁amount	-9.12705
▁derived	-9.13043
▁faults	-9.13086
18	-9.13192
▁50	-9.13274
▁arsenic	-9.1335
▁identify	-9.1335
▁next	-9.1335
▁thin	-9.13541
3)	-9.13621
▁clear	-9.13874
▁limited	-9.1393
▁11	-9.14071
▁sea	-9.14135
▁Di	-9.14161
▁object	-9.14178
̲	-9.14183
▁unique	-9.14184
▁combination	-9.14244
▁compare	-9.14294
max	-9.14405
ted	-9.14628
▁denote	-9.14697
▁path	-9.14942
209458	-9.15024
▁congestion	-9.15036
▁dynamic	-9.1512
▁indicates	-9.15167
ide	-9.1525
▁ν	-9.15342
▁dimension	-9.1536
▁layers	-9.15365
▁assumed	-9.15456
▁atoms	-9.15592
▁air	-9.15698
▁difficult	-9.15871
▁absorption	-9.15872
▁Furthermore	-9.15873
▁agreement	-9.15883
▁link	-9.15921
ppm	-9.15987
▁enhanced	-9.16025
▁Mg	-9.16213
▁depths	-9.16232
▁fields	-9.16266
▁full	-9.16461
▁roots	-9.16656
▁vertices	-9.16726
▁open	-9.16729
▁(1	-9.16788
▁specification	-9.16802
∩	-9.16854
▁Ma	-9.16897
▁ideal	-9.16966
▁approximations	-9.16989
llar	-9.17058
▁o	-9.1724
▁disease	-9.17252
ma	-9.17331
80	-9.17355
▁~	-9.1736
ack	-9.17362
▁ocean	-9.174
▁Φ	-9.17564
▁Striga	-9.17588
▁Rhea	-9.17588
▁development	-9.17599
▁towards	-9.17603
▁=	-9.1764
▁random	-9.17763
▁signatures	-9.17975
▁start	-9.18295
▁relation	-9.18489
▁post	-9.18501
▁detection	-9.18554
.•	-9.18598
▁extracted	-9.18624
ka	-9.18711
▁sequence	-9.18759
▁cores	-9.18832
▁hand	-9.18907
▁j	-9.18916
▁ξ	-9.18969
ating	-9.19053
▁broad	-9.19334
▁management	-9.19342
▁1,	-9.19421
▁protein	-9.19467
▁con	-9.19713
▁2010).	-9.19768
▁operators	-9.19919
▁record	-9.19925
▁applications	-9.19925
▁energies	-9.2022
▁strategy	-9.2022
▁reduction	-9.20232
▁atmospheric	-9.20314
▁optimal	-9.20317
▁thermal	-9.20379
▁ionosphere	-9.20656
▁gives	-9.20753
▁functional	-9.20991
ab	-9.21094
▁just	-9.21108
▁variety	-9.21113
▁With	-9.21233
▁Finally	-9.21234
▁pore	-9.2127
▁combined	-9.21309
▁depends	-9.21388
▁computational	-9.21486
▁machines	-9.21491
▁perform	-9.2159
duced	-9.21645
ability	-9.21764
▁II	-9.21782
▁net	-9.21939
▁another	-9.22015
▁tip	-9.22055
▁slightly	-9.22088
▁areas	-9.22205
all	-9.2223
land	-9.22521
less	-9.22522
▁η	-9.22568
▁curve	-9.22681
▁sources	-9.2269
>	-9.22868
▁relationship	-9.22923
▁light	-9.22934
▁brain	-9.22943
▁resolution	-9.23058
▁become	-9.23127
▁suggested	-9.23194
▁variation	-9.23199
▁directly	-9.23324
br	-9.23411
ii	-9.2343
▁effective	-9.23636
▁plane	-9.23796
▁Limestone	-9.2384
▁column	-9.2384
▁future	-9.23849
▁transgenic	-9.23852
▁Al	-9.23957
▁selected	-9.23959
1,...,	-9.23971
▁definition	-9.24044
▁series	-9.2412
=0.	-9.24237
▁independent	-9.24312
ised	-9.24739
▁smooth	-9.24766
▁self	-9.24766
▁true	-9.24768
form	-9.24832
▁onset	-9.24941
≥	-9.24967
▁subset	-9.24995
8)	-9.24999
▁forward	-9.25002
ci	-9.25042
▁act	-9.25131
▁explain	-9.25262
+4	-9.25277
▁wherea	-9.2538
iv	-9.25555
▁distinct	-9.25701
▁avoid	-9.25701
▁thickness	-9.25712
▁plastic	-9.25725
▁culture	-9.25747
▁injection	-9.25843
000	-9.26015
▁16	-9.26061
▁containing	-9.26235
ily	-9.26504
▁hash	-9.26536
▁calculate	-9.26536
▁lifetime	-9.26645
▁apply	-9.2665
▁silicon	-9.26659
vi	-9.2674
▁speeds	-9.26841
▁setting	-9.26984
▁early	-9.27022
▁shift	-9.2711
und	-9.27128
▁describe	-9.27452
〈	-9.27514
pi	-9.27545
▁densities	-9.27596
▁transient	-9.27602
▁optimisation	-9.27605
▁packets	-9.27755
CSR	-9.27805
40	-9.27832
▁De	-9.2785
ran	-9.27904
▁λ	-9.27953
▁extend	-9.28075
▁domain	-9.28096
▁always	-9.2856
▁q	-9.28583
-1,	-9.28601
▁isotope	-9.28627
▁fault	-9.28696
▁marine	-9.28701
▁rotational	-9.2876
▁patient	-9.28866
▁σ	-9.28896
▁subject	-9.28903
▁transfer	-9.28967
▁y	-9.28996
▁interest	-9.29043
16	-9.29182
φ	-9.29222
▁variations	-9.29312
▁demonstrate	-9.29508
▁research	-9.29514
▁located	-9.29529
▁inorganic	-9.29612
tting	-9.29678
Re	-9.29818
∫	-9.29831
▁restriction	-9.29857
▁operator	-9.2986
▁demonstrated	-9.29941
0.5	-9.30079
▁experiment	-9.30087
)|	-9.30088
like	-9.30188
▁prime	-9.3032
60	-9.30413
▁regard	-9.30509
▁auroral	-9.30554
▁integer	-9.30571
▁get	-9.30745
▁vector	-9.30844
+1)	-9.30849
▁patterns	-9.30885
▁treatment	-9.30935
▁tests	-9.30962
=2	-9.3105
▁decreases	-9.31065
▁recent	-9.3121
An	-9.31279
ure	-9.31331
▁like	-9.31481
▁key	-9.31503
▁usual	-9.3151
Ha	-9.31539
▁highest	-9.3168
▁representation	-9.31683
▁take	-9.31699
▁1.	-9.31771
▁late	-9.31964
-4	-9.32253
▁natural	-9.32323
▁internal	-9.32504
▁port	-9.32515
▁stabilization	-9.32519
If	-9.32533
〉	-9.32803
▁operation	-9.32882
▁weight	-9.32896
▁resources	-9.32941
▁mechanisms	-9.32974
17	-9.33088
we	-9.33141
▁3.1	-9.33143
slice	-9.33251
order	-9.33264
×10	-9.3327
▁Indus	-9.33512
▁escape	-9.33514
▁void	-9.33525
▁fluid	-9.33582
▁overall	-9.33586
▁|	-9.3371
22	-9.33879
▁detected	-9.33927
▁run	-9.33953
▁later	-9.34132
▁base	-9.34235
▁spectra	-9.34365
▁event	-9.34445
▁prior	-9.34492
▁micro	-9.34517
▁focus	-9.3453
▁traffic	-9.3453
▁Moreover	-9.34535
mi	-9.34628
pe	-9.34795
▁oxide	-9.34801
5%	-9.34904
▁diameter	-9.34949
▁appears	-9.34962
▁characteristic	-9.34963
▁includes	-9.35006
▁land	-9.35016
=∑	-9.3504
From	-9.3505
′=	-9.35164
fp	-9.35257
▁central	-9.35561
▁spatial	-9.35561
▁orientation	-9.35561
▁intensity	-9.35621
▁projection	-9.35678
▁leads	-9.35754
200	-9.35757
▁error	-9.3601
nt	-9.36057
▁fit	-9.36159
▁give	-9.36197
▁building	-9.36241
ap	-9.36246
▁ρ	-9.36497
15	-9.36523
old	-9.3656
day	-9.36585
▁already	-9.36602
▁behavior	-9.36602
▁energetic	-9.36602
▁magnetopause	-9.36602
▁replication	-9.36602
▁software	-9.36602
▁strength	-9.36602
angular	-9.36603
▁together	-9.36603
▁poly	-9.36604
▁While	-9.36637
ard	-9.36822
▁SO	-9.3698
▁separate	-9.37005
pl	-9.37034
ting	-9.37133
▁observation	-9.37148
▁constraints	-9.37293
▁capture	-9.37319
▁achieve	-9.37589
no	-9.37628
▁predict	-9.3764
▁oxygen	-9.37656
▁dual	-9.37656
▁among	-9.37657
▁useful	-9.3767
▁reset	-9.37681
▁estimates	-9.37722
specially	-9.37752
▁ste	-9.37841
core	-9.37926
▁detect	-9.37937
▁silica	-9.38008
▁cover	-9.38027
▁extended	-9.38138
▁emission	-9.38152
▁bio	-9.38172
▁action	-9.38475
▁let	-9.38607
▁expansion	-9.38719
▁molecules	-9.38726
▁diatom	-9.38781
end	-9.39028
▁approaches	-9.39042
≠	-9.39164
▁scheme	-9.39222
▁stage	-9.3923
of	-9.39343
▁2012).	-9.39401
ge	-9.39432
▁supported	-9.39478
rough	-9.39559
▁holds	-9.39671
per	-9.39729
▁latitude	-9.39773
Å	-9.39794
▁dawn	-9.39794
▁reservoir	-9.39794
▁representative	-9.39818
▁until	-9.39867
.7	-9.40426
▁distributions	-9.40462
free	-9.40707
‰	-9.40881
▁After	-9.40882
▁rhizosphere	-9.40883
▁Spin	-9.40948
tri	-9.41019
Ol	-9.4105
▁fluxes	-9.41174
▁Y	-9.41331
▁bounded	-9.41469
19	-9.41473
over	-9.4153
▁indicated	-9.41661
ward	-9.41693
▁attacks	-9.41744
̃	-9.41815
▁great	-9.41867
lying	-9.41976
▁enough	-9.4198
▁identical	-9.4198
▁(2009)	-9.4198
▁RA	-9.41983
▁topology	-9.41988
▁final	-9.41995
▁zone	-9.42
▁last	-9.42027
RC	-9.42029
▁CH	-9.42053
5°	-9.42076
ARS	-9.42246
ile	-9.42335
▁polymers	-9.42492
▁°	-9.42515
▁original	-9.42552
▁array	-9.42559
▁rule	-9.4257
▁release	-9.42754
▁calculations	-9.42839
▁caus	-9.42902
▁TCP	-9.42962
ise	-9.43028
▁backwash	-9.43091
▁category	-9.43091
▁chosen	-9.43092
3%	-9.43115
▁altitudes	-9.43121
▁drop	-9.4323
▁solid	-9.43335
▁thick	-9.43345
▁far	-9.43422
▁developed	-9.43446
▁ensure	-9.43504
▁clearly	-9.43506
▁signature	-9.43712
ray	-9.43829
▁crossings	-9.43881
▁front	-9.44018
bar	-9.4411
healthy	-9.44131
▁sizes	-9.44159
▁prevent	-9.44215
▁SLA	-9.44217
▁spacecraft	-9.44219
.8	-9.4427
▁CdS	-9.44274
▁collected	-9.44292
▁throughout	-9.44334
▁what	-9.44344
▁active	-9.44478
mer	-9.44545
▁III	-9.44571
▁coefficients	-9.44694
▁recorded	-9.44772
▁uses	-9.44785
(1)	-9.44824
▁device	-9.4487
▁actual	-9.45032
ave	-9.45033
▁map	-9.45054
line	-9.45138
▁2009).	-9.45181
▁interactions	-9.45207
∪{	-9.45253
▁check	-9.45325
▁earlier	-9.45351
▁little	-9.45351
▁turn	-9.45352
▁rice	-9.45353
′,	-9.45385
▁Here	-9.45392
▁capacity	-9.45393
▁modified	-9.45452
▁types	-9.45504
4.	-9.45525
cl	-9.45539
▁appear	-9.4556
▁mode	-9.45915
▁trend	-9.46014
▁super	-9.46126
▁becomes	-9.46245
▁primar	-9.46344
Proof	-9.46368
▁2011	-9.46437
sh	-9.46439
:(	-9.46468
▁dominant	-9.46501
▁stability	-9.46502
▁motion	-9.46506
▁communication	-9.46511
▁probability	-9.46517
▁molar	-9.46548
ory	-9.46555
▁farms	-9.46592
▁visible	-9.46747
▁detailed	-9.46828
▁Li	-9.46914
⁎	-9.47041
Co	-9.47059
▁unit	-9.47086
▁discuss	-9.47131
▁drift	-9.47188
▁assumption	-9.47194
▁One	-9.47286
▁charge	-9.47325
▁subsequent	-9.47353
▁2011).	-9.47647
▁decision	-9.47663
⊆	-9.47663
▁hybrid	-9.47663
▁morphology	-9.47663
▁waves	-9.47781
▁modelling	-9.47798
▁target	-9.47897
▁25	-9.4793
▁longer	-9.47981
5.	-9.48007
▁dominate	-9.48019
▁∼	-9.48172
▁μ	-9.48222
▁strongly	-9.48262
Ti	-9.48361
▁attribute	-9.48375
▁pattern	-9.4839
▁So	-9.48465
▁films	-9.48744
modified	-9.48753
▁context	-9.4884
▁poplar	-9.4884
▁seismic	-9.4884
▁swash	-9.4884
▁drag	-9.4884
▁momentum	-9.48847
▁dispersion	-9.48854
▁necessary	-9.48978
≥0	-9.49027
rm	-9.49078
▁Or	-9.49222
ton	-9.49435
▁theory	-9.49447
kl	-9.49461
fully	-9.49607
▁No	-9.49684
ene	-9.49882
▁introduce	-9.49965
▁differ	-9.5
level	-9.5001
▁fast	-9.50025
▁property	-9.50031
▁coupled	-9.50142
▁monitoring	-9.50199
+6	-9.50213
▁ex	-9.50305
▁year	-9.50337
▁physical	-9.50465
▁scenarios	-9.50469
ath	-9.50588
-10	-9.50769
▁shale	-9.50809
▁tissue	-9.5091
90	-9.51054
ub	-9.51095
▁question	-9.51235
▁recombination	-9.51236
▁empirical	-9.51238
▁variability	-9.5125
linear	-9.51259
▁fertilizer	-9.51259
▁arbitrary	-9.51301
▁third	-9.51415
▁(1)	-9.51436
▁sense	-9.51448
)∈	-9.51539
▁improved	-9.51568
RM	-9.51602
▁connected	-9.51614
jl	-9.51733
term	-9.51851
hi	-9.51911
▁characteristics	-9.51942
▁corresponds	-9.51975
▁peaks	-9.52011
▁scenario	-9.52047
▁defects	-9.52092
▁improve	-9.52101
oth	-9.52271
▁place	-9.52363
scale	-9.52382
▁Cassini	-9.52455
▁uncertainty	-9.52455
▁grid	-9.52455
):	-9.52455
▁center	-9.52457
▁friction	-9.5246
magnetic	-9.52462
▁0.	-9.52463
▁roughness	-9.52464
▁matter	-9.5248
▁lack	-9.52487
Given	-9.5253
▁carbonate	-9.52666
▁aim	-9.5268
▁principal	-9.52684
ng	-9.52685
ities	-9.53088
band	-9.53102
▁emissions	-9.53109
▁filter	-9.53243
▁stocks	-9.53404
▁seed	-9.53503
nce	-9.53526
7)	-9.53665
▁quality	-9.53689
▁CIE	-9.5369
▁downstream	-9.53691
▁CDC	-9.53693
▁OK	-9.53789
▁ca	-9.53797
▁chemistry	-9.53858
▁depend	-9.53875
▁shade	-9.539
▁established	-9.54058
▁units	-9.54197
▁algebra	-9.54244
Using	-9.54333
by	-9.54474
valued	-9.54518
▁findings	-9.54755
▁them	-9.54811
▁uniform	-9.54926
▁appropriate	-9.54939
▁choice	-9.54939
▁climate	-9.54939
▁diffusion	-9.54939
▁QoS	-9.5494
▁divid	-9.5494
▁knowledge	-9.54941
▁regeneration	-9.54943
ling	-9.54967
▁qui	-9.54971
▁upward	-9.54986
▁crop	-9.55107
▁infinite	-9.55177
ca	-9.55233
▁largest	-9.55264
▁sp	-9.55313
▁shape	-9.55519
▁cold	-9.55521
▁interesting	-9.55621
▁prove	-9.55669
▁ε	-9.55796
▁thermospher	-9.55797
▁2.	-9.56051
▁block	-9.56077
▁Sea	-9.56097
mon	-9.56111
▁closed	-9.56125
▁0.2	-9.56134
Ω	-9.56199
▁human	-9.56205
▁nature	-9.56205
▁generation	-9.56205
▁help	-9.56206
▁percentage	-9.56208
▁proof	-9.56209
▁rise	-9.56242
14	-9.56332
▁ice	-9.56407
xj	-9.56432
ver	-9.56839
ll	-9.56912
▁executions	-9.57141
▁rapid	-9.57178
chemical	-9.57207
▁investigate	-9.573
▁agree	-9.57472
▁basis	-9.57487
▁theorem	-9.57487
▁groundwater	-9.5749
(2)	-9.5751
▁polar	-9.57549
1/2	-9.57587
▁MS	-9.57727
OX	-9.57731
▁cycles	-9.57767
hy	-9.57834
0(	-9.57922
ei	-9.58042
0=	-9.58074
▁signals	-9.58079
▁St	-9.58116
5,	-9.58124
▁aspect	-9.58451
▁protocol	-9.58455
▁2007).	-9.5846
res	-9.58465
▁accurate	-9.58474
▁propose	-9.58562
▁extreme	-9.58786
▁volcanic	-9.58786
▁latter	-9.58794
Φ	-9.58822
▁minor	-9.58855
ID	-9.58939
ist	-9.58982
▁Ni	-9.59044
▁decline	-9.59152
▁remains	-9.59169
27	-9.5939
tr	-9.59493
>0	-9.59652
▁fall	-9.5967
▁1.5	-9.59681
▁evaluation	-9.59794
pro	-9.60074
▁divisorial	-9.60102
▁extent	-9.60102
▁utilization	-9.60102
▁optical	-9.60103
▁{	-9.60133
▁whole	-9.60163
▁exceed	-9.60196
▁periods	-9.6037
ized	-9.60513
ue	-9.60524
▁play	-9.60699
▁electric	-9.60768
▁away	-9.60875
▁formed	-9.6092
▁3.2	-9.61013
▁2).	-9.61019
com	-9.61109
▁instrument	-9.61128
▁cloud	-9.61131
▁axis	-9.61134
▁reaction	-9.6116
▁Du	-9.61335
.6	-9.61371
▁yields	-9.61408
γ	-9.61423
▁Further	-9.61432
▁availability	-9.61435
▁boundaries	-9.61435
▁display	-9.61435
▁easily	-9.61435
▁System	-9.61436
▁annealing	-9.61438
▁monoid	-9.61444
with	-9.61513
▁bottom	-9.6153
Supplementary	-9.61541
▁slices	-9.61651
▁simulated	-9.61697
▁2008).	-9.61779
variant	-9.62029
▁decreased	-9.62147
▁ideals	-9.62154
▁Be	-9.62254
▁reason	-9.62268
CH	-9.62352
ish	-9.62455
▁who	-9.62461
▁contribution	-9.62504
)=0	-9.62509
▁edge	-9.62513
one	-9.62532
▁gradients	-9.62566
▁Pe	-9.62664
2=	-9.627
▁framework	-9.62786
▁instead	-9.62786
▁dark	-9.62788
▁hypothesis	-9.62788
▁probabl	-9.62788
▁shallow	-9.62788
▁bore	-9.62793
▁occurred	-9.62801
be	-9.62827
▁mixing	-9.62891
▁evolution	-9.62901
▁1).	-9.63008
▁view	-9.6313
▁investigated	-9.63229
▁introduced	-9.63269
▁threads	-9.63322
▁achieved	-9.63331
▁frontal	-9.63363
▁precipitates	-9.63438
ization	-9.63541
▁structures	-9.63541
▁match	-9.63543
▁generate	-9.63557
▁Bas	-9.63608
▁reach	-9.6363
▁Po	-9.63654
▁develop	-9.63702
▁exhibit	-9.63713
85	-9.63731
9)	-9.63847
▁bacteria	-9.63992
SM	-9.64022
4+	-9.64047
▁regular	-9.64156
▁Europe	-9.64156
▁bounds	-9.64162
▁plotted	-9.64167
▁evaluate	-9.64182
▁26	-9.64262
▁(2010)	-9.64272
▁Osi	-9.64366
▁correct	-9.64415
▁3).	-9.64872
ley	-9.64954
▁inputs	-9.65128
▁force	-9.65181
▁(2)	-9.65234
▁population	-9.65296
▁abundance	-9.65302
▁2,	-9.65309
▁packet	-9.65313
▁noted	-9.65339
▁photo	-9.65539
▁terrestrial	-9.65545
▁vortex	-9.65545
▁chain	-9.65545
▁paleo	-9.65545
▁half	-9.65546
▁regional	-9.65567
▁mixed	-9.65635
▁conducted	-9.65676
io	-9.65727
▁added	-9.65855
ever	-9.65943
3-	-9.6605
ose	-9.6606
#40	-9.6615
lin	-9.66198
▁media	-9.66255
▁±	-9.6638
▁maintain	-9.66513
▁report	-9.66518
▁particularly	-9.66558
layer	-9.66602
vel	-9.66629
MS	-9.66633
▁classifier	-9.66733
▁dependent	-9.66784
state	-9.66836
▁causes	-9.66862
▁accuracy	-9.66953
▁contact	-9.66953
▁enzyme	-9.66953
▁clinical	-9.66954
▁loop	-9.66954
▁generator	-9.66957
▁middle	-9.66965
▁RS	-9.66971
CA	-9.66976
▁deviation	-9.67037
▁counter	-9.67058
▁version	-9.67151
ative	-9.67167
▁environments	-9.67276
▁parallel	-9.67293
▁rapidly	-9.67295
▁surfaces	-9.67323
▁north	-9.6734
▁enable	-9.67366
ak	-9.67421
▁observe	-9.6759
′(	-9.677
▁forwarding	-9.67763
Ma	-9.67947
▁0.5	-9.68037
,⋅)	-9.68092
▁circulation	-9.68382
▁degradation	-9.68382
▁imply	-9.68382
▁slope	-9.68382
▁supply	-9.68382
▁exchange	-9.68384
▁perchlorate	-9.68391
▁4.1	-9.68456
▁incremental	-9.68482
▁flybys	-9.68529
ω	-9.68537
▁critical	-9.6854
TCP	-9.68555
energy	-9.68557
▁classes	-9.68569
▁Ref	-9.6865
▁suitabl	-9.6868
▁compar	-9.68957
▁Site	-9.69214
▁takes	-9.693
▁treatments	-9.6932
▁patients	-9.69368
ke	-9.69391
▁currents	-9.69498
av	-9.69725
da	-9.6982
▁distortion	-9.69831
▁rigid	-9.69831
▁strategies	-9.69831
▁Earth	-9.69832
saturated	-9.69832
▁dense	-9.69834
▁2011)	-9.69843
▁improvement	-9.69853
▁analysed	-9.70014
▁square	-9.70029
▁sampling	-9.70086
▁tri	-9.7017
▁implemented	-9.70175
▁product	-9.70194
erg	-9.70338
▁accelerated	-9.70567
▁latitudes	-9.70588
▁chamber	-9.70691
▁compute	-9.70807
▁assess	-9.70842
▁confirm	-9.70862
▁La	-9.71104
▁flyby	-9.71151
▁establish	-9.71157
▁He	-9.7122
-1(	-9.71255
▁pair	-9.71272
▁glyphosate	-9.71302
▁literature	-9.71302
▁saturation	-9.71302
▁instance	-9.71303
▁spot	-9.71304
▁bright	-9.71305
▁split	-9.71307
▁review	-9.71313
▁transformation	-9.71322
▁pitch	-9.71331
▁six	-9.7138
▁width	-9.71426
▁onto	-9.71463
▁orders	-9.7149
▁Similarly	-9.71493
▁10%	-9.71505
faulty	-9.71535
making	-9.71625
▁computed	-9.7164
dependent	-9.71733
▁18	-9.71911
′′	-9.71926
▁table	-9.71932
▁EU	-9.72202
▁graph	-9.72203
ferred	-9.72292
▁Cu	-9.72341
▁leading	-9.72353
▁max	-9.72501
▁needed	-9.72574
+,	-9.7261
uk	-9.72612
▁forms	-9.72665
time	-9.72756
▁decreasing	-9.72794
▁limestone	-9.72794
▁susceptibility	-9.72794
▁instability	-9.72795
▁2004;	-9.72823
▁hard	-9.72828
▁2008;	-9.72854
▁illustrate	-9.72905
∏	-9.72917
sis	-9.72921
na	-9.72951
2%	-9.72966
▁metal	-9.73069
47	-9.73082
red	-9.7311
▁plot	-9.7314
To	-9.73199
igned	-9.73201
▁40	-9.73257
+(	-9.73268
▁rings	-9.73313
▁invariant	-9.73341
net	-9.73422
▁diseased	-9.73488
CT	-9.7357
▁ground	-9.7358
▁log	-9.73635
SO	-9.7368
Mn	-9.7372
▁Ra	-9.7382
)⊂	-9.73911
▁success	-9.73962
▁entire	-9.73995
▁2.1	-9.74029
▁days	-9.74102
▁duration	-9.74181
▁advantage	-9.7431
▁asymmetry	-9.7431
▁look	-9.7431
▁wild	-9.7431
▁LTL	-9.7431
▁2009)	-9.74325
▁respiration	-9.74338
▁acceleration	-9.74347
▁southern	-9.74365
▁pulse	-9.74435
▁evaluated	-9.74842
▁tend	-9.74908
ff	-9.7516
▁detail	-9.75322
▁algebraic	-9.75531
Cn	-9.7556
▁anti	-9.75634
▁substrate	-9.7576
▁importance	-9.75848
▁lidar	-9.75848
▁possibility	-9.75848
▁description	-9.75848
▁PRAM	-9.75848
▁hearing	-9.75848
▁bond	-9.7585
▁classification	-9.75862
▁interpretation	-9.75862
▁intersection	-9.75878
▁belong	-9.75924
▁structural	-9.75958
▁controlled	-9.7599
▁adsorb	-9.76
▁2006	-9.76068
▁tolerance	-9.76119
▁weathering	-9.76148
▁parts	-9.76149
Im	-9.76242
▁sand	-9.7637
▁delays	-9.76417
▁VM	-9.76423
▁electro	-9.76465
▁dusk	-9.76602
▁maps	-9.76695
exp	-9.7683
▁valid	-9.76876
▁hydrodynamic	-9.76919
▁seem	-9.76993
con	-9.77084
);	-9.77096
▁curves	-9.77105
▁integers	-9.77312
≈	-9.77346
ecause	-9.77375
▁share	-9.77442
▁analyses	-9.77442
▁comparable	-9.77461
▁2010	-9.775
▁prepared	-9.77502
▁sections	-9.77521
onal	-9.77613
shore	-9.77614
▁Low	-9.77635
rich	-9.77656
▁2007)	-9.77838
keV	-9.7793
08	-9.78246
▁solutions	-9.7828
/(	-9.78314
▁predictions	-9.78555
molecular	-9.7862
▁5.2	-9.78658
ign	-9.78673
▁contribute	-9.78813
▁rotation	-9.78868
▁tool	-9.78926
▁absence	-9.78998
▁metastability	-9.78998
▁synthesis	-9.78998
▁aggregate	-9.79027
▁indicat	-9.79062
▁details	-9.7909
▁plots	-9.79136
ck	-9.79147
▁commutative	-9.79177
tu	-9.79276
▁removed	-9.79335
mb	-9.79417
▁understanding	-9.79419
art	-9.79561
▁forest	-9.79623
▁actions	-9.79889
ring	-9.79907
)).	-9.80012
▁coordinates	-9.80078
35	-9.8011
′∈	-9.80156
▁once	-9.80237
▁though	-9.80268
rate	-9.80472
▁π	-9.80519
▁access	-9.80611
▁external	-9.80611
▁simply	-9.80611
▁utility	-9.80611
▁glass	-9.80611
▁uptake	-9.80611
▁consequence	-9.80614
▁factorization	-9.80618
▁alternative	-9.8062
▁More	-9.80642
▁extraction	-9.80653
▁complexity	-9.80747
▁otherwise	-9.80809
▁lowest	-9.80837
ok	-9.81067
isation	-9.811
▁1.3	-9.81141
ner	-9.81189
▁integrated	-9.8126
▁expressed	-9.81263
bj	-9.813
eous	-9.81492
)={	-9.81496
+1/2	-9.81581
lan	-9.81613
▁0.4	-9.8175
70	-9.81803
▁mutual	-9.81935
▁count	-9.8198
∪	-9.82047
▁respective	-9.82057
ssuming	-9.822
▁move	-9.82206
▁coincide	-9.82233
▁buffer	-9.8225
▁family	-9.8225
▁homomorphism	-9.8225
▁background	-9.82253
▁request	-9.82254
100	-9.82269
▁formulation	-9.82303
▁2007;	-9.8231
▁allowed	-9.82345
▁200	-9.82382
▁tested	-9.82579
▁carrier	-9.82622
expression	-9.82638
▁placed	-9.82705
▁metric	-9.82768
▁Definition	-9.82775
8%	-9.82897
chamber	-9.82922
▁checking	-9.83014
▁explained	-9.83026
gene	-9.83201
Mg	-9.83327
1.5	-9.83352
rain	-9.83438
75	-9.83714
OH	-9.83717
▁dynamics	-9.83802
istic	-9.83898
▁categories	-9.83917
▁kinetic	-9.83917
▁principle	-9.83917
▁voltage	-9.83917
▁porous	-9.83917
▁Indeed	-9.83919
▁translation	-9.83921
▁realistic	-9.83934
▁generalize	-9.83949
▁compound	-9.83961
▁2009;	-9.84018
▁lie	-9.84048
▁date	-9.84054
▁primari	-9.84133
▁plates	-9.84219
26	-9.84311
ight	-9.84335
▁involved	-9.84451
▁backward	-9.84567
∈[	-9.84955
▁hav	-9.85061
str	-9.8513
ium	-9.85165
▁continuous	-9.85312
▁except	-9.85445
▁paths	-9.85502
opt	-9.85599
▁extension	-9.85612
▁shoot	-9.85612
▁basin	-9.85612
▁itself	-9.85612
▁social	-9.85612
▁demand	-9.85612
ost	-9.85622
▁lock	-9.85632
▁sonic	-9.85641
▁relevant	-9.85663
▁Pro	-9.85672
▁2005;	-9.85676
▁discussion	-9.85753
▁nutrient	-9.85817
▁products	-9.8582
▁debonding	-9.8587
▁restricted	-9.85904
▁statistics	-9.85979
axis	-9.86067
▁processing	-9.86114
not	-9.86607
▁SZ	-9.86652
mM	-9.86796
)→	-9.86912
▁proportion	-9.86957
▁conclude	-9.86995
▁statements	-9.87228
▁equilibrium	-9.87336
▁hemisphere	-9.87336
▁(2007)	-9.87336
▁Cloud	-9.87336
▁argue	-9.87336
Dnew	-9.87339
▁leaves	-9.87369
▁semigroup	-9.8737
▁immediately	-9.8743
▁investigation	-9.87442
▁High	-9.8746
▁faster	-9.87504
▁positions	-9.87508
▁2009	-9.87534
▁faulty	-9.87543
▁OAE	-9.87551
cal	-9.87566
▁employed	-9.87585
▁cooling	-9.87589
▁mineral	-9.87627
▁statement	-9.87633
▁DNA	-9.87663
▁fluctuations	-9.87698
▁breaking	-9.87709
▁recently	-9.8788
▁pH	-9.87907
▁chip	-9.87934
▁driven	-9.88169
olar	-9.88276
▁lateral	-9.883
▁recover	-9.88392
▁17	-9.88488
▁ma	-9.88598
▁situ	-9.88641
▁vary	-9.8869
SP	-9.88859
kin	-9.88905
▁geo	-9.88915
▁Ol	-9.88976
▁weak	-9.89004
our	-9.89071
▁medium	-9.89091
▁he	-9.89094
Assume	-9.89094
▁yet	-9.89136
▁rest	-9.8914
▁conventional	-9.89144
⩾′	-9.89144
▁distributed	-9.89148
▁classical	-9.89182
wise	-9.89192
▁message	-9.89223
▁fibres	-9.89229
28	-9.89411
espite	-9.8947
▁According	-9.89492
so	-9.89494
%)	-9.89532
zero	-9.89602
expressing	-9.8967
rad	-9.89679
Cha	-9.89715
averaged	-9.8974
bM	-9.89756
▁statistical	-9.89836
01	-9.89957
▁depending	-9.89991
2⩾	-9.90022
0.1	-9.90045
▁errors	-9.90101
1=	-9.9015
cent	-9.90159
-1/2	-9.90202
▁construct	-9.90271
▁trans	-9.90345
▁red	-9.90508
▁min	-9.90549
⩾={	-9.90549
▁loading	-9.90555
+)	-9.90568
▁2003).	-9.90568
pend	-9.90648
oid	-9.90681
55	-9.90751
▁extra	-9.90845
⩾′=	-9.90872
▁responsib	-9.90876
▁satisfies	-9.90876
▁convergence	-9.90878
▁say	-9.90887
▁write	-9.90891
▁assessment	-9.90898
▁iff	-9.90974
▁(2012)	-9.91005
▁interpreted	-9.91015
▁done	-9.91019
▁salt	-9.91044
▁vs	-9.9105
▁deletion	-9.91064
fer	-9.91091
▁lattice	-9.91098
▁correlated	-9.91142
▁Eout	-9.91245
▁protocols	-9.91333
rea	-9.91334
au	-9.91362
▁shales	-9.91514
▁assumptions	-9.91604
▁too	-9.91666
▁disc	-9.91737
77	-9.91753
hand	-9.91803
▁resulted	-9.91842
ize	-9.91861
ification	-9.91881
6,	-9.91897
)=(	-9.91899
mann	-9.91965
▁ability	-9.91978
▁connections	-9.92076
Or	-9.9213
9%	-9.92174
▁refer	-9.9221
▁records	-9.92403
Iv	-9.92419
ock	-9.92626
▁MRPL	-9.92694
▁Enceladus	-9.92694
▁aerodynamic	-9.92694
▁community	-9.92694
▁precision	-9.92694
▁flight	-9.92694
▁reverse	-9.92694
▁separation	-9.92694
▁metastab	-9.92701
▁22	-9.92709
pp	-9.92715
▁downward	-9.92716
ix	-9.92717
▁clay	-9.92776
▁nitrogen	-9.92801
▁amplitude	-9.92807
▁50%	-9.92828
=±1	-9.92832
▁authors	-9.92862
▁hold	-9.92949
▁beaches	-9.92949
36	-9.92966
▁nano	-9.92976
▁tube	-9.93033
ler	-9.93033
▁2002	-9.93067
▁majorit	-9.9311
-5	-9.93113
7%	-9.93116
ors	-9.93197
▁analyzed	-9.93202
▁2006).	-9.93229
▁rough	-9.93247
▁released	-9.9325
▁Os	-9.93376
▁bi	-9.93437
▁intervals	-9.93454
▁reached	-9.9349
set	-9.93528
98	-9.93603
3.	-9.93771
▁implement	-9.94055
▁cm	-9.94165
▁constrain	-9.94174
cur	-9.94425
5)	-9.94524
▁architecture	-9.94546
▁exposure	-9.94546
▁annual	-9.94546
▁Joule	-9.94546
▁Formation	-9.94547
▁PTh	-9.94548
▁box	-9.94548
▁runtime	-9.94557
▁salinity	-9.94558
▁narrow	-9.9456
▁Sp	-9.94571
▁Over	-9.94612
▁compression	-9.94756
▁Jo	-9.94764
▁deleted	-9.94789
▁examined	-9.94853
▁stronger	-9.94903
specific	-9.94987
▁Consider	-9.94994
▁Example	-9.94994
▁Le	-9.95044
▁centre	-9.95061
▁variance	-9.95172
⩾,	-9.95257
▁flags	-9.95279
going	-9.95354
vis	-9.95372
▁polynomials	-9.95602
4%	-9.95712
▁project	-9.95725
EN	-9.9579
▁giv	-9.95895
▁measur	-9.95926
way	-9.95966
mod	-9.95988
=-	-9.95996
▁formal	-9.9601
▁guarantee	-9.9609
▁precise	-9.96119
▁First	-9.9612
▁poor	-9.96126
▁∼1	-9.96135
chi	-9.963
ological	-9.96331
▁averaged	-9.96341
ified	-9.964
▁smectite	-9.96433
▁experience	-9.96433
▁platform	-9.96433
▁whilst	-9.96433
▁sharp	-9.96433
▁nominal	-9.96434
▁dust	-9.96434
▁AMF	-9.96435
DoS	-9.96439
▁host	-9.96461
▁fractions	-9.96528
▁2006;	-9.96562
▁dry	-9.9657
▁create	-9.9676
▁pa	-9.96813
▁deposited	-9.96815
▁2004).	-9.96841
▁reactions	-9.96861
▁origin	-9.96891
▁ionospher	-9.96924
▁Int	-9.96979
▁back	-9.97004
This	-9.97086
▁day	-9.97117
acc	-9.9717
let	-9.97492
TO	-9.97624
▁switch	-9.97752
▁union	-9.97829
(3)	-9.979
▁initially	-9.97909
▁angles	-9.97925
99	-9.97966
▁directions	-9.97989
▁stem	-9.9799
▁proteins	-9.98066
▁finding	-9.98104
▁Th	-9.98169
#50	-9.9819
▁2010)	-9.98196
▁possibl	-9.98308
▁survey	-9.98356
▁turbulence	-9.98356
▁uprush	-9.98356
▁microscopy	-9.98356
▁crust	-9.98356
▁Sample	-9.98356
▁Lyman	-9.98356
▁treat	-9.98357
▁Ω	-9.98361
▁upstream	-9.98364
▁strict	-9.98366
▁enter	-9.98384
▁SpiNNaker	-9.98419
referred	-9.98439
▁surrounding	-9.98505
▁circuit	-9.98572
▁reasonable	-9.98594
▁(5	-9.98643
▁Dur	-9.98676
▁Cr	-9.98755
▁orbit	-9.98757
▁τ	-9.9878
pre	-9.98938
LEMMS	-9.99023
mic	-9.99149
▁constrained	-9.99206
that	-9.99267
⁎(	-9.99396
▁distinguish	-9.99517
▁(2011)	-9.99702
▁Ko	-9.99778
▁Cl	-9.99858
▁theoretical	-10
esq	-10.0013
∼	-10.0015
09	-10.0015
▁add	-10.0016
▁semi	-10.0031
▁Infocom	-10.0032
▁apparent	-10.0032
▁criteria	-10.0032
▁quadrat	-10.0032
▁sheet	-10.0032
▁phosphatase	-10.0032
icular	-10.0042
▁situation	-10.0045
▁ear	-10.005
▁bar	-10.0052
ussin	-10.0053
▁North	-10.0053
▁bacterial	-10.0055
▁24	-10.0059
▁Some	-10.0061
▁examples	-10.0063
▁encounter	-10.0065
▁mutation	-10.0067
▁user	-10.0068
,...,	-10.0074
▁constructed	-10.008
lation	-10.0081
row	-10.0094
lay	-10.0104
NF	-10.0108
▁GP	-10.011
▁completely	-10.0116
tn	-10.0124
OL	-10.0127
▁Sy	-10.0137
▁ten	-10.0141
sil	-10.0147
static	-10.0156
▁60	-10.0158
▁understand	-10.0179
▁sequences	-10.0205
▁partial	-10.0207
▁normals	-10.0216
mn	-10.0217
▁attempt	-10.0232
▁coupling	-10.0232
▁genepool	-10.0232
▁keep	-10.0232
▁negligible	-10.0232
▁vertex	-10.0232
▁parent	-10.0232
▁south	-10.0232
▁running	-10.0232
▁characterised	-10.0232
▁hole	-10.0235
▁1.2	-10.0235
▁projective	-10.0236
▁inserted	-10.0243
▁router	-10.0244
(⋅,	-10.0248
▁come	-10.0253
>0,	-10.0256
▁adaptive	-10.0257
▁5.1	-10.0266
0+	-10.0271
▁SF	-10.0273
▁involve	-10.0286
ger	-10.029
▁sensitive	-10.0306
∀	-10.0307
physical	-10.0308
▁denoted	-10.0313
from	-10.0319
▁incoming	-10.0325
8,	-10.0334
▁Ein	-10.034
▁mt	-10.0353
-300	-10.0355
▁∀	-10.0359
do	-10.0361
▁Basin	-10.0372
▁2005).	-10.0375
DA	-10.0386
are	-10.0389
▁examine	-10.0402
▁Car	-10.0408
rl	-10.0423
▁objects	-10.0426
but	-10.0429
▁predominant	-10.0436
stabilizing	-10.0436
▁claim	-10.0436
▁fMRI	-10.0436
▁radius	-10.0436
▁sorbent	-10.0436
fungal	-10.0436
▁Costa	-10.0436
▁Ha	-10.0438
▁silicic	-10.0438
inverted	-10.0439
▁Rica	-10.0442
mg	-10.0443
mark	-10.0444
▁tremula	-10.0444
=[	-10.0454
▁exactly	-10.0464
.2.	-10.0479
▁thought	-10.0481
▁atomic	-10.049
▁Cha	-10.0495
)⋅	-10.0496
▁1000	-10.0498
off	-10.0513
▁eruptions	-10.0514
▁commonly	-10.0515
lim	-10.0517
Int	-10.0549
year	-10.0565
▁failures	-10.0569
hap	-10.0575
▁NH	-10.0588
▁measures	-10.0603
▁DEF	-10.0608
▁substantial	-10.0614
▁pass	-10.0621
▁slow	-10.0626
▁Proof	-10.0633
500	-10.0636
theoretic	-10.0644
▁computing	-10.0644
▁MIMI	-10.0644
▁flowering	-10.0645
▁replicate	-10.0645
▁traits	-10.0646
well	-10.0649
▁21	-10.0662
ideals	-10.0671
olated	-10.0674
▁classifiers	-10.0677
▁interface	-10.0683
▁heat	-10.0688
▁stock	-10.0693
▁calculation	-10.0694
▁lengths	-10.07
sided	-10.0701
▁blocks	-10.0705
▁varying	-10.0707
Ein	-10.0709
wt	-10.071
▁considering	-10.0723
▁band	-10.0723
amp	-10.0727
▁deal	-10.0746
▁hydro	-10.0767
▁clustering	-10.0774
▁operations	-10.0775
▁highlight	-10.0812
▁concern	-10.0812
▁necessar	-10.0832
▁ω	-10.0833
king	-10.0846
▁(3	-10.0856
▁manage	-10.0856
▁migration	-10.0857
▁regression	-10.0857
SIFT	-10.0857
▁northern	-10.0857
▁introduction	-10.0857
▁pear	-10.0857
▁appearance	-10.0859
ode	-10.0863
taking	-10.0866
▁laboratory	-10.0867
▁toughen	-10.0869
▁successfully	-10.0877
▁characterized	-10.0878
▁NaFe	-10.0879
▁past	-10.0887
▁modeling	-10.0892
ov	-10.0896
▁updat	-10.0906
▁gain	-10.0907
▁purpose	-10.0908
▁head	-10.0908
▁figure	-10.0909
▁transferr	-10.0909
▁lake	-10.091
ges	-10.0915
▁analytical	-10.0915
TE	-10.0947
▁UV	-10.0954
▁PM	-10.0958
▁electrical	-10.0959
ker	-10.0985
6%	-10.0989
part	-10.0992
29	-10.0992
▁static	-10.1014
=1,	-10.1026
▁2001	-10.1054
▁numbers	-10.1073
▁tail	-10.1074
▁December	-10.1074
▁cortex	-10.1074
▁crucial	-10.1074
▁explanation	-10.1074
▁operating	-10.1074
▁blend	-10.1074
▁radial	-10.1074
▁bandwidth	-10.1074
▁diagnostic	-10.1074
▁Also	-10.1076
▁distances	-10.1078
▁(4	-10.1081
▁genetic	-10.1082
▁oscillator	-10.1086
▁notation	-10.1091
.3.	-10.1092
▁pure	-10.1094
▁accept	-10.1094
▁Cowley	-10.1096
▁differential	-10.1099
▁essentially	-10.1104
▁double	-10.1106
▁complexes	-10.1109
▁executed	-10.1109
▁month	-10.1131
▁subsequently	-10.1133
▁scan	-10.1139
▁confirmed	-10.114
▁Cab	-10.1155
module	-10.1167
related	-10.1186
▁wh	-10.1186
tRNA	-10.1187
here	-10.119
ept	-10.1204
▁inside	-10.1205
tQ	-10.1205
▁designed	-10.1208
ip	-10.1212
CR	-10.1217
45	-10.1222
▁sh	-10.1223
Fe	-10.1236
dent	-10.1243
▁build	-10.1244
.4	-10.1263
gen	-10.1266
ome	-10.1278
▁symmetric	-10.1295
▁accumulation	-10.1296
▁changing	-10.1296
▁children	-10.1296
▁coffee	-10.1296
▁countries	-10.1296
▁morphism	-10.1296
▁practice	-10.1296
▁room	-10.1296
▁uncertainties	-10.1296
▁meridi	-10.1296
▁SOIS	-10.1296
▁stain	-10.1297
▁OME	-10.1297
▁kyr	-10.1297
▁face	-10.1299
▁solve	-10.1301
▁integration	-10.1301
▁2003;	-10.1301
▁food	-10.1303
▁satisfied	-10.1304
▁2008)	-10.1311
▁2010;	-10.1311
▁0.3	-10.1316
▁construction	-10.1317
▁crystal	-10.1318
▁ha	-10.132
▁fill	-10.132
▁moder	-10.1325
ron	-10.1327
▁listed	-10.1334
▁needs	-10.1339
▁reasons	-10.1342
2/	-10.1344
ier	-10.1344
1%	-10.1351
mlb	-10.1353
64	-10.1356
▁issue	-10.1363
▁sum	-10.137
▁2004)	-10.1378
ole	-10.1381
ably	-10.1381
Lemma	-10.1396
point	-10.1396
which	-10.1396
▁2)	-10.1397
▁0.8	-10.1411
▁Br	-10.1413
▁problems	-10.1415
It	-10.142
binary	-10.1448
46	-10.1455
▁2006)	-10.1465
coated	-10.1469
-6	-10.1477
▁mutations	-10.1483
▁derive	-10.149
▁extensive	-10.1492
▁essential	-10.1493
▁extract	-10.1504
side	-10.151
▁months	-10.151
▁exact	-10.1512
▁(3)	-10.1517
▁amounts	-10.152
▁robust	-10.1522
▁Macdonald	-10.1524
▁hydraulic	-10.1524
▁millet	-10.1524
▁summarize	-10.1524
▁adjust	-10.1524
▁marked	-10.1524
▁composite	-10.1525
▁bin	-10.1526
▁gap	-10.1532
▁activation	-10.1533
▁published	-10.1537
))=	-10.1539
▁label	-10.1544
TMM	-10.1544
atur	-10.1551
▁alkalin	-10.1556
▁partitioning	-10.156
▁cap	-10.1565
▁heated	-10.1574
▁timeout	-10.1586
▁yielding	-10.1591
▁defect	-10.1592
2+2	-10.1594
▁requirement	-10.1597
▁prediction	-10.16
▁forces	-10.1609
02	-10.162
▁(∼	-10.1622
▁80	-10.1626
▁testing	-10.1627
LDDoS	-10.1629
▁Sv	-10.1639
88	-10.1644
▁clocks	-10.1647
ake	-10.167
▁γ	-10.168
air	-10.1712
As	-10.1719
)∩	-10.1721
▁computation	-10.1728
▁compounds	-10.175
▁Vi	-10.1752
▁article	-10.1756
▁calcification	-10.1756
▁excursion	-10.1756
▁trajectories	-10.1756
▁varieties	-10.1756
▁eventually	-10.1756
▁encoding	-10.1756
▁scanning	-10.1756
▁DAHA	-10.1756
▁met	-10.1756
▁transmission	-10.1757
▁preparation	-10.1757
▁enhancement	-10.1758
▁indeed	-10.1759
▁moderate	-10.176
▁minimal	-10.176
▁groupoid	-10.176
▁ZnO	-10.1761
▁Scenario	-10.177
Figs	-10.1774
▁occurring	-10.1776
0′(	-10.1779
▁crossing	-10.1785
▁blue	-10.1785
▁consideration	-10.1789
)<	-10.179
▁solved	-10.1792
▁repeated	-10.1792
▁controls	-10.1799
▁HA	-10.18
∗(	-10.1803
▁submodules	-10.1805
▁edges	-10.1806
▁ELS	-10.181
years	-10.1812
58	-10.1815
▁SiC	-10.1816
▁modes	-10.182
▁created	-10.1821
▁φ	-10.1831
ou	-10.184
▁hydrogen	-10.1854
▁trends	-10.1856
Proposition	-10.1867
6)	-10.1894
this	-10.1927
▁Ro	-10.1931
=0,	-10.1938
▁expect	-10.1951
ology	-10.1952
▁[10]	-10.1955
▁[13]	-10.1958
▁severe	-10.1966
▁[45]	-10.1966
▁28	-10.1979
iii	-10.1991
▁Similar	-10.1993
⋯	-10.1994
é	-10.1994
▁capillary	-10.1994
▁consequently	-10.1994
▁determination	-10.1994
▁efficiencies	-10.1994
▁fragments	-10.1994
▁homogeneous	-10.1994
▁lemma	-10.1994
▁manifold	-10.1994
▁rubber	-10.1994
▁sMRI	-10.1994
▁litter	-10.1994
▁inverse	-10.1994
▁diffraction	-10.1995
▁mapping	-10.1996
▁winter	-10.1997
▁recommendation	-10.1997
▁outside	-10.1998
▁specified	-10.2001
βν	-10.2004
▁2000;	-10.2005
▁elevation	-10.2007
2°	-10.2012
▁Second	-10.2018
▁Two	-10.2024
▁compact	-10.2027
▁incubation	-10.203
▁reduc	-10.2035
▁detector	-10.2035
inter	-10.2054
▁0.9	-10.2055
▁aspects	-10.2056
▁(10	-10.2058
▁RNA	-10.2061
▁allowing	-10.2061
▁termina	-10.2064
▁spread	-10.2065
▁atom	-10.2065
▁mentioned	-10.2066
ump	-10.208
▁adj	-10.2102
ground	-10.2109
water	-10.2109
′-	-10.2114
▁analyze	-10.2115
▁(20	-10.212
af	-10.2123
▁violations	-10.213
▁sampled	-10.2136
97	-10.2141
ates	-10.2142
/2	-10.2165
reby	-10.218
▁2013).	-10.2186
▁35	-10.2201
(1+	-10.2204
▁deletions	-10.2217
▁know	-10.2218
▁vers	-10.2219
bi	-10.2224
▁inhibit	-10.2226
▁span	-10.2228
▁break	-10.2235
▁hetero	-10.2238
outhern	-10.2238
glacial	-10.2238
▁AALD	-10.2238
▁Material	-10.2238
▁excess	-10.2238
▁powder	-10.2238
▁quotient	-10.2238
▁radiation	-10.2238
▁sensitivity	-10.2238
▁toughness	-10.2238
▁radio	-10.2238
▁verify	-10.2238
95	-10.2238
▁quantitative	-10.2238
▁timing	-10.2239
tolerant	-10.2239
▁opposite	-10.2239
▁biological	-10.2239
▁rank	-10.2239
▁equatorial	-10.2239
▁propagation	-10.224
▁syn	-10.224
▁classified	-10.224
▁considerably	-10.2241
▁native	-10.2245
▁Kru	-10.2248
▁receiver	-10.2257
▁mov	-10.2259
▁Another	-10.2259
▁Eocene	-10.2262
arch	-10.2265
▁Mo	-10.2273
▁losses	-10.2275
▁poorly	-10.2279
▁abundances	-10.2281
▁satisfying	-10.2285
▁estimation	-10.2285
discrete	-10.2291
▁logical	-10.2296
▁illustrated	-10.2306
▁Ta	-10.2307
▁[11]	-10.2308
auer	-10.2309
▁constraint	-10.2315
▁procedure	-10.2322
mol	-10.2323
▁connection	-10.2327
▁validate	-10.2336
▁transitions	-10.2339
▁conclusions	-10.234
rom	-10.234
ulation	-10.2348
▁coordinate	-10.2353
)),	-10.2358
▁winds	-10.2365
FS	-10.2365
rd	-10.2372
▁nm	-10.2374
▁character	-10.2388
acent	-10.2397
▁2.5	-10.2399
Br	-10.2413
▁grow	-10.2416
▁bc	-10.242
▁figures	-10.2439
▁Per	-10.2443
65	-10.2444
▁2000	-10.2454
▁abstract	-10.2465
38	-10.2472
▁others	-10.2473
▁route	-10.2476
▁timer	-10.2487
responsive	-10.2488
▁brief	-10.2488
▁closure	-10.2488
▁debris	-10.2488
▁deposits	-10.2488
▁entries	-10.2488
▁identification	-10.2488
▁latency	-10.2488
▁membrane	-10.2488
▁sulfate	-10.2488
▁search	-10.2488
evertheless	-10.2488
▁IMA	-10.2489
▁watchdog	-10.2489
▁convert	-10.2489
▁programming	-10.2489
gan	-10.2489
▁somewhat	-10.2489
▁index	-10.2489
les	-10.2502
▁timescale	-10.2509
▁2.2	-10.2511
▁(~	-10.2514
▁synchronization	-10.2515
▁[26]	-10.2517
▁choose	-10.2522
rod	-10.2536
▁exception	-10.2537
ani	-10.2541
▁lift	-10.2543
▁rang	-10.2557
▁changed	-10.2558
▁similarly	-10.2566
▁neurons	-10.257
▁put	-10.2574
▁Lev	-10.2575
▁cube	-10.2578
▁barriers	-10.2579
▁failure	-10.2581
▁nanoparticle	-10.2581
ova	-10.2588
use	-10.2598
(|	-10.2613
▁<	-10.2615
▁read	-10.2616
latitude	-10.2617
Theorem	-10.2617
scaling	-10.2618
▁4.2	-10.2627
▁Mi	-10.264
ivity	-10.2643
▁beam	-10.2644
▁subjects	-10.2664
▁issues	-10.2674
▁modul	-10.2683
▁Ocean	-10.2687
▁special	-10.2693
▁contra	-10.2735
vian	-10.2736
lux	-10.2744
▁concept	-10.2745
ryozoan	-10.2745
▁abelian	-10.2745
▁acquisition	-10.2745
▁adjoint	-10.2745
▁argument	-10.2745
▁believe	-10.2745
▁clearfelled	-10.2745
▁condensation	-10.2745
▁derivative	-10.2745
▁muscle	-10.2745
▁porosity	-10.2745
▁moment	-10.2745
1),	-10.2745
▁CBR	-10.2745
▁sink	-10.2745
▁seawater	-10.2746
▁modelled	-10.2748
▁LCS	-10.2748
▁rare	-10.2749
▁MDS	-10.2751
▁compos	-10.2752
▁agent	-10.2752
▁goal	-10.2755
▁Ar	-10.2759
position	-10.2762
▁2011;	-10.2768
▁engineering	-10.277
wS	-10.2781
Ca	-10.2786
▁mm	-10.2803
▁HI	-10.2821
▁randomly	-10.2838
▁wood	-10.2853
▁4,	-10.2879
▁2010),	-10.288
dusk	-10.288
derived	-10.288
▁fitt	-10.288
▁varied	-10.2887
▁la	-10.29
genous	-10.2903
▁produc	-10.2904
▁GA	-10.292
+1/2,	-10.2922
▁2008	-10.2927
such	-10.2928
▁settings	-10.2934
▁Wi	-10.2935
56	-10.2937
Despite	-10.2952
0-	-10.2954
▁0.6	-10.296
▁send	-10.2964
39	-10.2968
▁list	-10.2968
how	-10.2982
▁messages	-10.2988
rising	-10.2994
▁correlate	-10.2995
uppose	-10.2999
▁progress	-10.3003
BSlice	-10.3008
▁Consequently	-10.3008
▁Nicaragua	-10.3008
▁Results	-10.3008
▁concentrate	-10.3008
▁criterion	-10.3008
▁diffusiv	-10.3008
▁exposed	-10.3008
▁feedback	-10.3008
▁geometry	-10.3008
▁imbalance	-10.3008
▁logarithm	-10.3008
▁mixture	-10.3008
▁return	-10.3008
▁significance	-10.3008
▁turbulent	-10.3008
▁vorticity	-10.3008
▁beyond	-10.3008
▁retain	-10.3008
http	-10.3008
▁HSQ	-10.3008
▁binding	-10.3008
▁AFM	-10.3008
▁FAC	-10.3008
▁permit	-10.3009
▁enhance	-10.301
▁alba	-10.3011
▁scre	-10.3011
▁ionization	-10.3012
▁modulus	-10.3012
▁unlikely	-10.3022
bit	-10.3024
ood	-10.3024
▁stored	-10.3029
-1)(	-10.303
▁quickly	-10.3035
▁Other	-10.3039
▁spectral	-10.3051
▁proven	-10.3051
▁1997	-10.3053
▁CT	-10.3057
⩾=	-10.3068
▁correspond	-10.3087
▁maintained	-10.3091
▁effectively	-10.3099
▁dropouts	-10.31
▁spikes	-10.3105
▁blade	-10.3112
▁depletion	-10.3113
atic	-10.3117
▁drifts	-10.3117
▁perturbations	-10.3117
▁elemental	-10.3121
▁collisions	-10.3126
▁neighbours	-10.3126
′)=	-10.3131
izing	-10.3166
GA	-10.3166
AR	-10.317
▁3)	-10.3177
▁provid	-10.3178
▁visual	-10.3181
flow	-10.3192
CL	-10.3193
lab	-10.3196
▁requirements	-10.3199
▁weather	-10.3226
▁fail	-10.3233
▁logic	-10.324
▁starts	-10.3245
▁proper	-10.3252
)=1	-10.327
▁Decontra	-10.3278
▁FATAL	-10.3278
▁October	-10.3278
▁agricultur	-10.3278
▁arrival	-10.3278
▁association	-10.3278
▁benefit	-10.3278
▁built	-10.3278
▁depict	-10.3278
▁inclusion	-10.3278
▁irradiance	-10.3278
▁occurrence	-10.3278
▁planktonic	-10.3278
▁vacuum	-10.3278
▁infrastructure	-10.3278
▁terminator	-10.3278
▁DTN	-10.3278
▁routing	-10.3278
▁upsets	-10.3278
▁dropped	-10.3278
▁displacement	-10.3278
▁River	-10.3279
▁phosphorus	-10.3279
▁(2006)	-10.3279
://	-10.3279
▁lith	-10.3279
▁vegetation	-10.3279
▁subsurface	-10.328
▁coverage	-10.3281
▁1999;	-10.3282
800	-10.3283
▁NOT	-10.3285
sub	-10.3288
▁injected	-10.329
▁polysaccharide	-10.3291
▁noise	-10.3291
▁steps	-10.3291
54	-10.3294
▁mo	-10.3298
▁Analysis	-10.3298
SA	-10.33
▁simulate	-10.3305
▁SOM	-10.3308
cos	-10.3309
▁Steen	-10.3309
▁Data	-10.3309
▁Model	-10.331
0′,	-10.3311
▁mid	-10.332
▁strain	-10.3326
▁pressures	-10.3331
▁1.1	-10.3333
sin	-10.3336
▁proportional	-10.3338
Hu	-10.3341
48	-10.3343
▁accurately	-10.3344
▁live	-10.3349
member	-10.3351
▁subst	-10.3355
▁separated	-10.3367
▁growing	-10.337
°	-10.3374
▁OTUs	-10.3377
Hz	-10.338
▁biofilms	-10.3386
▁formulas	-10.339
▁rock	-10.3393
▁dataset	-10.3404
<0	-10.3413
=1,...,	-10.3414
▁4.5	-10.3419
▁stages	-10.3423
)-(	-10.3427
either	-10.3434
nic	-10.3434
illite	-10.3443
Pe	-10.3446
▁2012	-10.3447
▁1)	-10.3453
4°	-10.3488
▁2005	-10.3488
▁pron	-10.3495
600	-10.3498
▁satisfy	-10.3503
▁address	-10.3504
)=∑	-10.3508
▁centres	-10.3521
▁mono	-10.354
▁idea	-10.3543
▁combinations	-10.3544
▁responses	-10.3547
▁accounting	-10.3549
coming	-10.3553
▁Johnson	-10.3556
▁decomposition	-10.3556
▁history	-10.3556
▁infection	-10.3556
▁instantaneous	-10.3556
▁practical	-10.3556
▁torque	-10.3556
▁burst	-10.3556
▁generating	-10.3556
▁vitro	-10.3556
▁task	-10.3556
▁Sassy	-10.3556
▁pool	-10.3556
▁adsorption	-10.3556
▁dissipation	-10.3556
▁0.05	-10.3558
▁lamina	-10.3559
▁movement	-10.3559
▁coating	-10.3563
SEM	-10.3568
▁TSM	-10.3568
)⩽	-10.3569
▁delivery	-10.3571
▁substrates	-10.3573
▁limits	-10.3574
ylti	-10.3574
exi	-10.3574
▁explicitly	-10.3579
▁Area	-10.3579
▁varies	-10.358
▁remove	-10.3583
▁namely	-10.3583
3°	-10.3584
section	-10.3593
▁4).	-10.3593
▁shorter	-10.3606
|=	-10.3608
▁3,	-10.361
▁fine	-10.3616
▁tensi	-10.3621
stone	-10.3622
AG	-10.3626
rus	-10.3628
▁RR	-10.3629
▁handle	-10.363
UB	-10.3635
▁5%	-10.3656
1).	-10.3661
▁ES	-10.3662
cher	-10.3664
▁arise	-10.3676
▁pathway	-10.3678
Sw	-10.3695
.%	-10.37
test	-10.371
bound	-10.372
▁PF	-10.3726
▁depletions	-10.3729
idal	-10.3739
▁pro	-10.3758
▁CA	-10.3775
▁>	-10.3779
groups	-10.3793
▁involv	-10.3797
▁absorb	-10.3797
▁repeat	-10.3798
▁secondar	-10.38
▁obvious	-10.381
▁compress	-10.381
ful	-10.3811
▁elevat	-10.3827
▁2007	-10.3837
▁metrics	-10.384
▁China	-10.3842
▁Holocene	-10.3842
▁Sleipner	-10.3842
▁absolute	-10.3842
▁caprock	-10.3842
▁deformation	-10.3842
▁determining	-10.3842
▁tangent	-10.3842
▁Reynolds	-10.3842
▁mildew	-10.3842
▁mutant	-10.3842
▁worth	-10.3842
49	-10.3842
IN	-10.3842
▁adopt	-10.3842
▁300	-10.3844
▁hour	-10.3846
SVZ	-10.3846
ible	-10.3847
▁localised	-10.3849
▁specifically	-10.3858
▁forcing	-10.3858
plus	-10.3865
▁simultaneously	-10.3867
▁graphs	-10.3872
:(1)	-10.3877
▁observ	-10.3887
▁stated	-10.3889
▁seedlings	-10.3893
bed	-10.3903
▁App	-10.3909
MPa	-10.3934
vp	-10.3943
▁seal	-10.3944
TG	-10.3945
▁trivial	-10.3946
▁electrode	-10.3962
▁terr	-10.3968
▁heights	-10.397
▁dislocation	-10.397
▁violation	-10.397
▁wall	-10.3979
4-	-10.3981
∨,	-10.4003
high	-10.4009
▁pathways	-10.401
▁comprise	-10.4013
▁runs	-10.402
▁restrictions	-10.4041
▁∂	-10.4041
5.6	-10.4047
▁Ba	-10.4048
-{	-10.409
▁operate	-10.4101
ynchronous	-10.4127
▁23	-10.4133
molecule	-10.4134
trait	-10.4135
chlorite	-10.4136
▁Ketzin	-10.4136
▁behind	-10.4136
▁challenge	-10.4136
▁damage	-10.4136
▁intermediate	-10.4136
▁monsoon	-10.4136
▁possess	-10.4136
▁quantities	-10.4136
▁regime	-10.4136
▁segment	-10.4136
▁traditional	-10.4136
▁vortices	-10.4136
▁deviant	-10.4136
▁birch	-10.4136
▁existence	-10.4136
▁track	-10.4136
▁training	-10.4136
▁excit	-10.4136
▁river	-10.4136
▁photosynthetic	-10.4136
▁reache	-10.4136
▁poleward	-10.4136
▁analogous	-10.4137
▁option	-10.4137
▁Even	-10.4137
▁congested	-10.4144
▁synchronous	-10.4145
▁DC	-10.4149
▁upland	-10.415
▁CS	-10.415
DM	-10.4153
▁fold	-10.4156
▁nine	-10.4158
▁spann	-10.4161
86	-10.4163
▁alone	-10.4191
▁gase	-10.4194
threaded	-10.4195
▁residue	-10.4202
▁clouds	-10.4204
▁(2008)	-10.4206
3.1	-10.4209
>1	-10.4212
▁none	-10.4224
▁dist	-10.4226
▁STG	-10.4229
CD	-10.4236
▁∼3	-10.4236
▁IV	-10.4242
/10	-10.4251
▁gel	-10.4256
▁sc	-10.4259
▁affin	-10.4271
▁iteration	-10.4273
▁assumes	-10.4285
(0,	-10.4286
▁allocation	-10.4291
▁coral	-10.4291
▁linearly	-10.4302
▁bus	-10.431
field	-10.4311
▁diameters	-10.4314
CM	-10.4318
-1).	-10.4326
invariant	-10.4335
▁Pr	-10.4337
bu	-10.4344
▁domains	-10.435
race	-10.4393
▁employ	-10.4395
graph	-10.4404
▁quick	-10.4409
tru	-10.4409
▁norm	-10.4416
atin	-10.4416
▁minimize	-10.4433
▁Hausdorff	-10.4439
▁November	-10.4439
▁arithmetic	-10.4439
▁bvFTD	-10.4439
▁crystallite	-10.4439
▁language	-10.4439
▁matrices	-10.4439
▁permutation	-10.4439
▁reversal	-10.4439
▁spectrogram	-10.4439
▁technology	-10.4439
▁modification	-10.4439
▁pollen	-10.4439
▁incident	-10.4439
▁manual	-10.4439
▁layout	-10.4439
▁escaping	-10.4439
▁mobility	-10.4439
▁July	-10.4439
▁generic	-10.4439
▁ambi	-10.4439
▁shock	-10.4439
▁woodland	-10.444
▁microbial	-10.444
▁mesh	-10.444
▁tidal	-10.4448
▁server	-10.4453
▁nitrate	-10.4464
right	-10.4465
▁tools	-10.4469
▁100%	-10.447
}={	-10.4473
▁imaging	-10.4474
▁substantially	-10.4485
▁But	-10.4488
▁guards	-10.4488
▁law	-10.4497
▁(2003)	-10.4498
Corg	-10.4498
▁HC	-10.4498
▁1.0	-10.4504
▁500	-10.4517
▁RMS	-10.4521
▁4.3	-10.4527
▁rot	-10.4529
▁3.3	-10.453
Sl	-10.4532
▁70	-10.4536
ech	-10.4539
:•	-10.454
0;	-10.454
ui	-10.4541
▁3.5	-10.4541
γα	-10.4542
▁ClO	-10.4544
▁Remark	-10.4547
▁superi	-10.4552
▁dim	-10.4554
▁closer	-10.4558
▁attributes	-10.4561
▁files	-10.4581
till	-10.4583
▁Sw	-10.4589
mL	-10.4592
▁corals	-10.4607
wind	-10.4608
ify	-10.4618
positive	-10.4627
qt	-10.4628
phase	-10.4628
▁neur	-10.4628
tes	-10.4629
soil	-10.4631
wood	-10.4631
▁FS	-10.464
▁[38]	-10.468
▁consistently	-10.468
▁phases	-10.4684
▁adapt	-10.4697
▁connect	-10.4701
▁induc	-10.4708
1,1)	-10.4717
▁minerals	-10.4733
1/2)	-10.4735
▁respirat	-10.4748
▁counts	-10.4749
▁sign	-10.4749
▁diagram	-10.4751
▁Compar	-10.4751
▁Experiment	-10.4751
▁anemometer	-10.4751
▁happen	-10.4751
▁impossible	-10.4751
▁maintenance	-10.4751
▁mosseae	-10.4751
▁neighborhood	-10.4751
▁refinement	-10.4751
▁thaliana	-10.4751
▁vibration	-10.4751
▁credit	-10.4751
▁qualitative	-10.4751
▁varve	-10.4751
▁fresh	-10.4751
▁worst	-10.4751
▁risk	-10.4751
▁roof	-10.4751
▁equivalence	-10.4751
▁RED	-10.4752
▁CVD	-10.4752
▁manner	-10.4752
▁ATP	-10.4752
▁offset	-10.4752
▁decid	-10.4753
▁summary	-10.4753
▁own	-10.4753
▁diversity	-10.4754
trapped	-10.4756
▁systematic	-10.4762
96	-10.4764
vice	-10.4764
▁rely	-10.4769
▁written	-10.477
▁VMs	-10.4771
▁equality	-10.4772
▁optimised	-10.4774
700	-10.4776
▁subgroup	-10.4785
▁2.4	-10.4786
CS	-10.4786
came	-10.479
sky	-10.4794
▁stream	-10.4794
▁Corollary	-10.4795
1≤	-10.4824
250	-10.483
12,	-10.4831
▁Smith	-10.4832
▁correction	-10.4833
lastic	-10.4836
ett	-10.4837
▁separately	-10.4846
IP	-10.4866
▁HCl	-10.4866
▁proved	-10.4868
▁wavelengths	-10.4882
sum	-10.4883
▁comp	-10.4889
call	-10.4895
▁3.4	-10.4898
▁rules	-10.4904
▁phenotype	-10.4907
▁iterations	-10.4925
▁predicts	-10.4928
▁cut	-10.4928
67	-10.4934
▁reflection	-10.4939
more	-10.4953
▁LEMMS	-10.4962
▁vectors	-10.4963
▁1999).	-10.4966
)≠	-10.4968
CRs	-10.4973
]=	-10.4978
TS	-10.498
▁Ben	-10.4983
(0)	-10.499
∞(	-10.4996
illi	-10.4996
▁Inter	-10.5011
▁4.4	-10.5014
dium	-10.5015
▁nor	-10.504
▁gradual	-10.5043
▁name	-10.5047
bus	-10.5064
HA	-10.5065
etwork	-10.507
▁commut	-10.5073
▁dilatometr	-10.5074
▁quantization	-10.5074
▁Mediterranean	-10.5074
▁accumulate	-10.5074
▁amorphous	-10.5074
▁dissociate	-10.5074
▁fundamental	-10.5074
▁hiatus	-10.5074
▁mineralogy	-10.5074
▁permanent	-10.5074
▁soybean	-10.5074
compatible	-10.5074
▁Follow	-10.5074
▁frame	-10.5074
▁subunit	-10.5074
▁halide	-10.5074
▁shoreline	-10.5074
▁wafer	-10.5074
▁proxy	-10.5074
▁SDG	-10.5074
▁default	-10.5074
▁advection	-10.5075
▁hiPSC	-10.5076
▁esca	-10.5076
▁reliable	-10.5076
▁zonal	-10.5077
▁topological	-10.5077
▁insight	-10.5078
▁collection	-10.508
▁eight	-10.5082
▁sometime	-10.5085
▁2012;	-10.5086
▁45°	-10.5089
▁2001;	-10.509
▁sender	-10.5091
▁consumption	-10.5093
▁hyphae	-10.5094
Trans	-10.5094
DS	-10.5097
▁nearest	-10.5098
▁window	-10.5099
dominat	-10.5105
▁black	-10.5106
▁ready	-10.5106
▁western	-10.5115
▁absorbed	-10.5124
mbar	-10.5143
tron	-10.5151
▁combine	-10.5151
▁uniformly	-10.5156
sized	-10.5163
▁naturally	-10.5176
▁(2011	-10.5179
▁th	-10.5179
▁RQ	-10.5204
▁sur	-10.5225
▁2000)	-10.5226
hereafter	-10.5239
▁photoelectron	-10.5241
▁gates	-10.5242
▁[44]	-10.5248
1⩽	-10.5253
▁dislocations	-10.5259
▁walls	-10.5259
▁arises	-10.5265
kept	-10.5275
driven	-10.5279
backward	-10.5279
negative	-10.5279
pped	-10.5294
-∫	-10.5302
8°	-10.5305
4(	-10.5306
ically	-10.5321
rite	-10.5325
6+3	-10.534
▁2003)	-10.5344
▁select	-10.5354
▁partition	-10.5354
▁delet	-10.5363
cellula	-10.5366
+1/2)	-10.5377
▁cor	-10.5379
▁gate	-10.5385
isto	-10.539
▁1996)	-10.5393
▁≤	-10.5399
legume	-10.5405
junction	-10.5407
▁equi	-10.5407
▁comprehensi	-10.5407
Miocene	-10.5407
hemispheric	-10.5407
▁abundant	-10.5407
▁gravity	-10.5407
▁hierarchical	-10.5407
▁martian	-10.5407
▁perfect	-10.5407
▁phenomenon	-10.5407
▁technologies	-10.5407
▁undertaken	-10.5407
▁workload	-10.5407
▁sparse	-10.5407
▁drought	-10.5407
▁MRI	-10.5407
▁nitride	-10.5408
▁infant	-10.5408
anneal	-10.5408
▁older	-10.5409
▁vanishes	-10.5409
▁unknown	-10.541
▁recall	-10.5411
▁volcanoes	-10.5411
▁seven	-10.5413
▁deployed	-10.5418
▁bias	-10.5422
▁seasonal	-10.5425
▁relate	-10.5427
▁frequently	-10.5428
▁weaker	-10.543
▁pairs	-10.544
▁accelerate	-10.5443
una	-10.5457
TDA	-10.5458
TW	-10.5465
▁populations	-10.5468
▁sending	-10.5475
▁correctly	-10.5484
▁notion	-10.5489
▁switching	-10.5501
▁fix	-10.5508
omb	-10.5518
atter	-10.5521
78	-10.5522
′.	-10.5523
▁offer	-10.5526
awa	-10.5531
▁LIP	-10.5535
▁appeared	-10.5538
83	-10.5547
dsen	-10.5554
nium	-10.5564
▁TN	-10.5575
oll	-10.558
-1=	-10.5591
▁allocations	-10.5594
eva	-10.5596
Vi	-10.5601
▁Mn	-10.5622
sensitive	-10.5623
normal	-10.5624
ller	-10.5636
cf	-10.5638
GP	-10.5644
))2	-10.5654
▁Un	-10.5667
|(	-10.5673
▁bands	-10.568
▁suit	-10.5681
▁inner	-10.5691
▁locally	-10.5695
▁orbits	-10.5698
▁analys	-10.5698
▁debond	-10.5699
)≤	-10.57
▁restrict	-10.5702
▁characterize	-10.5719
▁simultaneous	-10.5721
▁successful	-10.5722
(1-	-10.5726
▁costs	-10.5735
▁serve	-10.5736
trophic	-10.5752
Ruijsenaars	-10.5752
omorphic	-10.5752
▁1998;	-10.5752
▁Utsira	-10.5752
▁arrangement	-10.5752
▁automated	-10.5752
▁climatic	-10.5752
▁consecutive	-10.5752
▁genistoides	-10.5752
▁implication	-10.5752
▁inventory	-10.5752
▁neutron	-10.5752
▁oxidize	-10.5752
▁photosynthesis	-10.5752
▁radiogenic	-10.5752
▁respond	-10.5752
▁syndrome	-10.5752
▁utilize	-10.5752
▁microscope	-10.5752
▁remote	-10.5752
▁answer	-10.5752
▁words	-10.5752
▁scoring	-10.5752
▁database	-10.5752
▁coarse	-10.5752
▁easy	-10.5752
▁leaf	-10.5752
▁1998)	-10.5752
▁behave	-10.5752
▁expire	-10.5752
▁Additionally	-10.5752
▁∼0.	-10.5752
▁1991	-10.5752
▁Many	-10.5753
▁oval	-10.5753
▁kind	-10.5753
▁mask	-10.5753
▁solvent	-10.5753
▁Recent	-10.5755
▁alteration	-10.5757
▁spectroscopy	-10.5758
hr	-10.5761
▁slower	-10.5771
▁San	-10.5784
▁topic	-10.5791
2+(	-10.5795
▁fibroblasts	-10.5796
▁setup	-10.5797
▁green	-10.58
▁recovery	-10.5805
▁micrographs	-10.5814
▁instruments	-10.5833
ji	-10.5835
▁evaluations	-10.584
▁precipitate	-10.5845
▁volumes	-10.586
▁captured	-10.5866
▁Hall	-10.5869
▁scales	-10.5871
ational	-10.5882
4.5	-10.5883
mul	-10.5894
▁efficiently	-10.5904
ASE	-10.5909
▁illite	-10.5916
▁arrays	-10.5922
▁update	-10.593
▁started	-10.5932
II	-10.5934
▁Rl	-10.5938
encoded	-10.5949
▁infer	-10.5966
▁file	-10.5968
empty	-10.5979
trivial	-10.598
factor	-10.5981
□	-10.5983
plant	-10.5986
Note	-10.5988
▁0.7	-10.5996
Sv	-10.6
▁Tak	-10.6007
▁covers	-10.6013
>0.	-10.6022
▁definitions	-10.6029
140	-10.6043
▁ur	-10.6047
▁pores	-10.6048
▁incubat	-10.6056
1}	-10.606
▁2000).	-10.6068
=4	-10.6071
▁stabilize	-10.6075
≠0	-10.6076
▁replace	-10.6077
▁cool	-10.6085
▁And	-10.6087
▁dimensions	-10.6088
▁bit	-10.6089
▁aurora	-10.6093
▁erupt	-10.6103
▁2013)	-10.6107
LUCAS	-10.6109
▁Monitor	-10.6109
▁depleted	-10.6109
▁fluoride	-10.6109
▁frequencies	-10.6109
▁posterior	-10.6109
▁stratigraphic	-10.6109
▁unradiogenic	-10.6109
▁utilities	-10.6109
▁viscosity	-10.6109
▁revolutions	-10.6109
▁bundle	-10.6109
▁(2004)	-10.6109
▁isotropic	-10.6109
▁BHJ	-10.6109
▁clean	-10.6109
▁remainder	-10.6109
▁cubic	-10.6109
▁tensor	-10.6109
▁ego	-10.6109
▁ICP	-10.611
▁worse	-10.611
▁peat	-10.611
▁productivity	-10.611
▁conservative	-10.611
▁subspace	-10.6111
▁visualization	-10.6112
chambers	-10.6112
NBE	-10.6113
▁overhead	-10.6114
▁factorizations	-10.6114
▁sodium	-10.6114
∈[0,	-10.6114
dersen	-10.6115
▁Soil	-10.6118
▁reactor	-10.6119
▁planting	-10.6124
▁detectable	-10.6125
▁80%	-10.6126
▁grains	-10.6133
▁bab	-10.6135
▁leav	-10.6139
▁complicated	-10.6139
▁cur	-10.6139
▁Sadoré	-10.614
▁2001).	-10.6141
▁gradually	-10.6144
▁(5)	-10.6145
▁obviously	-10.6149
)∏	-10.615
(2.2	-10.6157
▁indicator	-10.6159
▁Pho	-10.6159
wSl	-10.616
▁Firstly	-10.6169
▁validation	-10.6176
(11)	-10.6178
▁heuristics	-10.618
▁inserts	-10.6186
▁stat	-10.6203
▁2013	-10.6207
34	-10.6211
▁assessed	-10.6219
▁limitations	-10.6223
▁corrected	-10.6226
SF	-10.6235
▁3.6	-10.6237
ηα	-10.6243
▁interact	-10.6247
▁checked	-10.6251
-20	-10.6252
▁alter	-10.6253
▁drive	-10.6255
▁sol	-10.6261
▁outer	-10.6269
skin	-10.627
▁plan	-10.6296
▁combin	-10.6299
NO	-10.6302
▁transform	-10.631
▁conifer	-10.6313
▁neighbour	-10.6314
▁collision	-10.6314
-23	-10.6317
▁buildings	-10.6322
▁Lo	-10.633
corotation	-10.6333
RS	-10.6337
surface	-10.635
carbon	-10.6351
Remark	-10.6352
▁continue	-10.6353
▁timers	-10.636
gate	-10.6374
▁sup	-10.6376
▁monitor	-10.6382
chip	-10.6394
▁1%	-10.64
graphic	-10.6407
ostratigraphic	-10.6437
(∂	-10.6445
▁explicit	-10.6448
▁slight	-10.6449
▁2(	-10.645
can	-10.6451
▁season	-10.6466
efore	-10.6467
▁divers	-10.6476
▁undergo	-10.6476
hes	-10.6476
▁asymptotic	-10.6477
▁ultra	-10.6479
▁calibration	-10.648
▁chlorine	-10.648
▁contamination	-10.648
▁course	-10.648
▁deficiency	-10.648
▁destination	-10.648
▁fluvial	-10.648
▁hardware	-10.648
▁heterogeneous	-10.648
▁pertusa	-10.648
▁progenies	-10.648
▁quantify	-10.648
▁suffer	-10.648
▁twice	-10.648
▁young	-10.648
▁1994)	-10.648
▁commercial	-10.648
▁deadlock	-10.648
▁facies	-10.648
▁flask	-10.648
▁gravel	-10.648
▁pixel	-10.648
▁text	-10.648
▁false	-10.648
midnight	-10.648
▁Disorder	-10.648
▁beginning	-10.648
▁CPU	-10.648
▁conductivity	-10.648
▁sandstone	-10.648
▁preservation	-10.6481
▁steep	-10.6481
▁spray	-10.6482
▁continuity	-10.6482
▁subsection	-10.6482
▁members	-10.6482
▁CFU	-10.6483
▁ionized	-10.6485
▁adaptation	-10.6486
▁modulation	-10.6487
▁never	-10.649
▁fair	-10.6492
ibility	-10.6494
▁Zpn	-10.6495
tham	-10.6495
2.5	-10.6496
▁extendable	-10.6497
▁forests	-10.6498
▁PSP	-10.6501
{0}	-10.6502
▁learning	-10.6503
▁Under	-10.6507
▁cancellative	-10.6507
▁8.4	-10.651
▁receive	-10.6511
▁implementations	-10.6523
source	-10.6529
▁explored	-10.6538
▁induce	-10.654
▁pine	-10.6542
▁Cd	-10.6544
2⩾′=	-10.6555
0.6	-10.6584
actually	-10.6587
▁updated	-10.6593
▁ages	-10.6598
▁exhibited	-10.6602
(4.2	-10.6604
▁IR	-10.6604
▁driv	-10.6615
▁disorders	-10.6623
=0.5	-10.6642
org	-10.6652
(5.1	-10.6657
▁normaliz	-10.6678
▁schemes	-10.6682
▁individually	-10.6684
▁3.7	-10.6696
▁ID	-10.67
▁mis	-10.6719
▁~1	-10.6728
▁procedures	-10.6733
mechanical	-10.6734
▁facilitate	-10.6735
defined	-10.6737
Section	-10.6737
▁150	-10.674
▁exospher	-10.6746
]|	-10.6748
▁Bio	-10.675
dispersed	-10.675
00°	-10.6755
▁magnet	-10.6767
▁∼10	-10.6802
tended	-10.6805
Ni	-10.6806
▁delayed	-10.683
▁salts	-10.683
▁Gn	-10.6832
nr	-10.6834
ency	-10.6838
→0	-10.6853
code	-10.6854
▁∼2	-10.6859
▁perchlor	-10.6862
▁discrimina	-10.6863
captur	-10.6863
calibrated	-10.6864
▁Again	-10.6864
▁Instead	-10.6864
▁OXPHOS	-10.6864
▁continental	-10.6864
▁evident	-10.6864
▁intraradices	-10.6864
▁nightside	-10.6864
▁panicle	-10.6864
▁stratigraphy	-10.6864
▁supplement	-10.6864
▁template	-10.6864
▁vicinity	-10.6864
▁assemblage	-10.6864
▁ribosom	-10.6864
▁sponge	-10.6864
▁urban	-10.6864
▁public	-10.6864
▁routine	-10.6864
▁gettering	-10.6864
▁upwelling	-10.6864
▁straightforward	-10.6864
▁overcome	-10.6864
▁1995)	-10.6864
▁MOF	-10.6864
script	-10.6864
▁dried	-10.6864
▁outcome	-10.6864
▁MVA	-10.6864
▁abnormalities	-10.6865
▁topography	-10.6865
▁conductance	-10.6865
|⩾1	-10.6866
▁opal	-10.6866
▁ACC	-10.6866
▁Ei	-10.6866
▁white	-10.6867
▁USA	-10.6868
▁begin	-10.6868
▁establishment	-10.6869
▁overview	-10.687
Green	-10.687
▁explore	-10.6872
▁acquired	-10.6873
▁steel	-10.6874
▁intra	-10.6874
Stern	-10.6877
▁pump	-10.6878
▁promoter	-10.6878
▁drawn	-10.6878
oides	-10.6881
▁Cinzana	-10.6882
▁simplified	-10.6882
▁Antarctic	-10.6892
▁branching	-10.6893
▁Assuming	-10.6898
rown	-10.6899
▁execute	-10.6925
▁similarity	-10.6926
▁2.3	-10.6927
▁failed	-10.6928
▁Cell	-10.693
▁CaP	-10.6932
trained	-10.6934
(5)	-10.6938
late	-10.6942
▁spp	-10.6942
▁generates	-10.6944
▁contributions	-10.695
▁sectors	-10.696
ote	-10.6968
▁[13].	-10.6969
▁EC	-10.6973
▁correlations	-10.6976
▁induction	-10.6988
▁Zn	-10.7
▁tissues	-10.7008
ney	-10.7025
▁dispersed	-10.7037
▁(4)	-10.7042
biotic	-10.7053
pper	-10.7061
▁express	-10.7066
▁NP	-10.709
▁[9].	-10.7097
▁marker	-10.7097
▁wavelength	-10.7099
▁perturbation	-10.7099
▁conclusion	-10.7099
▁oscillation	-10.71
average	-10.7103
▁cubes	-10.7121
▁2012),	-10.7121
plot	-10.7127
▁km	-10.7132
resistant	-10.7134
variance	-10.7136
Definition	-10.7136
FTLE	-10.7136
cluster	-10.7136
adja	-10.7137
▁defin	-10.7139
temporal	-10.7143
+∑	-10.7147
bove	-10.7157
▁(6)	-10.7165
▁ordered	-10.7165
▁communicate	-10.7179
▁planes	-10.7187
ager	-10.7191
▁Up	-10.721
▁trigger	-10.722
▁meaning	-10.722
mW	-10.7229
▁approximated	-10.724
▁nutrients	-10.725
▁flue	-10.7254
ula	-10.7259
▁uncertain	-10.7264
Jaffel	-10.7264
▁University	-10.7264
▁adhesion	-10.7264
▁confiden	-10.7264
▁crystallinity	-10.7264
▁effort	-10.7264
▁intensities	-10.7264
▁kaolinite	-10.7264
▁sulfur	-10.7264
▁Germany	-10.7264
▁herbicide	-10.7264
▁isotopic	-10.7264
▁methane	-10.7264
onversion	-10.7264
▁beneath	-10.7264
▁sensor	-10.7264
humus	-10.7264
▁TJT	-10.7264
▁advanc	-10.7264
▁TKE	-10.7264
▁flat	-10.7264
CSOM	-10.7264
▁EBR	-10.7264
▁attain	-10.7264
▁meet	-10.7265
▁stall	-10.7265
▁organisms	-10.7265
▁scores	-10.7265
▁odd	-10.7265
▁equatorward	-10.7265
▁SRH	-10.7265
▁trials	-10.7265
▁disk	-10.7265
▁Chen	-10.7267
′)-	-10.7267
nthic	-10.7268
▁brightness	-10.7268
▁ionisation	-10.7269
node	-10.7271
▁modular	-10.7273
15)	-10.7274
ude	-10.7274
▁indicative	-10.7276
▁gray	-10.7276
SVM	-10.7278
(6)	-10.728
▁NRM	-10.728
▁flip	-10.7281
▁pole	-10.7282
▁inserting	-10.7292
▁mold	-10.7293
▁expanded	-10.7294
▁suffices	-10.7295
▁para	-10.7296
tian	-10.7297
▁residual	-10.7299
▁Sever	-10.7302
▁genotype	-10.7302
0.4	-10.7303
▁delivered	-10.7303
▁stacking	-10.7309
▁soft	-10.7312
▁desirable	-10.7315
▁neuro	-10.7317
eng	-10.7321
7°	-10.7328
4+3	-10.7342
See	-10.7344
▁pest	-10.7353
▁world	-10.7353
strain	-10.7365
▁precipitat	-10.7367
group	-10.7386
▁mechanical	-10.7401
▁indication	-10.7414
▁74	-10.7419
▁MW	-10.742
▁NO	-10.7428
▁thread	-10.7432
▁arc	-10.7448
▁coal	-10.7457
ich	-10.7469
lder	-10.7473
=3	-10.7473
▁phenotypes	-10.7475
duction	-10.7476
▁2005)	-10.7505
metric	-10.7515
▁biofilm	-10.7515
▁flag	-10.7516
▁blades	-10.7517
location	-10.7529
▁evaluat	-10.7539
▁1999)	-10.7543
integrated	-10.7552
accelerated	-10.7553
series	-10.7554
forward	-10.7558
TM	-10.7559
direction	-10.756
∨)	-10.7564
▁Time	-10.7566
▁Rv	-10.757
▁scans	-10.7574
▁lakes	-10.7581
▁purposes	-10.7581
▁subsets	-10.7582
roll	-10.7606
▁encounters	-10.7609
lived	-10.7625
▁recommend	-10.7631
▁former	-10.7641
▁store	-10.7647
▁Tri	-10.7674
▁Bran	-10.7678
sorption	-10.768
▁identity	-10.7681
Binkley	-10.7681
▁Appendix	-10.7681
▁Gaussian	-10.7681
▁Hybrid	-10.7681
▁Magneti	-10.7681
▁Portland	-10.7681
▁Taiwan	-10.7681
▁Unfortunately	-10.7681
▁activities	-10.7681
▁aforementioned	-10.7681
▁attention	-10.7681
▁challenging	-10.7681
▁confined	-10.7681
▁deglaciation	-10.7681
▁dipole	-10.7681
▁disturbance	-10.7681
▁fynbos	-10.7681
▁likelihood	-10.7681
▁nuclear	-10.7681
▁orthogonal	-10.7681
▁promising	-10.7681
▁refined	-10.7681
▁synthetic	-10.7681
▁desired	-10.7681
▁hematite	-10.7681
▁proceed	-10.7681
▁CAPS	-10.7681
▁PLGA	-10.7681
▁decay	-10.7681
pruned	-10.7681
▁dopant	-10.7681
▁Cauchy	-10.7681
▁camera	-10.7681
▁hyper	-10.7681
▁1989	-10.7681
▁EGPs	-10.7681
▁tank	-10.7681
▁aware	-10.7681
▁photochemistry	-10.7681
RRh	-10.7681
▁HPT	-10.7681
▁(1.1)	-10.7682
Sigma	-10.7682
▁spore	-10.7682
▁isolation	-10.7682
▁photons	-10.7682
rmodynamic	-10.7683
▁dispers	-10.7683
▁transcription	-10.7683
▁trap	-10.7684
▁baseline	-10.7684
▁acidification	-10.7686
▁outflow	-10.7686
▁generalist	-10.7687
▁differentiation	-10.7687
▁mycorrhizal	-10.7687
dwic	-10.7688
▁Voc	-10.7689
▁automatic	-10.7691
MEX	-10.7694
▁aggregates	-10.7694
recurrent	-10.7697
▁functionality	-10.7699
▁pseudo	-10.77
▁activated	-10.7701
▁warming	-10.7704
Chan	-10.7705
▁EUV	-10.7707
▁bad	-10.7711
▁ADDel	-10.7712
▁care	-10.7714
▁Oligocene	-10.7717
▁grown	-10.7719
▁abstraction	-10.7719
▁assigned	-10.7721
▁triggered	-10.7727
ABC	-10.7734
▁fractionation	-10.7737
gel	-10.7738
▁pathogens	-10.7742
(3.2	-10.7744
▁partially	-10.7747
▁precisely	-10.7751
roughly	-10.7755
itch	-10.7758
▁symbols	-10.7763
▁concluded	-10.7765
▁summ	-10.777
0.03	-10.7779
▁originate	-10.7785
▁row	-10.7791
▁curv	-10.7793
itic	-10.78
▁incorporate	-10.7819
That	-10.784
XUV	-10.786
▁conifers	-10.7872
▁DA	-10.7875
▁induces	-10.7876
▁KB	-10.7892
▁photoelectrons	-10.7894
ference	-10.7894
▁34	-10.7902
.4.	-10.7908
▁relie	-10.792
▁2002).	-10.7935
0.04	-10.7936
▁disorder	-10.7949
▁GR	-10.7951
▁eruption	-10.7955
ClO	-10.7969
▁accelerat	-10.797
(2.1	-10.7972
)〉	-10.7978
spread	-10.7987
expressed	-10.7987
▁shifts	-10.7988
When	-10.7988
▁estimat	-10.7988
▁declin	-10.7992
sample	-10.7992
▁(9)	-10.7998
(12)	-10.8019
▁Dop	-10.8054
▁choos	-10.8057
▁corotation	-10.8058
.0%	-10.8059
+|	-10.8061
olat	-10.8071
▁creat	-10.8074
▁preserve	-10.8082
▁Hungar	-10.809
▁resolve	-10.8096
▁promote	-10.81
tabilization	-10.8107
▁8)	-10.8108
▁enrich	-10.8114
FSlice	-10.8116
▁Cluster	-10.8116
▁Effect	-10.8116
▁Energy	-10.8116
▁Research	-10.8116
▁aeolian	-10.8116
▁boosting	-10.8116
▁ensemble	-10.8116
▁erosion	-10.8116
▁excellent	-10.8116
▁explosiv	-10.8116
▁launch	-10.8116
▁radiative	-10.8116
▁understood	-10.8116
▁volcanism	-10.8116
presumably	-10.8116
▁burial	-10.8116
▁fabric	-10.8116
▁isomorphism	-10.8116
▁protect	-10.8116
▁glitch	-10.8116
▁modify	-10.8116
▁travel	-10.8116
▁unchanged	-10.8116
▁Multi	-10.8116
▁genome	-10.8116
▁govern	-10.8116
▁solute	-10.8116
▁verified	-10.8116
▁absent	-10.8116
▁colour	-10.8116
Increase	-10.8116
▁Chile	-10.8116
▁geological	-10.8116
▁polic	-10.8116
▁MEG	-10.8116
▁PIV	-10.8116
▁Clearly	-10.8116
▁donor	-10.8116
gress	-10.8116
▁percolation	-10.8117
▁arrows	-10.8117
purity	-10.8117
▁tilt	-10.8118
▁prescrib	-10.8118
▁subplot	-10.8118
▁consume	-10.8118
▁starch	-10.8119
▁acct	-10.812
mature	-10.812
What	-10.812
Paper	-10.8121
▁lost	-10.8122
▁1:	-10.8125
▁nr	-10.8127
▁Electron	-10.8133
▁Marti	-10.8133
▁documented	-10.8134
▁carefully	-10.8137
∂/∂	-10.8137
▁objective	-10.814
▁reasonabl	-10.8141
▁40%	-10.8142
▁imposed	-10.8142
6},	-10.8144
▁dominance	-10.8148
▁scattering	-10.815
▁20%	-10.8152
′;	-10.8161
▁recommended	-10.8162
IK	-10.8163
▁computer	-10.8163
case	-10.8167
▁complexation	-10.8169
▁PCR	-10.8173
▁[21].	-10.8178
▁processed	-10.8181
▁Case	-10.819
▁deviations	-10.819
ij	-10.82
▁entirely	-10.8208
characterization	-10.821
▁Fac	-10.8212
▁received	-10.8213
▁edd	-10.8214
95%	-10.8246
▁resistant	-10.826
-100	-10.8262
▁precursors	-10.8263
cycle	-10.8295
1,...	-10.8296
ixi	-10.8311
▁Iv	-10.8323
▁incorporat	-10.834
▁(>	-10.8352
▁cation	-10.8355
▁equally	-10.8359
UV	-10.8366
Ib	-10.8374
Var	-10.8376
Zp	-10.838
▁rocks	-10.8385
▁Mos	-10.8389
rap	-10.8393
▁barrier	-10.8405
▁1.7	-10.8405
▁spike	-10.842
▁wt	-10.8422
0∈	-10.8425
▁8.5	-10.8431
▁RC	-10.8434
space	-10.844
steady	-10.8443
▁CF	-10.8448
▁KM	-10.8448
(4.3	-10.8467
▁OTU	-10.8468
▁deliver	-10.85
▁integrat	-10.8517
325	-10.8518
pler	-10.852
Secondly	-10.8524
Moor	-10.8543
▁arbitrar	-10.8545
▁imagin	-10.855
iPSC	-10.8568
▁equator	-10.8568
evaporat	-10.857
cmbsf	-10.857
tRNAPhe	-10.857
▁August	-10.857
▁Jupiter	-10.857
▁Munoz	-10.857
▁PETM	-10.857
▁Promela	-10.857
▁abrupt	-10.857
▁additive	-10.857
▁autonomic	-10.857
▁bilateral	-10.857
▁cavitation	-10.857
▁diffuse	-10.857
▁exponential	-10.857
▁families	-10.857
▁implicit	-10.857
▁landscape	-10.857
▁liquid	-10.857
▁outperform	-10.857
▁paradigm	-10.857
▁phaseolina	-10.857
▁photovoltaic	-10.857
▁resonance	-10.857
▁spherical	-10.857
▁substitution	-10.857
▁contour	-10.857
▁specify	-10.857
▁topologies	-10.857
Garcia	-10.857
▁improving	-10.857
▁inherent	-10.857
▁polish	-10.857
▁unstable	-10.857
▁Litho	-10.857
▁carry	-10.857
▁grew	-10.857
▁solving	-10.857
▁adult	-10.857
▁crack	-10.857
▁assay	-10.857
▁magnetometer	-10.857
click	-10.857
▁bug	-10.8571
▁SnO	-10.8571
▁broadening	-10.8571
▁counterpart	-10.8572
▁Lepidocyclin	-10.8572
▁Step	-10.8572
dotted	-10.8573
▁wire	-10.8574
RNA	-10.8576
▁1990	-10.8576
▁earth	-10.8577
6.5	-10.8586
▁propagate	-10.8588
▁removal	-10.8589
SLO	-10.8595
SCG	-10.8607
▁durations	-10.8609
▁flora	-10.861
IB	-10.861
▁replaced	-10.8614
▁adiabatic	-10.8615
▁XRD	-10.8616
ogenic	-10.8632
▁life	-10.8632
▁2012)	-10.8645
top	-10.8647
characterisation	-10.8653
▁continuously	-10.8656
▁phosphate	-10.8665
=0.1	-10.8667
▁196	-10.8668
geochemical	-10.8675
▁ridge	-10.8677
▁Pre	-10.8688
▁presentation	-10.8695
▁analyz	-10.8697
▁charged	-10.8707
meV	-10.8739
▁empty	-10.8739
▁marginal	-10.8742
grained	-10.8746
⩽={	-10.8746
▁conduct	-10.8773
▁EF	-10.8792
▁weighting	-10.8821
axial	-10.8821
9+3	-10.8832
188	-10.8839
Vh	-10.8842
▁indent	-10.8848
69	-10.8866
▁remov	-10.8879
▁dropout	-10.8892
▁computations	-10.8904
product	-10.8905
onne	-10.8909
crystalline	-10.8916
=0.2	-10.8916
left	-10.892
oxide	-10.892
strand	-10.8926
▁gains	-10.8933
▁basalt	-10.8935
STG	-10.8938
▁187	-10.8942
▁partly	-10.8954
▁transpos	-10.8965
▁calculat	-10.8966
▁(7)	-10.8971
0,000	-10.8971
▁stack	-10.8993
▁assign	-10.9004
back	-10.9005
▁Sun	-10.9009
▁oscillat	-10.9014
Voig	-10.9016
)>	-10.9025
▁South	-10.9029
▁his	-10.9035
Our	-10.904
synchronize	-10.9044
separat	-10.9045
▁rectifier	-10.9046
Lipschitz	-10.9046
forgetful	-10.9046
goethite	-10.9046
▁CIGS	-10.9046
▁Cyclopia	-10.9046
▁Hughes	-10.9046
▁cherty	-10.9046
▁conjecture	-10.9046
▁distorted	-10.9046
▁eliminate	-10.9046
▁exploit	-10.9046
▁fracturing	-10.9046
▁fungi	-10.9046
▁harvest	-10.9046
▁impurities	-10.9046
▁kernel	-10.9046
▁motivate	-10.9046
▁possibilities	-10.9046
▁quadrupole	-10.9046
▁quantity	-10.9046
▁resonant	-10.9046
▁sequential	-10.9046
▁triangle	-10.9046
▁underestimate	-10.9046
▁unexpected	-10.9046
▁unusual	-10.9046
disturbed	-10.9046
▁companion	-10.9046
▁cysts	-10.9046
▁decade	-10.9046
▁ecosystem	-10.9046
▁huge	-10.9046
▁package	-10.9046
▁(2005)	-10.9046
▁correspondence	-10.9046
▁flood	-10.9046
▁join	-10.9046
▁million	-10.9046
▁trade	-10.9046
▁Venus	-10.9046
▁Plant	-10.9047
▁concurrent	-10.9047
▁tuning	-10.9047
▁doping	-10.9048
▁coweight	-10.9048
▁weeks	-10.9048
▁segregation	-10.9048
▁capability	-10.9048
▁Overall	-10.9049
▁0.01	-10.905
▁dayside	-10.9051
▁aspen	-10.9052
▁ramp	-10.9053
▁0-10	-10.9053
▁workflow	-10.9053
DFT	-10.9054
▁Moses	-10.9055
▁normalised	-10.9058
bell	-10.9062
▁30%	-10.9062
▁ISM	-10.9064
▁probe	-10.9067
7+5	-10.9068
▁stopp	-10.9069
)]=	-10.9069
▁hop	-10.9071
▁containment	-10.9072
▁tones	-10.9072
▁embedding	-10.9079
▁ANOVA	-10.9082
▁severity	-10.9087
Thermo	-10.9098
(3.3	-10.9102
▁properly	-10.9103
▁altered	-10.9107
▁specimens	-10.9108
▁[22].	-10.9114
▁Seal	-10.9115
▁emergenc	-10.9118
▁slowly	-10.912
▁incorporated	-10.9133
▁transgenes	-10.9138
▁mutually	-10.914
ordi	-10.9143
▁Mutti	-10.9146
homo	-10.9148
ptic	-10.9156
▁dashed	-10.9159
2∏	-10.9159
action	-10.916
▁aerosols	-10.9166
▁plantations	-10.9166
▁recovered	-10.917
▁crystalline	-10.918
▁[9,	-10.9183
▁react	-10.9187
175	-10.9191
▁Now	-10.92
uv	-10.9202
▁controll	-10.9209
▁independently	-10.9215
▁meter	-10.9224
ester	-10.9227
even	-10.9243
ibbe	-10.9249
▁markers	-10.925
▁reproduce	-10.9258
▁equivalently	-10.926
▁weighted	-10.9265
transformed	-10.9266
▁continues	-10.9273
ford	-10.9277
▁[3].	-10.928
▁Ui	-10.932
▁datasets	-10.9343
ounce	-10.9352
▁margin	-10.936
national	-10.9366
▁1.6	-10.9368
▁effusion	-10.9379
▁precursor	-10.9379
view	-10.9408
known	-10.9414
▁Hol	-10.9417
Smith	-10.9417
frontal	-10.9418
delay	-10.9423
data	-10.9436
▁proto	-10.9453
▁rotate	-10.9453
▁1997)	-10.9463
)(1-	-10.9483
▁accord	-10.9494
(-)	-10.9498
ission	-10.951
▁frequent	-10.9515
▁neuron	-10.9515
▁progressive	-10.9523
▁stop	-10.9534
▁utilis	-10.9541
▁oppos	-10.9545
configur	-10.9546
⋅⋯⋅	-10.9546
InvChain	-10.9546
dissociati	-10.9546
▁Atlantic	-10.9546
▁CodeSurfer	-10.9546
▁Defect	-10.9546
▁Huang	-10.9546
▁Interestingly	-10.9546
▁Jordan	-10.9546
▁RPWS	-10.9546
▁TSMClock	-10.9546
▁Uranus	-10.9546
▁applies	-10.9546
▁beneficial	-10.9546
▁communities	-10.9546
▁complement	-10.9546
▁eigenvalue	-10.9546
▁installed	-10.9546
▁lacustrine	-10.9546
▁moorland	-10.9546
▁participant	-10.9546
▁phenomena	-10.9546
▁picture	-10.9546
▁reconfiguration	-10.9546
▁slicing	-10.9546
▁susceptib	-10.9546
▁synthetase	-10.9546
▁ultimately	-10.9546
▁blood	-10.9546
▁dissolv	-10.9546
▁lignin	-10.9546
▁stabilis	-10.9546
▁Group	-10.9546
▁client	-10.9546
▁hydrologic	-10.9546
▁CLSM	-10.9546
wvlSl	-10.9546
▁irradiation	-10.9546
▁null	-10.9546
▁isolates	-10.9546
▁Hcont	-10.9546
▁(2000)	-10.9547
board	-10.9547
▁(2001)	-10.9547
▁organize	-10.9547
MIM	-10.9547
▁proposition	-10.9547
▁copy	-10.9547
▁Early	-10.9547
▁clearfelling	-10.9547
▁division	-10.9547
▁recirculation	-10.9547
▁intake	-10.9547
▁magnetite	-10.9548
▁enrichment	-10.9548
piston	-10.9549
▁diode	-10.9549
▁legumes	-10.955
▁lens	-10.955
▁elastic	-10.9553
▁Chang	-10.9553
▁manufacturer	-10.9553
▁processors	-10.9556
1⁎⋯⁎	-10.9556
ago	-10.9557
▁validity	-10.9559
▁contradiction	-10.956
▁GCM	-10.9562
▁summer	-10.9562
0)=	-10.9563
▁2.8	-10.9568
▁fourth	-10.9569
▁sound	-10.9569
%.(	-10.957
orient	-10.9575
▁go	-10.9591
▁incomplete	-10.9591
▁HSM	-10.9594
▁breeding	-10.9597
▁Cerr	-10.9604
▁cortic	-10.961
▁5.3	-10.9618
▁[19].	-10.9618
▁theoretically	-10.9628
▁horizons	-10.9629
Site	-10.9632
▁weakly	-10.9638
▁SiO	-10.9653
▁concerned	-10.9653
⩾∪	-10.9654
▁passed	-10.9656
▁UT	-10.9682
▁physically	-10.9682
▁strand	-10.9686
dimX	-10.9692
▁settl	-10.9693
▁forced	-10.97
}⊂	-10.9701
2,...	-10.9704
/∂	-10.9706
Total	-10.9714
▁effusions	-10.9717
6°	-10.9722
generated	-10.9728
Spec	-10.9733
▁portion	-10.9739
▁rows	-10.9754
▁falling	-10.9757
▁oscillations	-10.9763
early	-10.9786
▁Zp	-10.9848
There	-10.9877
▁2003	-10.9882
▁7).	-10.9885
▁achiev	-10.9892
3.0	-10.9914
aving	-10.9919
vert	-10.992
▁analytic	-10.9927
filtration	-10.9941
▁limitation	-10.9942
algebra	-10.9943
system	-10.9944
mentioned	-10.9944
Consider	-10.9944
Example	-10.9944
parallel	-10.9944
thick	-10.9944
uniform	-10.9944
▁~2	-10.9945
available	-10.9945
down	-10.9945
▁star	-10.9965
mount	-10.9967
▁enforce	-10.9982
▁continu	-11.0001
tant	-11.0019
Ivan	-11.002
▁favor	-11.0023
1∗	-11.0026
▁complicat	-11.0029
linked	-11.0042
7.3	-11.0043
▁propagat	-11.0048
▁engineer	-11.0049
chn	-11.0066
agnetospheric	-11.0066
▁compet	-11.0069
▁metaboli	-11.0072
▁Cherednik	-11.0073
Snowball	-11.0073
posedness	-11.0073
▁Battjes	-11.0073
▁Cartesian	-11.0073
▁Compac	-11.0073
▁Lebesgue	-11.0073
▁Phialemonium	-11.0073
▁adverse	-11.0073
▁anatomical	-11.0073
▁catechol	-11.0073
▁conserved	-11.0073
▁constitute	-11.0073
▁cultivation	-11.0073
▁custom	-11.0073
▁drainage	-11.0073
▁eigengene	-11.0073
▁examining	-11.0073
▁infestation	-11.0073
▁interstitial	-11.0073
▁irreducible	-11.0073
▁morphological	-11.0073
▁myoblasts	-11.0073
▁quasi	-11.0073
▁queue	-11.0073
▁register	-11.0073
▁sequestration	-11.0073
▁street	-11.0073
▁temporar	-11.0073
▁trajectory	-11.0073
▁unclear	-11.0073
▁viscous	-11.0073
FTIR	-11.0073
Young	-11.0073
▁Subsequent	-11.0073
▁artificial	-11.0073
▁vapor	-11.0073
▁discretiz	-11.0073
▁cuttings	-11.0073
▁carbonator	-11.0073
▁inequality	-11.0073
▁guide	-11.0073
▁quart	-11.0073
▁overlapping	-11.0073
Measurement	-11.0073
▁inoculat	-11.0073
▁extrapolat	-11.0073
▁homolog	-11.0073
flop	-11.0073
▁inverter	-11.0073
▁limb	-11.0073
▁multipli	-11.0073
▁magnetization	-11.0074
▁Otherwise	-11.0074
▁translate	-11.0074
▁supplie	-11.0074
▁HST	-11.0075
▁subsystem	-11.0075
▁Orbulina	-11.0075
▁insertion	-11.0075
▁classify	-11.0076
▁States	-11.0076
▁problematic	-11.0077
▁branches	-11.0078
▁hot	-11.0078
▁oxidation	-11.0079
×10-4	-11.0079
▁researchers	-11.0081
▁effectiveness	-11.0081
▁dissipated	-11.0081
▁reflectance	-11.0082
▁waveform	-11.0083
▁leg	-11.0083
▁autorotational	-11.0084
wait	-11.0087
▁90°	-11.0089
▁bone	-11.0089
Amos	-11.009
▁HNO	-11.0092
▁toxic	-11.0095
▁Alternatively	-11.0098
▁60%	-11.0102
nwind	-11.0105
▁Centr	-11.0108
9+5	-11.0112
▁25%	-11.0121
▁Line	-11.0122
1-1-	-11.0123
▁contribut	-11.013
▁hundreds	-11.0132
▁15%	-11.0138
▁periodic	-11.014
▁parietal	-11.0148
▁adapted	-11.0149
▁shell	-11.0165
▁Dela	-11.0176
▁differentiate	-11.0177
(13)	-11.0185
▁highlighted	-11.0186
▁fitting	-11.019
▁succession	-11.0193
▁infiltration	-11.0205
TAT	-11.0214
▁tea	-11.0222
▁dated	-11.0225
ww	-11.0232
arrow	-11.0239
▁counting	-11.0249
ometer	-11.0262
▁filtered	-11.0269
▁120	-11.0274
deposition	-11.0275
-1⊂	-11.0277
▁exclude	-11.0295
▁noon	-11.0326
▁[1].	-11.0335
dmax	-11.0345
▁3.9	-11.0369
▁2002)	-11.0378
cross	-11.0389
corotational	-11.0395
▁demonstrat	-11.0402
▁2004	-11.0413
≥1	-11.0414
+3/2)	-11.0429
bility	-11.044
▁stri	-11.0449
3.5	-11.0455
plane	-11.0464
=∂	-11.0481
direct	-11.0492
trans	-11.0497
dashed	-11.0498
ridge	-11.0499
According	-11.05
ELS	-11.05
change	-11.05
deviation	-11.05
domain	-11.0501
associated	-11.0501
depth	-11.0501
head	-11.0507
range	-11.0512
0∂	-11.0517
count	-11.0527
tling	-11.053
▁remark	-11.0554
▁reconstruct	-11.0566
▁interpret	-11.0579
▁identifi	-11.0585
▁tephr	-11.0596
▁immediate	-11.0597
chloride	-11.0598
▁400	-11.0606
▁draw	-11.0607
▁1993	-11.0609
▁Different	-11.0611
genesis	-11.0611
▁contradict	-11.0613
▁volcano	-11.0621
▁unlike	-11.0622
fficient	-11.0624
▁abnormal	-11.0628
Populus	-11.0628
encephalo	-11.0628
magnetodisc	-11.0628
stimulus	-11.0628
synchrony	-11.0628
▁1994;	-11.0628
▁Africa	-11.0628
▁Argentina	-11.0628
▁Instrument	-11.0628
▁Quaternary	-11.0628
▁SelecT	-11.0628
▁artefact	-11.0628
▁body	-11.0628
▁clumps	-11.0628
▁combustion	-11.0628
▁condense	-11.0628
▁confocal	-11.0628
▁convenient	-11.0628
▁cytokinin	-11.0628
▁episodes	-11.0628
▁examination	-11.0628
▁greenhouse	-11.0628
▁heterogeneity	-11.0628
▁incidence	-11.0628
▁inoculum	-11.0628
▁integrity	-11.0628
▁locus	-11.0628
▁numerous	-11.0628
▁potassium	-11.0628
▁prominent	-11.0628
▁simplicity	-11.0628
▁spectrometer	-11.0628
▁stimuli	-11.0628
▁symmetriser	-11.0628
▁threat	-11.0628
▁universe	-11.0628
▁1992)	-11.0628
▁ROIs	-11.0628
▁applicable	-11.0628
▁degrade	-11.0628
▁disappear	-11.0628
▁manifest	-11.0628
▁virtual	-11.0628
▁gyrus	-11.0628
▁service	-11.0628
▁skew	-11.0628
▁689	-11.0628
▁Harman	-11.0628
▁evaporation	-11.0628
stationary	-11.0628
▁outlined	-11.0628
▁loci	-11.0628
▁summarise	-11.0628
▁1979	-11.0628
▁themselves	-11.0629
▁diagnosis	-11.0629
▁deployment	-11.0629
▁surviv	-11.0629
▁attach	-11.0629
tinent	-11.0629
▁format	-11.0629
Stoke	-11.063
idirectional	-11.063
▁comparative	-11.0631
▁petro	-11.0632
▁holomorphic	-11.0632
▁suppression	-11.0633
▁oak	-11.0633
▁utilisation	-11.0634
▁status	-11.0634
▁conduction	-11.0635
▁methodology	-11.0635
▁1260	-11.0636
▁Unit	-11.0637
▁Processor	-11.0637
▁powerful	-11.0637
tropical	-11.0637
▁competiti	-11.0637
▁GPU	-11.0639
▁passive	-11.0641
▁Vari	-11.0641
)|⩽	-11.0641
▁CFD	-11.0643
▁sort	-11.0644
lgn	-11.0645
DBS	-11.0648
Region	-11.0648
▁want	-11.0649
▁0≤	-11.065
▁surf	-11.0651
▁Chr	-11.0653
▁adequately	-11.0656
▁speedup	-11.0659
▁LY	-11.0671
▁reality	-11.0671
▁salin	-11.0672
▁preserved	-11.0673
▁Part	-11.0674
▁perspective	-11.0677
chrom	-11.0679
▁stabilized	-11.0682
▁resolved	-11.0684
▁calcium	-11.0685
▁30°	-11.0688
▁reconstruction	-11.069
▁aminoacyl	-11.0692
▁AUC	-11.0701
▁extensively	-11.0707
▁[25].	-11.0711
▁driver	-11.0716
▁addressed	-11.072
born	-11.0722
▁readi	-11.0729
▁checker	-11.0729
▁(1993)	-11.073
▁accepted	-11.0743
|2)	-11.0746
Recall	-11.0753
Full	-11.0754
▁projected	-11.0764
▁Caf	-11.0774
▁deduce	-11.0789
slip	-11.0798
▁∼4	-11.0828
0⊂	-11.0867
▁requir	-11.0936
▁Ram	-11.0988
′)∈	-11.099
mediat	-11.1014
▁execut	-11.1023
▁introduc	-11.1035
▁simulat	-11.1036
-(2	-11.106
ember	-11.1061
50°	-11.1072
aga	-11.1078
world	-11.1086
sequence	-11.1087
feasible	-11.1089
affected	-11.1089
significant	-11.1089
while	-11.1089
solid	-11.1089
visible	-11.1089
establish	-11.109
pecifically	-11.109
lift	-11.1093
▁Set	-11.1096
stem	-11.1103
meter	-11.1143
Dun	-11.115
main	-11.116
▁optimis	-11.1167
▁expand	-11.1172
▁engine	-11.1184
aria	-11.1187
▁tremul	-11.1192
▁automati	-11.1199
8+7	-11.1209
▁persist	-11.1214
▁analog	-11.1214
▁converge	-11.1216
Obviously	-11.1216
minator	-11.1216
▁1995;	-11.1216
▁Increasing	-11.1216
▁Paleocene	-11.1216
▁REnc	-11.1216
▁Sprintson	-11.1216
▁Wunstorf	-11.1216
▁Zachos	-11.1216
▁aluminium	-11.1216
▁angiosperm	-11.1216
▁candidate	-11.1216
▁dormancy	-11.1216
▁fulfill	-11.1216
▁insufficient	-11.1216
▁longitude	-11.1216
▁overestimate	-11.1216
▁resync	-11.1216
▁subcategory	-11.1216
▁subternata	-11.1216
▁symptom	-11.1216
▁volatility	-11.1216
▁discovered	-11.1216
▁intrinsic	-11.1216
▁shelf	-11.1216
valuable	-11.1216
▁FPGA	-11.1216
▁cereal	-11.1216
ASNPC	-11.1216
▁debugging	-11.1216
▁Formula	-11.1216
▁heavie	-11.1216
lsewhere	-11.1216
▁croplands	-11.1216
▁Initial	-11.1217
▁diverg	-11.1217
▁minimis	-11.1217
▁stably	-11.1217
▁brine	-11.1217
▁biosynthesis	-11.1217
▁1982	-11.1217
▁transmit	-11.1217
methyl	-11.1217
▁ascend	-11.1217
psych	-11.1217
▁canonical	-11.1217
▁viable	-11.1217
▁heterojunction	-11.1217
▁push	-11.1217
▁geometric	-11.1217
▁cutoff	-11.1217
▁antibiotic	-11.1217
▁stand	-11.1217
▁overlap	-11.1217
▁adhere	-11.1218
▁Large	-11.1218
▁reef	-11.1218
▁dinoflagellate	-11.1218
+⋯+	-11.1218
▁persistent	-11.1219
▁infra	-11.122
▁automatically	-11.122
▁Micro	-11.1221
▁optimization	-11.1221
▁tapping	-11.1221
▁brown	-11.1222
▁washed	-11.1222
▁rational	-11.1223
▁scope	-11.1223
▁char	-11.1223
▁isothermal	-11.1224
▁percent	-11.1224
▁selective	-11.1225
▁slid	-11.1228
▁hub	-11.1229
▁38°	-11.123
▁machinery	-11.1231
▁nearby	-11.1231
▁Imag	-11.1232
▁MAG	-11.1234
eans	-11.1235
▁congesting	-11.1238
▁switches	-11.1239
≈0.	-11.1241
▁VESTAL	-11.1245
0%,	-11.1246
▁neglected	-11.1248
▁preferred	-11.125
▁Hungary	-11.1252
bert	-11.1255
/(1-	-11.1256
Master	-11.1257
▁Previous	-11.1261
ogram	-11.1276
oxic	-11.1276
▁tide	-11.1279
ffel	-11.128
Thom	-11.1284
zanti	-11.1285
▁operated	-11.1287
▁carbonation	-11.1289
▁monitored	-11.1289
▁5.4	-11.129
|∂	-11.1301
ERA	-11.1323
▁guaranteed	-11.1326
tzi	-11.1327
▁favour	-11.1334
▁reside	-11.1345
▁economic	-11.1348
};	-11.1356
Generally	-11.1369
▁FQ	-11.1388
after	-11.1404
▁albe	-11.1408
▁7.5	-11.1414
0.9	-11.1422
▁resistiv	-11.1431
▁6.3	-11.144
+3/2	-11.1449
▁6.1	-11.1476
1+3	-11.1509
▁7.1	-11.1527
lli	-11.1527
exj	-11.1555
′=1	-11.1578
RMS	-11.159
▁silic	-11.1611
Knu	-11.1612
arable	-11.162
▁reproducti	-11.1644
acceptor	-11.1653
parameterisation	-11.1655
Txi	-11.168
3/2	-11.1684
place	-11.1696
Mutti	-11.1711
State	-11.1712
break	-11.1713
shift	-11.1713
deposited	-11.1713
constrained	-11.1713
measur	-11.1713
months	-11.1713
altitude	-11.1713
ionosphere	-11.1714
target	-11.1714
including	-11.1714
difference	-11.1714
fuller	-11.1714
weight	-11.1715
-3′	-11.1721
▁explor	-11.1729
III	-11.173
consistently	-11.1738
good	-11.1763
▁collect	-11.1774
contaminated	-11.1785
▁hypha	-11.1802
rator	-11.1803
▁initiat	-11.1805
▁surprising	-11.181
▁adequate	-11.181
cultur	-11.1811
▁reversib	-11.1813
▁750	-11.1814
ransgenic	-11.1833
Additional	-11.1841
▁Murray	-11.1841
epimorphism	-11.1841
quantum	-11.1841
reliminary	-11.1841
simplification	-11.1841
▁(1992)	-11.1841
▁Controller	-11.1841
▁Dynamic	-11.1841
▁Laboratory	-11.1841
▁Volcani	-11.1841
▁azimuthal	-11.1841
▁benchmark	-11.1841
▁bottleneck	-11.1841
▁bromine	-11.1841
▁cyclic	-11.1841
▁emphasize	-11.1841
▁harmonic	-11.1841
▁heavily	-11.1841
▁intensive	-11.1841
▁latitudinal	-11.1841
▁magnetosheath	-11.1841
▁mathematical	-11.1841
▁octahedra	-11.1841
▁quantized	-11.1841
▁regulator	-11.1841
▁reworking	-11.1841
▁sustain	-11.1841
▁symmetry	-11.1841
Friedman	-11.1841
▁deterministic	-11.1841
▁export	-11.1841
▁obstacle	-11.1841
▁quantified	-11.1841
▁cavity	-11.1841
▁focal	-11.1841
▁scalar	-11.1841
Clarke	-11.1841
▁radii	-11.1841
▁spacing	-11.1841
▁metallic	-11.1841
▁Northern	-11.1841
▁emitt	-11.1842
▁Sweden	-11.1842
▁1984	-11.1842
▁visit	-11.1842
▁flexible	-11.1842
▁grey	-11.1842
▁AVZ	-11.1842
▁metabolism	-11.1842
▁ODP	-11.1842
▁RPI	-11.1842
▁hydrocarbon	-11.1842
▁annealed	-11.1842
▁vascul	-11.1843
▁preced	-11.1843
print	-11.1843
▁cache	-11.1843
▁hardground	-11.1843
▁bud	-11.1844
▁rotating	-11.1844
Notice	-11.1844
×10-6	-11.1844
▁SCGs	-11.1844
▁expensive	-11.1845
▁coincident	-11.1845
▁Euler	-11.1845
▁modulated	-11.1846
clonal	-11.1846
radical	-11.1846
▁QCM	-11.1847
▁ecologic	-11.1847
▁Wood	-11.1847
▁tolerate	-11.1848
▁handling	-11.1848
▁conform	-11.1849
▁Denot	-11.1849
#52+53	-11.1852
889	-11.1853
∈[1,	-11.1856
▁jet	-11.1857
▁COXI	-11.1862
▁anomaly	-11.1862
▁suppose	-11.1864
▁Four	-11.1864
▁New	-11.1869
▁evolved	-11.1869
▁1996	-11.1871
▁surprisingly	-11.1878
7+38	-11.1879
▁progressively	-11.1881
▁initiated	-11.1886
value	-11.1894
106	-11.1894
berg	-11.19
▁530	-11.1903
▁East	-11.1908
▁1.4	-11.1908
▁MgO	-11.1909
▁Sub	-11.1912
▁1.8	-11.1922
doped	-11.1924
}|	-11.1926
▁Mass	-11.1933
▁[20].	-11.1933
ProofLet	-11.1952
▁causal	-11.1956
ragm	-11.1959
-1(0)	-11.1977
#113+114	-11.2002
aero	-11.2007
▁7.2	-11.2045
week	-11.2073
armer	-11.2109
▁accommodate	-11.2117
organisation	-11.2136
▁reli	-11.2177
mjl	-11.2189
▁Whe	-11.2192
finite	-11.2249
▁attract	-11.2256
▁1999	-11.227
opp	-11.2289
ospheric	-11.23
▁aerosol	-11.2341
▁sector	-11.2342
processor	-11.2342
▁investigat	-11.2344
particle	-11.238
block	-11.238
DNA	-11.238
principal	-11.238
▁interfac	-11.238
temperature	-11.2381
when	-11.2382
effect	-11.2382
root	-11.2385
large	-11.2387
▁differentiat	-11.24
predicted	-11.2404
▁emerge	-11.2408
▁plantation	-11.2412
plicate	-11.2425
▁mix	-11.2443
Now	-11.2445
▁scatter	-11.2455
▁surround	-11.2455
▁careful	-11.2477
▁capacit	-11.2484
immer	-11.2486
8+5	-11.2496
2006	-11.2497
▁skelet	-11.25
▁discretis	-11.2503
▁transcript	-11.2504
▁conservati	-11.2506
▁Depend	-11.2507
valence	-11.2508
▁Spectromet	-11.2508
▁mesopor	-11.2508
Algorithm	-11.2508
Donoghue	-11.2508
▁1335.7	-11.2508
▁Apectodinium	-11.2508
▁Computing	-11.2508
▁Maiella	-11.2508
▁PGRN	-11.2508
▁Prophet	-11.2508
▁Statistica	-11.2508
▁TSMCStop	-11.2508
▁anterior	-11.2508
▁assimilation	-11.2508
▁bubbl	-11.2508
▁dissolution	-11.2508
▁divergence	-11.2508
▁exercise	-11.2508
▁hyperbolic	-11.2508
▁methodologies	-11.2508
▁particulate	-11.2508
▁permeability	-11.2508
▁telescope	-11.2508
▁thousand	-11.2508
#144+145	-11.2508
chronic	-11.2508
corotate	-11.2508
▁circle	-11.2508
▁collapse	-11.2508
▁discharge	-11.2508
▁erroneous	-11.2508
▁intense	-11.2508
▁mirror	-11.2508
▁mucosa	-11.2508
▁occasion	-11.2508
▁porridge	-11.2508
▁singular	-11.2508
▁speech	-11.2508
▁sudden	-11.2508
▁technical	-11.2508
▁Aylward	-11.2508
▁NASA	-11.2508
▁Simulation	-11.2508
▁acknowledge	-11.2508
▁disseminat	-11.2508
▁swamp	-11.2508
▁magma	-11.2508
operative	-11.2508
▁CRDS	-11.2508
▁Yelle	-11.2508
▁Blue	-11.2508
spalath	-11.2508
▁copies	-11.2508
▁fleet	-11.2508
▁implant	-11.2508
▁digit	-11.2508
▁monotonic	-11.2508
▁Third	-11.2508
▁trapping	-11.2508
▁Kzz	-11.2508
▁Small	-11.2508
▁INS	-11.2509
plasm	-11.2509
▁Miller	-11.2509
▁Cher	-11.2509
▁admissi	-11.2509
ovsky	-11.2509
▁SnF	-11.2509
▁dramatically	-11.2509
▁therapy	-11.251
▁missing	-11.251
▁hidden	-11.251
#74+75	-11.251
▁Roberts	-11.251
deformed	-11.251
▁plausible	-11.2511
▁tailward	-11.2511
▁proximity	-11.2511
▁Italy	-11.2513
▁discretisation	-11.2513
▁transgenesis	-11.2514
▁violate	-11.2514
▁speak	-11.2515
▁skeleton	-11.2516
▁generalization	-11.2517
▁rowan	-11.2518
▁planar	-11.2519
physiological	-11.252
▁usage	-11.252
▁formulated	-11.2521
▁farmers	-11.2521
vision	-11.2522
▁0.02	-11.2523
▁5′-	-11.2524
▁electricity	-11.2528
▁dynamically	-11.2528
▁ignored	-11.2528
ˆ∨	-11.2529
▁1993).	-11.2531
▁suppressed	-11.2538
▁vanishing	-11.254
▁tight	-11.2544
▁ball	-11.2548
stein	-11.256
active	-11.2583
dependency	-11.2584
▁Shi	-11.2587
900	-11.2591
▁2.6	-11.2602
9+7	-11.2608
▁remarkabl	-11.2611
▁reco	-11.2612
Stag	-11.2614
)=∏	-11.2618
▁prop	-11.2625
kll	-11.2666
olecular	-11.2673
▁128	-11.2674
34°	-11.2715
RIS	-11.2724
timate	-11.2765
▁bounc	-11.2778
ectional	-11.279
▁130	-11.2799
▁supra	-11.2805
▁deno	-11.2808
=0.3	-11.2822
hann	-11.2854
DAP	-11.2908
volvement	-11.291
▁3.8	-11.2917
▁2.7	-11.2956
▁optimiz	-11.296
▁170	-11.298
▁Relat	-11.2983
▁enabl	-11.3017
tonia	-11.3018
▁describ	-11.3033
▁General	-11.3039
▁intention	-11.3047
calculat	-11.3093
possibl	-11.3094
tolerance	-11.3094
sampling	-11.3094
connected	-11.3094
comparison	-11.3094
neutral	-11.3095
channel	-11.3095
condition	-11.3095
although	-11.3095
region	-11.3095
typical	-11.3096
two	-11.3098
transit	-11.3101
tube	-11.3114
80°	-11.3121
sense	-11.3126
▁averag	-11.3134
▁2-3	-11.3151
MHz	-11.3155
▁branch	-11.3162
▁increment	-11.3171
cular	-11.3175
▁publish	-11.3177
▁impos	-11.3178
▁simplifie	-11.3188
▁exceptional	-11.3196
onversely	-11.3206
GTA	-11.3212
▁oxidati	-11.3214
hroughout	-11.3215
aximum	-11.3216
▁interpolat	-11.322
▁nitri	-11.3221
▁cogniti	-11.3222
▁defense	-11.3222
buoyant	-11.3222
corotating	-11.3222
▁1334.5	-11.3222
▁Austral	-11.3222
▁Darcy	-11.3222
▁NUTS	-11.3222
▁Riemann	-11.3222
▁Scientific	-11.3222
▁Scotland	-11.3222
▁Taylor	-11.3222
▁antisunward	-11.3222
▁arranged	-11.3222
▁caledonensis	-11.3222
▁categoriz	-11.3222
▁colonies	-11.3222
▁colonisation	-11.3222
▁compensate	-11.3222
▁conflict	-11.3222
▁cultivar	-11.3222
▁disrupt	-11.3222
▁dysfunction	-11.3222
▁foraminifers	-11.3222
▁glaciation	-11.3222
▁heritabilit	-11.3222
▁inspect	-11.3222
▁intuition	-11.3222
▁macrocosm	-11.3222
▁occupie	-11.3222
▁private	-11.3222
▁prohibit	-11.3222
▁pruning	-11.3222
▁recognised	-11.3222
▁recognize	-11.3222
▁retention	-11.3222
▁simplify	-11.3222
▁sugar	-11.3222
▁tectonic	-11.3222
▁transmittance	-11.3222
▁yellow	-11.3222
▁melting	-11.3222
▁plasmid	-11.3222
▁repair	-11.3222
PCBM	-11.3222
▁coastal	-11.3222
▁render	-11.3222
▁Finland	-11.3222
▁verification	-11.3222
▁dedicat	-11.3222
▁overnight	-11.3222
▁conceptual	-11.3222
▁copia	-11.3222
▁volumetric	-11.3222
▁physics	-11.3223
▁neurodegenerati	-11.3223
∈[1..	-11.3223
IaaS	-11.3223
▁thorough	-11.3223
▁raised	-11.3223
Wilson	-11.3223
traction	-11.3223
▁PXD	-11.3223
▁omit	-11.3223
▁synchronized	-11.3223
▁PND	-11.3223
▁PDE	-11.3223
▁biogenic	-11.3223
▁ROC	-11.3223
▁corner	-11.3224
▁conjugate	-11.3224
▁germ	-11.3224
▁mapped	-11.3224
▁STC	-11.3224
▁1:100)	-11.3224
▁streamline	-11.3224
▁shall	-11.3225
HClO	-11.3225
kdA	-11.3225
▁canyon	-11.3225
ilot	-11.3225
▁Deposition	-11.3225
▁1987).	-11.3225
▁Medium	-11.3226
▁interpolation	-11.3226
▁[42,	-11.3227
▁correctness	-11.323
#51+52	-11.3231
felling	-11.3232
lapse	-11.3232
▁5.5	-11.3233
▁Zone	-11.3234
:(4)	-11.3234
81+1	-11.3236
▁tower	-11.3236
Tyr	-11.3236
▁devo	-11.3238
▁thermo	-11.3238
▁Lake	-11.3239
▁resin	-11.3239
▁addresses	-11.3241
▁1:10	-11.3243
▁Coul	-11.3245
▁1090	-11.3247
▁priority	-11.325
▁0<	-11.3253
ogenous	-11.3254
▁rip	-11.3258
▁press	-11.3258
ensen	-11.3261
▁ease	-11.3262
×107	-11.3265
7+18	-11.3279
|〈	-11.3279
5},	-11.3285
illage	-11.3302
▁metre	-11.3305
specialist	-11.3314
▁1.9	-11.3364
∂∂	-11.3403
kov	-11.3428
▁penetrate	-11.3433
reader	-11.3447
LoC	-11.3452
weighed	-11.3462
▁statistic	-11.3498
lips	-11.3505
llocated	-11.3592
randomized	-11.3598
shaped	-11.3637
▁compris	-11.3639
▁exclud	-11.3671
▁CafRepUtil	-11.3712
▁resist	-11.3714
▁insert	-11.3723
=1,...	-11.3734
▁receiv	-11.375
▁4.6	-11.3776
utter	-11.3822
▁fluctuation	-11.3827
consistent	-11.3834
▁submodule	-11.3834
different	-11.3864
law	-11.3865
thermal	-11.3867
shell	-11.3874
▁doubl	-11.3883
These	-11.3897
tomic	-11.3903
▁embedd	-11.394
▁mention	-11.3949
Gib	-11.396
▁anomal	-11.3966
⁎⋯⁎	-11.3976
ongestion	-11.3983
hreshold	-11.3983
▁circum	-11.3992
#142+143	-11.3992
Decrease	-11.3992
Edgeworth	-11.3992
Temperature	-11.3992
Zahnle	-11.3992
incompressible	-11.3992
satellite	-11.3992
uclidean	-11.3992
▁Institute	-11.3992
▁MMNm	-11.3992
▁Mingulay	-11.3992
▁Plasma	-11.3992
▁accompan	-11.3992
▁amplified	-11.3992
▁automata	-11.3992
▁circumstances	-11.3992
▁elongation	-11.3992
▁estuary	-11.3992
▁ethanol	-11.3992
▁flume	-11.3992
▁fluorine	-11.3992
▁functor	-11.3992
▁gibberellin	-11.3992
▁impaired	-11.3992
▁mitigation	-11.3992
▁nanopowder	-11.3992
▁nutrition	-11.3992
▁pluripoten	-11.3992
▁probabilistic	-11.3992
▁progeny	-11.3992
▁pseudoconvex	-11.3992
▁regenerating	-11.3992
▁sequencing	-11.3992
▁sieve	-11.3992
▁sporadic	-11.3992
▁stimulate	-11.3992
▁stratification	-11.3992
▁timber	-11.3992
▁universal	-11.3992
▁volatile	-11.3992
TTlowr	-11.3992
▁emphasis	-11.3992
▁encompass	-11.3992
▁irregular	-11.3992
▁photoionization	-11.3992
▁rearrange	-11.3992
#135+136	-11.3992
#160+161	-11.3992
▁Arctic	-11.3992
▁CTBI	-11.3992
▁Comparison	-11.3992
▁decelerat	-11.3992
▁disagree	-11.3992
▁proxies	-11.3992
DOPA	-11.3992
▁MPCL	-11.3992
▁arrive	-11.3992
▁recruit	-11.3992
▁redundancy	-11.3992
#110+111	-11.3992
#65+66	-11.3992
regulate	-11.3992
▁insect	-11.3992
inclination	-11.3992
▁Feature	-11.3992
centric	-11.3992
▁Vertic	-11.3992
▁Layer	-11.3992
▁autotroph	-11.3992
▁lobe	-11.3992
book	-11.3992
▁June	-11.3992
▁taller	-11.3992
▁Tower	-11.3992
▁entry	-11.3992
▁Finni	-11.3992
▁meaningful	-11.3992
▁PBS	-11.3992
▁instructions	-11.3993
▁Glom	-11.3993
▁flutter	-11.3993
▁coordinat	-11.3993
▁offshore	-11.3993
Meyers	-11.3993
▁hypo	-11.3993
▁pick	-11.3993
▁remanen	-11.3993
▁hint	-11.3993
Txiħ	-11.3993
▁sedation	-11.3993
ependence	-11.3993
▁penetration	-11.3994
croscopic	-11.3994
▁amino	-11.3994
▁discrimination	-11.3994
grass	-11.3995
▁Yates	-11.3995
▁runoff	-11.3995
▁liveness	-11.3996
▁Ltd	-11.3996
RBD	-11.3996
▁definite	-11.3997
▁idealized	-11.3998
▁offload	-11.3999
▁pathogenic	-11.3999
▁forestry	-11.4
proving	-11.4001
▁Union	-11.4001
×10-3	-11.4002
uture	-11.4003
▁foraminiferal	-11.4004
▁fixes	-11.4008
▁localization	-11.4008
▁programmer	-11.4008
Jones	-11.401
enberg	-11.4015
▁mismatch	-11.4015
▁intensifi	-11.4024
▁37%	-11.4024
#20+21	-11.4026
▁dating	-11.4031
▁puls	-11.4037
▁256	-11.4044
▁Cape	-11.4046
Vec	-11.4058
ott	-11.4066
▁2.9	-11.4103
ography	-11.4112
DEFRA	-11.4128
▁20-4	-11.4138
bearing	-11.4201
Continu	-11.4238
-0.2	-11.4251
=0.4	-11.4278
production	-11.4288
▁generalise	-11.4327
1·	-11.4345
▁notice	-11.4346
▁4.9	-11.4372
ratio	-11.4417
nith	-11.443
▁alternat	-11.4443
bedded	-11.4523
4+6	-11.4592
~	-11.4612
rpr	-11.4632
▁Activ	-11.4649
▁symbol	-11.4658
▁heuristic	-11.4659
▁transgene	-11.466
▁enhanc	-11.466
present	-11.4694
jection	-11.4697
resolution	-11.4697
dividual	-11.4697
marine	-11.4697
fracture	-11.4697
limited	-11.4697
compared	-11.4697
̄	-11.4698
second	-11.4698
third	-11.4698
control	-11.4699
validation	-11.4699
common	-11.4702
0.75	-11.4704
Time	-11.4706
drop	-11.4728
▁learn	-11.4772
▁safe	-11.4774
▁neglect	-11.478
long	-11.4787
ycorrhizal	-11.4818
iddle	-11.4819
zygous	-11.4821
1987)	-11.4822
▁applica	-11.4824
#205+206	-11.4825
▁backbone	-11.4825
▁boot	-11.4825
▁decompos	-11.4825
▁negat	-11.4825
▁resilience	-11.4825
#106+107	-11.4825
#108+109	-11.4825
#131+132	-11.4825
#200+201	-11.4825
<0.05	-11.4825
oxane	-11.4825
snapshot	-11.4825
▁1992;	-11.4825
▁Britain	-11.4825
▁Commission	-11.4825
▁Current	-11.4825
▁Glyphosate	-11.4825
▁Hosseini	-11.4825
▁LLBL	-11.4825
▁Loughborough	-11.4825
▁Nwogu	-11.4825
▁SYNTH	-11.4825
▁Shelf	-11.4825
▁Surface	-11.4825
▁asymmetries	-11.4825
▁automaton	-11.4825
▁ceramic	-11.4825
▁crucible	-11.4825
▁diamond	-11.4825
▁electrospinning	-11.4825
▁forsterite	-11.4825
▁gamma	-11.4825
▁historical	-11.4825
▁hypotheses	-11.4825
▁impairment	-11.4825
▁impermeable	-11.4825
▁invasion	-11.4825
▁opportunistic	-11.4825
▁opportunity	-11.4825
▁primitive	-11.4825
▁proposal	-11.4825
▁quantification	-11.4825
▁recognition	-11.4825
▁scientific	-11.4825
▁spinning	-11.4825
▁submanifold	-11.4825
▁suspension	-11.4825
▁transparent	-11.4825
▁trichocarpa	-11.4825
▁worldwide	-11.4825
Combining	-11.4825
▁Ethernet	-11.4825
▁minutes	-11.4825
▁morning	-11.4825
▁sequester	-11.4825
▁stagger	-11.4825
▁stratospher	-11.4825
▁sunward	-11.4825
#79+80	-11.4825
Diatom	-11.4825
heimer	-11.4825
▁Ideally	-11.4825
▁Western	-11.4825
▁afternoon	-11.4825
▁amenable	-11.4825
▁games	-11.4825
iatric	-11.4825
provisioning	-11.4825
▁Besides	-11.4825
▁Navier	-11.4825
▁nadir	-11.4825
Field	-11.4825
▁macro	-11.4825
▁(1997	-11.4825
solubility	-11.4825
▁easter	-11.4825
▁05:	-11.4825
▁Bergman	-11.4825
▁Sanders	-11.4825
nightward	-11.4825
▁torsion	-11.4825
▁pullback	-11.4825
▁eGB	-11.4825
▁assembly	-11.4825
▁admit	-11.4825
#202+203	-11.4825
▁(2002)	-11.4825
▁photocurrent	-11.4825
▁XPS	-11.4825
▁photoinhibition	-11.4825
▁antibodies	-11.4825
▁interior	-11.4825
Aldrich	-11.4825
▁said	-11.4825
bservations	-11.4825
▁Neur	-11.4825
▁canopy	-11.4825
▁flex	-11.4826
▁laser	-11.4826
▁headspace	-11.4826
▁sputter	-11.4826
▁barcode	-11.4826
▁TSR	-11.4826
ptimum	-11.4826
▁digest	-11.4826
▁PSD	-11.4826
▁ATR	-11.4826
Kilian	-11.4826
▁habit	-11.4826
▁Internet	-11.4827
▁vessel	-11.4828
glycol	-11.4828
#18+19	-11.4828
11/2,	-11.4828
▁preference	-11.4828
▁frontier	-11.4829
Space	-11.4829
▁Peak	-11.483
×10-5	-11.483
≥-1/2	-11.483
▁Hunt	-11.483
▁passage	-11.483
▁(3.3)	-11.483
▁acceptance	-11.483
▁asymptotically	-11.4831
raft	-11.4831
#81+82	-11.4831
▁immuno	-11.4831
glob	-11.4832
▁redness	-11.4832
▁70%	-11.4835
▁10-20	-11.4835
▁Rather	-11.4838
845	-11.4839
▁lose	-11.4839
∗‖	-11.4841
▁diagene	-11.4854
▁bring	-11.4855
▁tribolog	-11.4858
▁-109	-11.4869
afety	-11.4877
7+28	-11.4885
reactive	-11.4886
ousso	-11.4891
uncontaminated	-11.4902
▁pull	-11.4908
centre	-11.496
×10-2	-11.4986
=1.3	-11.5001
▁7.4	-11.5023
pathology	-11.5036
cope	-11.5113
optimized	-11.5135
▁6.4	-11.5185
alynological	-11.5293
5+4	-11.5338
9.7	-11.537
const	-11.5391
▁illustrat	-11.5411
alues	-11.5428
▁Meta	-11.5516
▁Opti	-11.5536
▁micrograph	-11.5571
▁seedling	-11.5575
electron	-11.5593
respectively	-11.5596
stream	-11.5599
parietal	-11.5603
OTU	-11.5604
Corollary	-11.5605
peak	-11.5605
chemistry	-11.5605
structure	-11.5605
square	-11.5606
natural	-11.5606
Although	-11.5606
Finally	-11.5606
atmosphere	-11.5606
pulse	-11.5607
species	-11.5607
element	-11.5607
coordinate	-11.5607
green	-11.5609
alkalin	-11.561
nano	-11.5613
situ	-11.5616
▁phosphat	-11.5622
pplied	-11.5629
adsorbe	-11.5641
▁∼50	-11.5654
pCO	-11.5689
▁∼100	-11.569
▁couple	-11.5701
▁fertiliz	-11.5715
▁autorotation	-11.5719
▁Process	-11.572
▁fibr	-11.5727
▁expens	-11.5729
▁segregat	-11.573
▁vegetat	-11.573
▁proxim	-11.573
chXW	-11.5732
idden	-11.5733
▁Health	-11.5733
#85+86	-11.5734
▁pipe	-11.5734
▁straight	-11.5734
irradiat	-11.5734
#162+163	-11.5734
▁(1994)	-11.5734
▁Sediment	-11.5734
▁fertiliser	-11.5734
▁hermonthica	-11.5734
▁pyramid	-11.5734
▁resembl	-11.5734
#124+125	-11.5734
#148+149	-11.5734
#206+207	-11.5734
Fredholm	-11.5734
PRIO	-11.5734
deficien	-11.5734
emptiness	-11.5734
reinforce	-11.5734
ucalyptus	-11.5734
▁(1998)	-11.5734
▁Agrobacterium	-11.5734
▁Column	-11.5734
▁Creaser	-11.5734
▁Department	-11.5734
▁HTTP	-11.5734
▁Koksrivier	-11.5734
▁MAPE	-11.5734
▁Mitochondria	-11.5734
▁Netherlands	-11.5734
▁Nonetheless	-11.5734
▁Patagonia	-11.5734
▁Sensitivity	-11.5734
▁SocialUtil	-11.5734
▁Structur	-11.5734
▁Survey	-11.5734
▁apparatus	-11.5734
▁aspalathoides	-11.5734
▁calcination	-11.5734
▁catchment	-11.5734
▁cellulose	-11.5734
▁cucullatus	-11.5734
▁deficit	-11.5734
▁entail	-11.5734
▁fashion	-11.5734
▁furnace	-11.5734
▁geosporum	-11.5734
▁hierarchy	-11.5734
▁hypothesized	-11.5734
▁implicated	-11.5734
▁imprecision	-11.5734
▁industrial	-11.5734
▁leakage	-11.5734
▁manipulation	-11.5734
▁manufacturing	-11.5734
▁nucleoid	-11.5734
▁opportunities	-11.5734
▁overburden	-11.5734
▁parametriz	-11.5734
▁popular	-11.5734
▁potato	-11.5734
▁preferential	-11.5734
▁prevalent	-11.5734
▁rabbit	-11.5734
▁saplings	-11.5734
▁silencing	-11.5734
▁spicule	-11.5734
▁sucrose	-11.5734
▁vacancies	-11.5734
▁vulnerabilit	-11.5734
#109+110	-11.5734
ethylene	-11.5734
▁America	-11.5734
▁MRPS	-11.5734
▁Whereas	-11.5734
▁coalition	-11.5734
▁confound	-11.5734
▁taxa	-11.5734
#230+231	-11.5734
#89+90	-11.5734
▁Define	-11.5734
▁cochlea	-11.5734
▁command	-11.5734
#118+119	-11.5734
Coherent	-11.5734
▁Furlo	-11.5734
▁alignment	-11.5734
▁shunt	-11.5734
▁auxin	-11.5734
▁GSSP	-11.5734
▁westward	-11.5734
▁[12,13]	-11.5734
▁mouth	-11.5734
▁reproducibility	-11.5734
Schmit	-11.5734
vigor	-11.5734
urgeon	-11.5734
▁WIS	-11.5734
▁drawback	-11.5734
▁cardi	-11.5734
▁genus	-11.5734
Particle	-11.5735
uijs	-11.5735
▁beetle	-11.5735
▁CWC	-11.5735
ville	-11.5735
▁fluorescence	-11.5735
▁SLT	-11.5735
▁ortho	-11.5735
Forestry	-11.5735
valley	-11.5735
▁Wind	-11.5735
▁1981	-11.5735
▁Laser	-11.5735
▁neurological	-11.5736
#75+76	-11.5736
▁publishers	-11.5736
▁codimension	-11.5736
▁mouse	-11.5736
GALS	-11.5736
▁orange	-11.5736
#70+71	-11.5736
▁remanence	-11.5737
#46+47	-11.5737
▁bigge	-11.5737
▁magnesium	-11.5737
▁silt	-11.5737
▁consistency	-11.5737
▁overpressure	-11.5738
▁primers	-11.5738
▁multiply	-11.5738
▁interference	-11.5738
Elmer	-11.5738
qimb	-11.574
Cantor	-11.574
▁robustness	-11.574
))2⩽	-11.574
#40+41	-11.5743
#82+83	-11.5743
helia	-11.5743
▁WCL	-11.5743
#63+64	-11.5745
123+124	-11.5747
▁MMs	-11.575
▁arid	-11.575
ollectively	-11.5752
rganization	-11.5753
▁mild	-11.5755
horiz	-11.5757
#33+34	-11.5759
FDR	-11.576
#42+43	-11.5762
▁blot	-11.5763
#31+32	-11.5766
harg	-11.5775
alaeoenvironment	-11.578
7+7	-11.5788
▁geochronolog	-11.5792
▁health	-11.5804
Sele	-11.5832
▁tune	-11.5835
Perkin	-11.5841
▁discontinu	-11.5855
essel	-11.5876
hik	-11.588
compromised	-11.5886
conducting	-11.5895
▁enforc	-11.5895
Gurne	-11.5918
▁subside	-11.5965
Cord	-11.5973
▁warm	-11.5975
Roch	-11.5976
life	-11.5981
▁prim	-11.5992
▁9.1	-11.6065
acific	-11.6069
▁5.9	-11.6079
ochr	-11.6104
matches	-11.6138
▁subtract	-11.6151
▁encode	-11.6166
symmetrical	-11.6182
9°	-11.62
cama	-11.6206
(14)	-11.6303
(19)	-11.6323
▁ensur	-11.6354
creation	-11.6395
▁relax	-11.6406
▁clast	-11.6417
▁transduc	-11.6489
▁(2008	-11.6492
(16)	-11.6512
▁constituent	-11.6566
▁horizon	-11.6567
▁guard	-11.6568
dimension	-11.6582
loaded	-11.6599
AUC	-11.6604
desirable	-11.6604
western	-11.6605
Similar	-11.6605
growing	-11.6606
lattice	-11.6606
indicat	-11.6606
blue	-11.6606
Two	-11.6606
component	-11.6606
determined	-11.6606
With	-11.6606
analysis	-11.6607
OAE	-11.6607
soft	-11.6614
8+8	-11.6627
tmospheric	-11.6627
7+8	-11.6647
▁contract	-11.6679
▁suppress	-11.6685
▁evolv	-11.6686
▁inject	-11.6686
▁document	-11.669
▁foraminifera	-11.6717
▁minima	-11.6718
▁maxima	-11.6718
▁intersect	-11.672
ception	-11.6726
cribed	-11.6728
valuation	-11.673
5+36	-11.673
▁diffract	-11.673
nhanced	-11.673
▁percolat	-11.6731
▁temperat	-11.6733
assembl	-11.6734
▁embryo	-11.6734
#105+106	-11.6734
#107+108	-11.6734
#156+157	-11.6734
#289+290	-11.6734
Communication	-11.6734
Nemenyi	-11.6734
POLRMT	-11.6734
Turonian	-11.6734
etentiveness	-11.6734
peripheral	-11.6734
▁(1999)	-11.6734
▁Chemical	-11.6734
▁Eclipse	-11.6734
▁Hubble	-11.6734
▁Rossore	-11.6734
▁Science	-11.6734
▁Tethys	-11.6734
▁aquifer	-11.6734
▁autumn	-11.6734
▁backtrack	-11.6734
▁cataboli	-11.6734
▁corallinacean	-11.6734
▁deficiencies	-11.6734
▁disadvantage	-11.6734
▁electrophores	-11.6734
▁enstatite	-11.6734
▁exobase	-11.6734
▁fluctuate	-11.6734
▁genomic	-11.6734
▁geometries	-11.6734
▁interconnection	-11.6734
▁intermittent	-11.6734
▁intervention	-11.6734
▁longitudinal	-11.6734
▁medication	-11.6734
▁migrate	-11.6734
▁migrating	-11.6734
▁mobile	-11.6734
▁moisture	-11.6734
▁monoculture	-11.6734
▁morphologies	-11.6734
▁motivation	-11.6734
▁otorrhea	-11.6734
▁overturn	-11.6734
▁polypeptides	-11.6734
▁predicate	-11.6734
▁purchased	-11.6734
▁quaternion	-11.6734
▁reagent	-11.6734
▁schizophrenia	-11.6734
▁security	-11.6734
▁unimodular	-11.6734
▁unnecessar	-11.6734
#152+153	-11.6734
#221+222	-11.6734
Hamilton	-11.6734
Invitrogen	-11.6734
destructive	-11.6734
▁Application	-11.6734
▁Kanetberg	-11.6734
▁SDRAM	-11.6734
▁Separat	-11.6734
▁Together	-11.6734
▁Typical	-11.6734
▁centrifug	-11.6734
▁easier	-11.6734
▁hinder	-11.6734
▁nanotubes	-11.6734
▁ozone	-11.6734
▁participat	-11.6734
▁prevail	-11.6734
▁rigorous	-11.6734
▁scalability	-11.6734
▁terminology	-11.6734
#213+214	-11.6734
=-0.3	-11.6734
Neumann	-11.6734
intuitive	-11.6734
▁Adams	-11.6734
▁Detail	-11.6734
▁Difference	-11.6734
▁assertion	-11.6734
▁dementia	-11.6734
▁feeder	-11.6734
▁freedom	-11.6734
▁kinks	-11.6734
▁multiplication	-11.6734
▁tephrochronolog	-11.6734
#104+105	-11.6734
#155+156	-11.6734
Bickle	-11.6734
shield	-11.6734
▁Ridge	-11.6734
▁bombard	-11.6734
▁outdoor	-11.6734
▁pipette	-11.6734
#101+102	-11.6734
#115+116	-11.6734
#117+118	-11.6734
phenyl	-11.6734
▁Transform	-11.6734
▁fifth	-11.6734
▁tetra	-11.6734
▁finish	-11.6734
▁Element	-11.6734
▁feeding	-11.6734
Limited	-11.6734
▁delta	-11.6734
▁stirr	-11.6734
▁iterative	-11.6734
▁sensing	-11.6734
▁JPF	-11.6734
▁France	-11.6734
Control	-11.6734
▁bank	-11.6734
▁manure	-11.6734
PAGE	-11.6734
▁1983)	-11.6734
▁drawdown	-11.6734
▁Prior	-11.6734
▁giant	-11.6734
▁plage	-11.6734
#25+26	-11.6734
▁Arabia	-11.6734
▁Lamy	-11.6735
▁viral	-11.6735
▁alleles	-11.6735
qjm	-11.6735
▁apple	-11.6735
▁brightening	-11.6735
▁Roche	-11.6735
▁PVO	-11.6735
▁Fourier	-11.6735
▁inertia	-11.6735
elagi	-11.6735
▁preferabl	-11.6735
▁intact	-11.6735
Δξμ	-11.6735
▁pipeline	-11.6735
▁dropping	-11.6735
egeneration	-11.6735
▁microstructure	-11.6735
▁thermoset	-11.6735
▁GHG	-11.6735
▁clone	-11.6735
▁discrepancies	-11.6735
▁1971	-11.6736
▁exfiltration	-11.6736
▁GIc	-11.6736
ildre	-11.6736
▁inflammation	-11.6736
▁solub	-11.6736
▁sterili	-11.6736
▁redistribution	-11.6736
▁Local	-11.6737
▁viability	-11.6737
▁advis	-11.6737
▁scanner	-11.6737
Knox	-11.6737
▁prototype	-11.6737
▁hydroxyl	-11.6737
▁sphere	-11.6738
▁coincidence	-11.6739
▁QDs	-11.6739
#64+65	-11.6739
▁grade	-11.674
▁spring	-11.674
▁justified	-11.674
▁rins	-11.674
▁Long	-11.6741
=0.9	-11.6741
#83+84	-11.6742
▁Tree	-11.6742
▁lot	-11.6745
▁mere	-11.6745
#41+42	-11.6748
#34+35	-11.6753
LOS	-11.6753
#236+237	-11.6757
obstruct	-11.6757
#153+154	-11.6757
casting	-11.6759
▁Laplac	-11.6761
68+69	-11.6761
1977)	-11.6763
EFSA	-11.6768
#56+57	-11.677
▁reversi	-11.6787
llini	-11.6795
lumin	-11.6809
▁favorabl	-11.6831
▁necessitate	-11.6832
apping	-11.6846
PFopt	-11.6849
biostratigraphic	-11.6852
crop	-11.6884
CaO	-11.689
coding	-11.6914
dispers	-11.6972
▁basal	-11.698
6+8	-11.6983
spiration	-11.7014
ternational	-11.703
▁situat	-11.7083
Prop	-11.7098
▁visualiz	-11.7108
Garr	-11.725
141+142	-11.7367
lerian	-11.7412
seaward	-11.752
▁(2003	-11.7628
#137+138	-11.7656
▁pathogen	-11.767
closed	-11.7683
phist	-11.7694
valid	-11.7711
rotation	-11.7714
aminoacyl	-11.7714
circuit	-11.7715
cortic	-11.7716
crystal	-11.7716
estimation	-11.7716
adaptive	-11.7717
Steen	-11.7717
North	-11.7717
commutative	-11.7717
critical	-11.7717
parameter	-11.7717
supported	-11.7717
optimal	-11.7717
correlation	-11.7717
period	-11.7717
matrix	-11.7717
complex	-11.7718
integral	-11.7718
Data	-11.7718
first	-11.7718
equal	-11.7719
CPR	-11.772
mineral	-11.7725
maps	-11.7725
diabatic	-11.7733
▁vanish	-11.7784
#59+60	-11.78
▁spik	-11.7801
▁Whil	-11.7806
▁relevan	-11.781
▁ignore	-11.7811
▁associate	-11.7812
▁physi	-11.7824
154+155	-11.7826
▁manufacture	-11.7829
hough	-11.7837
rbulina	-11.784
▁degenerati	-11.7841
▁advect	-11.7841
epidocyclin	-11.7841
onjugat	-11.7843
Observ	-11.7843
▁Film	-11.7843
▁discrepanc	-11.7844
uantitative	-11.7844
xygen	-11.7844
#96+97	-11.7845
)|2⩽	-11.7845
#178+179	-11.7845
▁Environment	-11.7845
▁Ofgem	-11.7845
▁child	-11.7845
#168+169	-11.7845
#169+170	-11.7845
#171+172	-11.7845
#186+187	-11.7845
ydroxyapatite	-11.7845
▁Function	-11.7845
▁Gemini	-11.7845
▁associativ	-11.7845
▁deltoides	-11.7845
▁elliptical	-11.7845
▁facility	-11.7845
▁repulsi	-11.7845
#132+133	-11.7845
#163+164	-11.7845
Belgium	-11.7845
Bernoulli	-11.7845
Wodarg	-11.7845
subscribe	-11.7845
unpublished	-11.7845
▁Cenomanian	-11.7845
▁Complex	-11.7845
▁Consistent	-11.7845
▁Desert	-11.7845
▁Eichler	-11.7845
▁Francisco	-11.7845
▁Neptune	-11.7845
▁adhesive	-11.7845
▁agroforestry	-11.7845
▁agronomic	-11.7845
▁ammonium	-11.7845
▁aperture	-11.7845
▁ascertain	-11.7845
▁backscatter	-11.7845
▁bioinformatics	-11.7845
▁breakthrough	-11.7845
▁calcareous	-11.7845
▁coherence	-11.7845
▁commission	-11.7845
▁condensate	-11.7845
▁conjunctive	-11.7845
▁cumulative	-11.7845
▁decluvi	-11.7845
▁diluted	-11.7845
▁disconnection	-11.7845
▁disjunctive	-11.7845
▁efflux	-11.7845
▁fluency	-11.7845
▁gyroradius	-11.7845
▁hormone	-11.7845
▁humidity	-11.7845
▁ingredient	-11.7845
▁inheritance	-11.7845
▁ionopause	-11.7845
▁juvenile	-11.7845
▁membership	-11.7845
▁mortality	-11.7845
▁nucleation	-11.7845
▁nuclei	-11.7845
▁oocyte	-11.7845
▁perennial	-11.7845
▁periapsis	-11.7845
▁profiling	-11.7845
▁profound	-11.7845
▁proliferation	-11.7845
▁prolonged	-11.7845
▁rarefaction	-11.7845
▁recessive	-11.7845
▁reconnection	-11.7845
▁rectangle	-11.7845
▁scheduling	-11.7845
▁serious	-11.7845
▁spoofing	-11.7845
▁spruce	-11.7845
▁submitted	-11.7845
▁suction	-11.7845
▁tessellation	-11.7845
▁tunnel	-11.7845
▁vacancy	-11.7845
▁vulnerable	-11.7845
#159+160	-11.7845
▁England	-11.7845
▁Global	-11.7845
▁Paleo	-11.7845
▁Participa	-11.7845
▁brash	-11.7845
▁purified	-11.7845
▁supersonic	-11.7845
▁tracing	-11.7845
#116+117	-11.7845
▁Analyse	-11.7845
▁Determin	-11.7845
▁concave	-11.7845
▁convecti	-11.7845
▁perceive	-11.7845
#119+120	-11.7845
#97+98	-11.7845
Havelund	-11.7845
PVDF	-11.7845
▁datum	-11.7845
▁eustatic	-11.7845
▁evoke	-11.7845
▁gauge	-11.7845
▁maximize	-11.7845
#55+56	-11.7845
lcohol	-11.7845
▁breach	-11.7845
#100+101	-11.7845
▁Filter	-11.7845
▁argon	-11.7845
▁pellet	-11.7845
uscule	-11.7845
▁incurred	-11.7845
▁outcrops	-11.7845
▁parasite	-11.7845
▁refactoring	-11.7845
▁scalable	-11.7845
perturb	-11.7845
provisioned	-11.7845
▁batch	-11.7845
▁mantle	-11.7845
▁Major	-11.7845
▁pertain	-11.7845
▁writing	-11.7845
▁Summar	-11.7845
▁hashtab	-11.7845
#38+39	-11.7845
▁revisions	-11.7845
Standard	-11.7845
▁ZnSe	-11.7845
▁discern	-11.7845
▁Keck	-11.7845
▁lesions	-11.7845
▁redox	-11.7845
hotorespiration	-11.7845
IvKv	-11.7845
approx	-11.7845
▁confus	-11.7845
▁microbes	-11.7845
▁charging	-11.7845
▁0-40	-11.7845
▁terrain	-11.7846
▁screening	-11.7846
▁unpredictabl	-11.7846
▁loam	-11.7846
▁[7,8]	-11.7846
▁(3.4)	-11.7846
▁master	-11.7846
▁hills	-11.7846
▁armature	-11.7846
▁reliably	-11.7846
▁invok	-11.7846
▁Ionospher	-11.7846
▁granul	-11.7846
▁exert	-11.7846
▁oven	-11.7847
#90+91	-11.7847
▁AND	-11.7847
▁omitted	-11.7847
#122+123	-11.7847
#84+85	-11.7847
▁missed	-11.7847
#86+87	-11.7847
#94+95	-11.7848
LSU	-11.7848
▁interfere	-11.7848
▁Estimat	-11.7848
Muller	-11.7848
|-2)	-11.7849
▁fern	-11.7849
#45+46	-11.7849
#54+55	-11.785
▁homozygo	-11.785
#26+27	-11.785
SIRM	-11.785
waking	-11.7851
#91+92	-11.7851
285+286	-11.7853
▁fuel	-11.7855
#195+196	-11.7855
▁crystalliz	-11.7855
Isla	-11.7856
softening	-11.7856
#92+93	-11.7856
#61+62	-11.7856
#0+1	-11.7861
#43+44	-11.7862
tuple	-11.7863
▁Clai	-11.7863
Wang	-11.7865
kPa	-11.7865
#29+30	-11.7866
▁sinu	-11.7868
ncies	-11.7869
#214+215	-11.787
▁cancel	-11.788
novo	-11.7894
Greg	-11.7901
#23+24	-11.7918
Choos	-11.7923
5+7	-11.7942
▁download	-11.7956
predictive	-11.7958
farm	-11.7971
intentionally	-11.8131
synchronization	-11.8131
chille	-11.8165
6+4	-11.8186
conductor	-11.8198
19+20	-11.82
▁reproduc	-11.8314
▁regenerate	-11.8334
,1)∏	-11.8357
referenc	-11.8436
▁allocat	-11.8457
#58+59	-11.8474
▁asymmetric	-11.8508
▁organis	-11.8513
fixing	-11.8576
▁realize	-11.8584
▁Park	-11.8629
▁pernitr	-11.8635
▁weigh	-11.8639
▁noticeabl	-11.8738
#170+171	-11.8893
predict	-11.8921
#99+100	-11.8925
▁specimen	-11.8928
▁fibroblast	-11.8929
tractable	-11.8941
what	-11.8963
calcium	-11.8964
consist	-11.8965
breeding	-11.8965
XRD	-11.8966
correspond	-11.8966
black	-11.8966
proved	-11.8966
Eocene	-11.8966
Cowley	-11.8966
NaFe	-11.8967
tissue	-11.8967
minimum	-11.8967
increase	-11.8968
obtained	-11.8968
density	-11.8968
between	-11.8968
Thus	-11.8968
#209+210	-11.8984
6+5	-11.9002
▁Broad	-11.9011
▁palaeo	-11.9032
▁deploy	-11.9049
▁influenc	-11.9053
impa	-11.9061
▁specifie	-11.9061
166+167	-11.9064
237+238	-11.9067
tropic	-11.9075
vidence	-11.9078
▁mitochondria	-11.9079
urprisingly	-11.9086
election	-11.9086
▁holomorph	-11.9087
hizosphere	-11.9092
atchdog	-11.9092
▁dramatic	-11.9093
preserv	-11.9093
▁displace	-11.9093
▁flut	-11.9094
▁recombina	-11.9094
#67+68	-11.9094
bodies	-11.9095
▁Organi	-11.9095
▁Measur	-11.9095
▁diurnal	-11.9095
#126+127	-11.9095
#192+193	-11.9095
#224+225	-11.9095
euramericana	-11.9095
▁Telescope	-11.9095
▁bathymetr	-11.9095
▁submicrofibr	-11.9095
▁subsemigroup	-11.9095
#161+162	-11.9095
#175+176	-11.9095
#191+192	-11.9095
#199+200	-11.9095
#204+205	-11.9095
#231+232	-11.9095
#271+272	-11.9095
#280+281	-11.9095
#327+328	-11.9095
DGEBA	-11.9095
Eurostat	-11.9095
FLOWER	-11.9095
FoSII	-11.9095
NLSWEs	-11.9095
Nielsen	-11.9095
Nitrogen	-11.9095
Robinson	-11.9095
eterostegin	-11.9095
oblivious	-11.9095
oxidant	-11.9095
ragonite	-11.9095
sheaves	-11.9095
▁(1979)	-11.9095
▁(1995)	-11.9095
▁Accurate	-11.9095
▁Amazonian	-11.9095
▁Bulgaria	-11.9095
▁Burdigalian	-11.9095
▁Coriolis	-11.9095
▁Discussion	-11.9095
▁Halpin	-11.9095
▁Hypocreales	-11.9095
▁Introduction	-11.9095
▁Nichols	-11.9095
▁OXIDASE	-11.9095
▁Parkinson	-11.9095
▁Platform	-11.9095
▁Simultaneous	-11.9095
▁Target	-11.9095
▁Transition	-11.9095
▁Villarrica	-11.9095
▁anoxia	-11.9095
▁anticipate	-11.9095
▁batteries	-11.9095
▁biholomorphisms	-11.9095
▁cholesteatoma	-11.9095
▁clarity	-11.9095
▁concomitant	-11.9095
▁congruen	-11.9095
▁convenience	-11.9095
▁dependencies	-11.9095
▁determinant	-11.9095
▁eigenfunction	-11.9095
▁epilepsy	-11.9095
▁exhaust	-11.9095
▁fertilisation	-11.9095
▁fluctuating	-11.9095
▁fruit	-11.9095
▁gradiometer	-11.9095
▁guidance	-11.9095
▁gymnosperm	-11.9095
▁industry	-11.9095
▁kilotons	-11.9095
▁mucus	-11.9095
▁noteworthy	-11.9095
▁nozzle	-11.9095
▁oxidizing	-11.9095
▁penalty	-11.9095
▁photosynthate	-11.9095
▁precocious	-11.9095
▁rainfall	-11.9095
▁rhyolit	-11.9095
▁science	-11.9095
▁society	-11.9095
▁stimulation	-11.9095
▁traversal	-11.9095
▁trunk	-11.9095
▁tympanomastoid	-11.9095
▁vapour	-11.9095
▁warrant	-11.9095
#136+137	-11.9095
#201+202	-11.9095
#240+241	-11.9095
eclipse	-11.9095
▁Important	-11.9095
▁Japan	-11.9095
▁Method	-11.9095
▁bijective	-11.9095
▁concatenat	-11.9095
▁corrupt	-11.9095
▁deflect	-11.9095
▁echinoderm	-11.9095
▁invertible	-11.9095
▁jogs	-11.9095
▁prompt	-11.9095
▁secret	-11.9095
#139+140	-11.9095
#145+146	-11.9095
#198+199	-11.9095
#211+212	-11.9095
[37,38]	-11.9095
▁LFSR	-11.9095
▁conceiv	-11.9095
▁precomput	-11.9095
▁retreat	-11.9095
#103+104	-11.9095
#127+128	-11.9095
#95+96	-11.9095
otoxin	-11.9095
owski	-11.9095
▁Regard	-11.9095
▁southeast	-11.9095
▁xxxx	-11.9095
#76+77	-11.9095
▁0.06	-11.9095
▁lysates	-11.9095
▁subsonic	-11.9095
#66+67	-11.9095
▁10-15%	-11.9095
▁Graph	-11.9095
▁Morgan	-11.9095
▁[5,6].	-11.9095
▁cytosol	-11.9095
274+275	-11.9095
▁illuminat	-11.9095
▁Carbon	-11.9095
▁convey	-11.9095
▁shoreward	-11.9095
#112+113	-11.9095
▁Bayes	-11.9095
▁saturn	-11.9095
#39+40	-11.9095
#47+48	-11.9095
▁Batch	-11.9095
▁phosphorylat	-11.9095
Arthur	-11.9095
▁Flyby	-11.9095
▁Spain	-11.9095
▁redundan	-11.9095
ProofBy	-11.9095
▁Clinical	-11.9095
▁insecticid	-11.9095
▁deviate	-11.9095
ucker	-11.9095
▁serum	-11.9095
ambipolar	-11.9095
▁kilomet	-11.9095
Anderson	-11.9095
(4.10)	-11.9095
▁afford	-11.9096
cliff	-11.9096
Zeiss	-11.9096
▁personal	-11.9096
▁LGM	-11.9096
▁Power	-11.9096
▁windrows	-11.9096
▁stay	-11.9096
∗)×	-11.9096
▁Natural	-11.9096
bilities	-11.9096
▁FTD	-11.9096
▁Tonell	-11.9096
▁delineate	-11.9096
consuming	-11.9096
Quant	-11.9096
▁animal	-11.9096
▁cyto	-11.9096
▁clarif	-11.9097
Sageman	-11.9097
▁transgressi	-11.9097
▁Great	-11.9097
#88+89	-11.9098
shire	-11.9098
#77+78	-11.9098
▁debate	-11.9099
equest	-11.91
Ragu	-11.91
▁dang	-11.9101
ILF	-11.9102
motor	-11.9102
#93+94	-11.9103
Chip	-11.9107
28+12	-11.9108
▁xyle	-11.9109
parametric	-11.911
▁attenuate	-11.9114
#72+73	-11.9115
UDC	-11.9115
▁minimiz	-11.9119
▁converse	-11.9124
150+151	-11.9129
arnes	-11.9133
▁Differentiati	-11.9136
withstand	-11.9163
▁interpla	-11.922
#22+23	-11.9259
magnetised	-11.9272
1144	-11.9313
relaxation	-11.9527
Parker	-11.9587
8.5%	-11.9647
distinguishable	-11.965
ceanograph	-11.97
Rowe	-11.97
▁astrochronolog	-11.9774
▁outsourc	-11.9821
loading	-12.0094
▁penetrat	-12.0097
residues	-12.0188
iscrete	-12.0203
▁favourabl	-12.0231
▁relat	-12.0247
complete	-12.0264
organic	-12.0267
▁compromise	-12.0283
▁econom	-12.0337
odelling	-12.0347
▁hundred	-12.0356
fault	-12.0368
▁deioni	-12.038
▁rewrit	-12.0385
perspective	-12.0393
phosphate	-12.0394
Oligocene	-12.0394
residual	-12.0394
Sadoré	-12.0394
flora	-12.0394
Another	-12.0395
exact	-12.0395
width	-12.0395
nutrient	-12.0395
depending	-12.0395
otherwise	-12.0395
evolution	-12.0396
(2010)	-12.0396
propose	-12.0396
containing	-12.0396
approximate	-12.0396
▁congest	-12.0421
#247+248	-12.044
▁acquire	-12.049
▁speci	-12.0495
▁isotherm	-12.0504
▁autorotati	-12.0515
riction	-12.0516
▁plausib	-12.0518
ransient	-12.0519
nowledge	-12.0522
ordinate	-12.0522
▁biosynthe	-12.0523
#133+134	-12.0523
▁debug	-12.0524
klnjl	-12.0524
styrene	-12.0524
▁hexagon	-12.0524
#183+184	-12.0524
#245+246	-12.0524
Between	-12.0524
▁Isotop	-12.0524
▁January	-12.0524
▁Rough	-12.0524
▁elicit	-12.0524
#177+178	-12.0524
#243+244	-12.0524
#255+256	-12.0524
Davidson	-12.0524
Double	-12.0524
Ehrenbrink	-12.0524
FENNOSTACK	-12.0524
Giannakopoulo	-12.0524
Vcorot	-12.0524
arrington	-12.0524
glycerol	-12.0524
ltraviolet	-12.0524
onstitutive	-12.0524
pollinated	-12.0524
stretching	-12.0524
▁(1996)	-12.0524
▁Alfvén	-12.0524
▁Analytical	-12.0524
▁Biofilm	-12.0524
▁Cambridge	-12.0524
▁Concentration	-12.0524
▁District	-12.0524
▁DropTail	-12.0524
▁Focus	-12.0524
▁Intuitively	-12.0524
▁Parameter	-12.0524
▁Patients	-12.0524
▁Romania	-12.0524
▁Spangenberg	-12.0524
▁Spitsbergen	-12.0524
▁VAWT	-12.0524
▁VIGS	-12.0524
▁Vector	-12.0524
▁Velocit	-12.0524
▁administ	-12.0524
▁aetiology	-12.0524
▁bracket	-12.0524
▁cadmium	-12.0524
▁calciner	-12.0524
▁capabilities	-12.0524
▁childhood	-12.0524
▁chlorination	-12.0524
▁congenital	-12.0524
▁convolution	-12.0524
▁decoration	-12.0524
▁detrimental	-12.0524
▁disjoint	-12.0524
▁drug	-12.0524
▁earliest	-12.0524
▁encouraging	-12.0524
▁envelope	-12.0524
▁epoxies	-12.0524
▁exclusi	-12.0524
▁familiar	-12.0524
▁feasibility	-12.0524
▁fertility	-12.0524
▁glovebox	-12.0524
▁glucose	-12.0524
▁gravitational	-12.0524
▁hallucinations	-12.0524
▁halocline	-12.0524
▁handshake	-12.0524
▁histories	-12.0524
▁magnetosomal	-12.0524
▁manipulate	-12.0524
▁memories	-12.0524
▁mesoderm	-12.0524
▁moieties	-12.0524
▁neighbor	-12.0524
▁obscure	-12.0524
▁occultation	-12.0524
▁orthologue	-12.0524
▁pathogenesis	-12.0524
▁phytoplankton	-12.0524
▁polymorph	-12.0524
▁portfolios	-12.0524
▁praemarginata	-12.0524
▁prognos	-12.0524
▁radiata	-12.0524
▁sandpaper	-12.0524
▁satisfaction	-12.0524
▁scaffold	-12.0524
▁surjectiv	-12.0524
▁traverse	-12.0524
▁unconform	-12.0524
▁undetectable	-12.0524
▁wavenumber	-12.0524
#268+269	-12.0524
#325+326	-12.0524
Complet	-12.0524
debilitati	-12.0524
hotspot	-12.0524
hylogenetic	-12.0524
hystere	-12.0524
▁Agricultur	-12.0524
▁Bloom	-12.0524
▁bandgap	-12.0524
▁biopsy	-12.0524
▁chloroplast	-12.0524
▁eastward	-12.0524
▁germination	-12.0524
▁impede	-12.0524
▁lipid	-12.0524
▁pleiotrop	-12.0524
▁province	-12.0524
▁pumice	-12.0524
▁schedule	-12.0524
▁seizure	-12.0524
▁strigolactone	-12.0524
▁turbidit	-12.0524
▁unrealistic	-12.0524
#158+159	-12.0524
#173+174	-12.0524
#225+226	-12.0524
#260+261	-12.0524
McCullo	-12.0524
carbide	-12.0524
▁Apennine	-12.0524
▁Calculat	-12.0524
▁Integrat	-12.0524
▁Investiga	-12.0524
▁Predict	-12.0524
▁[39,40]	-12.0524
▁declare	-12.0524
▁diminish	-12.0524
▁equipment	-12.0524
▁myceli	-12.0524
▁outliers	-12.0524
▁phenylalan	-12.0524
▁recharge	-12.0524
▁tangenc	-12.0524
#98+99	-12.0524
Metastability	-12.0524
VPDB	-12.0524
#121+122	-12.0524
ometry	-12.0524
ventral	-12.0524
▁Caulle	-12.0524
▁Ireland	-12.0524
▁biomarker	-12.0524
▁stiff	-12.0524
▁chord	-12.0524
▁repository	-12.0524
▁Tephr	-12.0524
▁convex	-12.0524
#120+121	-12.0524
291+292	-12.0524
lagging	-12.0524
▁hamper	-12.0524
LATE	-12.0524
PAWS	-12.0524
0(-)→	-12.0524
Afeasibleopt	-12.0524
acoustic	-12.0524
▁price	-12.0524
▁tackle	-12.0524
▁Bunce	-12.0524
|×|	-12.0524
▁Huber	-12.0524
▁Phase	-12.0524
ocrin	-12.0524
multiplicative	-12.0524
▁Equation	-12.0524
#309+310	-12.0524
▁serial	-12.0524
▁ultrasonic	-12.0524
▁mimic	-12.0524
▁symbio	-12.0524
Nicoll	-12.0524
equinox	-12.0524
▁Lista	-12.0524
#15+16	-12.0525
▁nanopor	-12.0525
▁thirt	-12.0525
Storage	-12.0525
ountain	-12.0525
▁citri	-12.0525
▁triple	-12.0525
▁Garret	-12.0525
▁cambi	-12.0525
▁overlai	-12.0526
FSOM	-12.0526
Attack	-12.0527
▁burn	-12.0527
#278+279	-12.0529
▁Lewi	-12.053
▁bioclast	-12.0531
▁Extend	-12.0535
#50+51	-12.0535
250+251	-12.0537
▁irrespective	-12.054
1)2-(	-12.0542
#62+63	-12.0543
CODB	-12.0556
#14+15	-12.0569
propyl	-12.0581
Nagy	-12.0581
▁disabl	-12.0588
▁Affi	-12.0668
▁Replica	-12.0702
cleav	-12.0717
nitrate	-12.0951
▁interbedd	-12.1151
interact	-12.117
#140+141	-12.1186
alternating	-12.1242
▁phospho	-12.126
▁palynolog	-12.1279
▁affinit	-12.1448
▁encourage	-12.1503
ispersion	-12.1514
ougher	-12.1714
Strat	-12.1857
▁(1993	-12.1874
environment	-12.1976
current	-12.1994
▁necessit	-12.2024
▁author	-12.2026
▁Supplement	-12.2047
▁interrelate	-12.2054
pressure	-12.2056
Previous	-12.2059
ANOVA	-12.206
dominance	-12.206
received	-12.206
ADDel	-12.2061
Antarctic	-12.2061
cancellative	-12.2061
Under	-12.2061
length	-12.2061
imaging	-12.2061
Analysis	-12.2061
occurring	-12.2062
(2012)	-12.2062
fibres	-12.2062
High	-12.2062
