<unk>	0
<s>	0
</s>	0
▁the	-3.27397
,	-3.37726
.	-3.56783
▁of	-3.58077
s	-3.81969
▁and	-3.88072
▁in	-4.01922
▁to	-4.23201
▁a	-4.4341
▁(	-4.48977
-	-4.51849
▁that	-4.79457
▁is	-4.88189
▁	-5.08323
▁for	-5.18781
▁with	-5.32103
▁are	-5.35058
)	-5.41667
▁be	-5.49387
▁as	-5.50519
▁by	-5.50869
ing	-5.56446
▁The	-5.6116
e	-5.62316
ed	-5.67556
▁on	-5.70185
▁from	-5.71544
▁al	-5.72966
▁et	-5.7575
▁have	-5.84576
▁this	-5.86319
d	-5.90424
▁not	-5.97905
▁or	-6.01597
▁an	-6.03168
ly	-6.03346
▁In	-6.04744
▁species	-6.05341
▁we	-6.06149
a	-6.08789
▁which	-6.10439
▁at	-6.14359
▁A	-6.16814
.,	-6.18014
▁was	-6.1882
g	-6.19437
▁between	-6.2131
▁S	-6.25374
al	-6.26611
▁been	-6.30821
▁these	-6.31788
i	-6.35969
▁were	-6.36894
▁can	-6.38358
▁may	-6.38369
▁also	-6.38547
▁gene	-6.38817
▁has	-6.39928
▁genes	-6.39998
1	-6.44071
2	-6.46398
▁it	-6.46569
▁C	-6.46887
▁P	-6.47557
er	-6.48663
▁other	-6.50623
▁their	-6.50898
in	-6.53344
▁more	-6.56488
or	-6.57121
).	-6.57702
A	-6.58952
▁This	-6.59401
▁than	-6.6073
▁two	-6.62409
▁data	-6.63462
C	-6.6369
b	-6.63847
▁different	-6.63994
t	-6.65683
y	-6.67217
▁but	-6.67581
n	-6.68437
S	-6.70504
▁study	-6.70649
p	-6.70691
;	-6.71266
▁We	-6.71326
▁our	-6.72237
B	-6.72342
▁model	-6.73367
c	-6.7704
▁such	-6.79169
▁during	-6.81933
),	-6.83837
/	-6.8404
▁T	-6.84421
M	-6.85699
P	-6.86134
es	-6.86998
▁both	-6.87227
o	-6.87367
▁D	-6.88289
▁M	-6.88974
▁found	-6.89493
▁all	-6.89699
L	-6.90963
▁only	-6.92322
us	-6.93089
D	-6.93708
G	-6.95087
H	-6.96348
▁However	-6.9723
r	-6.97332
▁one	-6.97718
▁studies	-6.9785
▁H	-6.98897
F	-6.99233
▁results	-6.99927
▁L	-7.01055
▁expression	-7.01377
N	-7.02034
▁high	-7.02784
▁protein	-7.03373
▁F	-7.03598
▁B	-7.04368
ation	-7.05526
:	-7.05996
▁N	-7.06047
m	-7.07732
▁R	-7.08446
ic	-7.08958
▁could	-7.09075
▁within	-7.09459
R	-7.09467
▁E	-7.1011
▁time	-7.10752
▁most	-7.11007
▁genetic	-7.12042
4	-7.12278
0	-7.14135
▁G	-7.15561
▁s	-7.16011
▁cell	-7.1629
▁analysis	-7.16711
▁used	-7.16864
▁p	-7.17009
T	-7.1754
3	-7.18114
▁its	-7.18354
▁number	-7.19678
f	-7.2004
u	-7.20253
▁some	-7.20974
▁when	-7.20978
E	-7.21126
▁into	-7.2197
l	-7.23349
▁evolution	-7.23538
K	-7.23937
▁cells	-7.25312
▁re	-7.26566
▁selection	-7.26608
▁present	-7.2676
▁would	-7.26824
▁well	-7.28138
an	-7.28218
▁proteins	-7.28372
▁[	-7.29494
▁populations	-7.31322
▁2	-7.31445
▁observed	-7.31586
▁they	-7.32628
en	-7.33238
▁1	-7.33334
▁rate	-7.33572
5	-7.34758
on	-7.35846
'	-7.36106
▁network	-7.36223
re	-7.36404
▁system	-7.36517
▁I	-7.38252
k	-7.38723
▁among	-7.39095
▁non	-7.39469
▁co	-7.39486
▁using	-7.39487
▁response	-7.39701
▁changes	-7.40045
▁similar	-7.40298
▁important	-7.40739
▁It	-7.42678
ur	-7.42924
▁no	-7.43865
I	-7.44693
ion	-7.45946
▁evolutionary	-7.45949
▁O	-7.46001
el	-7.46266
▁each	-7.46393
▁population	-7.46652
▁3	-7.46671
x	-7.47143
▁function	-7.47182
▁under	-7.47325
▁large	-7.47484
▁levels	-7.48263
V	-7.48456
▁For	-7.48505
▁size	-7.49338
O	-7.49995
il	-7.50838
6	-7.50989
▁genome	-7.51125
▁These	-7.51183
▁h	-7.51206
9	-7.51255
▁there	-7.51469
ia	-7.5194
h	-7.52975
▁three	-7.52985
it	-7.53369
▁m	-7.53395
▁body	-7.53559
▁low	-7.53674
▁higher	-7.53936
▁f	-7.54103
▁same	-7.5423
▁based	-7.54361
is	-7.54905
▁Our	-7.55059
▁5	-7.55128
▁because	-7.55541
▁differences	-7.55624
▁shown	-7.55965
▁K	-7.56509
▁many	-7.56579
at	-7.57146
▁role	-7.57608
ta	-7.57954
▁c	-7.58267
▁g	-7.5839
▁likely	-7.58533
▁over	-7.5885
▁might	-7.59253
▁phylogenetic	-7.59436
▁will	-7.59545
to	-7.59984
▁activity	-7.6017
▁increase	-7.6036
th	-7.6055
▁through	-7.60754
▁metabolic	-7.61184
–	-7.61648
▁variation	-7.61714
▁first	-7.62108
ity	-7.62425
ol	-7.62435
▁de	-7.63255
▁sequence	-7.63576
▁several	-7.63851
ar	-7.63928
▁group	-7.64276
▁where	-7.64375
8	-7.64376
id	-7.64395
le	-7.65764
▁show	-7.65928
▁effects	-7.66381
▁level	-7.66609
▁conditions	-7.66839
▁models	-7.67026
Fig	-7.67466
▁single	-7.68399
▁those	-7.6866
▁known	-7.68998
um	-7.69183
▁sequences	-7.69852
▁4	-7.70182
▁evidence	-7.70359
st	-7.70565
▁example	-7.70854
▁due	-7.71191
▁complex	-7.71283
▁muscle	-7.71554
W	-7.7162
▁suggest	-7.72064
▁associated	-7.72082
▁result	-7.72594
▁effect	-7.72915
▁un	-7.73325
▁structure	-7.74949
▁molecular	-7.75009
▁increased	-7.75626
▁do	-7.76071
▁possible	-7.76376
▁significant	-7.76396
▁small	-7.76897
▁related	-7.77304
▁use	-7.77626
et	-7.77715
▁fish	-7.78022
’	-7.78259
▁range	-7.78433
▁V	-7.79062
▁host	-7.79175
▁functional	-7.79299
ent	-7.79586
▁e	-7.79671
▁while	-7.79702
▁after	-7.79883
▁patterns	-7.80254
▁rates	-7.81383
▁including	-7.81428
▁new	-7.81513
▁if	-7.81649
▁growth	-7.82
▁work	-7.82599
ra	-7.82664
▁specific	-7.82758
▁further	-7.83068
▁information	-7.83263
▁l	-7.84346
ry	-7.84508
▁identified	-7.84538
▁pattern	-7.84784
▁t	-7.85176
▁approach	-7.86178
li	-7.8649
as	-7.86597
▁across	-7.86797
ma	-7.87209
▁potential	-7.87333
▁d	-7.87841
▁compared	-7.88082
▁very	-7.8817
▁human	-7.88471
ate	-7.88543
▁sub	-7.88567
ment	-7.88628
▁control	-7.88789
▁long	-7.8944
▁should	-7.89508
▁6	-7.90114
▁development	-7.90168
▁so	-7.904
▁analyses	-7.90427
▁thus	-7.90948
ine	-7.91241
▁lower	-7.91645
ally	-7.91829
▁mechanisms	-7.92061
▁any	-7.92098
▁divergence	-7.9235
▁provide	-7.92554
▁set	-7.93428
ro	-7.93612
▁contrast	-7.93665
▁As	-7.94227
▁interactions	-7.94484
v	-7.94728
▁even	-7.94946
▁distribution	-7.95133
ri	-7.95172
▁b	-7.95197
▁hypothesis	-7.95326
te	-7.95665
ive	-7.95767
▁lineages	-7.9589
▁addition	-7.95954
ated	-7.95963
▁common	-7.96399
▁multiple	-7.96457
ch	-7.96729
▁networks	-7.96776
specific	-7.96782
▁method	-7.96925
▁water	-7.97346
▁Although	-7.97374
▁relative	-7.97651
▁methods	-7.97861
▁reported	-7.97977
▁i	-7.98025
▁To	-7.98094
▁Thus	-7.98213
▁region	-7.98416
▁involved	-7.98759
▁showed	-7.98806
▁19	-7.98864
▁pathway	-7.98893
▁diversity	-7.98916
lo	-7.99086
▁less	-7.99116
▁systems	-7.99374
▁whether	-7.99377
ter	-7.99808
▁groups	-7.99827
able	-7.99963
▁biological	-8.00034
7	-8.00103
▁suggests	-8.00555
▁how	-8.00902
▁support	-8.01225
▁regions	-8.01287
co	-8.01385
and	-8.01653
▁case	-8.02176
▁change	-8.02507
▁process	-8.02876
▁highly	-8.0317
▁DNA	-8.03224
ase	-8.03536
▁factors	-8.03571
ant	-8.0365
▁temperature	-8.03873
U	-8.04218
▁animals	-8.04443
▁about	-8.04565
▁experimental	-8.04601
▁recent	-8.05083
Figure	-8.05229
ig	-8.05413
▁previous	-8.05756
▁family	-8.05933
▁values	-8.06205
▁processes	-8.06271
▁form	-8.06519
▁energy	-8.07581
▁W	-8.08298
▁flow	-8.08355
ae	-8.08408
▁stress	-8.08544
▁individual	-8.08997
▁had	-8.09465
▁however	-8.0976
tic	-8.09972
▁therefore	-8.10104
▁did	-8.10641
▁sites	-8.10799
▁pathways	-8.10845
▁presence	-8.10996
▁U	-8.11375
am	-8.1263
▁production	-8.12856
▁order	-8.13022
▁major	-8.13316
▁here	-8.13504
▁out	-8.13654
▁previously	-8.13775
ous	-8.14065
▁mass	-8.14133
z	-8.1468
▁acid	-8.14906
▁either	-8.15314
▁significantly	-8.15343
ul	-8.16157
▁7	-8.16172
im	-8.16715
▁per	-8.16972
ad	-8.17442
+	-8.17601
ot	-8.17784
▁mechanism	-8.17852
▁test	-8.17958
▁does	-8.18082
▁file	-8.18515
ating	-8.19464
▁frequency	-8.19656
▁mitochondrial	-8.20016
see	-8.20386
X	-8.20434
▁individuals	-8.20493
▁experiments	-8.20543
▁consistent	-8.20847
om	-8.20853
ial	-8.21055
▁male	-8.21326
▁regulation	-8.21462
▁positive	-8.21511
os	-8.21642
▁lineage	-8.21663
▁pre	-8.21682
▁general	-8.21815
▁state	-8.21942
▁particular	-8.22326
▁taxa	-8.2254
▁events	-8.22635
▁males	-8.22768
▁10	-8.23126
ill	-8.23449
▁available	-8.23639
▁suggested	-8.23653
–1	-8.24099
▁four	-8.24561
▁tree	-8.24685
▁females	-8.25
▁regulatory	-8.2504
▁proposed	-8.25238
▁con	-8.25248
▁pro	-8.25458
▁relatively	-8.25542
▁n	-8.2565
▁early	-8.25778
▁An	-8.25871
▁up	-8.26219
▁=	-8.26671
▁environmental	-8.26677
▁least	-8.2722
▁domain	-8.27224
▁length	-8.27305
de	-8.27383
▁strong	-8.27413
est	-8.27419
▁light	-8.27471
▁functions	-8.27572
▁much	-8.2816
▁genomes	-8.28224
▁often	-8.2841
ut	-8.28544
▁reduced	-8.28617
▁performance	-8.28871
mo	-8.29092
[	-8.29354
ci	-8.29509
▁conserved	-8.29893
▁relationship	-8.30003
▁type	-8.30488
▁distinct	-8.30875
▁force	-8.30946
▁indicate	-8.30961
▁inter	-8.31217
the	-8.31288
uc	-8.31581
▁described	-8.31802
▁given	-8.31927
▁amino	-8.31974
=	-8.32173
▁signal	-8.32194
▁binding	-8.32366
based	-8.32415
▁8	-8.32468
▁Therefore	-8.32617
▁short	-8.32995
▁parameters	-8.331
▁expected	-8.33433
▁although	-8.33455
like	-8.33555
▁loss	-8.3401
▁environment	-8.34093
(	-8.34112
Y	-8.34161
▁additional	-8.34226
▁natural	-8.34539
▁clade	-8.34603
▁interaction	-8.34859
man	-8.34941
▁relationships	-8.34952
w	-8.3573
un	-8.35996
▁female	-8.3619
ian	-8.36296
▁behavior	-8.36765
oc	-8.37124
▁greater	-8.37327
▁responses	-8.37469
▁whereas	-8.37523
▁expressed	-8.37537
son	-8.37612
na	-8.37821
▁suggesting	-8.37835
ox	-8.37938
▁then	-8.38299
]	-8.38345
▁organisms	-8.38398
▁plant	-8.38452
ir	-8.3846
▁types	-8.38477
age	-8.38538
▁ability	-8.3862
▁larger	-8.38719
▁being	-8.39089
▁traits	-8.3917
▁Figure	-8.39413
▁r	-8.3961
ization	-8.39649
idae	-8.39786
▁signaling	-8.398
▁J	-8.39942
▁Furthermore	-8.4117
ce	-8.41218
▁tissue	-8.41271
▁transcription	-8.41306
▁mammals	-8.41576
▁lack	-8.41846
la	-8.41937
ne	-8.41973
▁cellular	-8.4207
▁difference	-8.42332
▁fact	-8.42411
▁considered	-8.42875
▁novel	-8.42964
▁morphological	-8.4318
▁position	-8.4325
ell	-8.43253
▁life	-8.43539
▁part	-8.43564
▁rather	-8.4361
▁food	-8.43801
▁origin	-8.43817
▁few	-8.44094
▁metabolism	-8.44154
me	-8.44255
-1	-8.44564
"	-8.44722
▁cycle	-8.45008
▁properties	-8.45187
▁explain	-8.45219
▁surface	-8.4554
▁physiological	-8.45549
▁various	-8.45854
▁factor	-8.45916
▁current	-8.45992
▁predicted	-8.46323
10	-8.46394
▁Ca	-8.46473
▁still	-8.46954
▁demonstrated	-8.46976
▁limited	-8.47136
▁birds	-8.47179
yl	-8.47331
▁sp	-8.47351
ub	-8.48015
▁activation	-8.48191
▁occur	-8.48239
▁history	-8.48446
ke	-8.48554
▁understanding	-8.48631
ling	-8.48684
▁mutations	-8.4869
▁local	-8.48874
ized	-8.4897
all	-8.48981
▁via	-8.49127
▁reproductive	-8.49223
vi	-8.49242
1,	-8.49501
▁2007)	-8.49586
em	-8.49589
▁nuclear	-8.49784
▁di	-8.50008
pt	-8.50057
▁able	-8.50904
ting	-8.51173
▁dynamics	-8.51297
▁ancestral	-8.51299
▁them	-8.51312
ers	-8.51396
▁‘	-8.51669
▁fitness	-8.52163
▁visual	-8.52178
▁multi	-8.52261
▁genomic	-8.52369
▁post	-8.52422
▁"	-8.52613
ct	-8.53089
▁since	-8.53578
▁target	-8.53936
con	-8.54055
ca	-8.54197
▁required	-8.54241
▁respectively	-8.54445
▁point	-8.54467
▁–	-8.54471
up	-8.54672
▁revealed	-8.54717
po	-8.5477
▁phase	-8.5487
ha	-8.55095
▁differentiation	-8.55188
▁Here	-8.55192
▁Re	-8.55332
▁second	-8.55475
▁identify	-8.5548
],	-8.55525
op	-8.5574
▁studied	-8.55937
▁above	-8.55971
ho	-8.56009
▁total	-8.56218
▁without	-8.56597
▁X	-8.56682
▁along	-8.56977
▁cancer	-8.57067
▁site	-8.57141
▁Z	-8.57183
▁Ma	-8.57329
▁animal	-8.57607
▁components	-8.57685
▁behaviour	-8.57782
se	-8.57945
▁plants	-8.5799
▁represent	-8.58096
▁adaptive	-8.58174
hi	-8.58188
▁membrane	-8.5824
▁features	-8.58355
▁flight	-8.58373
▁receptor	-8.58413
pe	-8.5853
▁recently	-8.58578
ni	-8.5894
▁prey	-8.58986
ap	-8.59009
type	-8.59012
▁formation	-8.59071
▁obtained	-8.59595
▁w	-8.60179
▁k	-8.60219
q	-8.60382
▁measured	-8.604
▁Y	-8.60402
J	-8.6045
ata	-8.60537
▁RNA	-8.60616
▁determine	-8.60631
tin	-8.60797
ac	-8.60932
▁influence	-8.60993
ness	-8.61016
▁2006)	-8.61273
▁increases	-8.6135
▁play	-8.61398
▁context	-8.61489
▁increasing	-8.61544
▁period	-8.61654
▁v	-8.61873
▁loci	-8.61892
ary	-8.61961
▁Moreover	-8.62096
▁mean	-8.62408
▁While	-8.62769
ies	-8.62889
▁active	-8.62927
ton	-8.63006
▁end	-8.63039
▁probably	-8.63249
▁alternative	-8.63382
ip	-8.63383
▁detected	-8.63396
▁oxygen	-8.63465
mer	-8.63498
ea	-8.63723
▁feeding	-8.63947
one	-8.63979
▁provides	-8.63995
▁key	-8.64147
▁insects	-8.6427
sh	-8.64323
▁distance	-8.64443
▁findings	-8.64995
ose	-8.65046
nt	-8.65125
▁following	-8.65243
▁see	-8.65288
▁against	-8.65357
▁immune	-8.65749
▁speed	-8.65837
ome	-8.65838
no	-8.65925
▁parameter	-8.66234
▁9	-8.6628
▁o	-8.66403
▁negative	-8.6647
▁occurred	-8.66504
▁duplication	-8.66719
▁sex	-8.66793
▁disease	-8.66837
▁clear	-8.66953
▁If	-8.66994
ge	-8.67243
▁cannot	-8.67471
▁cases	-8.675
▁reduction	-8.67573
▁field	-8.67626
▁resulting	-8.67642
▁direct	-8.67807
▁Additional	-8.6784
▁evolved	-8.67879
▁lead	-8.67957
▁account	-8.68094
▁families	-8.68251
ex	-8.68261
▁adaptation	-8.68322
▁independent	-8.68581
▁closely	-8.689
▁genus	-8.68917
▁affect	-8.68935
°	-8.68943
▁appears	-8.69053
▁decrease	-8.69127
▁ex	-8.69264
ob	-8.69277
ii	-8.69492
ance	-8.69779
▁appear	-8.69832
ver	-8.69993
▁before	-8.69994
▁central	-8.70296
▁bi	-8.7047
▁produce	-8.70676
▁area	-8.70739
▁directly	-8.70755
▁20	-8.70764
min	-8.70854
▁mating	-8.70864
▁elements	-8.71256
▁trans	-8.71257
ab	-8.71326
▁power	-8.71378
▁mRNA	-8.71445
▁sexual	-8.71532
▁complete	-8.71545
line	-8.71611
▁muscles	-8.71797
▁better	-8.71876
▁degree	-8.72142
▁One	-8.72182
▁years	-8.72258
▁correlation	-8.72261
▁diversification	-8.72274
ist	-8.72291
▁selective	-8.72316
▁supported	-8.72452
▁sperm	-8.72452
ron	-8.72535
▁find	-8.72703
▁shows	-8.72901
▁value	-8.72904
ner	-8.7296
▁whole	-8.73146
ec	-8.73334
▁age	-8.73533
▁resistance	-8.73646
▁must	-8.73755
▁essential	-8.73772
▁sensitivity	-8.73795
▁direction	-8.73836
dependent	-8.74082
tro	-8.741
▁brain	-8.74246
▁mutation	-8.74299
▁prior	-8.74364
▁derived	-8.74525
▁reaction	-8.74707
▁phylogeny	-8.74718
▁generally	-8.7479
▁main	-8.74804
▁members	-8.74833
▁structures	-8.75089
▁2)	-8.75099
▁wild	-8.75297
▁maximum	-8.75428
▁ancestor	-8.75465
▁another	-8.75534
▁pressure	-8.75639
▁remains	-8.75716
▁swimming	-8.75833
lic	-8.75969
ence	-8.75986
▁absence	-8.76199
▁include	-8.76324
▁impact	-8.76337
▁expansion	-8.7635
▁concentration	-8.76368
▁St	-8.7641
▁comparison	-8.76486
▁reactions	-8.76616
ted	-8.76856
▁average	-8.76882
▁particularly	-8.77257
▁approaches	-8.77293
tri	-8.77351
0%	-8.77377
▁st	-8.77478
▁produced	-8.77534
▁times	-8.77699
▁strongly	-8.77715
▁There	-8.7778
▁transport	-8.78031
di	-8.78062
▁far	-8.78119
ep	-8.78311
▁signals	-8.78374
▁adult	-8.78664
▁cross	-8.78793
ev	-8.78843
▁At	-8.78927
tion	-8.78985
▁knowledge	-8.79093
ang	-8.79248
▁line	-8.79379
va	-8.7941
▁ecological	-8.79537
▁tri	-8.79626
▁hand	-8.7974
▁exposure	-8.79775
▁developed	-8.79911
ide	-8.7996
▁tissues	-8.79998
▁source	-8.80073
▁importance	-8.80228
▁together	-8.80561
▁close	-8.8058
2,	-8.8084
▁transfer	-8.80997
▁capacity	-8.81115
▁structural	-8.8135
▁blood	-8.81573
ph	-8.81597
▁domains	-8.81675
ard	-8.81767
▁phenotypic	-8.81893
for	-8.81993
▁“	-8.82079
▁spatial	-8.82112
▁need	-8.8224
▁unique	-8.82273
▁2004)	-8.82284
▁rapid	-8.82536
▁mammalian	-8.82547
▁applied	-8.82715
▁strains	-8.82756
▁tested	-8.82784
”	-8.82836
io	-8.82963
ti	-8.83025
mb	-8.83048
▁Drosophila	-8.83322
▁shape	-8.83415
▁research	-8.83481
ler	-8.83587
▁enzymes	-8.83679
▁exhibit	-8.83763
▁clades	-8.83785
▁nest	-8.84442
▁initial	-8.84637
ue	-8.8469
▁allow	-8.84925
▁simple	-8.85102
▁min	-8.85333
be	-8.85475
▁especially	-8.85587
▁like	-8.85606
▁investigated	-8.85681
▁estimated	-8.85695
▁receptors	-8.85761
▁indicates	-8.85995
▁morphology	-8.86143
au	-8.86193
per	-8.86242
Table	-8.86352
▁treatment	-8.86396
AT	-8.86484
▁overall	-8.86486
▁Na	-8.86948
▁concentrations	-8.87168
▁seems	-8.8732
▁constant	-8.87336
▁reflect	-8.87463
ical	-8.87593
▁[4	-8.87747
scale	-8.88064
iv	-8.88188
▁performed	-8.88194
▁trees	-8.88227
▁vertebrates	-8.88251
▁bio	-8.88298
▁content	-8.88334
▁smaller	-8.8834
▁help	-8.88421
ga	-8.88491
ve	-8.88619
ty	-8.88633
▁environments	-8.88687
▁wing	-8.88695
▁way	-8.88703
▁amount	-8.88972
▁sea	-8.89016
▁condition	-8.89017
▁generated	-8.89203
▁insect	-8.89241
▁estimates	-8.89252
▁dispersal	-8.89362
▁larvae	-8.89566
▁presented	-8.89616
▁ratio	-8.89713
▁us	-8.89791
▁yet	-8.89829
▁forces	-8.90055
▁underlying	-8.90058
▁markers	-8.90151
art	-8.90208
ick	-8.90216
red	-8.90291
▁examined	-8.90375
▁Such	-8.90491
▁dis	-8.90514
▁leading	-8.90575
end	-8.90877
▁space	-8.90997
▁towards	-8.91037
ids	-8.91075
▁12	-8.91115
ru	-8.91246
off	-8.91533
▁neurons	-8.9154
▁little	-8.91695
▁free	-8.91827
▁future	-8.91915
▁developmental	-8.91917
▁sets	-8.9208
▁biology	-8.92101
▁flux	-8.92271
ack	-8.92307
▁occurs	-8.92389
lin	-8.92494
▁By	-8.92511
▁sister	-8.92715
▁micro	-8.92833
phy	-8.92895
▁temperatures	-8.92921
ud	-8.92949
▁glucose	-8.92958
▁Fig	-8.93047
▁2008).	-8.93063
ten	-8.93088
▁possibility	-8.93093
ts	-8.93117
▁survival	-8.93228
▁terms	-8.93264
▁substrate	-8.93271
▁contribute	-8.93271
▁sampling	-8.93385
▁step	-8.93421
tr	-8.93504
ast	-8.93521
▁potentially	-8.93538
ow	-8.93552
▁poly	-8.93627
▁necessary	-8.93654
▁mice	-8.93754
he	-8.93854
▁similarity	-8.93926
▁cluster	-8.9397
▁enzyme	-8.93971
ak	-8.94127
▁down	-8.94182
▁speciation	-8.94249
▁vertebrate	-8.94365
12	-8.94374
▁view	-8.94405
▁Table	-8.94416
fer	-8.94569
▁lateral	-8.94734
Z	-8.94739
ability	-8.95112
▁contact	-8.95127
▁difficult	-8.95281
▁computational	-8.95318
▁2003)	-8.95556
ins	-8.95574
▁Finally	-8.95768
].	-8.9591
▁samples	-8.95925
ative	-8.96366
▁characterized	-8.96381
ite	-8.9661
▁Ch	-8.96716
▁correlated	-8.96738
land	-8.96828
▁certain	-8.96846
ium	-8.96849
ba	-8.96858
▁observations	-8.97084
▁provided	-8.97162
▁On	-8.97193
▁determined	-8.97239
▁corresponding	-8.97293
oid	-8.97304
▁stage	-8.97436
▁longer	-8.97525
▁scale	-8.97606
▁habitat	-8.97802
▁effective	-8.97862
CA	-8.97953
▁global	-8.97988
▁Co	-8.98021
▁predict	-8.98041
▁class	-8.98088
act	-8.98106
ula	-8.98139
▁head	-8.98286
▁differ	-8.983
▁duration	-8.98351
mat	-8.9842
▁five	-8.98428
▁composition	-8.98469
▁contain	-8.98618
▁caused	-8.99109
▁diverse	-8.99292
ps	-8.99409
▁bacteria	-8.99452
king	-8.99512
▁variable	-8.99531
form	-8.99548
term	-8.99551
▁combination	-8.99947
▁When	-8.99957
▁finding	-9.00091
ure	-9.00193
rs	-9.00232
▁explanation	-9.00326
▁phenotype	-9.00334
rm	-9.00348
▁II	-9.00386
▁drug	-9.00389
let	-9.00437
▁experiment	-9.00577
▁Le	-9.00823
ize	-9.00842
▁wide	-9.01044
do	-9.01221
▁chromosome	-9.01306
cor	-9.01498
▁bacterial	-9.01625
gene	-9.01646
▁design	-9.0165
▁cost	-9.01655
▁primary	-9.01662
▁hybrid	-9.01782
Additional	-9.01847
▁fin	-9.01878
▁normal	-9.01894
les	-9.02012
▁seen	-9.02018
tor	-9.02108
▁mtDNA	-9.02147
▁18	-9.02253
▁Because	-9.02269
▁included	-9.02425
▁allows	-9.02633
par	-9.0276
lu	-9.02777
▁cause	-9.02856
▁organism	-9.02971
bi	-9.03163
▁around	-9.0318
α	-9.03207
▁detect	-9.03276
▁turn	-9.03277
▁input	-9.03328
▁recombination	-9.03328
▁yeast	-9.03402
▁Indeed	-9.03479
▁demonstrate	-9.03488
▁chemical	-9.03499
eg	-9.03561
▁investigate	-9.03627
gen	-9.03631
▁instance	-9.0368
related	-9.03773
▁indicating	-9.03875
▁generate	-9.04024
▁best	-9.04026
▁approximately	-9.0404
▁transcriptional	-9.04281
gr	-9.04307
ix	-9.04494
▁make	-9.04507
▁strain	-9.04525
▁peak	-9.0456
▁critical	-9.04625
▁nucleotide	-9.04686
▁lines	-9.04785
▁fast	-9.04836
–2	-9.0489
▁De	-9.04951
▁become	-9.04995
out	-9.05009
▁β	-9.05014
▁nature	-9.0533
▁located	-9.05485
▁unknown	-9.05593
▁mouse	-9.05614
▁indicated	-9.0565
▁en	-9.05695
▁cold	-9.05847
▁stages	-9.05893
▁CO	-9.06102
▁problem	-9.06132
cul	-9.06288
▁alleles	-9.06373
▁what	-9.06397
▁putative	-9.064
ran	-9.06446
▁intron	-9.06501
▁molecules	-9.06528
ini	-9.06554
▁question	-9.06602
▁affected	-9.06614
▁estimate	-9.06794
11	-9.06829
▁limb	-9.06884
▁locus	-9.07041
▁strategy	-9.07192
▁frequencies	-9.07321
▁2009).	-9.07451
ile	-9.07489
▁habitats	-9.07601
▁component	-9.07695
her	-9.07711
▁useful	-9.07717
▁red	-9.0776
pi	-9.07782
der	-9.07813
▁infection	-9.07851
▁measurements	-9.07922
▁selected	-9.07963
▁basis	-9.08
▁interesting	-9.08009
ser	-9.08082
▁paper	-9.08111
▁pairs	-9.08195
▁differential	-9.08203
tra	-9.0838
▁Interestingly	-9.0841
▁throughout	-9.08566
▁generation	-9.08591
▁hyper	-9.08624
▁search	-9.0872
▁last	-9.08759
▁isolation	-9.08883
▁humans	-9.0895
20	-9.08971
ov	-9.09027
▁association	-9.09039
▁genera	-9.09052
▁upon	-9.09055
▁interest	-9.09107
▁transition	-9.09182
▁areas	-9.09201
▁thermal	-9.09205
▁respond	-9.09221
▁relevant	-9.093
▁targets	-9.09305
▁predictions	-9.09313
ding	-9.09371
▁migration	-9.09441
▁density	-9.09511
▁responsible	-9.09563
▁conservation	-9.0959
▁reproduction	-9.0959
▁social	-9.09591
▁algorithm	-9.09631
▁identification	-9.09669
▁remain	-9.09754
▁clusters	-9.09762
ka	-9.09819
Q	-9.10062
▁prediction	-9.10153
▁proportion	-9.10167
cer	-9.10374
protein	-9.10508
▁marine	-9.10559
▁maintain	-9.10618
▁α	-9.10674
ism	-9.10676
▁made	-9.1075
▁event	-9.10752
▁variability	-9.1081
▁me	-9.10852
▁act	-9.10916
▁heart	-9.11116
str	-9.11145
▁movement	-9.11178
pp	-9.11275
ie	-9.11276
▁branch	-9.11294
▁combined	-9.11314
▁synthesis	-9.11346
▁characteristics	-9.11392
▁defined	-9.11486
ction	-9.11524
2)	-9.11609
▁clearly	-9.11612
▁threshold	-9.11642
▁dynamic	-9.11748
▁μ	-9.11774
ay	-9.11838
▁temporal	-9.11956
ens	-9.12259
aw	-9.12264
res	-9.12377
▁means	-9.12477
▁isolated	-9.12651
▁observation	-9.12808
▁nodes	-9.12838
▁2006;	-9.12859
▁basal	-9.13141
▁neuro	-9.13171
▁damage	-9.13188
qua	-9.13373
▁2001)	-9.13463
pho	-9.13508
▁understand	-9.13518
▁diet	-9.13664
ella	-9.13757
▁induced	-9.13794
▁output	-9.13827
ward	-9.13881
▁secondary	-9.13934
▁decreased	-9.13997
▁focus	-9.14112
rich	-9.14157
▁reduce	-9.14218
▁mechanical	-9.14288
▁though	-9.14355
bo	-9.14418
▁hypotheses	-9.14481
▁heat	-9.14573
▁2010).	-9.14641
▁j	-9.14643
▁11	-9.14781
go	-9.15151
▁needed	-9.1529
isation	-9.15383
▁tend	-9.15409
▁side	-9.15418
▁2005;	-9.15479
▁latter	-9.15524
▁thought	-9.1553
▁mainly	-9.15535
▁15	-9.15635
▁constraints	-9.15731
ina	-9.15779
▁despite	-9.15792
▁linked	-9.15801
lan	-9.15817
▁framework	-9.1582
pla	-9.15907
▁noise	-9.16028
▁oxidative	-9.16185
pl	-9.16196
sp	-9.16245
oph	-9.16348
5].	-9.16389
▁se	-9.1642
▁joint	-9.16524
ities	-9.16532
▁hypoxia	-9.16637
▁pa	-9.1665
▁shift	-9.16748
?	-9.1675
▁First	-9.1675
pos	-9.16793
▁sample	-9.1681
▁Con	-9.1683
▁gain	-9.17122
▁date	-9.17192
pro	-9.17291
▁1).	-9.1748
gu	-9.17489
▁variety	-9.17604
▁larval	-9.17675
log	-9.17746
amp	-9.17805
▁0	-9.17834
sis	-9.17903
ning	-9.18118
ey	-9.18339
▁All	-9.18401
▁Since	-9.18437
part	-9.18463
▁now	-9.18601
▁analyzed	-9.18623
yn	-9.18697
▁reconstruction	-9.18725
▁ta	-9.18836
▁sensory	-9.18894
▁stimuli	-9.18898
5%	-9.18902
ological	-9.18995
ost	-9.19
2+	-9.19009
av	-9.19037
▁largely	-9.19068
▁robust	-9.19112
▁modeling	-9.1913
MR	-9.19155
▁mo	-9.19247
▁usually	-9.19304
ley	-9.19357
4].	-9.19403
▁cues	-9.19605
▁weak	-9.1968
▁near	-9.19689
▁extent	-9.19829
▁locomotion	-9.19887
▁display	-9.19954
mon	-9.19976
▁acids	-9.20138
▁offspring	-9.20151
▁substitution	-9.20174
▁geographic	-9.2019
▁contribution	-9.20209
cl	-9.20273
▁simulation	-9.20293
▁exist	-9.20397
ulation	-9.20431
▁16	-9.20479
50	-9.20529
ern	-9.20546
▁motion	-9.20579
▁action	-9.20615
▁lipid	-9.20671
BP	-9.2071
▁shared	-9.20779
ple	-9.20788
▁efficiency	-9.20827
▁open	-9.20828
–3	-9.2088
ok	-9.21011
cell	-9.21059
ax	-9.21106
den	-9.21198
3].	-9.21472
▁30	-9.21539
▁possess	-9.21664
▁residues	-9.21674
▁prevent	-9.21735
▁exposed	-9.21975
▁'	-9.22069
▁exchange	-9.22196
▁real	-9.22209
vo	-9.22238
▁represents	-9.22283
▁costs	-9.22364
▁dataset	-9.22389
▁mate	-9.22443
induced	-9.22448
▁air	-9.22496
▁below	-9.22526
▁fishes	-9.2261
β	-9.22629
ros	-9.22673
▁+	-9.22705
▁expect	-9.22722
▁volume	-9.22796
▁self	-9.22798
▁They	-9.22817
▁[5	-9.22912
fold	-9.2293
▁2003;	-9.22973
▁days	-9.23192
▁phenotypes	-9.23234
sen	-9.23357
▁explained	-9.23359
▁day	-9.23396
▁already	-9.23398
▁detailed	-9.23421
▁respect	-9.23484
▁car	-9.2362
▁velocity	-9.23671
ish	-9.23819
▁foraging	-9.23837
30	-9.23873
▁angle	-9.23979
▁abundance	-9.24066
▁13	-9.24137
▁mono	-9.24146
▁typically	-9.24181
▁complexes	-9.24187
oma	-9.24189
cin	-9.24214
▁reveal	-9.24237
fi	-9.24348
▁radiation	-9.24433
▁[12]	-9.24436
ace	-9.24509
▁seem	-9.24517
▁advantage	-9.24558
▁majority	-9.24582
▁release	-9.24589
▁require	-9.24644
▁lost	-9.24695
9].	-9.24749
gn	-9.24809
▁roles	-9.24841
pa	-9.24854
ld	-9.24863
▁vivo	-9.24871
j	-9.24962
▁strategies	-9.25047
▁success	-9.25064
▁2007;	-9.2508
▁[8]	-9.25105
▁true	-9.2515
▁material	-9.25201
▁comparative	-9.25231
▁With	-9.25237
▁report	-9.25253
▁~	-9.25299
▁2005).	-9.2533
▁fossil	-9.25417
che	-9.25421
▁optimal	-9.2549
▁take	-9.25523
▁measure	-9.25593
▁hosts	-9.25646
▁taxonomic	-9.257
▁carbon	-9.25727
▁inference	-9.25739
▁deep	-9.25751
if	-9.25755
ray	-9.2577
▁resulted	-9.25789
ele	-9.25791
▁late	-9.25812
▁[3]	-9.25828
▁cr	-9.25829
▁standard	-9.25884
▁contains	-9.25945
▁slow	-9.25945
1)	-9.25966
1].	-9.25966
▁almost	-9.2607
▁sc	-9.26091
13	-9.26116
▁restricted	-9.26147
▁linear	-9.2615
▁intracellular	-9.26196
▁2004;	-9.26275
ole	-9.26314
▁kinase	-9.26354
▁elevated	-9.26369
kin	-9.26559
fish	-9.26785
▁currently	-9.2679
▁ch	-9.26885
▁uptake	-9.26942
▁weight	-9.2697
▁anti	-9.27048
▁six	-9.27058
▁internal	-9.2709
▁2008;	-9.27195
sta	-9.27198
▁Further	-9.27254
▁describe	-9.27267
▁detection	-9.27271
▁Ba	-9.27331
▁stem	-9.27355
▁biochemical	-9.27482
▁according	-9.27509
▁section	-9.27538
▁subject	-9.27576
▁assess	-9.27606
▁fully	-9.27665
▁inferred	-9.27678
16	-9.27747
ful	-9.27762
▁stable	-9.27786
▁2012)	-9.27889
▁horizontal	-9.27951
chi	-9.28002
fe	-9.28045
▁2001;	-9.28069
▁induce	-9.28199
▁behavioral	-9.28262
▁subsequent	-9.28315
▁random	-9.28363
▁fl	-9.285
ates	-9.28504
mann	-9.28511
▁[6]	-9.28707
▁bees	-9.28709
▁literature	-9.28715
▁sh	-9.28933
atus	-9.28977
▁Al	-9.28996
▁th	-9.29006
▁[11]	-9.29038
▁full	-9.29181
▁rapidly	-9.29223
lar	-9.29341
▁interact	-9.29355
▁parasite	-9.29382
▁feature	-9.29396
rid	-9.29401
▁possibly	-9.29516
▁earlier	-9.29581
▁feedback	-9.29711
ular	-9.29717
ensis	-9.29739
▁competition	-9.29742
▁sufficient	-9.29761
▁alter	-9.29808
tu	-9.29836
ations	-9.29906
▁serve	-9.30024
▁quantitative	-9.30033
ber	-9.30085
▁broad	-9.30195
▁base	-9.3021
▁forms	-9.30223
2].	-9.30368
▁meta	-9.30421
▁probability	-9.30422
4,	-9.30428
▁followed	-9.30433
▁organ	-9.30554
▁North	-9.3058
▁widely	-9.30582
▁showing	-9.30776
▁place	-9.30811
▁share	-9.309
▁Mo	-9.30907
▁states	-9.31046
▁pair	-9.31077
▁hetero	-9.31111
tal	-9.31163
▁ca	-9.31172
▁Despite	-9.31237
▁flies	-9.31256
▁established	-9.31278
▁datasets	-9.31325
yr	-9.31338
▁requires	-9.31368
▁simulations	-9.31373
▁promoter	-9.3139
ica	-9.31477
omy	-9.31504
▁intermediate	-9.31666
▁stimulus	-9.31828
▁divergent	-9.31831
AP	-9.31862
▁strength	-9.31894
si	-9.32055
ana	-9.32086
so	-9.32102
ock	-9.32376
▁Based	-9.324
▁Given	-9.32424
ans	-9.32444
▁points	-9.325
▁external	-9.32556
▁qu	-9.3259
▁rule	-9.32655
15	-9.32657
ring	-9.32677
que	-9.3278
▁ATP	-9.32799
▁hybridization	-9.32886
▁2002;	-9.32911
▁tolerance	-9.32955
▁later	-9.3304
mp	-9.33114
▁1999)	-9.33289
▁14	-9.33347
_	-9.33487
tim	-9.33509
▁Using	-9.33551
▁confirm	-9.33582
▁core	-9.33583
▁having	-9.33808
ris	-9.33898
−1	-9.34083
oli	-9.34105
▁Some	-9.34243
▁Ne	-9.34329
▁Both	-9.34414
▁containing	-9.34464
14	-9.34539
▁choice	-9.34569
▁propose	-9.34667
▁consider	-9.34805
▁path	-9.34881
▁alignment	-9.35081
▁laboratory	-9.35178
ier	-9.35197
▁[14]	-9.35352
-2	-9.35515
▁quality	-9.35554
▁Po	-9.35627
▁vary	-9.35689
▁regulated	-9.3569
▁extensive	-9.35725
▁Me	-9.35805
▁numbers	-9.35853
▁scenario	-9.35882
▁im	-9.3591
3,	-9.35921
▁egg	-9.35953
▁Ha	-9.35958
ably	-9.36006
▁versus	-9.36171
▁complexity	-9.36322
▁neutral	-9.36342
und	-9.36414
▁signalling	-9.36437
▁reach	-9.36649
cho	-9.36656
▁dependent	-9.36665
▁Sch	-9.36667
ven	-9.36698
▁sound	-9.36707
AR	-9.36722
▁posterior	-9.36736
▁magnitude	-9.36758
▁He	-9.3691
▁ion	-9.36977
▁periods	-9.37041
pha	-9.37099
▁bo	-9.37146
▁[1].	-9.37195
til	-9.3721
▁good	-9.37222
▁24	-9.37282
▁Previous	-9.37313
▁colour	-9.37452
▁profiles	-9.37529
▁balance	-9.37778
▁codon	-9.37866
▁physical	-9.37941
▁coli	-9.37957
ified	-9.37983
▁La	-9.38017
coding	-9.38029
-3	-9.38073
han	-9.38278
IP	-9.38329
▁plasma	-9.38349
ocytes	-9.38351
▁[1,	-9.3838
70	-9.38486
eu	-9.38521
▁steady	-9.38593
▁ancient	-9.3868
ear	-9.38793
och	-9.38843
▁just	-9.38856
▁link	-9.38866
of	-9.38868
ei	-9.38891
000	-9.38941
▁bats	-9.38988
▁Additionally	-9.38992
ions	-9.39071
▁vi	-9.39076
dent	-9.3913
▁led	-9.39154
▁stochastic	-9.39174
▁amplitude	-9.39423
ari	-9.39488
▁capture	-9.39491
aceae	-9.39496
▁trait	-9.39501
▁entire	-9.39504
▁sources	-9.39594
▁eukaryotic	-9.39743
▁2011).	-9.39796
mit	-9.39886
▁evolve	-9.39965
▁statistical	-9.39966
▁movements	-9.40002
▁Pro	-9.40033
qui	-9.40059
▁modules	-9.40084
▁learning	-9.40096
▁exception	-9.4011
▁separate	-9.40126
▁Second	-9.40172
osa	-9.40185
▁sa	-9.40214
[1	-9.40307
▁parallel	-9.40351
▁primarily	-9.40495
▁coding	-9.40498
▁trout	-9.40541
▁orientation	-9.40547
▁block	-9.4062
▁sensitive	-9.40684
▁variables	-9.40755
▁accumulation	-9.40891
▁melanogaster	-9.40891
▁Ro	-9.40963
▁1999;	-9.41035
▁background	-9.41037
bol	-9.41058
rus	-9.41107
▁perform	-9.41132
▁[19]	-9.41147
▁distributed	-9.41148
▁African	-9.41204
▁consequence	-9.41288
▁crucial	-9.41289
▁start	-9.41332
▁zebrafish	-9.41364
▁Li	-9.4138
▁distinguish	-9.41494
▁2000;	-9.41567
▁secretion	-9.41688
inae	-9.41783
▁vertical	-9.41797
▁location	-9.41805
▁characters	-9.41828
▁independently	-9.41903
▁color	-9.41925
ida	-9.421
▁metabolites	-9.421
ew	-9.4221
▁tra	-9.4222
▁activities	-9.42235
▁Br	-9.42287
my	-9.42326
▁auto	-9.42347
▁motifs	-9.42428
▁apparent	-9.42435
zo	-9.42446
▁super	-9.42462
▁inhibition	-9.42506
▁land	-9.4268
▁sequencing	-9.42682
pod	-9.42699
▁plasticity	-9.42836
8].	-9.43009
ili	-9.43069
▁intra	-9.43156
▁Nevertheless	-9.43226
our	-9.43252
▁facilitate	-9.43323
da	-9.43325
▁1998)	-9.43338
bu	-9.43363
▁avoid	-9.43408
▁my	-9.43532
ug	-9.4356
rt	-9.43635
▁[22]	-9.43724
▁address	-9.43776
▁ground	-9.43833
▁-	-9.43852
gl	-9.43892
▁Most	-9.43898
▁running	-9.43901
▁neural	-9.43971
▁x	-9.43986
▁stability	-9.44179
▁freshwater	-9.44229
▁estimation	-9.44266
▁unlikely	-9.44303
▁motif	-9.44366
▁alone	-9.44411
ren	-9.44482
▁southern	-9.44534
▁eukaryotes	-9.44602
▁terrestrial	-9.44602
▁phosphorylation	-9.44645
▁he	-9.44666
▁leg	-9.4472
▁situation	-9.44815
▁maintenance	-9.44864
▁seed	-9.44917
▁reason	-9.45062
▁op	-9.45217
SC	-9.45284
mal	-9.4545
▁highest	-9.45489
0].	-9.45507
▁availability	-9.4558
▁bias	-9.456
▁Several	-9.45694
▁pH	-9.45768
ult	-9.45961
ull	-9.45971
▁deletion	-9.46111
▁ro	-9.46204
▁fluid	-9.46225
▁During	-9.46231
ST	-9.46248
▁includes	-9.46415
rac	-9.46479
▁matrix	-9.46491
▁pi	-9.46515
▁tumor	-9.46568
izing	-9.46574
▁original	-9.46623
▁maintained	-9.46638
▁rise	-9.4668
▁theory	-9.46758
led	-9.46905
▁Africa	-9.46924
▁distributions	-9.47124
▁substantial	-9.47133
▁17	-9.47168
19	-9.47182
ich	-9.47219
▁leads	-9.47335
▁Ac	-9.47346
car	-9.47421
▁bone	-9.4753
ll	-9.47531
4)	-9.47534
▁aspects	-9.47549
▁clock	-9.4763
▁extreme	-9.47634
▁green	-9.47635
▁efficient	-9.47643
▁Q	-9.4767
▁confirmed	-9.47689
▁past	-9.47699
▁positions	-9.4773
▁Similarly	-9.47797
▁wave	-9.47806
▁whose	-9.47815
eng	-9.47889
▁taxon	-9.47974
tur	-9.47996
▁improve	-9.48029
▁variants	-9.48077
▁extend	-9.48152
▁why	-9.48238
▁introns	-9.48266
▁MHC	-9.48275
▁My	-9.48277
▁existence	-9.48321
CO	-9.48392
▁Cl	-9.48446
▁move	-9.48473
▁compare	-9.48612
od	-9.48689
▁olfactory	-9.4869
▁1)	-9.48758
ification	-9.48997
▁identical	-9.49002
less	-9.49033
6].	-9.49043
▁virus	-9.49062
terminal	-9.49092
▁photo	-9.49109
ries	-9.49125
▁trade	-9.49128
▁instead	-9.49159
▁diseases	-9.49217
▁depend	-9.49225
▁arise	-9.49343
ath	-9.49413
1-	-9.49435
▁morph	-9.49445
▁faster	-9.49505
▁wall	-9.49592
ales	-9.49605
▁obtain	-9.49681
▁numerous	-9.49709
▁2009;	-9.49833
▁segment	-9.4986
▁assumed	-9.50075
dia	-9.50109
▁comprehensive	-9.50143
rin	-9.50144
oll	-9.50266
▁integration	-9.50381
▁graph	-9.50436
▁topology	-9.50465
▁correct	-9.50499
40	-9.50529
▁Lo	-9.50536
▁attempt	-9.50539
▁Ex	-9.50599
▁develop	-9.50611
▁specifically	-9.5062
▁promote	-9.50713
tract	-9.50729
▁unclear	-9.50818
▁2002).	-9.50823
▁fit	-9.50956
▁Another	-9.50989
▁ligand	-9.51137
▁[23]	-9.51204
▁culture	-9.51267
▁series	-9.51269
▁experimentally	-9.51355
▁split	-9.51377
▁liver	-9.51378
▁lo	-9.51498
▁opsin	-9.51511
▁Sp	-9.51541
▁examine	-9.51597
▁recognition	-9.51618
▁candidate	-9.51652
▁timing	-9.51703
▁walking	-9.51736
tho	-9.51798
▁sizes	-9.51967
▁mode	-9.51993
▁published	-9.5206
rr	-9.52116
▁ants	-9.52154
▁stimulation	-9.52181
▁appropriate	-9.52343
level	-9.52362
▁infer	-9.52381
ER	-9.52448
▁called	-9.52479
▁element	-9.52557
▁tail	-9.52564
wa	-9.52584
▁reference	-9.52594
pper	-9.52673
rop	-9.52675
▁overlap	-9.52682
mi	-9.52736
▁northern	-9.52878
▁calculated	-9.52914
▁regulate	-9.52966
▁dorsal	-9.52995
▁focused	-9.5309
▁challenge	-9.53182
▁experience	-9.53291
▁great	-9.53313
▁always	-9.53325
▁Ar	-9.53366
▁yield	-9.53384
reviewed	-9.53428
▁tests	-9.53432
▁fraction	-9.53482
low	-9.53662
▁represented	-9.53819
tre	-9.5386
▁climate	-9.54017
▁concept	-9.5403
▁term	-9.54213
▁pheromone	-9.54221
mediated	-9.54262
ano	-9.54278
▁transmission	-9.54303
▁completely	-9.54315
▁back	-9.54327
ller	-9.54391
▁allowed	-9.54413
alis	-9.54472
ible	-9.54522
rum	-9.54552
▁third	-9.54593
▁extant	-9.54593
▁investigation	-9.54609
▁resources	-9.54631
we	-9.54779
▁resolution	-9.54787
▁classes	-9.5479
▁Bayesian	-9.548
▁viruses	-9.54824
matic	-9.54831
lay	-9.54836
▁degradation	-9.54841
▁Car	-9.5491
bl	-9.54959
▁frequently	-9.54973
▁taken	-9.55012
▁commonly	-9.55054
▁str	-9.55158
▁course	-9.5517
cle	-9.55197
por	-9.55243
▁elegans	-9.55298
▁layer	-9.55343
▁copies	-9.55382
▁1997)	-9.55382
▁existing	-9.55389
▁3).	-9.55428
▁(1)	-9.55464
▁typical	-9.55519
▁map	-9.55545
istic	-9.55566
▁mutant	-9.55757
▁copy	-9.55912
▁proliferation	-9.56009
▁rare	-9.56116
by	-9.56154
▁fixed	-9.56177
ster	-9.56381
▁vitro	-9.56407
60	-9.56415
SP	-9.56419
▁blue	-9.56465
ach	-9.56487
▁intensity	-9.56599
▁branches	-9.56606
▁haplotypes	-9.56671
ual	-9.56674
▁Cy	-9.56725
▁depends	-9.56731
vari	-9.5675
▁[24]	-9.56839
▁maternal	-9.56852
▁organization	-9.57008
PP	-9.57016
▁(2)	-9.57049
Ch	-9.57055
▁compounds	-9.57074
wi	-9.57079
▁load	-9.57152
nal	-9.5718
▁imp	-9.57201
▁breeding	-9.57207
▁predator	-9.57253
▁significance	-9.57318
▁depth	-9.57361
▁record	-9.57361
▁niche	-9.57404
bil	-9.5747
▁Hence	-9.57698
▁insights	-9.57713
▁epi	-9.57944
▁extended	-9.57993
▁techniques	-9.57995
▁chromosomes	-9.5816
▁accuracy	-9.58172
▁gap	-9.58175
▁electro	-9.58189
▁para	-9.58197
▁vector	-9.58231
cre	-9.58258
▁deg	-9.58263
▁correspond	-9.58275
7].	-9.5834
▁No	-9.5837
▁motor	-9.58405
▁downstream	-9.58518
uch	-9.58636
vert	-9.58699
RNA	-9.58702
regulated	-9.58717
SA	-9.58728
▁anterior	-9.5885
▁mid	-9.58967
▁error	-9.59019
▁locomotor	-9.59076
▁mathematical	-9.5912
▁fungi	-9.5933
can	-9.59373
▁risk	-9.59384
▁1998;	-9.59466
▁providing	-9.5951
▁distances	-9.59535
ene	-9.59563
▁eu	-9.59632
▁thereby	-9.59658
▁representative	-9.59676
▁assume	-9.59679
▁Many	-9.59696
II	-9.59774
▁mediated	-9.598
▁Bo	-9.59848
▁assumption	-9.59862
ong	-9.59876
eno	-9.59895
▁favor	-9.59902
▁Th	-9.59906
▁status	-9.59967
ology	-9.59974
▁access	-9.59975
80	-9.60037
18	-9.60042
cal	-9.60082
▁juvenile	-9.6012
17	-9.60208
▁pool	-9.60253
25	-9.60273
▁eggs	-9.60359
dy	-9.60432
▁root	-9.60461
▁macro	-9.60489
▁database	-9.60558
fr	-9.60598
▁activated	-9.60602
cr	-9.60658
▁switch	-9.60703
▁lung	-9.60728
▁embryos	-9.60772
▁limit	-9.60775
omic	-9.60907
▁agreement	-9.60929
▁[27]	-9.60943
▁bind	-9.60972
▁gill	-9.61014
rel	-9.61028
▁indeed	-9.61067
ice	-9.61226
▁pathogen	-9.61292
▁Di	-9.61365
53	-9.61369
▁Gene	-9.61478
▁la	-9.6161
▁clustering	-9.61615
▁half	-9.61619
▁likelihood	-9.61633
▁1,	-9.61693
mis	-9.61693
▁variance	-9.61795
▁translation	-9.61859
▁classification	-9.61898
▁allele	-9.61903
PR	-9.61959
▁tr	-9.61972
▁occurrence	-9.62128
eri	-9.62129
▁call	-9.6213
▁adjust	-9.62151
▁character	-9.62173
br	-9.62213
▁relation	-9.62242
▁final	-9.62245
▁More	-9.62345
▁influenced	-9.62365
▁Ta	-9.62447
▁authors	-9.62509
▁conflict	-9.62554
▁node	-9.62697
binding	-9.62701
max	-9.62717
ases	-9.6288
▁UV	-9.62901
▁South	-9.62903
gi	-9.62937
▁100	-9.63038
▁idea	-9.63163
▁product	-9.63173
▁En	-9.6323
▁parasites	-9.63309
old	-9.63365
▁theoretical	-9.63592
▁hence	-9.63631
nu	-9.6364
▁manner	-9.63652
▁comparisons	-9.63671
▁aim	-9.6368
▁monophyletic	-9.63861
hel	-9.63901
pre	-9.63931
▁%	-9.63945
▁fundamental	-9.63997
▁acclimation	-9.63998
ura	-9.64073
side	-9.64157
▁delay	-9.64186
▁characteristic	-9.64381
▁interpretation	-9.64412
▁moment	-9.64468
▁review	-9.64513
▁break	-9.64631
▁tools	-9.64654
cep	-9.64738
▁application	-9.64749
▁comparable	-9.64773
▁processing	-9.64779
species	-9.64808
▁inhibit	-9.64812
CC	-9.64813
way	-9.6482
▁slightly	-9.64893
▁specificity	-9.64894
▁capable	-9.64939
tes	-9.65001
▁involving	-9.65002
▁aquatic	-9.65003
▁curve	-9.65049
▁causes	-9.65059
▁encoding	-9.65064
OX	-9.65088
▁decline	-9.65095
tt	-9.65121
ised	-9.65208
▁allowing	-9.65259
▁1997;	-9.65278
▁million	-9.65278
▁go	-9.65367
▁Ho	-9.65434
ral	-9.65617
▁2005)	-9.65654
▁50	-9.65672
▁preference	-9.65743
▁PPI	-9.6575
▁eye	-9.65801
mol	-9.65812
tis	-9.65826
▁CD	-9.6588
▁offer	-9.65994
▁enhance	-9.66016
MP	-9.66128
▁ventral	-9.66156
▁skin	-9.66162
▁mitochondria	-9.6624
wide	-9.66244
▁cardiac	-9.66249
▁consequences	-9.66255
▁explore	-9.66396
ani	-9.66477
▁genotype	-9.66495
tch	-9.66543
▁formed	-9.66603
▁2010)	-9.66612
▁hypothesized	-9.66628
▁genetically	-9.6663
ves	-9.66639
▁parental	-9.66663
▁spread	-9.66669
▁[6	-9.6667
▁tool	-9.66731
▁insulin	-9.66741
▁highlight	-9.668
▁Among	-9.66814
▁So	-9.66822
▁forest	-9.66866
▁European	-9.66884
ood	-9.66891
▁substrates	-9.66906
▁remaining	-9.66924
hy	-9.66953
cy	-9.67133
▁discussed	-9.67184
ys	-9.67191
▁occurring	-9.67214
own	-9.67308
▁polymorphism	-9.67309
vent	-9.67322
▁supports	-9.6737
▁controlled	-9.67373
▁parts	-9.67427
RF	-9.67543
▁enhanced	-9.67648
▁ten	-9.67674
▁documented	-9.67706
5,	-9.67716
▁mon	-9.67777
tus	-9.67805
▁chain	-9.67843
ung	-9.67883
▁phylogenies	-9.67889
val	-9.67923
RP	-9.67933
ever	-9.67955
▁integrated	-9.68089
▁nearly	-9.68136
▁sampled	-9.68297
▁nor	-9.68318
▁net	-9.68342
*	-9.68458
▁memory	-9.68458
▁Gr	-9.68509
▁hind	-9.6858
▁living	-9.68593
▁man	-9.6863
▁experienced	-9.68633
▁duplications	-9.68723
▁until	-9.68758
▁1:	-9.68807
▁widespread	-9.68839
▁exon	-9.68847
2-	-9.68853
mod	-9.68859
▁America	-9.68868
▁ER	-9.68954
▁behaviors	-9.68963
ise	-9.68981
IN	-9.69029
▁plays	-9.69099
▁eyes	-9.691
▁considerable	-9.69125
▁teleost	-9.6915
NA	-9.69249
▁itself	-9.6927
▁conclusion	-9.69395
▁perhaps	-9.69413
▁substitutions	-9.69471
▁25	-9.69495
gon	-9.69537
▁rotation	-9.69607
MC	-9.69611
▁acting	-9.69626
▁insight	-9.69717
▁bat	-9.69765
▁driven	-9.69771
▁insertion	-9.69775
▁kinetic	-9.69791
▁belong	-9.6986
▁ha	-9.699
▁continuous	-9.69944
▁extracellular	-9.69946
▁functionally	-9.69969
ric	-9.69973
▁[31]	-9.69992
trophic	-9.70003
▁seven	-9.70013
▁rest	-9.70043
▁Pa	-9.70047
▁su	-9.7019
▁Be	-9.70265
▁mostly	-9.70282
▁accurate	-9.70331
iss	-9.70494
−	-9.70503
3)	-9.70579
▁behavioural	-9.70602
AS	-9.70697
AD	-9.70708
▁making	-9.70767
time	-9.70773
ogenesis	-9.7078
▁Or	-9.70798
▁comparing	-9.70911
▁1996;	-9.7096
▁extension	-9.7096
▁Other	-9.70961
▁sequenced	-9.70981
▁organs	-9.71027
▁achieved	-9.71051
du	-9.7115
▁basic	-9.71304
CR	-9.7139
sym	-9.71415
mers	-9.71443
▁predators	-9.71511
▁questions	-9.71546
▁others	-9.71646
▁depending	-9.71679
▁consumption	-9.71694
▁enough	-9.71699
▁counter	-9.71747
ou	-9.71756
▁makes	-9.71781
DNA	-9.71795
▁<	-9.71821
▁bar	-9.71833
▁zone	-9.71838
1]	-9.71915
▁maximal	-9.71939
▁filter	-9.71989
▁genotypes	-9.72024
▁myo	-9.72024
▁measures	-9.72102
▁Even	-9.72173
▁equal	-9.72193
▁40	-9.72224
state	-9.72246
ator	-9.72329
▁Sh	-9.72376
▁3)	-9.72577
▁skeletal	-9.7263
▁easily	-9.72779
▁homo	-9.7282
▁gradient	-9.72888
rate	-9.72941
PS	-9.73
ger	-9.73007
▁axis	-9.73022
loc	-9.73028
▁historical	-9.73077
ute	-9.73129
group	-9.73192
▁decreases	-9.73252
▁connected	-9.73274
▁Two	-9.73327
late	-9.73335
hr	-9.73395
▁conversion	-9.73401
AM	-9.73459
▁quite	-9.73496
pon	-9.73609
▁exhibited	-9.73616
TR	-9.73655
▁seasonal	-9.73678
ker	-9.73712
▁nerve	-9.73728
hen	-9.73735
▁subset	-9.73758
comp	-9.73785
▁outcome	-9.73827
▁pulse	-9.73829
mic	-9.73839
col	-9.73879
▁cycles	-9.73883
fin	-9.73917
atory	-9.7394
▁[33]	-9.73979
▁testing	-9.74085
▁sl	-9.74122
ns	-9.74176
▁shifts	-9.74273
▁noted	-9.74301
▁profile	-9.74318
5)	-9.74332
▁partial	-9.74445
90	-9.74479
▁adapt	-9.74513
▁calcium	-9.74531
▁procedure	-9.74531
▁disc	-9.74698
▁scales	-9.74726
▁introduced	-9.74857
▁robustness	-9.74866
▁architecture	-9.74986
▁viral	-9.75031
▁Mi	-9.75035
rp	-9.75127
PC	-9.75127
ected	-9.75205
▁4).	-9.75258
AC	-9.75427
pin	-9.75463
▁cla	-9.75572
LC	-9.75613
1–	-9.75666
▁list	-9.75769
▁understood	-9.75852
▁run	-9.75941
▁dominant	-9.75955
▁systematic	-9.76022
ero	-9.76028
cap	-9.7604
▁pathogens	-9.76073
pr	-9.76099
▁regarding	-9.76181
▁enter	-9.76263
▁jaw	-9.76334
▁Asia	-9.76457
arc	-9.76552
▁left	-9.7658
▁2000).	-9.76636
tan	-9.7664
ft	-9.76662
▁21	-9.76687
▁repeat	-9.76738
▁traditional	-9.76778
osome	-9.76831
▁white	-9.76842
3–	-9.76847
ko	-9.76929
▁From	-9.77054
▁diverged	-9.77205
▁escape	-9.77244
▁aerobic	-9.77295
▁own	-9.77358
▁Bl	-9.77376
▁spin	-9.77419
▁Mar	-9.77477
▁examples	-9.77483
din	-9.77492
▁colleagues	-9.77503
▁recognized	-9.77518
rot	-9.77612
▁empirical	-9.77659
vis	-9.77713
▁semi	-9.77732
4]	-9.77749
▁speeds	-9.77749
▁MC	-9.77919
▁composed	-9.78129
▁altered	-9.78169
▁fly	-9.78196
▁embryonic	-9.78238
▁recorded	-9.7829
ble	-9.78346
▁Also	-9.78391
cc	-9.78403
ious	-9.78468
ek	-9.78496
OR	-9.78558
▁collected	-9.78568
▁mis	-9.78594
▁constitute	-9.78602
▁mutants	-9.78655
▁1994;	-9.78759
tz	-9.78893
▁algorithms	-9.78941
▁plastid	-9.78971
▁>	-9.79025
▁extremely	-9.79034
▁Per	-9.79038
▁tropical	-9.79076
6,	-9.79078
▁ba	-9.79132
sch	-9.79213
▁solution	-9.79228
cular	-9.79267
dimensional	-9.7932
Co	-9.79337
uk	-9.7936
▁respiratory	-9.79394
ert	-9.79418
▁contraction	-9.79422
mus	-9.79435
▁peptide	-9.79444
▁regime	-9.79447
▁suppress	-9.79493
day	-9.79506
▁note	-9.79518
▁Arabidopsis	-9.79606
int	-9.79618
oidea	-9.79659
▁energetic	-9.79781
\	-9.79819
lli	-9.79825
dis	-9.79876
▁Mc	-9.80022
▁Tr	-9.80135
▁particle	-9.8014
▁drop	-9.80191
▁right	-9.80205
▁rec	-9.80233
ff	-9.80283
▁evaluate	-9.80294
▁exp	-9.80318
▁phenomenon	-9.80352
▁annotation	-9.80353
▁fall	-9.80402
▁drift	-9.80406
cu	-9.80424
▁array	-9.80462
▁death	-9.80526
▁chi	-9.80556
▁extinction	-9.8061
ress	-9.8062
use	-9.80729
RE	-9.80781
▁absent	-9.80782
▁conducted	-9.80838
itt	-9.80878
mark	-9.80883
▁goal	-9.809
▁warm	-9.80914
genic	-9.80924
▁largest	-9.80948
ploid	-9.81122
▁outside	-9.81141
▁physiology	-9.81158
▁subfamily	-9.81169
▁[2,	-9.81203
▁ago	-9.81347
▁correlate	-9.81372
▁duplicated	-9.81386
▁adults	-9.81499
▁products	-9.81507
version	-9.81541
▁opposite	-9.81591
RS	-9.81629
ria	-9.81638
▁return	-9.81646
▁Europe	-9.81666
ule	-9.81671
▁log	-9.81725
▁encoded	-9.81734
dr	-9.81848
▁Rh	-9.81857
▁[2].	-9.82011
▁identifying	-9.8202
▁drag	-9.82029
icus	-9.82038
▁Ap	-9.82066
▁separated	-9.82113
▁hard	-9.82117
▁1995)	-9.82135
▁variations	-9.82172
▁miRNA	-9.82197
▁homologous	-9.82225
not	-9.82236
▁resource	-9.82247
▁north	-9.82265
▁fungal	-9.82298
ulf	-9.823
▁colony	-9.82307
▁employed	-9.8233
▁Recent	-9.82386
▁suitable	-9.82407
sensitive	-9.82447
▁drive	-9.82449
▁give	-9.82457
▁homolog	-9.82471
▁simultaneously	-9.82485
▁fat	-9.82561
etic	-9.8259
▁cave	-9.82609
▁ortholog	-9.82637
rea	-9.82688
▁Pleistocene	-9.82693
▁mu	-9.82693
▁Atlantic	-9.82735
▁simply	-9.82735
▁live	-9.82763
▁establish	-9.82794
▁associations	-9.82841
▁pressures	-9.82885
▁cap	-9.8291
▁minimal	-9.82961
▁transcripts	-9.82993
ez	-9.83027
▁[1]	-9.83075
▁coupled	-9.83082
tens	-9.83152
▁encounter	-9.8323
▁kinematics	-9.83272
▁south	-9.83342
▁[35]	-9.83342
za	-9.83355
sum	-9.83387
▁route	-9.83408
cha	-9.83432
▁shorter	-9.8346
7,	-9.83461
▁upper	-9.83473
inus	-9.83487
▁face	-9.83647
▁optimization	-9.83671
IM	-9.83692
▁acceleration	-9.83727
▁identity	-9.83727
▁[3,	-9.83811
har	-9.83851
▁rat	-9.83969
▁affinity	-9.84004
▁improved	-9.84006
▁TF	-9.84118
rob	-9.8412
);	-9.84132
▁MR	-9.84208
▁PR	-9.84229
▁directional	-9.84233
▁adapted	-9.84291
▁combinations	-9.84327
ors	-9.84408
▁match	-9.84429
▁endo	-9.84462
▁specimens	-9.84494
▁ammonia	-9.84505
▁next	-9.84523
▁forward	-9.84573
▁units	-9.84614
ition	-9.84615
▁undergo	-9.84655
▁1995;	-9.84784
▁segments	-9.84849
position	-9.8485
▁cerevisiae	-9.84896
rain	-9.84912
▁care	-9.84914
men	-9.84945
▁achieve	-9.8496
mm	-9.8498
▁intrinsic	-9.85008
▁salmon	-9.85008
▁poorly	-9.85161
▁Ra	-9.85182
iz	-9.85199
▁positively	-9.85227
▁presumably	-9.85289
ja	-9.8529
▁steps	-9.85291
▁season	-9.85297
▁constraint	-9.85302
port	-9.85316
▁Consequently	-9.85345
oper	-9.85383
▁pup	-9.85413
▁spectral	-9.85431
▁black	-9.85458
▁fluxes	-9.85461
▁problems	-9.85591
iform	-9.85606
5]	-9.85727
▁acoustic	-9.8574
▁description	-9.8574
▁module	-9.85823
regulation	-9.85844
26	-9.85865
▁dark	-9.85883
don	-9.85924
IR	-9.86022
rad	-9.86046
▁1994)	-9.86079
▁demographic	-9.86079
▁paralogs	-9.861
meric	-9.86103
▁eight	-9.86116
▁sense	-9.86162
▁supporting	-9.86179
▁introgression	-9.86193
▁fibers	-9.86212
▁changing	-9.86249
▁repeated	-9.86272
▁Wa	-9.86287
▁define	-9.86319
▁incomplete	-9.86363
ya	-9.86377
▁adaptations	-9.86462
▁severe	-9.86482
▁fluctuations	-9.86508
trans	-9.86589
▁emergence	-9.86591
▁phylogeographic	-9.86648
▁spec	-9.86664
gy	-9.8668
▁abundant	-9.86705
but	-9.86762
▁representation	-9.86814
▁communication	-9.86819
▁principle	-9.86819
aster	-9.86833
ny	-9.86913
▁frequent	-9.86922
▁evolving	-9.86948
cur	-9.86993
▁vs	-9.87027
▁cat	-9.87045
▁isoforms	-9.87048
▁portion	-9.87049
cycl	-9.871
▁cyto	-9.87105
▁considering	-9.8712
MS	-9.87137
▁obvious	-9.87162
DA	-9.87168
▁New	-9.87181
▁double	-9.87277
▁pur	-9.87283
▁edge	-9.87345
cus	-9.87365
▁American	-9.87472
▁chemo	-9.87489
▁who	-9.87577
ze	-9.87598
▁nervous	-9.87621
▁reducing	-9.87621
▁objective	-9.87643
▁colon	-9.8767
▁PO	-9.87682
▁involves	-9.87701
sky	-9.87814
▁program	-9.87818
▁[10]	-9.87845
▁gut	-9.87945
▁replication	-9.8797
duct	-9.87986
associated	-9.88045
unt	-9.88049
▁metazoan	-9.88256
▁[36]	-9.88258
▁microsatellite	-9.88261
ound	-9.88277
▁except	-9.88297
▁NO	-9.8835
▁Si	-9.88352
▁antioxidant	-9.8849
over	-9.88537
▁climatic	-9.8855
▁marker	-9.88583
▁microarray	-9.88663
▁come	-9.88732
▁treatments	-9.88776
▁developing	-9.88815
▁successful	-9.88848
rd	-9.88895
▁fruit	-9.88896
▁databases	-9.88987
lum	-9.88988
ink	-9.89083
▁benefit	-9.89113
MA	-9.89116
▁PC	-9.89122
▁division	-9.89129
ik	-9.89143
▁modern	-9.89194
▁winter	-9.89204
▁read	-9.89263
▁2002)	-9.89297
odon	-9.89306
BA	-9.89375
ped	-9.89425
▁[4].	-9.89501
27	-9.89508
amine	-9.89587
▁observe	-9.89618
RT	-9.89636
▁express	-9.89693
▁growing	-9.8971
▁regression	-9.89832
▁acquired	-9.89871
▁greatly	-9.89883
▁GC	-9.89897
rb	-9.89923
9]	-9.89927
ino	-9.89937
▁determining	-9.8995
SS	-9.89961
▁rely	-9.89997
▁cone	-9.90042
▁select	-9.90058
▁[9]	-9.90083
▁construct	-9.90089
▁ant	-9.90111
az	-9.90114
▁[4,	-9.90215
▁geographical	-9.90266
▁discovery	-9.90303
▁East	-9.90316
▁favour	-9.90363
▁minimum	-9.90364
▁channels	-9.90478
=0	-9.9054
▁loop	-9.90576
▁unit	-9.90605
ean	-9.90637
▁ranges	-9.90701
▁Ka	-9.90712
▁splicing	-9.90719
onic	-9.9074
▁islands	-9.90762
▁recovery	-9.90788
EP	-9.9081
▁Col	-9.90816
▁Cor	-9.9082
ote	-9.90836
▁biosynthesis	-9.90897
38	-9.90902
rist	-9.90918
▁colonization	-9.9098
ott	-9.90993
▁surprising	-9.91015
berg	-9.91055
▁Tri	-9.91074
▁subunits	-9.91117
▁intake	-9.91199
▁2010;	-9.91252
▁Similar	-9.91254
▁Bi	-9.91283
▁consists	-9.91286
▁beyond	-9.91314
▁1993)	-9.91315
▁apoptosis	-9.91374
bit	-9.91466
▁u	-9.91482
▁apical	-9.91499
tid	-9.91559
▁appeared	-9.91572
▁2011)	-9.91575
▁partially	-9.91599
illa	-9.91605
▁newly	-9.91652
▁circadian	-9.91673
▁varying	-9.91684
▁metabolite	-9.91714
ines	-9.91809
▁syn	-9.9185
▁legs	-9.9187
lia	-9.9188
▁foot	-9.919
▁miRNAs	-9.91974
▁task	-9.92026
▁narrow	-9.92054
▁ph	-9.92117
tric	-9.92157
▁song	-9.92173
▁ST	-9.92174
▁necessarily	-9.92335
▁carried	-9.92335
▁representing	-9.92349
▁once	-9.92358
▁[5].	-9.92374
▁drugs	-9.92419
▁Alternatively	-9.92481
▁affects	-9.92495
▁trace	-9.92657
blast	-9.92661
▁exploit	-9.92698
ebr	-9.92753
▁channel	-9.92762
▁conclude	-9.92789
▁hybrids	-9.9283
▁ML	-9.92852
▁correlations	-9.92859
▁1993;	-9.9294
▁analyze	-9.92971
▁hormone	-9.93056
▁2013)	-9.93063
▁nutrient	-9.93073
▁22	-9.93093
▁fusion	-9.93141
ope	-9.93174
nate	-9.93205
é	-9.93305
▁[7].	-9.93362
▁modes	-9.9338
▁upstream	-9.93433
▁2008)	-9.93436
ATPase	-9.93499
ants	-9.93562
▁implies	-9.9361
▁eastern	-9.93614
3]	-9.93716
2]	-9.93723
▁HGT	-9.93797
active	-9.93803
▁[7,	-9.93824
▁intestinal	-9.93855
▁equivalent	-9.93856
aria	-9.93864
▁producing	-9.93933
▁center	-9.93975
wise	-9.94044
▁successfully	-9.94045
▁[13]	-9.94099
▁becomes	-9.94182
▁purpose	-9.94223
▁stiffness	-9.94291
cellular	-9.94327
▁simulated	-9.94353
thy	-9.94392
expression	-9.94481
▁[37]	-9.94532
▁[9].	-9.94539
▁CA	-9.94553
▁bird	-9.94571
▁regulating	-9.94623
▁ne	-9.94702
nic	-9.94716
ki	-9.94801
▁remained	-9.94837
▁western	-9.94902
▁special	-9.94936
▁polar	-9.95027
▁implications	-9.9503
mes	-9.95057
▁bound	-9.95132
IS	-9.95163
▁recovered	-9.95224
▁195	-9.95269
▁placed	-9.95296
▁distal	-9.95311
▁activate	-9.95312
▁onset	-9.95366
▁hydr	-9.95414
▁originated	-9.95498
▁edges	-9.95582
▁[38]	-9.95586
ense	-9.95613
▁[6,	-9.95625
▁rDNA	-9.95677
▁create	-9.9569
▁substantially	-9.95724
▁heterogeneity	-9.95834
organ	-9.95843
▁Of	-9.95848
▁arm	-9.95889
▁comprise	-9.95938
▁locations	-9.96008
▁mutual	-9.96023
±	-9.9607
pen	-9.96085
▁benefits	-9.96101
▁chloroplast	-9.96147
▁reverse	-9.96149
▁haplotype	-9.96163
▁surrounding	-9.96188
▁turtles	-9.96198
▁Cha	-9.96259
▁transcript	-9.96273
▁subunit	-9.96459
TP	-9.96494
▁GO	-9.96494
▁salt	-9.96497
chy	-9.96498
▁characterize	-9.9652
▁swim	-9.96521
▁defense	-9.96524
37	-9.96581
ü	-9.96587
▁modified	-9.96587
▁contained	-9.96617
0–	-9.96719
▁beneficial	-9.96839
nn	-9.9696
▁diffusion	-9.96965
▁driving	-9.96965
PA	-9.96971
acc	-9.96989
ural	-9.97002
▁detail	-9.97004
▁attention	-9.97029
NP	-9.97196
▁Eu	-9.97241
▁compartment	-9.9731
▁melan	-9.97311
▁comm	-9.97418
▁elicit	-9.97472
▁fold	-9.97514
sign	-9.97597
ecto	-9.97622
▁wings	-9.97638
water	-9.97659
▁[8,	-9.97687
▁2,	-9.9773
▁[10].	-9.97738
▁apparently	-9.97761
▁issue	-9.97771
emp	-9.97864
DH	-9.97882
hl	-9.97884
▁follow	-9.97953
▁elucidate	-9.97982
▁PA	-9.98045
▁tendon	-9.98055
▁label	-9.9806
▁reliable	-9.98173
▁acquisition	-9.98237
▁comp	-9.98284
▁trigger	-9.98349
▁limits	-9.98394
▁immuno	-9.98409
▁poor	-9.98453
ogen	-9.9846
▁cm	-9.98489
á	-9.98493
▁[39]	-9.9856
▁oscillations	-9.986
▁[9,	-9.9865
▁inner	-9.98667
▁diploid	-9.98711
▁evident	-9.9875
▁maintaining	-9.98773
▁calls	-9.98807
branch	-9.98855
▁regulators	-9.99008
▁iron	-9.99072
▁reasons	-9.99129
▁member	-9.99134
genetic	-9.99185
ces	-9.99232
▁[5]	-9.99264
▁Recently	-9.99291
▁`	-9.99296
ram	-9.99334
▁III	-9.99354
▁coral	-9.99418
▁domestic	-9.99431
Cl	-9.99447
▁burst	-9.99461
▁differentially	-9.99477
▁survive	-9.9959
▁immunity	-9.99655
len	-9.99663
@	-9.99684
▁conspecific	-9.9979
▁details	-9.99814
▁decision	-9.9985
lid	-9.9991
▁transient	-9.99916
▁lengths	-9.99938
▁kind	-9.99958
SE	-10
▁[7]	-10.0002
▁parent	-10.0003
AG	-10.0005
▁involve	-10.001
32	-10.0011
Ma	-10.0017
▁enriched	-10.0018
▁predation	-10.0018
▁limitation	-10.0021
▁[16]	-10.0022
ane	-10.0023
▁community	-10.0024
▁±	-10.0036
▁peptides	-10.0044
ites	-10.0046
peak	-10.0052
▁chromosomal	-10.0054
MT	-10.006
▁attributed	-10.0066
▁plan	-10.0067
▁exercise	-10.007
▁complement	-10.0075
▁stronger	-10.0076
▁inhabit	-10.0077
▁ROS	-10.0077
▁similarities	-10.0078
med	-10.0081
▁actually	-10.0094
▁orthologs	-10.0095
GC	-10.0095
▁virulence	-10.0096
▁cur	-10.0105
▁actual	-10.0107
cyst	-10.0109
▁[10,	-10.011
▁young	-10.0114
▁molecule	-10.0115
▁[18]	-10.0117
▁moderate	-10.0124
▁TR	-10.0126
▁gas	-10.0126
▁exclusively	-10.0128
grade	-10.0129
▁retro	-10.013
▁gait	-10.0136
▁[5,	-10.014
▁hy	-10.0142
▁barriers	-10.0147
▁TE	-10.0147
▁PS	-10.0151
icular	-10.0166
▁artificial	-10.0169
chrom	-10.0182
▁Sea	-10.0184
ometric	-10.0188
▁synthetic	-10.0189
▁every	-10.0189
▁his	-10.019
▁extract	-10.0191
▁mar	-10.0194
▁percentage	-10.0196
▁training	-10.0202
▁Su	-10.0207
osis	-10.0212
▁resolve	-10.0221
▁mouth	-10.0222
▁medium	-10.0229
▁[2]	-10.023
▁According	-10.0231
▁mal	-10.0231
▁generations	-10.0232
▁Par	-10.0236
2%	-10.024
▁avian	-10.0243
van	-10.0243
▁tip	-10.0243
▁excess	-10.0249
ight	-10.0249
▁striking	-10.0255
▁[13].	-10.0256
▁conclusions	-10.0258
▁5).	-10.0291
▁shell	-10.03
▁1990;	-10.0302
▁acute	-10.0303
rn	-10.0308
▁precursor	-10.0309
▁subfamilies	-10.0309
▁bp	-10.0315
toxin	-10.0315
▁her	-10.0323
▁CR	-10.0325
ham	-10.0328
Ca	-10.0328
▁After	-10.0336
▁Mb	-10.034
▁60	-10.034
▁cal	-10.0347
▁terminal	-10.0348
▁wavelength	-10.0353
▁subsequently	-10.0353
inter	-10.0354
▁former	-10.0355
▁[15]	-10.0357
▁modifications	-10.036
▁constructed	-10.0362
▁exons	-10.0362
▁considerably	-10.0365
▁elevation	-10.037
ify	-10.0371
▁colonies	-10.0372
▁lab	-10.0377
point	-10.0378
▁hypo	-10.0379
lon	-10.0381
optera	-10.0383
▁peripheral	-10.039
▁missing	-10.0391
oth	-10.0395
▁separation	-10.0397
ivity	-10.04
▁[2	-10.0401
cen	-10.0405
▁dose	-10.0407
▁cilia	-10.0413
worm	-10.042
logical	-10.0422
▁trend	-10.0426
▁feed	-10.0426
▁rank	-10.0429
▁cover	-10.043
▁tract	-10.0432
spi	-10.0435
fo	-10.0438
▁indirect	-10.0439
▁absolute	-10.0444
LR	-10.0448
▁Within	-10.0449
▁consensus	-10.0451
NS	-10.0453
▁×	-10.0456
▁elastic	-10.0458
▁transduction	-10.0458
▁count	-10.047
▁analysed	-10.0474
▁interpreted	-10.0475
24	-10.0477
▁[17]	-10.0483
▁qualitative	-10.0485
▁shallow	-10.0485
▁frame	-10.0491
▁designed	-10.0492
▁toward	-10.0502
▁[41]	-10.0509
▁[4]	-10.0509
throughput	-10.0511
▁false	-10.0513
rom	-10.0524
▁Under	-10.0526
▁perturbations	-10.0528
▁Vi	-10.0535
value	-10.0536
▁apply	-10.0537
▁perspective	-10.054
fa	-10.0545
▁clinical	-10.0547
▁moving	-10.0547
EC	-10.0553
TM	-10.056
biotic	-10.056
▁1992)	-10.0561
▁glacial	-10.0567
▁modelling	-10.057
▁limitations	-10.0572
▁storage	-10.0574
▁specialized	-10.0577
▁spring	-10.0579
▁connectivity	-10.0582
▁too	-10.0582
▁precise	-10.0585
▁deleterious	-10.0588
▁localization	-10.0592
▁Wolbachia	-10.0602
▁TFs	-10.0603
FA	-10.0606
▁extra	-10.0613
▁connect	-10.0617
23	-10.0617
▁But	-10.0619
▁modulation	-10.0623
▁patients	-10.0626
acclimated	-10.0629
▁assembly	-10.063
rat	-10.0642
▁exists	-10.0644
lus	-10.0648
▁ways	-10.065
▁feather	-10.0651
▁monophyly	-10.0651
ras	-10.0655
▁1991)	-10.0658
▁requirements	-10.0664
▁fixation	-10.0665
▁again	-10.0667
▁28	-10.0672
▁[42]	-10.0674
ius	-10.0675
▁code	-10.0678
gal	-10.0678
▁arrangement	-10.0678
▁origins	-10.0684
▁hold	-10.0688
▁amounts	-10.0689
▁[40]	-10.0689
▁[18].	-10.0692
ocyte	-10.0692
▁El	-10.0692
functional	-10.0694
▁fatty	-10.0694
plant	-10.0702
▁Pre	-10.0707
▁induction	-10.0721
▁effort	-10.0727
▁queen	-10.0728
▁gland	-10.0728
▁mito	-10.0733
▁vocal	-10.0734
with	-10.074
▁subspecies	-10.074
▁Overall	-10.0743
▁transitions	-10.0747
▁adjacent	-10.0748
hu	-10.0757
▁quantify	-10.0762
▁cichlid	-10.0769
▁proximal	-10.0769
<	-10.0771
▁reflects	-10.0775
▁mixture	-10.0777
genes	-10.0789
▁hair	-10.0793
▁[15].	-10.0797
▁native	-10.0799
▁embryo	-10.0803
▁mmol	-10.0803
RA	-10.0803
▁unpublished	-10.0812
ö	-10.0812
▁invertebrates	-10.0815
▁passive	-10.0815
je	-10.0816
▁China	-10.0817
▁generating	-10.0817
▁primates	-10.0819
▁kinetics	-10.082
▁user	-10.0821
▁nm	-10.0822
▁regard	-10.0823
42	-10.0831
▁[13,	-10.0834
PO	-10.0845
▁project	-10.0848
hn	-10.0853
▁survey	-10.0854
▁algae	-10.0855
▁salinity	-10.0861
TA	-10.0873
▁mortality	-10.0876
oides	-10.0878
▁mm	-10.088
▁PI	-10.0886
▁1992;	-10.089
▁respiration	-10.089
▁software	-10.089
▁mapping	-10.089
▁added	-10.089
CT	-10.0891
▁orthologous	-10.0894
uck	-10.0904
▁ITS	-10.0904
22	-10.0905
gan	-10.0905
▁[17].	-10.0907
IC	-10.0908
▁discovered	-10.0909
▁stroke	-10.0911
▁leaf	-10.0911
▁seawater	-10.0913
▁temperate	-10.0918
▁[11,	-10.0919
lac	-10.0922
▁affecting	-10.0924
PK	-10.093
▁discrete	-10.0933
▁odour	-10.0933
▁scaling	-10.0933
▁score	-10.0933
ctive	-10.0933
▁respective	-10.0938
▁[16].	-10.0942
▁synonymous	-10.0947
▁transcriptome	-10.0956
▁2000)	-10.0961
▁decreasing	-10.0961
▁statistically	-10.0962
▁neo	-10.0966
▁fewer	-10.0968
▁cascade	-10.0976
▁[12,	-10.0976
▁lacking	-10.098
▁Specifically	-10.0983
ency	-10.0984
▁explored	-10.0989
▁kg	-10.1004
▁teleosts	-10.1008
row	-10.1009
—	-10.1012
▁implicated	-10.1012
▁23	-10.1015
▁infected	-10.1022
▁landscape	-10.1026
▁[20]	-10.1027
▁pen	-10.1031
▁year	-10.1033
▁NF	-10.1037
network	-10.1044
▁vision	-10.1048
unc	-10.1058
▁signature	-10.1062
▁[43]	-10.1062
pul	-10.1067
▁equations	-10.1072
▁(3)	-10.1075
▁SC	-10.1076
pine	-10.1079
1/	-10.108
ogenic	-10.1083
▁biomass	-10.1084
▁endemic	-10.1084
1%	-10.1086
▁demand	-10.1092
▁depression	-10.1094
ech	-10.1095
▁agent	-10.1095
air	-10.1097
genome	-10.1102
▁confidence	-10.1106
▁needs	-10.1109
▁river	-10.1113
ulin	-10.1119
▁che	-10.1123
sens	-10.1124
▁technique	-10.1129
35	-10.1132
▁collection	-10.1133
▁Sa	-10.1135
▁nucleus	-10.1136
arch	-10.1141
▁Wnt	-10.1141
▁exceed	-10.1142
LP	-10.1148
4%	-10.1149
data	-10.1149
▁[21]	-10.1153
ave	-10.1153
▁nitrogen	-10.1157
▁discrimination	-10.1157
▁front	-10.1158
omorph	-10.1161
raw	-10.1161
flex	-10.1163
▁older	-10.1163
▁web	-10.1166
ux	-10.1167
▁ratios	-10.1175
▁homologs	-10.1185
▁interacting	-10.1185
▁tandem	-10.1186
▁silk	-10.1186
▁resting	-10.1194
oxy	-10.1196
+/	-10.1199
κ	-10.1201
PCR	-10.1207
▁pectoral	-10.1208
app	-10.1215
▁0.1	-10.1215
▁miR	-10.1215
▁initiation	-10.1215
▁fla	-10.1217
▁studying	-10.1218
▁High	-10.1218
ators	-10.1219
▁pan	-10.1221
▁ocean	-10.1223
▁[20].	-10.1225
▁expanded	-10.1225
ulus	-10.1229
▁enable	-10.1231
▁germ	-10.1232
flu	-10.1237
▁definition	-10.1238
ML	-10.1238
▁mature	-10.1239
▁released	-10.1244
fic	-10.1248
▁coefficient	-10.125
▁constrained	-10.1264
morph	-10.1267
▁intact	-10.1268
0.00	-10.1269
▁know	-10.1278
▁rRNA	-10.1286
▁4)	-10.129
▁cru	-10.1298
92	-10.1301
com	-10.1303
▁absorption	-10.1304
▁0.5	-10.1308
▁progression	-10.1309
▁endogenous	-10.1312
▁scenarios	-10.1315
▁exact	-10.1315
era	-10.1317
▁attack	-10.1319
▁assay	-10.1319
▁inbreeding	-10.1322
▁pigment	-10.1331
▁ecology	-10.1334
▁repair	-10.1339
ret	-10.134
itu	-10.1345
▁measurement	-10.1348
3%	-10.1355
▁never	-10.1355
▁mechanistic	-10.1356
▁zero	-10.1357
▁26	-10.1359
▁ad	-10.1362
ory	-10.1366
▁employ	-10.1367
▁And	-10.137
▁Micro	-10.1374
8]	-10.1378
▁Mediterranean	-10.1379
▁sugar	-10.1379
▁equilibrium	-10.1383
del	-10.1386
▁disrupt	-10.139
8%	-10.1393
▁shed	-10.1399
▁adopt	-10.1402
7%	-10.1405
rap	-10.1406
mar	-10.1408
▁retained	-10.1408
75	-10.1412
▁initially	-10.1413
mate	-10.1414
▁[21].	-10.1415
▁preparation	-10.1416
▁effectively	-10.1418
▁exert	-10.1418
▁minor	-10.1423
▁Ph	-10.1436
▁GS	-10.1437
▁1991;	-10.1439
DE	-10.1439
▁2009)	-10.144
ophil	-10.1442
lock	-10.1444
▁reasonable	-10.1445
▁interspecific	-10.1446
▁away	-10.1446
▁Central	-10.1454
▁unusual	-10.1454
ski	-10.1455
▁topological	-10.1455
▁homology	-10.1456
▁35	-10.1458
▁neuronal	-10.1459
▁chicken	-10.1461
▁2011;	-10.1461
▁resolved	-10.1464
rh	-10.1465
▁phospho	-10.1469
▁ambient	-10.1469
▁diameter	-10.1469
▁homeostasis	-10.1469
▁microbial	-10.1469
31	-10.147
▁interpret	-10.1471
▁bootstrap	-10.1476
▁classical	-10.1481
ridge	-10.1482
▁deviation	-10.1484
▁1990)	-10.1484
pan	-10.1486
lab	-10.1489
▁mediate	-10.1496
▁contributed	-10.15
36	-10.1509
▁rats	-10.1511
▁Instead	-10.1514
▁inside	-10.1514
▁aphid	-10.1516
▁phases	-10.1518
key	-10.152
▁trials	-10.1523
press	-10.1524
▁dimension	-10.1525
▁pass	-10.1531
▁IL	-10.1534
▁solve	-10.1536
28	-10.1536
▁sympatric	-10.1537
▁reject	-10.1537
PD	-10.1538
▁repress	-10.1538
▁modulate	-10.154
▁intervals	-10.1541
▁biogeographic	-10.1544
▁Phy	-10.1549
▁belonging	-10.1552
▁ring	-10.1552
▁varies	-10.1552
6%	-10.1552
eck	-10.1554
▁corresponds	-10.1557
▁AD	-10.1564
▁dive	-10.1564
zi	-10.1568
▁silico	-10.1575
bacterium	-10.1576
▁tube	-10.1577
range	-10.1578
▁modification	-10.1578
▁demonstrates	-10.1579
▁health	-10.1583
mber	-10.1588
▁summary	-10.159
light	-10.16
▁namely	-10.1603
▁controlling	-10.1603
▁opportunity	-10.1605
SH	-10.1606
▁1989;	-10.1613
▁grow	-10.1616
▁[44]	-10.1621
▁encode	-10.1621
sson	-10.1623
▁classified	-10.1623
>	-10.1636
▁mixed	-10.1636
▁investigations	-10.1641
▁closer	-10.1642
▁loading	-10.1644
▁reflected	-10.1645
39	-10.1651
▁rainbow	-10.1651
▁reveals	-10.1653
▁equation	-10.1664
▁repeats	-10.1668
▁transporters	-10.1672
▁enrichment	-10.1674
▁tRNA	-10.1682
set	-10.1682
▁plate	-10.1684
▁errors	-10.1685
HT	-10.1689
▁du	-10.1692
▁setting	-10.1702
▁fine	-10.1706
ttle	-10.1713
▁River	-10.1714
▁middle	-10.1721
▁hearing	-10.1721
▁fate	-10.1724
▁supply	-10.1729
mut	-10.1734
48	-10.174
▁reached	-10.1743
idi	-10.1748
CS	-10.1751
▁intestine	-10.1752
▁intraspecific	-10.1759
fu	-10.1761
99	-10.1765
▁island	-10.177
▁splice	-10.177
▁powerful	-10.1771
▁reconstruct	-10.1773
lea	-10.1774
phi	-10.1775
▁purifying	-10.1775
▁actin	-10.1778
▁[25]	-10.1789
▁spectrum	-10.1791
▁isolates	-10.1797
▁Do	-10.1797
▁interface	-10.1798
▁signatures	-10.1807
▁changed	-10.1807
▁Data	-10.1807
down	-10.1808
fl	-10.1815
▁epithelial	-10.1816
xi	-10.1817
▁look	-10.182
ark	-10.1821
▁done	-10.1827
hin	-10.1829
▁assigned	-10.183
▁arch	-10.1833
▁slower	-10.1836
bra	-10.1838
▁learn	-10.1839
▁slope	-10.1846
▁compensate	-10.1853
▁ranging	-10.1857
▁targeted	-10.1858
▁collect	-10.1868
▁urea	-10.187
33	-10.1876
▁accurately	-10.1876
▁plausible	-10.1877
6)	-10.1878
▁Hz	-10.1885
ardi	-10.1886
▁consistently	-10.1893
▁barrier	-10.1895
bacteria	-10.1898
lat	-10.1903
34	-10.1904
▁adhesion	-10.1908
▁fo	-10.1912
▁[45]	-10.1921
cot	-10.1928
▁auditory	-10.1932
▁similarly	-10.1934
▁reports	-10.1937
zy	-10.1939
▁assumptions	-10.1939
▁themselves	-10.194
▁linkage	-10.1945
▁illustrate	-10.1947
▁regular	-10.1948
▁predicts	-10.1951
▁chronic	-10.1956
PI	-10.1965
▁snakes	-10.1967
▁mentioned	-10.1972
top	-10.1974
tional	-10.1974
▁[10	-10.1979
▁expand	-10.1982
▁bear	-10.1986
▁surfaces	-10.1988
▁Ko	-10.1989
▁lizards	-10.1989
▁asymmetric	-10.1995
▁dry	-10.1997
▁Each	-10.2003
▁inhibitor	-10.2004
66	-10.2005
lot	-10.2015
ola	-10.2016
HC	-10.2017
▁catalytic	-10.2019
▁varied	-10.202
CD	-10.2022
▁refer	-10.2026
▁kidney	-10.2027
▁band	-10.2034
▁unable	-10.2035
BC	-10.2037
▁Am	-10.2038
▁[14,	-10.2044
▁jump	-10.2045
CL	-10.2048
▁transferred	-10.2049
5–	-10.205
ada	-10.2053
▁Note	-10.206
▁dietary	-10.2064
▁[16,	-10.2068
500	-10.2068
▁top	-10.2075
▁influences	-10.2081
opo	-10.2084
ati	-10.2086
▁old	-10.2086
▁Can	-10.2088
ago	-10.2088
arrow	-10.21
hol	-10.2103
flow	-10.2115
▁efforts	-10.2116
▁sounds	-10.2116
ami	-10.2119
://	-10.2124
▁sometimes	-10.2124
ET	-10.2127
▁excretion	-10.2131
▁sleep	-10.2131
▁[15,	-10.2132
▁workers	-10.2138
45	-10.2139
▁principal	-10.214
▁regulator	-10.2144
BI	-10.2145
most	-10.2146
pec	-10.2147
activation	-10.2151
]).	-10.2151
▁sum	-10.2152
▁evaluated	-10.2156
▁Para	-10.2157
ext	-10.2169
cyt	-10.2172
1).	-10.2173
▁neither	-10.2189
▁polymorphisms	-10.2191
47	-10.2192
▁challenges	-10.2199
elli	-10.2223
▁Asian	-10.2236
▁confer	-10.2239
dh	-10.225
▁Lake	-10.225
free	-10.2252
▁mat	-10.2253
▁PD	-10.2256
ons	-10.2258
▁cryptic	-10.2258
▁acts	-10.2259
▁manipulation	-10.2261
▁controls	-10.2263
order	-10.2266
▁retina	-10.2271
ophore	-10.2276
▁stretch	-10.2286
win	-10.2289
▁MA	-10.2292
▁NH	-10.2292
}	-10.2293
▁EC	-10.2297
ges	-10.2297
96	-10.2301
▁flexibility	-10.2302
▁fragment	-10.2305
▁situ	-10.2307
▁carotenoid	-10.231
58	-10.2311
▁heterogeneous	-10.2319
▁par	-10.2321
▁version	-10.233
DR	-10.2334
▁sac	-10.2338
arm	-10.2342
▁speculate	-10.2343
21	-10.2345
▁y	-10.2345
▁Hox	-10.2346
derived	-10.2348
▁Mal	-10.235
ibility	-10.2352
▁optic	-10.2352
▁overlapping	-10.2353
plast	-10.2354
▁bottleneck	-10.236
adi	-10.2364
▁MT	-10.2364
▁uncertainty	-10.2377
▁follows	-10.2377
▁Δ	-10.2377
domain	-10.2382
▁differentiated	-10.2385
▁perturbation	-10.239
▁proper	-10.2394
▁usage	-10.2402
▁nematodes	-10.2403
▁1996).	-10.2405
▁limiting	-10.2407
▁27	-10.2408
▁Mac	-10.2411
vin	-10.2413
▁column	-10.2418
dic	-10.2419
▁asexual	-10.2422
▁odor	-10.2424
sim	-10.2426
▁invasion	-10.2426
▁frogs	-10.2426
wer	-10.2429
▁treated	-10.2433
GI	-10.2437
test	-10.2443
▁persist	-10.2446
▁connections	-10.2448
▁negatively	-10.2459
▁referred	-10.2461
▁circuit	-10.2467
graph	-10.2467
▁repertoire	-10.2468
▁2008),	-10.2469
▁[25].	-10.2471
▁nucle	-10.2479
▁valuable	-10.2484
lam	-10.2486
iformes	-10.2492
▁refugia	-10.2493
▁Mya	-10.2503
▁consideration	-10.2504
▁stop	-10.2505
▁fibres	-10.2507
cephal	-10.2517
▁1989)	-10.2518
▁preferences	-10.2518
▁rodents	-10.2519
oni	-10.2519
population	-10.2523
▁starting	-10.2524
rio	-10.2529
west	-10.2531
▁assessed	-10.2533
Type	-10.2533
nes	-10.2538
itz	-10.2547
vel	-10.2548
biased	-10.2549
▁image	-10.2549
▁eco	-10.2554
▁lys	-10.2557
rog	-10.2561
▁FA	-10.2563
FP	-10.2566
▁removal	-10.2568
▁addressed	-10.257
pri	-10.2577
▁carbohydrate	-10.2585
▁Only	-10.2588
cis	-10.2588
▁reduces	-10.2591
▁extensively	-10.2593
▁convert	-10.2599
▁equi	-10.2604
rc	-10.2605
▁emerge	-10.2609
▁decade	-10.261
▁informative	-10.261
▁home	-10.2614
▁orient	-10.2615
▁dolphin	-10.2619
▁pronounced	-10.2619
▁pathogenic	-10.2619
agu	-10.2621
▁cy	-10.2624
▁integrate	-10.2634
▁thermo	-10.2638
▁CT	-10.2639
▁applications	-10.264
▁lip	-10.2642
▁hindlimb	-10.2644
▁researchers	-10.2654
▁span	-10.2657
back	-10.2659
clade	-10.266
offs	-10.2661
well	-10.2668
▁protect	-10.2672
ook	-10.2673
leg	-10.2677
▁rhythm	-10.2678
▁add	-10.2678
▁boundary	-10.2681
▁validation	-10.2684
46	-10.269
acea	-10.269
▁interval	-10.2695
▁lift	-10.2695
▁ensure	-10.2695
▁uses	-10.27
arth	-10.2701
non	-10.2701
▁communities	-10.2704
▁rich	-10.2704
▁differs	-10.2705
▁advance	-10.2711
Mo	-10.2712
▁discuss	-10.272
▁unexpected	-10.2721
▁prolonged	-10.2721
GA	-10.2726
▁sponge	-10.273
▁proportional	-10.2731
56	-10.2731
▁predominantly	-10.2732
▁sign	-10.2733
▁elephant	-10.2738
▁causing	-10.2738
emia	-10.275
receptor	-10.2753
atter	-10.2753
morphic	-10.2765
lip	-10.2767
▁Ga	-10.2769
▁Hsp	-10.277
▁thin	-10.2773
▁marked	-10.2774
▁attachment	-10.2781
▁quickly	-10.2781
▁grass	-10.2781
▁5-	-10.2785
section	-10.2786
▁remarkable	-10.2789
▁fed	-10.2792
AA	-10.2793
umb	-10.2796
▁1988;	-10.2798
▁ribosomal	-10.2798
Sch	-10.28
ith	-10.2804
▁compound	-10.2805
▁competitive	-10.2807
▁criteria	-10.2807
▁methylation	-10.2814
mid	-10.2832
▁retain	-10.2833
SD	-10.2834
Br	-10.2837
▁divided	-10.284
▁opening	-10.285
▁progenitor	-10.285
▁[17,	-10.285
▁dynamical	-10.2857
▁[18,	-10.2868
▁hypothesize	-10.2875
▁3,	-10.2888
▁game	-10.2889
▁displayed	-10.2891
▁Island	-10.2894
DS	-10.2902
▁isoform	-10.2903
▁distant	-10.2904
▁world	-10.291
▁concern	-10.2916
▁innate	-10.2919
▁uniform	-10.2926
▁chosen	-10.2927
▁thrust	-10.2928
▁SO	-10.2939
trained	-10.2942
▁[46]	-10.2949
▁build	-10.2951
oh	-10.2954
▁determination	-10.2954
▁&	-10.296
▁demands	-10.2963
▁agree	-10.297
▁continue	-10.2971
▁IGF	-10.2981
▁placement	-10.2982
▁nine	-10.2985
▁[28]	-10.2988
▁brood	-10.2989
▁burrow	-10.2989
▁GA	-10.2997
▁Dis	-10.2997
TF	-10.2998
▁pure	-10.2998
▁cricket	-10.2998
▁proto	-10.3006
odes	-10.301
▁night	-10.3011
ographic	-10.3013
▁[28].	-10.3019
▁appearance	-10.3024
▁uncover	-10.3025
▁[26].	-10.3039
which	-10.3043
▁biologically	-10.3052
emi	-10.3054
▁calculation	-10.306
▁pollen	-10.306
▁turnover	-10.3062
▁created	-10.3063
▁displacement	-10.3069
ade	-10.3071
▁fins	-10.3071
▁[48]	-10.3077
PT	-10.3077
▁Model	-10.3079
axis	-10.308
▁residue	-10.3081
▁aspect	-10.3082
▁Bar	-10.3085
▁max	-10.3086
▁operon	-10.3087
▁inhibitors	-10.3091
otic	-10.3092
▁keep	-10.3096
SR	-10.3102
▁specialization	-10.3108
▁Gl	-10.311
▁ultimately	-10.3111
▁causal	-10.3114
EN	-10.3119
▁raise	-10.3122
▁chromatin	-10.3123
▁connection	-10.3125
▁vortex	-10.3131
▁consisting	-10.3132
▁breast	-10.314
▁Pacific	-10.3144
synonymous	-10.315
▁suite	-10.3152
chemical	-10.3157
right	-10.3159
▁TLR	-10.3163
▁orders	-10.3165
▁improvement	-10.3175
ode	-10.3176
▁Methods	-10.3176
▁pha	-10.3176
▁[29]	-10.318
▁peri	-10.3184
▁digit	-10.3186
▁imply	-10.3188
▁[26]	-10.3189
static	-10.3192
▁infections	-10.3193
▁spiders	-10.3194
▁calibration	-10.3197
DP	-10.3198
lateral	-10.3198
ju	-10.3202
▁relevance	-10.3203
▁attractive	-10.3203
ifera	-10.3204
▁forelimb	-10.3212
▁became	-10.3212
▁0.2	-10.3213
▁ones	-10.322
▁protocol	-10.3221
GT	-10.3222
neu	-10.3224
ema	-10.3226
▁metal	-10.3228
▁enzymatic	-10.3229
▁pseudo	-10.3234
▁electron	-10.3235
▁jet	-10.3237
▁scheme	-10.3239
▁EST	-10.324
cop	-10.3246
EG	-10.3248
▁machinery	-10.325
29	-10.325
▁name	-10.3257
phosphate	-10.3258
▁investment	-10.3258
▁parasitic	-10.3261
▁deal	-10.3264
▁bodies	-10.3266
▁sun	-10.3268
▁replicate	-10.3268
▁readily	-10.3275
comb	-10.3279
▁Yet	-10.329
containing	-10.3294
▁Cell	-10.3299
▁defect	-10.3303
amm	-10.3306
▁epithelium	-10.3311
▁SR	-10.3314
▁reconstructed	-10.3314
att	-10.3325
troph	-10.3325
▁[47]	-10.3328
▁reproduce	-10.3329
▁failure	-10.333
characterization	-10.333
▁predictive	-10.3333
97	-10.3337
▁assays	-10.3341
ophora	-10.3342
▁Bur	-10.3351
▁anaerobic	-10.3356
LS	-10.3366
▁property	-10.3367
including	-10.3368
▁phage	-10.3368
ery	-10.3369
▁transformation	-10.3369
▁vir	-10.3377
▁plane	-10.338
anus	-10.338
▁removed	-10.3382
▁travel	-10.3394
St	-10.34
▁takes	-10.3414
▁MI	-10.3415
ising	-10.3424
▁nutritional	-10.3425
100	-10.3427
▁(~	-10.3431
▁arthropods	-10.3432
▁methodology	-10.3437
▁Phylogenetic	-10.3439
▁spp	-10.3439
▁rearrangements	-10.3442
▁1985;	-10.3448
hard	-10.3449
▁assessment	-10.3459
▁Their	-10.3462
▁seals	-10.3466
▁anatomical	-10.3466
other	-10.3468
▁mimic	-10.3476
▁codons	-10.3477
PE	-10.3487
▁flying	-10.3489
′	-10.3494
linked	-10.3497
▁canal	-10.3497
▁bars	-10.3498
▁partly	-10.3499
▁diving	-10.3503
▁failed	-10.3506
▁directed	-10.351
▁plot	-10.3511
▁consist	-10.3511
▁proteome	-10.3512
▁membranes	-10.3517
oids	-10.3517
▁Comp	-10.352
▁discriminate	-10.352
▁overcome	-10.3522
63	-10.3524
▁2009),	-10.3528
PG	-10.3532
▁pseudogene	-10.3535
200	-10.3536
wing	-10.3539
▁prominent	-10.3549
▁haplogroup	-10.355
▁transporter	-10.3551
▁[49]	-10.3551
▁Go	-10.3564
pair	-10.3564
7–	-10.3566
▁dependence	-10.3568
▁[19,	-10.3569
▁produces	-10.3572
95	-10.3576
▁yellow	-10.3577
▁smooth	-10.3577
▁played	-10.3577
▁receive	-10.3578
▁branching	-10.358
▁partition	-10.358
BS	-10.3583
▁cut	-10.3587
▁validated	-10.3587
▁disorder	-10.3588
▁That	-10.3589
▁NR	-10.359
▁driver	-10.3596
▁challenging	-10.3596
somal	-10.3601
4–	-10.3602
generation	-10.3602
cies	-10.3608
▁zones	-10.3608
▁recruitment	-10.3618
▁object	-10.3618
▁issues	-10.3626
▁differed	-10.3629
▁soil	-10.3632
▁restriction	-10.3632
▁nematode	-10.3641
▁contributes	-10.3642
▁cyanobacteria	-10.3643
▁Future	-10.3643
dactyl	-10.3644
▁relate	-10.3648
▁entirely	-10.365
▁1988)	-10.3652
▁z	-10.3655
▁mol	-10.3658
globin	-10.3659
dio	-10.3667
▁screen	-10.367
▁numerical	-10.3671
▁losses	-10.3672
▁leaves	-10.3684
▁crabs	-10.3688
▁equally	-10.3688
▁flexible	-10.369
▁hypoxic	-10.369
▁Mus	-10.3692
aud	-10.3695
▁stance	-10.3696
▁Results	-10.3699
yne	-10.3701
▁emerged	-10.3701
▁mini	-10.3702
▁partners	-10.3707
▁migratory	-10.3709
▁coupling	-10.3709
▁consume	-10.3713
▁Pla	-10.3713
script	-10.3714
▁Cu	-10.3715
▁[20,	-10.3719
▁SNPs	-10.3723
▁somewhat	-10.3728
▁predicting	-10.373
▁ideal	-10.3732
▁1),	-10.3736
▁operate	-10.3739
▁∼	-10.374
▁sustained	-10.3741
67	-10.3742
▁accompanied	-10.3746
cker	-10.3756
▁Inter	-10.3762
ebb	-10.3762
Ro	-10.3765
▁expenditure	-10.3765
▁lethal	-10.3765
▁investigating	-10.3775
▁annotated	-10.3775
rv	-10.3777
▁antigen	-10.3782
▁resemble	-10.3784
▁gills	-10.3789
▁bending	-10.3794
▁shark	-10.3795
▁ice	-10.3799
▁flat	-10.38
▁gradients	-10.3802
▁sorting	-10.3804
jo	-10.3807
9)	-10.3809
CE	-10.3812
▁retention	-10.3813
hydro	-10.3822
▁amphibian	-10.3823
▁stickleback	-10.3823
▁dense	-10.3826
▁rice	-10.3828
▁symbionts	-10.3829
▁ear	-10.3833
▁preferred	-10.3843
▁believe	-10.3843
GR	-10.3844
▁chance	-10.3847
▁outer	-10.3849
▁defence	-10.3851
▁GR	-10.3857
▁alpha	-10.3859
▁permit	-10.3859
An	-10.3863
▁alterations	-10.3864
▁solutions	-10.3872
9%	-10.3875
▁stride	-10.3875
load	-10.3882
▁otherwise	-10.3884
▁sexes	-10.3885
▁inhibitory	-10.3886
▁implemented	-10.3889
EM	-10.3894
▁involvement	-10.3895
▁increasingly	-10.3896
▁neuron	-10.3898
head	-10.39
▁endosymbiont	-10.3909
▁taking	-10.3913
▁carp	-10.3915
▁[32]	-10.3915
▁[30]	-10.3915
rian	-10.3919
Mar	-10.392
▁daily	-10.3928
▁33	-10.3935
▁bra	-10.3941
57	-10.3943
ened	-10.3943
▁van	-10.3945
=1	-10.3945
▁cuticle	-10.3947
▁guide	-10.3948
▁candidates	-10.3949
▁none	-10.3951
▁statistic	-10.3954
▁actively	-10.3962
tolerant	-10.3964
▁hydrodynamic	-10.3967
volu	-10.3968
▁6).	-10.3971
▁[29].	-10.3974
▁1987)	-10.3986
▁protection	-10.3993
2/	-10.3994
amide	-10.3995
▁32	-10.3998
ptera	-10.4005
▁hundred	-10.4015
▁height	-10.4017
▁combine	-10.4017
▁snails	-10.4017
▁clones	-10.4019
▁links	-10.402
▁ME	-10.4025
aba	-10.4027
tum	-10.4032
genomic	-10.4034
long	-10.4034
▁inherent	-10.4035
hill	-10.4043
▁loops	-10.4043
▁progress	-10.4045
▁categories	-10.4054
▁thaliana	-10.4054
▁effector	-10.4059
▁analyzing	-10.4064
▁cytokine	-10.4064
▁PCR	-10.4064
AMP	-10.4064
98	-10.4066
ming	-10.4066
▁rarely	-10.4071
▁immediately	-10.4072
▁variant	-10.4081
▁engineering	-10.4084
▁introduction	-10.4084
▁regardless	-10.4085
fusion	-10.4099
▁Studies	-10.4103
▁Gal	-10.4108
▁ultra	-10.4113
▁onto	-10.4118
▁lowest	-10.412
▁1984;	-10.4123
▁epigenetic	-10.4124
gar	-10.4129
▁examining	-10.4133
meta	-10.4133
▁coefficients	-10.4138
▁vascular	-10.4143
▁superfamily	-10.4143
▁Hy	-10.4144
▁[30].	-10.4146
▁11]	-10.4147
▁simultaneous	-10.4148
▁Ste	-10.4149
aph	-10.415
▁lymph	-10.4153
▁Gu	-10.4156
▁scores	-10.4157
▁house	-10.4161
▁caudal	-10.4163
chordate	-10.4163
▁stimulate	-10.4165
trophy	-10.4166
▁avoidance	-10.4167
▁2]	-10.4172
▁km	-10.4172
▁courtship	-10.4172
▁dehydrogenase	-10.4172
▁dives	-10.4175
▁exhibits	-10.4177
▁trajectories	-10.4182
▁knockout	-10.4183
▁spore	-10.4186
▁zebra	-10.4191
▁topologies	-10.4192
rib	-10.4201
▁Mor	-10.4202
▁λ	-10.4211
ME	-10.4211
▁eliminate	-10.4212
▁birth	-10.4212
▁vast	-10.4215
▁cho	-10.4216
EL	-10.4216
▁consequently	-10.4218
▁advantages	-10.4221
▁check	-10.4223
▁incorporate	-10.4224
▁sand	-10.4226
▁believed	-10.423
class	-10.4231
▁therapeutic	-10.4242
▁scope	-10.4243
▁tooth	-10.4248
mel	-10.4248
▁Bio	-10.4255
5°	-10.4256
idase	-10.4257
▁EF	-10.426
expressed	-10.426
▁minimize	-10.4262
var	-10.4264
▁Boolean	-10.4272
▁osmo	-10.4282
▁accumulate	-10.4294
▁latitude	-10.4302
▁lactate	-10.4302
▁injection	-10.4302
▁beginning	-10.4303
▁mt	-10.4303
aga	-10.4309
bel	-10.4313
▁suppression	-10.4313
continent	-10.4322
▁localized	-10.4326
▁OR	-10.4327
86	-10.4329
▁received	-10.4331
lines	-10.4334
▁RH	-10.4339
▁argue	-10.4346
cher	-10.4346
–1)	-10.4357
▁enables	-10.4358
▁1987;	-10.4362
▁1983;	-10.4372
▁hours	-10.4372
▁pairwise	-10.4373
▁West	-10.4382
▁1985)	-10.4382
▁Australia	-10.4389
▁ecosystem	-10.4392
lated	-10.4393
▁utilize	-10.4395
run	-10.4404
linear	-10.4405
NT	-10.4405
▁solely	-10.4411
field	-10.4422
▁probe	-10.4424
▁coincide	-10.4426
▁replacement	-10.4433
▁construction	-10.4434
▁[22,	-10.4436
put	-10.4438
▁evolutionarily	-10.4443
▁cha	-10.4444
regulatory	-10.4446
▁Not	-10.4448
▁histories	-10.4453
▁Hu	-10.4455
enberg	-10.4459
▁somatic	-10.4462
▁forming	-10.4463
product	-10.4465
such	-10.4475
▁paralog	-10.448
▁cyclin	-10.4482
▁index	-10.4487
0,000	-10.449
▁fiber	-10.449
▁boundaries	-10.4494
▁shortening	-10.4494
▁[51]	-10.4495
odi	-10.4497
▁invertebrate	-10.4497
▁12]	-10.4498
▁17]	-10.4505
thal	-10.451
▁contributing	-10.4514
▁behind	-10.4514
▁torpor	-10.4515
▁29	-10.4517
bert	-10.4526
▁morphologically	-10.4531
loss	-10.4531
▁decay	-10.4535
▁tit	-10.4538
▁[50]	-10.454
cro	-10.4541
enni	-10.4541
Smith	-10.4542
rick	-10.4543
▁VEGF	-10.4545
char	-10.4557
▁strand	-10.4559
Car	-10.4559
▁γ	-10.4562
GE	-10.4563
▁fail	-10.4571
▁combining	-10.4576
▁evaluation	-10.4576
▁measuring	-10.4586
▁begin	-10.4586
▁flowers	-10.4588
▁pigments	-10.4589
▁patch	-10.459
▁DR	-10.459
▁biased	-10.459
lt	-10.4605
▁naturally	-10.4609
▁shock	-10.461
▁arms	-10.4629
cili	-10.463
ID	-10.463
ough	-10.4631
▁complicated	-10.4634
locus	-10.4635
GS	-10.4639
▁frog	-10.4644
▁coastal	-10.4647
▁reside	-10.4648
▁dimer	-10.4651
rab	-10.4656
▁normally	-10.4656
▁Accordingly	-10.4675
▁tetrapod	-10.468
▁−	-10.4686
▁vesicle	-10.47
▁monitor	-10.47
▁brown	-10.47
▁hydrogen	-10.4701
▁multicellular	-10.4703
▁oxidation	-10.4704
wan	-10.4706
▁Due	-10.4707
onia	-10.471
▁honeybee	-10.471
▁Hb	-10.4711
▁circuits	-10.4712
▁draw	-10.4714
▁14]	-10.4714
▁descend	-10.4721
BD	-10.4723
▁Different	-10.4731
glacial	-10.4733
▁2009	-10.4737
▁carry	-10.4738
▁50%	-10.474
▁platform	-10.4742
▁pump	-10.4742
▁landmark	-10.4743
aaa	-10.4744
tail	-10.4746
▁subjected	-10.4751
▁absorb	-10.4752
▁amplification	-10.4763
▁inclusion	-10.4763
▁public	-10.4765
ford	-10.4768
uf	-10.4768
▁fragments	-10.4768
▁contradict	-10.4773
▁desiccation	-10.4773
▁10]	-10.4775
▁GP	-10.4779
▁15]	-10.4783
▁honey	-10.4784
▁Poly	-10.4787
▁Rab	-10.479
lex	-10.4791
gue	-10.4794
▁manual	-10.4808
▁MP	-10.4813
▁appendage	-10.4815
▁regulates	-10.4821
▁toxic	-10.4827
target	-10.4828
living	-10.4828
▁mosquito	-10.4836
▁weeks	-10.4838
▁targeting	-10.4839
▁[34].	-10.4845
cut	-10.4848
▁summer	-10.485
responsive	-10.4858
▁16]	-10.4868
▁[32].	-10.4872
▁45	-10.4872
▁convergent	-10.488
▁glands	-10.488
▁kin	-10.4884
ena	-10.489
▁[21,	-10.4894
▁broader	-10.4896
▁gives	-10.49
▁World	-10.49
▁excluded	-10.4904
▁stored	-10.4906
▁capabilities	-10.4911
▁convergence	-10.4911
▁translational	-10.4912
▁prim	-10.4913
bar	-10.4914
▁stream	-10.4917
gam	-10.4917
▁[53]	-10.4921
▁lactation	-10.4921
▁tension	-10.4922
▁clone	-10.4933
▁arose	-10.4935
▁recover	-10.494
▁Analysis	-10.4943
▁discussion	-10.4944
▁1996)	-10.4949
Williams	-10.4953
ij	-10.4958
▁hormones	-10.4962
▁Qu	-10.497
▁pad	-10.4975
▁disperse	-10.4975
▁tasks	-10.4987
▁SW	-10.4994
▁coast	-10.4996
▁debate	-10.4997
ken	-10.5
▁cent	-10.5
▁IV	-10.5002
Xdb	-10.5009
▁corals	-10.5014
▁fecundity	-10.5018
▁resistant	-10.5021
▁accepted	-10.5028
▁panel	-10.5028
×	-10.5031
▁concluded	-10.5034
▁Op	-10.5038
▁clustered	-10.5041
▁duplicates	-10.5057
treated	-10.5062
▁explicitly	-10.5064
▁mutational	-10.5073
γ	-10.5075
▁allopatric	-10.5082
▁mother	-10.5084
▁Miocene	-10.5093
▁trunk	-10.5093
▁govern	-10.5093
Fr	-10.5099
aving	-10.5102
▁maturation	-10.5104
▁contractions	-10.5106
▁posture	-10.5114
▁indication	-10.5116
DI	-10.5132
▁Conversely	-10.5137
▁comprising	-10.5137
▁indicator	-10.5137
▁concerning	-10.5141
▁whales	-10.5142
▁regional	-10.5143
▁ubiquitin	-10.5148
▁1982;	-10.5148
▁sec	-10.5148
phil	-10.5151
▁facilitated	-10.5163
▁emphasize	-10.5169
▁trends	-10.517
▁lakes	-10.5171
metric	-10.5171
▁sensor	-10.5179
▁18]	-10.5187
▁cavity	-10.5202
▁encodes	-10.5218
▁breed	-10.5219
▁approximate	-10.5222
▁GH	-10.5225
▁[52]	-10.523
▁cytoplasmic	-10.5231
▁argued	-10.5232
▁crustaceans	-10.5235
▁picture	-10.5235
▁thread	-10.5235
▁stresses	-10.5243
▁advantageous	-10.5246
cross	-10.5246
▁velocities	-10.5246
path	-10.5247
▁translate	-10.5251
▁paired	-10.5252
vol	-10.5256
▁iso	-10.5257
▁junction	-10.5257
escent	-10.5258
▁utilized	-10.5265
▁notion	-10.5265
▁modify	-10.5268
▁happen	-10.5268
Net	-10.5271
▁13]	-10.5276
print	-10.5281
▁CORT	-10.5282
▁suction	-10.5282
▁angiosperms	-10.5284
▁wind	-10.529
rach	-10.5292
tory	-10.5293
▁demonstrating	-10.5301
▁synthesize	-10.5301
▁2007	-10.5303
local	-10.5309
IL	-10.5309
▁box	-10.5311
▁ongoing	-10.5313
▁7)	-10.5324
▁taxonomy	-10.5326
called	-10.5332
natal	-10.5332
68	-10.5333
▁magnetic	-10.5335
▁Taken	-10.5335
▁photoreceptors	-10.5338
▁introduce	-10.5341
▁baseline	-10.5341
▁subgroup	-10.5343
▁nutrients	-10.5344
▁symbiont	-10.5344
▁1981;	-10.5346
▁myosin	-10.5347
lean	-10.5347
▁36	-10.5348
▁relaxed	-10.535
phase	-10.5352
▁1986;	-10.5357
▁stores	-10.5358
8)	-10.5363
OC	-10.5375
▁establishment	-10.5376
▁deeper	-10.5377
▁mosquitoes	-10.538
7)	-10.5383
▁cli	-10.539
▁Importantly	-10.539
▁metric	-10.5401
▁cleavage	-10.5401
▁describing	-10.5401
▁tubule	-10.5401
77	-10.5402
▁Bra	-10.5406
▁Ju	-10.5409
▁soft	-10.5412
▁analytical	-10.5413
▁conduct	-10.5416
▁closed	-10.5422
▁Current	-10.5424
▁Nonetheless	-10.5424
▁glycogen	-10.5436
▁ankle	-10.5447
vic	-10.5447
▁http	-10.5448
▁Du	-10.545
▁detecting	-10.5451
▁slowly	-10.5454
▁suffer	-10.5469
▁Her	-10.5471
85	-10.5474
▁70	-10.5475
▁attribute	-10.5475
methyl	-10.5476
▁bud	-10.5476
▁fasting	-10.5482
AU	-10.5486
▁centre	-10.5488
phyll	-10.5495
▁Hol	-10.5498
93	-10.5505
▁building	-10.5507
▁Late	-10.5511
Mc	-10.5514
▁benthic	-10.5514
▁kHz	-10.5514
▁aimed	-10.5514
▁dramatically	-10.5518
▁pitch	-10.5523
▁proximity	-10.5525
▁CYP	-10.5525
▁circles	-10.5527
Clark	-10.553
centric	-10.5535
▁cortisol	-10.5537
anger	-10.5539
▁images	-10.5547
history	-10.5554
gram	-10.5559
▁constitutive	-10.5559
▁Third	-10.5559
▁Protein	-10.5559
▁bond	-10.556
▁efficiently	-10.5562
▁worth	-10.5571
▁stimulated	-10.5575
defined	-10.5577
▁harbor	-10.5582
▁phenomena	-10.5582
lc	-10.5583
▁strict	-10.5587
▁realistic	-10.5596
iro	-10.5598
ophytes	-10.56
▁[34]	-10.5607
structure	-10.5612
ococcus	-10.5613
▁spider	-10.5615
direct	-10.5623
▁cis	-10.5627
▁asymmetry	-10.5628
▁marsupial	-10.5628
▁arrest	-10.5628
▁persistence	-10.563
zz	-10.563
▁polyploid	-10.5634
▁track	-10.5635
▁configuration	-10.5639
▁promising	-10.5639
▁geographically	-10.5643
▁row	-10.5644
▁Syn	-10.5647
▁Wi	-10.5649
▁hip	-10.5649
typic	-10.565
▁23]	-10.5651
▁habit	-10.5658
▁[23,	-10.5664
angle	-10.5673
▁Rho	-10.5673
▁compatible	-10.5673
▁flowering	-10.5673
▁approximation	-10.5673
▁objects	-10.5677
▁primate	-10.5678
▁TGF	-10.5685
▁disruption	-10.569
▁yolk	-10.5696
▁Clade	-10.5698
▁star	-10.5705
▁1983)	-10.5708
▁complementary	-10.5711
06	-10.5712
▁exclude	-10.5715
NO	-10.5718
Bo	-10.5722
▁broadly	-10.5724
stoma	-10.5724
▁protease	-10.5731
transferase	-10.5743
▁[24,	-10.5745
▁[54]	-10.5746
rk	-10.575
▁shaped	-10.5753
▁Ver	-10.5754
▁congruent	-10.5754
▁histone	-10.5754
▁turtle	-10.5756
Green	-10.5761
model	-10.5762
assi	-10.5765
▁longitudinal	-10.5766
▁proteomic	-10.5766
▁named	-10.5766
iana	-10.577
▁coverage	-10.577
▁San	-10.577
%	-10.5774
▁squid	-10.5777
▁click	-10.5778
▁kinematic	-10.578
▁undergone	-10.5782
▁Che	-10.5785
▁distantly	-10.5786
▁hemolymph	-10.5789
▁magn	-10.5793
▁Wood	-10.5797
iger	-10.5797
▁words	-10.5801
▁sufficiently	-10.5806
▁coloration	-10.5807
▁put	-10.5812
▁conformation	-10.5812
▁Unlike	-10.5812
▁extinct	-10.5815
ney	-10.5817
▁kb	-10.5818
▁methyl	-10.582
▁HIV	-10.5821
▁tribe	-10.5823
▁reciprocal	-10.5824
fit	-10.5827
▁switching	-10.5832
▁Gro	-10.5832
feeding	-10.5833
▁moths	-10.5833
evolutionary	-10.5835
▁abdominal	-10.5836
▁donor	-10.5837
ography	-10.584
▁48	-10.584
producing	-10.5844
▁eventually	-10.5847
▁polymorphic	-10.5849
07	-10.5856
▁penguin	-10.5859
known	-10.5863
▁Har	-10.5869
▁examination	-10.5871
▁mountain	-10.5871
0.05	-10.5877
▁dramatic	-10.5879
zon	-10.5882
▁hierarchical	-10.5894
▁personal	-10.5894
Taylor	-10.5895
83	-10.5898
▁2008	-10.5901
positive	-10.5903
▁How	-10.5904
▁wake	-10.5906
▁File	-10.5913
▁balancing	-10.5918
▁editing	-10.5918
▁clonal	-10.5918
ostom	-10.5918
▁ω	-10.5919
▁22]	-10.5919
▁gall	-10.5934
▁plastic	-10.5936
phen	-10.5937
▁separately	-10.5938
III	-10.5949
▁tetra	-10.5964
▁motility	-10.5965
▁phosphate	-10.5975
▁Whether	-10.5977
▁lifespan	-10.5977
ji	-10.5977
oster	-10.598
▁rock	-10.5984
▁nonlinear	-10.5984
▁determinant	-10.5989
▁1984)	-10.5989
ozoa	-10.5995
▁exponential	-10.6002
▁crown	-10.6003
driven	-10.601
▁media	-10.601
▁intriguing	-10.6012
▁Group	-10.6014
▁solid	-10.6021
▁adequate	-10.6024
▁spontaneous	-10.6024
▁tendency	-10.6026
71	-10.6029
CoA	-10.6035
▁indicative	-10.6036
cata	-10.6039
itch	-10.6042
▁recognize	-10.6043
▁translocation	-10.6048
▁antibiotic	-10.605
iii	-10.6057
▁circulating	-10.606
▁reptiles	-10.606
▁compress	-10.6061
▁acetyl	-10.6062
▁roughly	-10.6063
▁progressive	-10.6065
▁get	-10.6068
▁[55]	-10.6068
▁cue	-10.6068
▁jumping	-10.6069
system	-10.607
▁originally	-10.6072
▁saturation	-10.6072
bound	-10.6076
xfr	-10.6077
▁90	-10.6078
rine	-10.6079
▁ti	-10.608
▁2011	-10.6082
▁parasitoid	-10.6084
▁synthase	-10.6084
▁render	-10.6086
▁median	-10.6086
▁differing	-10.6086
▁27]	-10.6088
▁encompass	-10.6096
▁practical	-10.6096
▁sequential	-10.6096
▁susceptibility	-10.6108
▁unlike	-10.6115
Δ	-10.6118
war	-10.6122
▁depletion	-10.6132
▁earliest	-10.6132
▁1986)	-10.6132
▁horse	-10.6133
▁rodent	-10.6133
▁[26,	-10.6134
▁reward	-10.6138
▁Unfortunately	-10.6144
urus	-10.616
▁greatest	-10.6163
▁perception	-10.6168
▁quantified	-10.6168
rgic	-10.6178
▁glutamate	-10.6179
▁lifestyle	-10.618
▁scan	-10.6181
▁imposed	-10.6184
▁detectable	-10.6184
iff	-10.6187
physiological	-10.6191
▁periodic	-10.6192
▁photosynthetic	-10.6192
▁buffer	-10.6192
▁zinc	-10.6192
▁allocation	-10.6192
▁randomly	-10.6199
ester	-10.6206
ncRNA	-10.6209
frequency	-10.6215
▁reef	-10.6217
87	-10.6228
▁assuming	-10.6229
▁recruit	-10.6237
▁chamber	-10.6241
▁paralogous	-10.6244
▁requirement	-10.6244
▁transform	-10.6244
cyto	-10.6244
standing	-10.6248
▁utilization	-10.6253
▁indirectly	-10.626
▁Chi	-10.6261
strict	-10.6261
▁fertilization	-10.6265
▁swing	-10.6265
▁refine	-10.6273
▁insert	-10.6276
▁meso	-10.6276
▁stabilize	-10.6277
▁worms	-10.628
▁beetles	-10.6281
▁valid	-10.6289
▁insufficient	-10.6302
host	-10.6302
▁[57]	-10.6303
▁digestive	-10.6303
▁meal	-10.6311
▁prefer	-10.6314
▁answer	-10.6315
obacter	-10.6317
▁occupy	-10.6326
▁threat	-10.6326
▁months	-10.6326
ibb	-10.6338
▁Uni	-10.6338
▁Together	-10.6338
▁reinforce	-10.6338
88	-10.634
AST	-10.6349
▁occasion	-10.6351
▁underlie	-10.6352
0.5	-10.636
▁abilities	-10.6363
distance	-10.6364
▁coordination	-10.6375
▁figure	-10.6375
▁window	-10.6377
▁duplicate	-10.6377
▁organic	-10.6382
▁feasible	-10.6388
▁viable	-10.6392
▁performing	-10.6395
clusive	-10.6411
▁inherited	-10.6412
▁aggressive	-10.6412
▁intense	-10.6415
▁ecologically	-10.6415
▁sexually	-10.6416
▁null	-10.6421
▁navigation	-10.6425
thermic	-10.6425
supplementary	-10.644
▁dating	-10.6445
▁haem	-10.6446
▁antennal	-10.6453
▁viability	-10.6454
▁functionality	-10.646
▁square	-10.6462
▁axon	-10.6473
▁Consistent	-10.6474
▁clarify	-10.6474
rew	-10.6477
prote	-10.648
▁prevalence	-10.6487
▁sediment	-10.6487
▁tracheal	-10.6492
▁arrow	-10.6495
▁[56]	-10.6497
net	-10.6499
▁accordance	-10.6499
▁emerging	-10.6499
▁mechanics	-10.6499
▁denote	-10.6505
▁SNP	-10.6506
▁secreted	-10.6508
tidae	-10.6508
78	-10.6508
ivorous	-10.6513
birds	-10.6521
▁wider	-10.6522
▁cast	-10.6523
▁rub	-10.6528
▁thick	-10.6529
▁width	-10.6537
▁shaping	-10.6537
▁Glu	-10.6537
▁versa	-10.6538
ffer	-10.6539
aging	-10.6548
▁retinal	-10.6548
▁charge	-10.6549
opsis	-10.6559
▁derive	-10.656
▁recordings	-10.6564
▁static	-10.6573
▁apparatus	-10.6574
▁circular	-10.6574
▁ORF	-10.6577
gna	-10.6582
▁systematically	-10.6584
▁incorporated	-10.6584
▁Daphnia	-10.6587
▁integrating	-10.6587
▁Three	-10.6587
▁reflecting	-10.6588
▁exclusive	-10.659
▁closest	-10.6592
▁elongat	-10.6594
▁26]	-10.6594
▁costly	-10.6598
▁plasmid	-10.66
▁universal	-10.66
▁transmembrane	-10.66
band	-10.6601
aff	-10.6602
▁JH	-10.6603
▁accelerated	-10.6607
▁conservative	-10.6612
▁hatching	-10.6612
▁sharing	-10.6612
▁tuning	-10.6612
▁basin	-10.6625
▁accumulated	-10.6634
▁Over	-10.6636
▁circum	-10.6637
▁[25,	-10.664
▁trajectory	-10.665
▁contrary	-10.665
GO	-10.6654
▁GRN	-10.6662
▁organelle	-10.6663
▁cyclic	-10.6666
▁lake	-10.6667
▁discover	-10.6668
▁{	-10.6669
mination	-10.6675
▁essentially	-10.6675
▁precision	-10.6676
opt	-10.6676
uff	-10.6676
▁allelic	-10.6676
▁participate	-10.6684
▁vibration	-10.6688
▁sole	-10.6695
▁densities	-10.6701
▁nectar	-10.6701
▁cDNA	-10.6702
▁kill	-10.6702
▁pyruvate	-10.6714
▁utility	-10.6714
▁applying	-10.6721
▁2006	-10.6722
▁crayfish	-10.6726
▁deterministic	-10.6726
▁teeth	-10.6739
▁2012;	-10.6739
▁38	-10.6743
horn	-10.6744
▁2010	-10.6748
▁built	-10.6752
▁cAMP	-10.6759
▁matching	-10.6763
73	-10.6763
▁article	-10.6765
▁gained	-10.6765
▁coevolution	-10.6769
▁carrying	-10.6773
▁distinctive	-10.6777
▁fuel	-10.6778
▁inhibited	-10.6784
pelagic	-10.679
ophilic	-10.68
▁initiate	-10.6802
▁projection	-10.6802
▁inverse	-10.6804
evolution	-10.6812
▁regeneration	-10.6813
▁200	-10.6814
bio	-10.6815
▁adhesive	-10.6816
79	-10.6821
▁symmetric	-10.6829
▁1981)	-10.6829
aka	-10.6839
▁conditioning	-10.6839
▁maximize	-10.6842
▁Ocean	-10.6842
▁δ	-10.6847
▁simulate	-10.6853
▁compensatory	-10.6855
▁diapause	-10.6855
▁estimating	-10.6855
▁serotonin	-10.6855
▁ubiquitous	-10.6855
▁foragers	-10.6855
▁dB	-10.6869
▁crab	-10.687
▁freezing	-10.6881
▁Notably	-10.6882
▁termed	-10.6886
▁interference	-10.6894
▁yielded	-10.6899
body	-10.69
stein	-10.6901
▁echolocation	-10.6907
▁permeability	-10.6907
ä	-10.6907
▁compromise	-10.6907
▁What	-10.6907
▁injury	-10.6907
▁compass	-10.6907
▁sharp	-10.6907
▁walk	-10.6908
sensory	-10.6911
▁toxicity	-10.6913
glyco	-10.6918
▁abnormal	-10.692
▁seal	-10.692
▁2003	-10.6925
▁mussel	-10.6933
▁grey	-10.6933
▁Western	-10.6934
▁moth	-10.6936
ozoan	-10.6938
▁calculate	-10.6945
▁applicable	-10.6946
ogram	-10.6947
▁constrain	-10.6952
▁flower	-10.6952
▁chimpanzee	-10.6959
▁exogenous	-10.6959
▁musculature	-10.6959
▁spike	-10.6959
▁0.3	-10.6962
▁certainly	-10.6963
length	-10.6975
▁proton	-10.6979
shore	-10.6989
▁tightly	-10.6995
▁attraction	-10.6998
▁Class	-10.6999
atum	-10.7008
▁susceptible	-10.7011
coming	-10.7021
▁HCO	-10.703
▁lag	-10.7033
IV	-10.7041
89	-10.7049
factor	-10.705
▁25]	-10.7053
llar	-10.7055
▁biodiversity	-10.7064
▁sucrose	-10.7064
▁stationary	-10.7077
▁Pho	-10.7081
▁Fish	-10.7082
▁round	-10.7085
▁Considering	-10.709
▁conventional	-10.709
▁parsimony	-10.709
▁subtypes	-10.7091
talk	-10.7116
scribed	-10.7126
▁cysteine	-10.713
▁Eurasia	-10.713
▁raised	-10.7131
▁[59]	-10.7132
▁US	-10.7135
▁cytochrome	-10.7143
▁patches	-10.7145
▁dominance	-10.715
▁Notch	-10.715
▁osmotic	-10.7166
▁ODE	-10.7167
iidae	-10.7168
▁aerodynamic	-10.717
▁confound	-10.717
▁BMP	-10.7173
▁outgroup	-10.7178
▁associate	-10.7183
▁muscular	-10.7183
▁altitude	-10.7186
parasite	-10.7189
activated	-10.7189
▁preferentially	-10.7195
̇	-10.7197
τ	-10.7197
▁hydrophobic	-10.7197
▁probable	-10.7197
▁visible	-10.7197
▁Mean	-10.7198
▁immediate	-10.72
▁Australian	-10.72
▁triggered	-10.7201
more	-10.7203
▁bridge	-10.7203
▁coordinated	-10.7207
▁QTL	-10.721
▁leuc	-10.7212
▁transcriptomic	-10.7212
▁infect	-10.7212
▁plus	-10.7214
▁Sub	-10.722
▁28]	-10.7225
▁originate	-10.7234
▁prokaryotes	-10.7237
▁1982)	-10.7237
▁restrict	-10.7239
▁virtual	-10.7251
▁steroid	-10.7251
▁[27,	-10.7252
▁canonical	-10.7258
▁lac	-10.726
Johnson	-10.7264
▁homing	-10.7264
loop	-10.7264
▁computation	-10.7272
▁tick	-10.7276
▁annual	-10.7279
independent	-10.728
▁pest	-10.7295
▁implementation	-10.7303
▁silencing	-10.7304
▁assignment	-10.7304
▁eIF	-10.7305
▁relies	-10.7305
▁reared	-10.7305
▁claw	-10.7311
▁electric	-10.7314
▁regarded	-10.7316
▁obstacle	-10.7318
▁twice	-10.7318
▁operating	-10.7318
▁influenza	-10.7331
▁gonad	-10.7332
▁odorant	-10.7336
asso	-10.734
▁30]	-10.7353
▁upregulated	-10.7353
▁disturbance	-10.7359
▁collagen	-10.7372
▁hibernation	-10.7372
filled	-10.7377
▁COM	-10.7379
▁Comparison	-10.7386
▁ontogeny	-10.7386
▁strike	-10.7386
bach	-10.7387
▁wood	-10.7389
shaped	-10.7393
▁wasps	-10.7394
▁tight	-10.7397
▁manipulate	-10.74
▁anoxia	-10.74
▁ontogenetic	-10.74
▁lobe	-10.7407
▁gave	-10.7409
▁predictor	-10.741
▁ovarian	-10.7413
▁axial	-10.7415
▁tracking	-10.7418
▁nuclei	-10.7424
▁excellent	-10.7427
▁law	-10.7427
▁algal	-10.7429
terior	-10.743
▁34	-10.743
▁update	-10.7445
ender	-10.7448
▁opportunities	-10.7454
▁crystal	-10.7454
▁urine	-10.7456
▁Trans	-10.746
aki	-10.7463
▁computer	-10.7465
▁transmitted	-10.7469
tailed	-10.7472
▁PIN	-10.7479
▁came	-10.748
mean	-10.7484
▁antennae	-10.7487
▁brief	-10.7496
▁fashion	-10.7496
−1)	-10.7496
▁aging	-10.7496
otropic	-10.75
▁precisely	-10.7502
▁enabled	-10.7505
www	-10.7509
▁differentiate	-10.7511
▁[58]	-10.7511
▁homogeneous	-10.7522
▁Hill	-10.7527
cel	-10.7528
▁folding	-10.7538
▁partitioning	-10.7538
▁bring	-10.754
{	-10.7544
▁giving	-10.7551
▁difficulty	-10.7557
▁capability	-10.7568
hydr	-10.7573
step	-10.7576
nucleotide	-10.7578
▁knockdown	-10.7579
▁Early	-10.7579
▁phyla	-10.7579
▁screening	-10.758
▁fibre	-10.7583
▁compete	-10.7584
▁met	-10.7586
▁captured	-10.7588
▁repression	-10.7589
▁acetate	-10.7592
▁Indian	-10.7594
▁probabilities	-10.7606
▁urchin	-10.7606
▁meaningful	-10.7606
▁venom	-10.7607
▁novo	-10.7607
▁perfect	-10.7607
▁dogs	-10.7615
▁cockroach	-10.762
▁preliminary	-10.762
meter	-10.7627
from	-10.7628
box	-10.764
ship	-10.764
terminus	-10.7646
Bennet	-10.765
▁Southern	-10.7652
▁stripe	-10.7653
▁east	-10.7655
▁32]	-10.7659
▁1979;	-10.7662
▁exploration	-10.7662
▁invasive	-10.7662
▁coexist	-10.7667
▁0.9	-10.7668
▁proven	-10.7671
chromatic	-10.7674
▁pollinator	-10.7676
▁Besides	-10.7676
▁inertia	-10.7684
▁Man	-10.7687
▁bottom	-10.769
▁bioinformatic	-10.769
▁routine	-10.769
▁knee	-10.769
▁shear	-10.7694
▁eel	-10.7697
adapted	-10.7699
▁lobster	-10.7704
▁nocturnal	-10.7704
▁aggregation	-10.7704
▁sensing	-10.7705
▁0.8	-10.771
▁29]	-10.771
▁advanced	-10.7721
polar	-10.7722
▁Biewener	-10.7727
▁compensation	-10.7733
▁meet	-10.7743
▁pigeons	-10.7747
▁sweep	-10.7747
▁characterised	-10.7749
▁extrinsic	-10.7761
▁highlighted	-10.7766
balance	-10.7771
▁0.6	-10.7786
gastropod	-10.7789
▁competing	-10.7789
▁covered	-10.779
▁visualization	-10.7797
▁flagella	-10.7798
▁photoreceptor	-10.78
▁fluorescence	-10.7803
▁digestion	-10.7807
▁synaptic	-10.7817
▁mismatch	-10.7818
▁obligate	-10.7818
▁longevity	-10.7818
▁polymerase	-10.7818
lap	-10.7821
▁crop	-10.7831
▁discrepancy	-10.7832
▁upregulation	-10.7838
▁neighbour	-10.7846
▁obscur	-10.7846
▁1980;	-10.7846
▁react	-10.7846
▁Wang	-10.7858
▁catalyze	-10.786
ette	-10.7861
▁antibody	-10.7862
assa	-10.7863
▁supplement	-10.7872
▁Northern	-10.7879
acyl	-10.788
▁diagnostic	-10.7889
▁envelope	-10.7889
▁incorporation	-10.7889
▁protist	-10.7889
▁phylogenomic	-10.7889
▁geometric	-10.7889
▁MAPK	-10.789
▁initiated	-10.7891
▁biases	-10.7895
▁Xenopus	-10.7903
▁KEGG	-10.7903
▁[29,	-10.7904
▁ml	-10.7905
▁computed	-10.7911
▁stand	-10.7912
▁sustain	-10.7912
▁scaffold	-10.7918
▁entities	-10.7918
mount	-10.7921
▁innovation	-10.7932
▁AQP	-10.7932
▁floral	-10.7932
▁[28,	-10.7933
▁adding	-10.7944
▁RNAi	-10.7946
▁Antarctic	-10.7947
▁kept	-10.7947
▁[30,	-10.7948
▁exactly	-10.795
▁repetitive	-10.7961
▁cytoplasm	-10.7969
▁spectra	-10.7971
▁diminish	-10.7976
▁[1–3]	-10.7976
▁easy	-10.7976
molecular	-10.7986
uli	-10.7987
chromosome	-10.7988
▁illustrated	-10.7989
▁8]	-10.799
▁promoting	-10.799
▁paradigm	-10.799
▁modulated	-10.7998
▁manifest	-10.8004
▁Caenorhabditis	-10.8004
thorax	-10.8005
▁skull	-10.8019
▁depict	-10.8019
▁elongation	-10.8026
phosphatase	-10.8034
▁starvation	-10.8034
▁placental	-10.8038
▁photoperiod	-10.8048
▁LWS	-10.8048
▁Likewise	-10.8049
▁SWS	-10.8051
▁intervention	-10.8063
olytic	-10.8068
ylation	-10.8069
▁spent	-10.8076
▁Peninsula	-10.8077
▁butterflies	-10.8077
▁prokaryotic	-10.8077
▁redundancy	-10.8077
▁Wilson	-10.808
▁partner	-10.8082
borne	-10.8084
▁macrophage	-10.8092
▁analog	-10.8094
pass	-10.8101
▁criterion	-10.8107
▁contractile	-10.8108
sperm	-10.8116
▁potent	-10.8118
scens	-10.8119
atura	-10.812
▁crypt	-10.8127
▁argument	-10.8136
function	-10.8143
▁continuously	-10.815
▁operation	-10.8151
▁inflammatory	-10.8153
▁1.5	-10.8156
▁text	-10.8158
▁wingbeat	-10.8165
▁larva	-10.8166
▁2005	-10.8179
▁secretory	-10.8195
ifies	-10.8197
▁mapped	-10.8197
▁marginal	-10.82
▁pyr	-10.8203
▁slight	-10.8205
UTR	-10.8209
▁opposed	-10.821
▁correctly	-10.821
▁unrelated	-10.8221
▁oil	-10.8221
▁gambiae	-10.8224
▁becoming	-10.8227
▁margin	-10.8235
▁NKA	-10.824
ibly	-10.8249
▁Whereas	-10.8254
▁repeatedly	-10.8258
▁95%	-10.8263
valent	-10.8266
▁cranial	-10.8269
itis	-10.8279
▁0.4	-10.8281
▁impossible	-10.8284
▁language	-10.8284
▁skeleton	-10.8284
Roberts	-10.8284
fused	-10.8289
▁activating	-10.8299
▁1979)	-10.8299
▁bite	-10.8299
last	-10.8301
▁normalized	-10.8311
▁thorough	-10.8314
▁[60]	-10.8316
▁mask	-10.8316
▁bright	-10.832
▁activator	-10.8329
▁unicellular	-10.8329
▁GABA	-10.833
▁replaced	-10.8344
▁BLAST	-10.8344
▁mammal	-10.8349
▁modular	-10.8354
▁Meta	-10.8356
▁recombinant	-10.8359
toxic	-10.836
▁ERK	-10.8367
▁deposit	-10.8368
▁31]	-10.8368
gluco	-10.8368
▁searches	-10.8378
▁relatedness	-10.8383
▁agonist	-10.8387
▁synchroniz	-10.8389
▁subtle	-10.839
▁verified	-10.8404
▁younger	-10.8408
▁angiosperm	-10.8413
▁propulsive	-10.8419
rill	-10.8432
▁hexa	-10.8437
▁modularity	-10.8439
▁race	-10.8445
▁drastic	-10.8449
▁matrices	-10.8449
▁glycerol	-10.845
▁100%	-10.8456
seq	-10.8457
virus	-10.8457
iensis	-10.846
lectin	-10.8461
▁redox	-10.8463
▁concentrate	-10.8464
▁primitive	-10.8464
▁serine	-10.8466
▁molt	-10.8478
▁remodeling	-10.848
▁relaxation	-10.8485
current	-10.8487
▁lens	-10.8491
▁cnidarian	-10.8495
▁genital	-10.8495
▁glycolytic	-10.8495
▁reversible	-10.8495
▁ribosome	-10.8495
▁arthropod	-10.8496
▁coordinate	-10.8498
▁implying	-10.8499
high	-10.8502
▁underestimate	-10.851
▁sparse	-10.8511
▁malaria	-10.8512
▁analogous	-10.8513
▁[61]	-10.8524
▁steep	-10.8526
▁medial	-10.8527
▁remove	-10.8529
▁gradual	-10.8532
▁Arg	-10.8538
typical	-10.854
▁cetacean	-10.8541
▁enhancer	-10.8546
▁snail	-10.8553
▁testosterone	-10.8556
▁preserved	-10.8558
▁hepato	-10.8565
▁possesses	-10.8568
▁Once	-10.8571
arginine	-10.8572
▁karyotype	-10.8572
flies	-10.859
▁Neo	-10.8596
▁inheritance	-10.8602
▁ethanol	-10.8602
negative	-10.8602
▁biologists	-10.8603
start	-10.8615
|	-10.8618
▁artifact	-10.8618
▁cooperative	-10.8618
▁domestication	-10.8625
gger	-10.8632
▁category	-10.8633
▁dimorphism	-10.8633
▁fungus	-10.8633
▁neighbor	-10.8641
▁ABC	-10.8642
▁generic	-10.8642
▁arg	-10.8648
▁sensu	-10.8649
▁arising	-10.8651
▁→	-10.8658
plasmic	-10.8663
▁0.7	-10.867
▁desert	-10.8681
▁extracted	-10.8681
▁dual	-10.8689
▁template	-10.8695
▁transcribed	-10.8695
▁localities	-10.8706
▁mya	-10.8706
iaceae	-10.8709
ó	-10.871
▁ancestry	-10.871
▁1978;	-10.871
▁cooperation	-10.871
▁matter	-10.8711
hine	-10.8714
injected	-10.8716
▁Four	-10.8716
▁34]	-10.8717
ova	-10.8728
▁Genetic	-10.8737
▁Following	-10.8742
▁Through	-10.8742
▁goldfish	-10.8742
▁Compared	-10.8742
▁surprisingly	-10.8742
▁polarization	-10.8747
infected	-10.8758
▁HSP	-10.8765
▁antagonistic	-10.8765
▁Species	-10.8773
▁problematic	-10.8773
▁1980)	-10.8773
▁Network	-10.8789
▁pore	-10.8789
▁whereby	-10.8791
1.2	-10.8795
▁validate	-10.8801
expressing	-10.8817
▁cardiovascular	-10.882
▁disappear	-10.882
▁glycolysis	-10.882
▁practice	-10.882
▁1977;	-10.882
▁TNF	-10.8821
▁Like	-10.8833
▁hummingbird	-10.8836
▁tyrosine	-10.8836
control	-10.8837
▁caution	-10.8852
▁push	-10.8852
▁geological	-10.8852
▁oscillator	-10.8855
breeding	-10.8863
▁contemporary	-10.8867
▁management	-10.8867
▁7]	-10.8873
lium	-10.8874
▁angular	-10.8899
▁flapping	-10.8915
▁FBA	-10.8924
▁fertility	-10.8931
▁markedly	-10.8943
ø	-10.8947
▁additive	-10.8947
migrant	-10.8947
▁[31,	-10.8947
▁focal	-10.8948
▁strictly	-10.8949
▁uncertain	-10.8961
▁aegypti	-10.8963
▁controversial	-10.8963
▁redundant	-10.8963
▁Hypo	-10.8968
▁hemi	-10.8973
▁10%	-10.8974
▁attached	-10.8979
now	-10.8991
▁Understanding	-10.8995
▁θ	-10.9003
▁heavy	-10.9011
proteobacteria	-10.9011
▁entry	-10.9011
▁inflammation	-10.9027
▁migrate	-10.9027
▁Lauder	-10.9027
▁milk	-10.9027
▁attain	-10.9028
▁successive	-10.9029
studied	-10.9029
▁accomplish	-10.9043
▁Saccharomyces	-10.9043
▁profound	-10.9043
▁SBML	-10.9059
▁massive	-10.9066
▁proved	-10.9068
<0.05)	-10.9077
▁mole	-10.9079
▁Cretaceous	-10.9091
▁responsiveness	-10.9091
▁defining	-10.9091
green	-10.9095
▁feeder	-10.9096
▁whale	-10.91
▁9]	-10.9103
arri	-10.9103
wood	-10.9107
▁unresolved	-10.9109
shift	-10.9111
▁richness	-10.9111
▁[62]	-10.9114
▁spite	-10.9122
▁endocrine	-10.9124
▁Math	-10.9131
lived	-10.9132
▁continued	-10.9142
▁inferring	-10.9144
▁document	-10.9154
▁knock	-10.9155
▁39]	-10.9155
▁admixture	-10.9156
▁lemur	-10.9172
▁drawn	-10.9175
▁export	-10.9178
▁conspicuous	-10.9189
▁interplay	-10.9189
▁System	-10.9189
▁Rather	-10.9205
▁litter	-10.9205
▁auxin	-10.9205
omorpha	-10.9212
▁rigid	-10.9221
▁treat	-10.9229
▁corn	-10.9235
▁Subsequent	-10.9238
▁affinities	-10.9238
▁fatigue	-10.9238
▁shrimp	-10.9238
▁WGD	-10.9238
▁Eastern	-10.9241
qq	-10.925
stance	-10.9252
▁aerial	-10.9259
▁acquire	-10.926
hem	-10.927
▁profiling	-10.9271
▁archaeal	-10.9277
▁neighboring	-10.9278
▁lizard	-10.9284
▁simplified	-10.9287
▁circulation	-10.9304
▁metamorphosis	-10.9304
▁captive	-10.9304
▁coalescent	-10.9304
▁choose	-10.9307
▁transmit	-10.931
▁trn	-10.9312
▁thoracic	-10.932
gui	-10.932
▁cuticular	-10.9321
▁influencing	-10.9337
▁symbiotic	-10.9337
▁mediating	-10.934
▁segregation	-10.9342
▁1000	-10.9346
▁disadvantage	-10.9353
▁meiotic	-10.9353
▁Markov	-10.9353
▁progeny	-10.9353
▁chose	-10.9356
▁precede	-10.9356
▁diurnal	-10.937
▁imaging	-10.9371
Anderson	-10.9371
viruses	-10.9372
▁lamprey	-10.9387
▁consistency	-10.9387
180	-10.939
zygotic	-10.9403
▁Molecular	-10.9403
▁efficacy	-10.9403
▁incubation	-10.9403
soluble	-10.9403
▁stiff	-10.9405
▁Though	-10.9421
▁σ	-10.9434
pathogen	-10.9436
▁superior	-10.9437
▁intensive	-10.9437
▁style	-10.944
temporal	-10.9442
▁osteo	-10.945
▁radical	-10.9453
▁LPS	-10.9468
▁reversal	-10.947
▁vegetation	-10.947
▁quantity	-10.947
▁[32,	-10.9471
dict	-10.9473
▁aggregate	-10.9475
▁desired	-10.9487
▁continental	-10.9487
▁prone	-10.9488
cluster	-10.9493
▁geometry	-10.9504
▁annelid	-10.9504
transcriptional	-10.951
bearing	-10.951
▁efflux	-10.9521
▁kDa	-10.9521
▁rhythmic	-10.9522
▁paleo	-10.9524
▁aligned	-10.9525
▁butterfly	-10.9538
▁query	-10.954
copy	-10.9546
pharyngeal	-10.9554
saturated	-10.9555
1/2	-10.9564
▁midgut	-10.9571
▁compact	-10.9576
▁enabling	-10.9588
▁electrical	-10.9594
▁straight	-10.9605
▁fairly	-10.9605
▁quasi	-10.9606
▁contract	-10.9609
▁concerted	-10.9609
▁indels	-10.9615
icola	-10.9615
1.1	-10.9615
▁[64]	-10.9622
micro	-10.9633
▁Middle	-10.9639
▁vessel	-10.9639
▁RBC	-10.9641
▁vein	-10.9643
▁36]	-10.9643
▁antibodies	-10.9657
▁wheat	-10.9657
▁suspect	-10.9657
▁0.01	-10.9657
▁engage	-10.9657
▁1978)	-10.9657
▁kPa	-10.9657
▁gradually	-10.9666
▁summarize	-10.9674
▁stick	-10.9687
▁difficulties	-10.9687
▁straightforward	-10.9691
▁MYA	-10.9691
▁leak	-10.9692
▁comprised	-10.9697
individual	-10.9698
▁accelerate	-10.9698
dependence	-10.9698
effect	-10.9698
▁saline	-10.9701
▁38]	-10.9705
▁oxidase	-10.9708
strand	-10.972
▁effectiveness	-10.9722
▁amplified	-10.9725
▁residual	-10.9725
▁estrogen	-10.9725
▁pond	-10.9727
≤	-10.9742
▁syndrome	-10.9742
▁Iberian	-10.9742
different	-10.975
▁machine	-10.9756
regulate	-10.9757
▁propulsion	-10.976
▁2001	-10.9775
▁assist	-10.9778
▁fragmentation	-10.9779
▁antagonist	-10.9786
limited	-10.9788
rank	-10.979
▁confined	-10.9794
▁dosage	-10.9796
▁backward	-10.9799
translational	-10.9802
▁postulated	-10.981
▁[63]	-10.9811
▁ventilation	-10.9812
▁paternal	-10.9812
apoptotic	-10.9829
▁bilaterian	-10.9829
▁prove	-10.9838
▁perceived	-10.9844
speed	-10.9846
▁inconsistent	-10.9847
▁Genome	-10.9847
acid	-10.9854
▁optimum	-10.9864
▁cytosolic	-10.987
▁incorporating	-10.9881
▁technologies	-10.9881
▁creating	-10.9882
▁EMG	-10.9882
▁dominated	-10.9902
▁synteny	-10.9917
▁dopamine	-10.9917
supported	-10.9925
represented	-10.9925
▁snake	-10.9927
5@	-10.9931
▁tentacle	-10.9934
▁finches	-10.9934
▁descent	-10.994
sphere	-10.9943
MDH	-10.9944
▁deprivation	-10.9952
▁topic	-10.9956
embr	-10.9959
▁echo	-10.9959
▁fauna	-10.9968
Lear	-10.997
▁therapy	-10.997
▁worldwide	-10.9971
coupled	-10.9978
▁beetle	-10.9982
satellite	-10.9986
▁California	-10.9987
▁1975;	-10.9987
▁impaired	-10.9987
acclimat	-10.9988
▁reactive	-10.9994
ceptive	-10.9999
▁publication	-11.0001
▁photosynthesis	-11.0005
▁possibilities	-11.0005
GenBank	-11.0022
▁adipose	-11.0022
▁cholesterol	-11.0022
▁fluorescent	-11.0022
▁salamander	-11.0022
etti	-11.0024
▁freeze	-11.0027
▁maneuver	-11.0058
▁LRR	-11.0059
▁intergenic	-11.0067
carp	-11.0068
▁biosynthetic	-11.0076
▁40]	-11.0076
▁spiral	-11.0076
Cyc	-11.0089
gBa	-11.0091
▁remarkably	-11.0094
▁package	-11.0094
▁[34,	-11.0094
▁LGT	-11.0094
▁integrity	-11.0112
▁mandible	-11.0112
▁gravity	-11.0113
▁basolateral	-11.013
▁deliver	-11.0135
▁COI	-11.0136
▁volatile	-11.0147
▁clutch	-11.0147
▁economic	-11.0147
▁held	-11.0154
▁2000	-11.0161
▁harbour	-11.0165
▁propagation	-11.0165
▁White	-11.0184
▁transgenic	-11.0189
environment	-11.0194
▁explicit	-11.0196
▁store	-11.0201
▁ignore	-11.0202
▁permanent	-11.0202
opoda	-11.0211
▁predominant	-11.0214
▁implement	-11.0224
▁overexpression	-11.0235
▁2002	-11.0235
▁accommodate	-11.0238
▁assembled	-11.0238
▁century	-11.0238
▁matches	-11.0238
▁cooling	-11.0239
▁37]	-11.0252
strain	-11.0255
▁mineral	-11.0256
í	-11.0256
▁1977)	-11.0256
▁lumen	-11.0256
450	-11.0263
ground	-11.027
▁compute	-11.0271
▁swarm	-11.0274
▁tibia	-11.0278
▁EGFR	-11.0281
▁41]	-11.0281
▁organized	-11.0286
▁glob	-11.0288
▁requiring	-11.0292
hydroxy	-11.0297
▁incline	-11.03
omycetes	-11.0302
where	-11.0305
node	-11.0306
▁NADH	-11.0311
▁finger	-11.0319
▁mainland	-11.0323
▁roll	-11.0325
▁Madagascar	-11.0329
▁ganglion	-11.0329
▁torque	-11.033
▁mild	-11.0331
▁stressors	-11.0345
▁circumstances	-11.0347
▁occupied	-11.0347
▁microscopy	-11.0347
▁discrimina	-11.0349
nymph	-11.0349
▁grown	-11.0359
optimal	-11.0359
ifolia	-11.036
▁resist	-11.0363
▁tuberculosis	-11.0365
▁tunnel	-11.0365
▁latency	-11.0365
▁deposition	-11.0371
▁[67]	-11.0377
▁video	-11.0382
▁corticosterone	-11.0384
▁phylum	-11.0384
▁diversified	-11.0385
▁invade	-11.0388
▁counteract	-11.0389
▁carrier	-11.0402
▁toadfish	-11.0403
activity	-11.0405
▁persistent	-11.043
▁Differences	-11.0439
▁protrusion	-11.0439
▁albeit	-11.0439
▁[33,	-11.044
▁owing	-11.0445
myc	-11.0445
▁Pliocene	-11.0458
▁deuterostome	-11.0458
▁exploring	-11.0458
▁facilitating	-11.0458
▁parasitism	-11.0458
▁influx	-11.0458
∼	-11.047
▁energetically	-11.0471
▁import	-11.0513
▁plumage	-11.0513
▁2004	-11.0514
▁pigmentation	-11.0517
▁detrimental	-11.0532
▁oscillation	-11.0539
▁heavily	-11.0551
family	-11.056
human	-11.0571
▁microRNA	-11.0575
alanine	-11.0578
▁1974;	-11.0588
▁diagram	-11.0588
▁mantle	-11.0588
▁Human	-11.0593
▁vital	-11.0594
▁heterozygosity	-11.0607
▁6]	-11.0612
▁integrative	-11.0626
▁microorganisms	-11.0626
▁synergistic	-11.0626
▁unambiguous	-11.0626
▁afferent	-11.0626
▁pharmacological	-11.0626
▁1975)	-11.0626
Burrows	-11.0627
▁downregulation	-11.063
evolving	-11.064
▁elimination	-11.0645
▁saliva	-11.0645
keratin	-11.0645
▁phyto	-11.0645
TEF	-11.0648
▁prevalent	-11.0648
▁border	-11.0653
▁dys	-11.0654
Alexander	-11.0664
▁mobility	-11.0664
▁claim	-11.0675
▁capacities	-11.0683
▁squirrel	-11.0683
▁Amazon	-11.0683
▁thickness	-11.0685
▁pathogenesis	-11.0686
consuming	-11.0686
theria	-11.0691
zygote	-11.0702
▁cartilage	-11.0702
▁rough	-11.072
▁assemblage	-11.0721
▁sensitivities	-11.0721
▁attractor	-11.0721
▁GFP	-11.0739
▁Escherichia	-11.074
▁Surprisingly	-11.074
▁anatomy	-11.074
▁phosphorylated	-11.074
▁Experimental	-11.0754
▁recognise	-11.0759
▁autosomal	-11.076
▁invest	-11.0773
▁staining	-11.0778
▁[35,	-11.0779
▁[65]	-11.0782
▁accessions	-11.0782
▁delivery	-11.0791
directional	-11.0813
▁incongruence	-11.0816
▁meiosis	-11.0816
omonas	-11.0823
▁rational	-11.0827
▁pheno	-11.083
wait	-11.0832
▁curvature	-11.0835
▁colonized	-11.0842
▁aggression	-11.0855
▁behave	-11.0855
▁bass	-11.0856
▁technology	-11.0874
▁dorso	-11.0875
void	-11.088
▁enhancement	-11.089
significant	-11.089
▁bifurcation	-11.0893
▁probabilistic	-11.0893
▁oldest	-11.09
▁analyse	-11.09
▁[66]	-11.0912
▁thermodynamic	-11.0913
▁archaea	-11.0925
▁noteworthy	-11.0932
▁anticipate	-11.0932
▁intertidal	-11.0932
▁binary	-11.0932
nrfifHhDYfgasaac	-11.0933
▁tetraploid	-11.0933
vqai	-11.0934
@5@	-11.0936
left	-11.0941
acanth	-11.095
▁Evidence	-11.0952
▁popular	-11.0952
▁ornament	-11.0952
▁anchor	-11.0955
front	-11.0961
▁42]	-11.0962
feaa	-11.0963
▁glaciation	-11.0971
▁underwent	-11.0971
▁nearby	-11.0976
▁fight	-11.0987
▁paraphyletic	-11.0991
▁Changes	-11.0991
▁bouts	-11.0992
opsin	-11.1008
▁macaque	-11.101
▁warrant	-11.101
▁deformation	-11.101
▁rearing	-11.1011
▁Plant	-11.1016
▁restore	-11.1023
▁elsewhere	-11.103
▁scientific	-11.103
▁swimbladder	-11.103
▁LGM	-11.103
_{	-11.1031
deficient	-11.1049
▁hypothetical	-11.1049
▁tilapia	-11.1049
▁Female	-11.105
▁amphi	-11.105
▁delimitation	-11.1055
▁1976)	-11.1069
▁Martin	-11.1077
≥	-11.1089
▁incorrect	-11.1089
▁recurrent	-11.1098
▁oscillatory	-11.1105
▁1972;	-11.1109
▁nevertheless	-11.1109
▁tolerate	-11.1111
▁Japan	-11.1128
▁Effect	-11.1148
▁exclusion	-11.1148
▁kingdom	-11.1148
▁augment	-11.1149
▁plume	-11.1149
▁visit	-11.1149
flagell	-11.1157
encoded	-11.1166
▁gravi	-11.1167
▁fresh	-11.1168
▁1976;	-11.1168
▁concomitant	-11.1168
▁conjunction	-11.1168
▁stabilizing	-11.1168
▁Bacteria	-11.1168
▁accessory	-11.117
▁morphometric	-11.117
ρ	-11.1188
▁Maximum	-11.1188
▁spend	-11.1188
▁interactome	-11.1199
▁sprint	-11.1205
▁mobile	-11.1208
▁TFBS	-11.1209
▁converge	-11.1226
▁44]	-11.1227
▁kernel	-11.1228
▁eutherian	-11.1248
▁outlier	-11.1249
▁depress	-11.1254
▁trachea	-11.1262
▁segregat	-11.1262
olysis	-11.1266
▁radial	-11.1268
viral	-11.1288
▁biomechanical	-11.1288
▁combinatorial	-11.1288
▁parsimonious	-11.1288
▁AFLP	-11.1288
miRNA	-11.1291
▁specimen	-11.1292
▁neck	-11.1295
▁Pseudo	-11.1308
Pörtner	-11.1308
▁resolving	-11.1308
▁bivalve	-11.1308
▁cortex	-11.1308
▁neglect	-11.1308
▁Japanese	-11.1309
▁flexion	-11.1309
▁dissect	-11.131
iceps	-11.1313
▁cofactor	-11.1318
▁catch	-11.1329
▁amphioxus	-11.1329
▁[37,	-11.1329
2.1	-11.1333
▁haemolymph	-11.1349
▁alternate	-11.1352
▁coincid	-11.1362
▁Chinese	-11.1369
▁option	-11.1376
▁blot	-11.138
▁fitting	-11.138
▁ruf	-11.1385
▁Lepidoptera	-11.139
▁familiar	-11.139
▁retrotransposon	-11.139
▁mollusc	-11.139
▁automated	-11.139
▁substances	-11.139
dwelling	-11.1391
▁distort	-11.1392
▁breath	-11.1403
▁humidity	-11.141
▁morphologies	-11.141
▁stomach	-11.141
▁friction	-11.141
▁GATA	-11.1411
▁taste	-11.1413
▁Plasmodium	-11.143
▁enhancing	-11.143
▁quantities	-11.143
▁synapse	-11.143
▁47]	-11.1441
▁45]	-11.1441
▁outperform	-11.1451
▁arboreal	-11.1451
▁programming	-11.1452
▁axes	-11.1457
▁protective	-11.1459
ovirus	-11.1468
▁drainage	-11.1471
▁presumed	-11.1471
▁brevi	-11.1474
▁43]	-11.1492
▁anthropogenic	-11.1492
▁propensity	-11.1492
▁copulation	-11.1492
▁maize	-11.1492
▁unravel	-11.1512
▁vicariance	-11.1512
▁1974)	-11.1512
molecule	-11.1512
amino	-11.1516
▁mosaic	-11.1533
▁verify	-11.1533
▁sodium	-11.1533
▁1972)	-11.1554
▁skew	-11.1554
▁infectious	-11.1555
▁impose	-11.1556
▁citr	-11.1564
▁modulating	-11.1574
▁oviposition	-11.1578
▁concatenated	-11.1595
▁defensive	-11.1595
▁hormonal	-11.1595
distinguishable	-11.1602
▁Large	-11.1602
▁validity	-11.1603
▁voltage	-11.1616
▁sudden	-11.1616
neurotransmitter	-11.1637
▁herbivore	-11.1637
▁pancreatic	-11.1637
▁leaving	-11.1637
Schmidt	-11.1637
synaptic	-11.1638
▁complicat	-11.1647
phosphorylate	-11.1657
φ	-11.1658
▁classifier	-11.1658
▁definitive	-11.1658
▁killifish	-11.1658
▁proceed	-11.1658
▁patient	-11.167
▁glutamine	-11.1678
▁microbes	-11.1679
▁divers	-11.169
▁Perhaps	-11.1699
▁holo	-11.1717
▁collapse	-11.172
▁hatchling	-11.172
▁decide	-11.1721
▁tongue	-11.1721
▁Monte	-11.1724
flora	-11.1734
▁rearrangement	-11.1734
▁leave	-11.1734
▁improving	-11.1742
▁pelvic	-11.1742
μ	-11.1743
Berg	-11.1754
▁ensemble	-11.1763
▁granule	-11.1763
process	-11.1764
▁opossum	-11.1784
▁removing	-11.1784
▁spatio	-11.1784
▁vice	-11.1787
labeled	-11.1803
▁outcrossing	-11.1805
▁paralogues	-11.1805
▁feet	-11.1806
▁specialist	-11.1811
▁provision	-11.1826
▁reliably	-11.1826
▁conductance	-11.1829
π	-11.1847
▁evaluating	-11.1847
▁negligible	-11.1847
▁Clearly	-11.1847
▁ovary	-11.1848
▁[36,	-11.1848
▁valve	-11.1848
response	-11.185
sexual	-11.186
glucose	-11.1863
▁identifies	-11.1869
▁bladder	-11.189
▁optimis	-11.1891
hereafter	-11.1891
Evans	-11.1902
▁epithelia	-11.1904
▁duck	-11.1923
▁Expression	-11.1933
▁integral	-11.1933
▁whilst	-11.1933
▁scarce	-11.1933
▁offset	-11.1934
▁biogenesis	-11.194
▁endothelial	-11.1955
▁hepatic	-11.1955
▁impulse	-11.1955
▁gibbon	-11.1955
▁Storey	-11.1955
placing	-11.1955
▁plotted	-11.1958
Lind	-11.1962
▁ANOVA	-11.1976
▁sympatry	-11.1976
▁[38,	-11.1977
▁constituent	-11.1998
ε	-11.1998
▁tumour	-11.1998
▁starch	-11.1998
▁diverge	-11.2012
▁library	-11.2019
▁semantic	-11.2019
▁interfere	-11.2022
▁radio	-11.2032
▁unchanged	-11.2041
▁Southeast	-11.2041
▁transposon	-11.2041
▁Assuming	-11.2041
▁scoring	-11.2042
evolve	-11.2046
oviruses	-11.2051
▁trafficking	-11.2063
characterized	-11.2066
▁48]	-11.2079
▁Amphi	-11.2093
▁exponent	-11.2103
▁derivative	-11.2106
▁telomere	-11.2106
▁Young	-11.2106
▁disparity	-11.2106
blue	-11.212
▁expensive	-11.2128
▁1973;	-11.2128
▁hidden	-11.2128
▁retraction	-11.2128
▁unstable	-11.2128
▁giant	-11.2129
▁stereo	-11.2137
▁elasmobranch	-11.215
▁arousal	-11.215
Farrell	-11.215
▁reliability	-11.215
▁eyespot	-11.215
Seq	-11.216
▁disjunct	-11.2194
▁glycoprotein	-11.2194
▁Great	-11.2198
▁fluctuating	-11.2216
▁rigorous	-11.2216
▁stoichiometric	-11.2216
▁caspase	-11.2216
▁melatonin	-11.2238
conjugat	-11.224
carboxyl	-11.2252
▁closure	-11.2261
▁1971;	-11.2261
▁mutated	-11.2261
▁deficiency	-11.2264
▁primers	-11.2266
▁isolate	-11.2275
▁Mountain	-11.2283
▁japonica	-11.2283
▁mirror	-11.2283
▁anuran	-11.2287
▁[68]	-11.2287
▁emission	-11.2305
▁emphasis	-11.2305
▁incidence	-11.2305
Johnston	-11.2305
▁2014)	-11.2306
▁[69]	-11.2317
▁Hetero	-11.232
▁geo	-11.2322
▁Quaternary	-11.2327
▁biofilm	-11.2327
▁caterpillar	-11.2327
▁[39,	-11.2328
▁allopolyploid	-11.2333
▁Regardless	-11.235
▁arranged	-11.235
▁cognitive	-11.235
▁indices	-11.2351
bird	-11.2369
▁microtubule	-11.2372
▁refuge	-11.2372
▁paradox	-11.2372
copulatory	-11.2372
▁passerine	-11.2372
▁EOD	-11.2373
▁Archaea	-11.2373
catenin	-11.2374
▁tuna	-11.2377
complex	-11.2379
≈	-11.2395
▁Sequence	-11.2395
▁applies	-11.2395
▁congruence	-11.2395
▁climbing	-11.2395
▁leech	-11.2395
▁Ciona	-11.2396
▁lamina	-11.2403
▁gallop	-11.2404
▁46]	-11.241
▁neuropeptide	-11.2417
▁solitary	-11.2417
▁copepod	-11.2417
▁1971)	-11.2417
▁Tetra	-11.242
▁catfish	-11.2421
▁Experiment	-11.2423
▁motivation	-11.2424
▁recommend	-11.244
▁extensor	-11.244
▁sophisticated	-11.2462
▁illustrat	-11.2466
▁cultivated	-11.2485
▁irrespective	-11.2485
utilizing	-11.2485
▁platy	-11.2486
▁morphogenesis	-11.2489
▁yaw	-11.2489
▁classify	-11.2489
▁plateau	-11.249
▁hierarchy	-11.2508
▁sought	-11.2508
▁characterizing	-11.2512
Bayes	-11.2525
▁normoxic	-11.2531
▁UCP	-11.2531
▁monomer	-11.2538
present	-11.2552
▁Brazil	-11.2553
nuclear	-11.2567
ould	-11.257
▁modulator	-11.2576
▁quantification	-11.2576
▁settlement	-11.2576
▁computing	-11.2576
Whit	-11.2599
▁ambiguous	-11.2599
▁falciparum	-11.2599
▁serious	-11.2599
exposed	-11.2607
pterid	-11.2621
▁dissimilar	-11.2622
▁safety	-11.2622
▁shunt	-11.2626
▁gamma	-11.2645
workers	-11.2655
▁EGF	-11.2663
▁epidermal	-11.2668
▁surround	-11.2676
▁dominate	-11.2687
▁percent	-11.2689
▁abdomen	-11.2691
▁people	-11.2691
▁Guinea	-11.2693
▁erythro	-11.2715
▁brought	-11.2715
▁preclude	-11.2715
▁synchronous	-11.2715
subunit	-11.2723
→	-11.2723
transport	-11.2725
▁assimilation	-11.2738
▁desirable	-11.2738
▁Population	-11.2738
▁immunological	-11.274
stigma	-11.2749
▁composite	-11.2761
▁diabetes	-11.2761
▁protostome	-11.2761
▁dehydration	-11.2761
▁intensities	-11.2761
equilibrium	-11.277
▁gecko	-11.2808
▁commercial	-11.2831
▁discrepancies	-11.2831
▁Biology	-11.2834
▁haploid	-11.2834
burg	-11.2849
plasma	-11.2849
Myc	-11.2851
▁senescence	-11.2855
▁reductase	-11.2855
▁tuned	-11.2855
▁[70]	-11.2855
▁artefact	-11.2879
▁cylinder	-11.2879
▁diverging	-11.2879
▁bundle	-11.2879
enzyme	-11.2888
ocytic	-11.29
▁multivariate	-11.2902
▁stabilization	-11.2902
▁radius	-11.2902
▁subgenus	-11.2902
qGq	-11.2903
▁mediator	-11.2905
▁lesion	-11.2905
▁consecutive	-11.2926
▁propagate	-11.2926
▁erythrocyte	-11.2926
Gaai	-11.2928
aabeqaa	-11.2933
▁participat	-11.2935
▁Comparative	-11.295
▁daughter	-11.295
▁supertree	-11.295
▁chaperone	-11.2974
▁cytosol	-11.299
▁embedded	-11.2997
▁pregnancy	-11.2997
▁iterative	-11.2998
xNi	-11.2999
adbaqaaeGac	-11.2999
▁spanning	-11.3
fsY	-11.3001
adaptive	-11.3008
▁phylo	-11.3021
▁administration	-11.3021
▁vortices	-11.3021
▁extrapolat	-11.3021
▁paracellular	-11.3024
▁murine	-11.3047
▁fibro	-11.3048
▁fascicle	-11.3069
▁siRNA	-11.3069
▁noisy	-11.307
▁seemingly	-11.307
▁Multiple	-11.307
▁breakpoint	-11.3072
▁motivat	-11.3086
▁liquid	-11.3093
▁cephalopod	-11.3118
▁[40,	-11.3122
stream	-11.3125
steady	-11.3129
sample	-11.3141
▁collision	-11.3142
▁confident	-11.3142
▁facultative	-11.3142
▁libraries	-11.3142
▁subdivision	-11.3142
▁NMDA	-11.3142
▁gastric	-11.3144
▁subfunctionaliz	-11.3145
▁digest	-11.3157
▁locate	-11.3163
▁subterranean	-11.3166
▁heterodimer	-11.3166
two	-11.3177
▁cortical	-11.319
▁pharmaco	-11.319
▁arrive	-11.3191
▁dysfunction	-11.3193
analysis	-11.3202
owski	-11.3206
▁hotspot	-11.3215
▁metabolomic	-11.3215
▁termination	-11.3215
▁device	-11.3215
either	-11.323
▁preserve	-11.3236
▁latitudinal	-11.3239
▁transverse	-11.3239
▁coherent	-11.3239
▁automatically	-11.3264
▁ejaculate	-11.3264
▁oyster	-11.3264
▁[71]	-11.3264
0.7	-11.3265
adrenergic	-11.3288
▁Hymenoptera	-11.3288
▁catabolism	-11.3288
▁dinoflagellate	-11.3288
▁gastrocnemius	-11.3288
▁subordinate	-11.3288
▁isotope	-11.3288
▁pleiotropic	-11.3313
▁heritable	-11.3313
aldehyde	-11.3338
▁attenuate	-11.3338
pollination	-11.3338
▁inbred	-11.3344
random	-11.335
▁rotate	-11.3356
▁foreign	-11.3362
▁ganglia	-11.3387
▁sibling	-11.3387
▁retractor	-11.3387
▁dashed	-11.3412
▁exhaustive	-11.3412
▁symbiosis	-11.3412
▁bipedal	-11.3412
▁spacing	-11.3412
▁PPAR	-11.3412
▁specify	-11.3414
▁crosstalk	-11.3415
bank	-11.3417
ranging	-11.3427
▁separating	-11.3437
▁technical	-11.3437
▁Siberia	-11.3437
▁HIF	-11.3462
▁mucus	-11.3465
precipitation	-11.3478
gressive	-11.3484
▁preservation	-11.3487
▁Generally	-11.3487
▁homogeniz	-11.3488
}}	-11.3488
0.8	-11.3496
born	-11.3502
▁blubber	-11.3512
▁Eocene	-11.3512
▁buccal	-11.3512
▁gliding	-11.3512
▁selectivity	-11.3514
<0.05	-11.3514
▁displac	-11.3523
▁Individual	-11.3537
▁glutathione	-11.3537
▁intuitive	-11.3537
▁sarcomere	-11.3537
▁medaka	-11.3537
▁Increased	-11.3563
▁adverse	-11.3563
▁letters	-11.3563
▁Anopheles	-11.3588
▁premature	-11.3588
wavelength	-11.3603
▁NADPH	-11.3613
▁elaborate	-11.3613
▁normoxia	-11.3613
▁prevail	-11.3613
▁bulk	-11.3613
▁flexor	-11.3614
▁cattle	-11.3616
▁experiencing	-11.3639
▁relax	-11.3646
δ	-11.3654
▁attributable	-11.3664
▁embryogenesis	-11.3664
▁hovering	-11.3664
▁PTH	-11.3665
weight	-11.3682
▁oligomer	-11.369
▁superficial	-11.369
▁unaffected	-11.369
▁pipeline	-11.3716
▁ventricle	-11.3716
▁sensilla	-11.3716
▁opposing	-11.3716
▁gather	-11.3716
▁Mexico	-11.3741
▁arterial	-11.3741
▁compliance	-11.3741
▁contamination	-11.3741
▁hydrocarbon	-11.3741
▁identifiability	-11.3741
▁symmetry	-11.3767
▁maturity	-11.3767
▁plug	-11.3767
vector	-11.3785
▁Symbiodinium	-11.3793
osmotic	-11.3796
▁venous	-11.3819
▁proxy	-11.3819
▁FGF	-11.3845
▁antenna	-11.3854
posterior	-11.3864
▁Reynolds	-11.3871
▁detoxification	-11.3871
▁pocket	-11.3871
▁perturbed	-11.3871
▁irregular	-11.3897
▁CEACAM	-11.3897
cadherin	-11.3897
migration	-11.3914
female	-11.3914
▁mechano	-11.3923
▁rhabdom	-11.3923
▁vitamin	-11.3923
protect	-11.3938
oxidation	-11.394
▁glycine	-11.3949
▁mellifera	-11.3949
▁mollusk	-11.3949
▁viscous	-11.3949
▁ovaries	-11.3949
▁Again	-11.395
Wainwright	-11.3976
▁pulmonary	-11.3976
▁synthetase	-11.3976
▁autumn	-11.3976
▁amoeb	-11.3976
▁neofunctionaliz	-11.3976
▁cytoskeleton	-11.4002
▁2013;	-11.4002
▁diffuse	-11.4002
omycota	-11.4002
▁dsRNA	-11.4002
▁Contrary	-11.4028
▁proteasome	-11.4028
virulent	-11.4029
▁[73]	-11.4029
viridae	-11.4029
▁demonstration	-11.4055
▁paternity	-11.4055
▁covariance	-11.4055
augh	-11.4069
▁fire	-11.4071
▁archipelago	-11.4082
▁easier	-11.4082
▁Eqn	-11.4082
▁chemotaxis	-11.4108
▁phospholipid	-11.4108
▁flagellum	-11.4108
phagous	-11.4109
▁fibroblast	-11.4109
2–4	-11.4123
contraction	-11.4127
▁diversifying	-11.4135
▁genotypic	-11.4135
▁recipient	-11.4135
▁rabbit	-11.4135
▁replicator	-11.4136
although	-11.4154
▁Functional	-11.4162
▁Oligocene	-11.4162
▁imprinting	-11.4162
▁ingestion	-11.4162
▁diatom	-11.4162
▁innervation	-11.4189
▁cpDNA	-11.4189
▁increment	-11.4189
▁competitor	-11.4216
▁echinoderm	-11.4216
▁lepidopteran	-11.4216
▁morphotype	-11.4216
▁GTPase	-11.4216
▁doubt	-11.4216
▁Numerous	-11.4243
▁antimicrobial	-11.4243
▁vicinity	-11.4243
▁trotting	-11.4243
^	-11.4243
▁ordinary	-11.4243
▁femur	-11.4243
▁hemisphere	-11.4243
▁[72]	-11.4243
▁anoxic	-11.4243
saccharide	-11.427
▁hermaphrodites	-11.427
▁interrupt	-11.427
▁piece	-11.4271
▁guarantee	-11.4297
▁spiracle	-11.4297
▁hydrolysis	-11.4298
breathing	-11.4307
▁tunicate	-11.4324
▁biomedical	-11.4324
culture	-11.4347
▁Darwin	-11.4351
▁surge	-11.4352
▁depolariz	-11.4353
Davis	-11.437
white	-11.4372
▁endurance	-11.4379
▁Variation	-11.4379
▁raising	-11.4379
▁ingested	-11.4379
▁fructose	-11.4406
▁vertebrae	-11.4406
▁[75]	-11.4407
▁align	-11.4409
condition	-11.4427
▁Lymnaea	-11.4434
▁chromatophore	-11.4434
▁viscosity	-11.4434
▁degenerate	-11.4434
▁revision	-11.4434
▁preferential	-11.4438
efficient	-11.4449
hybrid	-11.4455
▁Examples	-11.4462
▁instantaneous	-11.4462
▁1970;	-11.4462
▁ligase	-11.4462
▁relating	-11.4462
ipping	-11.4463
▁Malpighian	-11.4489
▁captivity	-11.4489
▁illumination	-11.4489
▁scallop	-11.4517
▁unequal	-11.4517
▁inspection	-11.4517
▁resonance	-11.4517
▁alcohol	-11.4517
▁blind	-11.4517
Graham	-11.4518
aaaaa	-11.4524
▁PHA	-11.4532
conserved	-11.4539
▁glucocorticoid	-11.4545
▁Golgi	-11.4545
▁1973)	-11.4545
▁overestimate	-11.4573
▁cleave	-11.4573
▁therapies	-11.4573
▁endoderm	-11.4573
Wilson	-11.4595
normal	-11.4596
region	-11.46
▁cassette	-11.4601
▁lysozyme	-11.4601
▁aversive	-11.4601
▁degraded	-11.4601
▁Lastly	-11.4601
▁concert	-11.4623
▁arbitrary	-11.4629
▁epistasis	-11.4629
▁laevis	-11.4629
▁valley	-11.4629
▁huge	-11.4629
▁aware	-11.463
▁deviate	-11.4632
calibrated	-11.4651
sensitivity	-11.4652
trivial	-11.4657
▁peculiar	-11.4657
▁enlarged	-11.4657
▁medicine	-11.4657
▁Transcript	-11.4657
▁subtilis	-11.4657
▁silent	-11.4657
▁firing	-11.4658
inflammatory	-11.468
▁phylogeography	-11.4685
▁abstract	-11.4685
<0.001	-11.4686
▁ablation	-11.4686
ologists	-11.4687
▁inducible	-11.4714
▁mesenchymal	-11.4714
▁defend	-11.4714
RING	-11.4717
existing	-11.4727
▁56]	-11.4728
▁Time	-11.4731
▁swelling	-11.4742
phosphorylation	-11.4766
acetyl	-11.4767
▁outbreak	-11.4771
▁1967;	-11.4771
▁mechanosensory	-11.4771
Wiltschko	-11.4799
rmoregulatory	-11.4824
▁cultivar	-11.4828
▁excluding	-11.4828
▁methodologies	-11.4828
▁musculus	-11.4828
▁porpoise	-11.4828
▁burden	-11.4828
▁Relative	-11.4828
▁virgin	-11.4828
Thompson	-11.4856
▁angiogenesis	-11.4857
▁[1–4]	-11.4857
▁hamper	-11.4857
▁supra	-11.4857
▁nutrition	-11.4871
▁Materials	-11.4885
▁agricultural	-11.4885
▁implicit	-11.4885
▁shelter	-11.4885
▁[74]	-11.4886
▁granulo	-11.489
autonomous	-11.4914
▁proboscis	-11.4914
▁surviving	-11.4914
▁scattered	-11.4914
Flux	-11.4923
▁Taiwan	-11.4943
▁buoyancy	-11.4943
▁vegetative	-11.4943
▁buzz	-11.4943
▁centromere	-11.4972
▁contralateral	-11.4972
▁dissipation	-11.4972
▁introducing	-11.4972
▁prerequisite	-11.4972
resistant	-11.4998
http	-11.4998
▁NANOG	-11.5001
▁Neotropical	-11.5001
▁fracture	-11.5001
▁reservoir	-11.5001
▁chondr	-11.5002
▁[4–6]	-11.5002
▁ribo	-11.5009
‘	-11.5028
▁irradiance	-11.5031
▁odontocete	-11.5031
▁simplicity	-11.5031
▁fission	-11.5031
caught	-11.5031
▁Caribbean	-11.506
▁acknowledge	-11.506
▁analysing	-11.506
▁bimodal	-11.506
▁mesoderm	-11.506
▁HEA	-11.5067
pterus	-11.5086
▁palm	-11.5086
▁dissociation	-11.5089
▁immature	-11.5089
▁elusive	-11.5089
▁science	-11.5089
▁aforementioned	-11.5119
▁benchmark	-11.5119
▁neuromuscular	-11.5119
▁autosomes	-11.5119
▁stringent	-11.5119
▁[76]	-11.5119
lithic	-11.5128
▁assortative	-11.5148
▁camouflage	-11.5148
▁drought	-11.5148
▁endosymbiotic	-11.5148
▁deleted	-11.5149
Collett	-11.5149
▁postulate	-11.5151
▁zoo	-11.5156
oderma	-11.5162
ω	-11.5176
η	-11.5178
▁calculating	-11.5178
▁spectrometry	-11.5178
▁transposable	-11.5178
inositol	-11.5178
▁glide	-11.5191
▁Paleo	-11.5226
sequence	-11.5233
▁pylori	-11.5238
supervised	-11.5239
▁androgen	-11.5247
▁adhere	-11.5262
closed	-11.5267
▁biogeography	-11.5268
▁reticulum	-11.5268
▁NKCC	-11.5268
facial	-11.527
▁divide	-11.5271
Peters	-11.528
Nelson	-11.5282
▁punct	-11.529
▁oviposit	-11.5292
▁Jurassic	-11.5298
▁bHLH	-11.5298
▁simplification	-11.5298
▁NECs	-11.5299
▁accompany	-11.5328
▁Hybrid	-11.5328
▁polyphyletic	-11.5328
▁vulnerable	-11.5328
ström	-11.5358
▁migrating	-11.5358
▁potato	-11.5358
▁Alaska	-11.5358
change	-11.5366
growth	-11.5388
▁Pathway	-11.5388
▁firm	-11.5391
Garland	-11.5394
▁dictate	-11.5398
▁entrain	-11.5402
▁concordant	-11.5419
▁arrival	-11.5419
▁spermatozoa	-11.5419
▁clues	-11.5419
▁abolish	-11.5419
▁karyo	-11.5422
ophyceae	-11.5427
▁follicle	-11.5449
▁heuristic	-11.5449
▁succinate	-11.5449
▁bugs	-11.545
▁Small	-11.5461
▁Hydro	-11.5464
▁Metabolic	-11.548
▁fidelity	-11.548
▁periphery	-11.548
▁rhodopsin	-11.548
▁leptin	-11.548
▁satisfy	-11.5511
▁eigen	-11.5511
▁57]	-11.552
▁disagree	-11.5541
▁applicability	-11.5541
▁ecdysteroid	-11.5541
mycorrhiz	-11.5541
▁deficit	-11.5541
▁syntenic	-11.5541
▁anemone	-11.5541
▁pulex	-11.5541
▁garden	-11.5541
▁medical	-11.5542
▁chroma	-11.5555
▁leatherback	-11.5572
▁ligament	-11.5572
▁misleading	-11.5572
▁territory	-11.5572
compatible	-11.5572
Walker	-11.5576
cqWG	-11.5578
▁ultimate	-11.5579
anthus	-11.5592
ficiency	-11.5598
▁convincing	-11.5603
▁enormous	-11.5603
▁nitrite	-11.5603
▁simulans	-11.5603
sagittal	-11.5603
rmoregulation	-11.5622
#	-11.5634
▁Values	-11.5634
▁conceivable	-11.5634
▁contributor	-11.5634
▁substitute	-11.5634
▁emitted	-11.5634
▁perceive	-11.5638
except	-11.5643
▁amplify	-11.5665
▁cultivation	-11.5665
▁Arctic	-11.5665
▁transduce	-11.5666
▁continuum	-11.5697
▁disulfide	-11.5697
▁epidemic	-11.5697
▁pufferfish	-11.5697
▁stimulating	-11.5697
definite	-11.5697
infection	-11.5698
neutral	-11.5698
▁discordance	-11.5728
▁minimizing	-11.5728
▁oxidize	-11.5728
▁glass	-11.5728
▁rescue	-11.5728
▁lengthening	-11.5729
Harrison	-11.5729
▁asymptotic	-11.5759
threonine	-11.5759
▁1969;	-11.5759
▁coalescence	-11.5759
▁crowding	-11.5759
▁musculoskeletal	-11.5759
▁simulating	-11.5759
▁truly	-11.576
▁prompt	-11.576
adaptation	-11.5792
▁fertile	-11.5823
▁superoxide	-11.5823
▁trehalose	-11.5823
▁budget	-11.5823
▁vocalizations	-11.5823
▁Factor	-11.5823
▁subpopulations	-11.5823
chloro	-11.5824
▁macula	-11.5841
▁epidermis	-11.5854
▁harmonic	-11.5854
▁preceding	-11.5854
▁frond	-11.5855
▁[77]	-11.5855
bodied	-11.5856
ITS	-11.5858
▁robot	-11.5867
▁abrupt	-11.5886
▁cumulative	-11.5886
epithelial	-11.5888
essential	-11.5888
▁hemoglobin	-11.5918
▁rbcL	-11.5918
▁reprogramming	-11.5918
▁Metazoa	-11.5918
growing	-11.5921
▁sarco	-11.5926
▁conifer	-11.5937
▁deploy	-11.595
▁concordance	-11.595
▁plesiomorphic	-11.595
▁saccade	-11.595
▁dwarf	-11.595
▁fulfill	-11.5952
work	-11.5967
▁voluntary	-11.5982
Hammond	-11.5982
▁uplift	-11.5982
▁allosteric	-11.5982
▁spotted	-11.5982
▁formulated	-11.5982
▁proposal	-11.5982
▁implied	-11.5982
syllable	-11.6015
glucan	-11.6015
mimetic	-11.6015
course	-11.6018
▁truncated	-11.6047
▁unidirectional	-11.6047
▁terrain	-11.6047
▁Estimat	-11.6047
▁Initial	-11.6048
▁decapod	-11.6079
generating	-11.6083
aspartate	-11.6107
▁ascertain	-11.6112
▁Regarding	-11.6112
▁breadth	-11.6112
▁excursion	-11.6112
▁reinhardtii	-11.6112
▁Analyse	-11.6112
▁Ontology	-11.6112
▁[2–4]	-11.6112
▁[5–7]	-11.6112
▁briggsae	-11.6145
▁pivotal	-11.6145
▁varieties	-11.6145
▁tactile	-11.6145
▁blade	-11.6145
▁Dlx	-11.6145
λ	-11.6149
▁Brassica	-11.6154
▁categoriz	-11.6177
▁simplify	-11.6177
▁cohort	-11.6177
▁fifth	-11.6177
▁isotopic	-11.621
gastrointestinal	-11.621
▁incipient	-11.621
▁lamellae	-11.621
▁observable	-11.621
▁excrete	-11.6211
membrane	-11.6213
Linnaeus	-11.6243
▁aberrant	-11.6243
▁deflection	-11.6243
▁serotonergic	-11.6243
▁ventilatory	-11.6243
▁Arabian	-11.6243
perturb	-11.6247
▁couple	-11.625
▁Morphological	-11.6276
▁naïve	-11.6276
▁Zealand	-11.6276
▁overview	-11.6276
▁choosing	-11.6276
▁facing	-11.6277
▁methionine	-11.631
▁parthenogenesis	-11.631
▁[3–5]	-11.631
▁Direct	-11.6312
disease	-11.6315
▁Multi	-11.6324
▁Research	-11.6343
▁endemism	-11.6343
▁synchrony	-11.6343
▁CRISPR	-11.6343
▁Crypt	-11.6343
▁1970)	-11.6344
adrenal	-11.6345
▁replica	-11.637
▁ommatidia	-11.6376
validation	-11.6382
▁gymnosperm	-11.641
▁aestivation	-11.6444
▁sativa	-11.6444
▁delineate	-11.6447
▁bleaching	-11.6477
▁metastasis	-11.6477
▁octopamine	-11.6477
▁temporary	-11.6477
▁ventricular	-11.6477
▁insecticide	-11.6477
▁convey	-11.6478
▁outlined	-11.6478
▁carboxy	-11.6492
▁allozyme	-11.6511
▁heritability	-11.6511
▁heterozygous	-11.6511
▁territories	-11.6511
▁disparate	-11.6511
▁secondarily	-11.6511
▁1967)	-11.6512
▁attenuation	-11.6545
▁hibernating	-11.6545
▁luminal	-11.6545
▁rainforest	-11.6545
▁histological	-11.6545
▁[7–9]	-11.6545
▁cloning	-11.6545
▁recogniz	-11.655
·	-11.6579
▁necessity	-11.6579
▁tryptophan	-11.6579
▁uncertainties	-11.658
▁modulus	-11.658
▁guard	-11.658
▁Diamond	-11.6614
▁unpredictable	-11.6614
▁tentative	-11.6614
▁femora	-11.6614
phenotype	-11.6621
structural	-11.6621
hawk	-11.6637
▁mangrove	-11.6648
▁nitrate	-11.6648
▁silence	-11.6648
▁0.02	-11.6648
▁recycling	-11.6648
▁coarse	-11.6653
immune	-11.6655
selective	-11.6656
first	-11.6656
frame	-11.6656
fecting	-11.668
▁Hemisphere	-11.6683
▁atmospheric	-11.6683
▁backbone	-11.6683
▁pipiens	-11.6683
▁alternating	-11.6683
▁sheath	-11.6683
▁Comparing	-11.6683
▁Rhcg	-11.6683
▁blend	-11.6683
▁methanol	-11.6683
▁harmful	-11.6717
▁squamate	-11.6717
▁sinensis	-11.6717
Dawson	-11.672
▁cerebral	-11.6752
▁sapiens	-11.6752
▁wheel	-11.6752
▁bacteri	-11.6784
▁synonym	-11.6784
▁industrial	-11.6787
▁remnant	-11.6787
▁solving	-11.6787
faunal	-11.679
glycero	-11.6809
▁ectoderm	-11.6822
▁exoskeleton	-11.6822
▁[78]	-11.6822
hormone	-11.683
degree	-11.683
▁excitatory	-11.6857
▁adulthood	-11.6857
cutaneous	-11.6857
▁ammonium	-11.6892
▁homogeneity	-11.6892
▁thyroid	-11.6892
▁1966;	-11.6892
▁severity	-11.6892
▁bream	-11.6892
▁Gondwana	-11.6927
▁endonuclease	-11.6927
▁hopping	-11.6927
▁housekeeping	-11.6927
▁Various	-11.6927
▁epitope	-11.6927
▁grasp	-11.6927
▁[79]	-11.6928
Stevens	-11.6938
estradiol	-11.6963
▁capillary	-11.6963
▁obesity	-11.6963
▁remodelling	-11.6963
▁compliant	-11.6963
▁bistable	-11.6963
▁deserve	-11.6963
releasing	-11.6963
Tobalske	-11.6998
▁Nematostella	-11.6998
▁mutagenesis	-11.6998
▁helices	-11.6998
‰	-11.7034
▁mammary	-11.7034
▁reminiscent	-11.7034
▁ErbB	-11.7034
▁Cluster	-11.7034
▁implication	-11.7067
▁Depending	-11.707
▁frozen	-11.707
▁guppies	-11.707
through	-11.708
Danio	-11.7098
McDonald	-11.7106
▁irreversible	-11.7106
▁microhabitat	-11.7106
▁capturing	-11.7106
▁neurite	-11.7106
Saharan	-11.7106
▁alkaline	-11.7106
▁Strait	-11.7106
▁hydroxyl	-11.7107
▁prioritize	-11.7109
determined	-11.7116
programmed	-11.7134
▁Holocene	-11.7142
▁elbow	-11.7142
▁hallmark	-11.7142
▁compelling	-11.7142
resolution	-11.7153
Ṁ	-11.7624
è	-11.7815
Γ	-11.805
θ	-11.8108
ν	-11.817
χ	-11.825
Φ	-11.8413
ñ	-11.8413
†	-11.8495
∈	-11.8495
“	-11.9526
∝	-12.0207
ú	-12.0356
ζ	-12.0558
~	-12.0798
∞	-12.1918
ψ	-12.2335
̄	-12.2581
Å	-12.3158
å	-12.3912
σ	-12.4287
ã	-12.4574
∗	-12.4574
Ψ	-12.4727
Ω	-12.4805
•	-12.5121
®	-12.6314
ß	-12.6314
õ	-12.6314
!	-12.6405
&	-12.6435
∂	-12.6968
∆	-12.7164
ξ	-12.7263
ę	-12.7773
ï	-12.8092
à	-12.8422
ç	-12.8763
♂	-12.8879
š	-12.8997
∑	-12.9236
æ	-12.9358
ô	-12.9733
`	-13.0194
$	-13.0256
♀	-13.0528
≠	-13.2504
〈	-13.2846
〉	-13.3382
↔	-13.3567
≡	-13.3567
ë	-13.3756
Ö	-13.3756
Σ	-13.4548
к	-13.4969
̂	-13.5636
ć	-13.6107
⇔	-13.6107
≪	-13.6601
ż	-13.712
≫	-13.7668
Ø	-13.7954
Ṗ	-13.8248
∕	-13.8248
ł	-13.8864
Θ	-13.8864
∪	-13.9186
Š	-13.952
̃	-13.9865
ò	-14.0977
Π	-14.0977
⋅	-14.1377
∙	-14.1793
≃	-14.1793
Λ	-14.2683
⋯	-14.4185
ý	-14.4741
↓	-14.4741
©	-14.5329
⊂	-14.5329
û	-14.5329
‡	-14.5329
⇒	-14.5954
‐	-14.5954
ê	-14.5954
∇	-14.5954
υ	-14.5954
∥	-14.6621
▵	-14.6621
Ž	-14.7335
⟨	-14.7335
∧	-14.7335
∅	-14.8104
⟩	-14.8104
ι	-14.8938
ě	-14.8938
∫	-14.9847
¿	-14.9847
ā	-14.9847
↦	-14.9847
√	-14.9847
―	-14.9847
←	-14.9847
∨	-14.9847
ň	-15.0847
↑	-15.0847
∩	-15.0847
ı	-15.1958
Ṙ	-15.1958
∀	-15.1958
○	-15.1958
ž	-15.1958
Ф	-15.3208
ř	-15.3208
ś	-15.3208
»	-15.4636
ů	-15.4636
●	-15.4636
«	-15.4636
̧	-15.4636
∖	-15.4636
⩽	-15.6303
□	-15.6303
ì	-15.8303
œ	-15.8303
Ū	-15.8303
Ŷ	-15.8303
ƒ	-15.8303
Ξ	-15.8303
Υ	-15.8303
≲	-15.8303
⊗	-15.8303
⊥	-16.0803
↘	-16.0803
≅	-16.0803
¬	-16.0803
ő	-16.0803
ş	-16.0803
̈	-16.0803
ς	-16.0803
‒	-16.0803
∣	-16.0803
─	-16.0803
♦	-16.0803
⩾	-16.0803
ẋ	-16.0803
Ô	-16.4136
ğ	-16.4136
Τ	-16.4136
С	-16.4136
Ä	-16.4136
÷	-16.4136
ă	-16.4136
Ė	-16.4136
ė	-16.4136
ū	-16.4136
ɣ	-16.4136
∉	-16.4136
⊣	-16.4136
⋆	-16.4136
⏞	-16.4136
∊	-16.4136
♯	-16.9136
⪢	-16.9136
É	-16.9136
Ĥ	-16.9136
ŝ	-16.9136
Ż	-16.9136
ɸ	-16.9136
̶	-16.9136
͡	-16.9136
Α	-16.9136
Μ	-16.9136
а	-16.9136
Ẏ	-16.9136
⇄	-16.9136
∏	-16.9136
∘	-16.9136
≍	-16.9136
≐	-16.9136
⊕	-16.9136
║	-16.9136
╨	-16.9136
Ɑ	-16.9136
Ō	-16.9136
ŭ	-16.9136
Е	-16.9136
Ẇ	-16.9136
∽	-17.9105
∃	-17.9106
ḡ	-17.9107
ù	-17.9108
Î	-17.9109
∠	-17.911
ˆ	-17.9111
Ŝ	-17.9112
ĭ	-17.9113
▴	-17.9114
Ι	-17.9115
Č	-17.9116
➔	-17.9117
⇌	-17.9118
Ś	-17.9119
§	-17.912
£	-17.9121
Ř	-17.9122
„	-17.9123
⊆	-17.9124
Â	-17.9125
▪	-17.9126
☓	-17.9127
■	-17.9128
â	-17.9129
́	-17.913
ą	-17.9131
⁄	-17.9132
ń	-17.9133
Á	-17.9134
ɑ	-17.9135
­	-17.9136
Ó	-17.9136
î	-17.9136
¶	-17.9136
Û	-17.9136
Ć	-17.9136
ē	-17.9136
ĕ	-17.9136
ō	-17.9136
Ş	-17.9136
Ŵ	-17.9136
ź	-17.9136
Ɛ	-17.9136
ǧ	-17.9136
ʹ	-17.9136
̊	-17.9136
̸	-17.9136
Ά	-17.9136
Κ	-17.9136
Χ	-17.9136
ΰ	-17.9136
ο	-17.9136
и	-17.9136
с	-17.9136
ӧ	-17.9136
א	-17.9136
ṁ	-17.9136
ẅ	-17.9136
ỳ	-17.9136
⁠	-17.9136
⇆	-17.9136
≊	-17.9136
≜	-17.9136
≦	-17.9136
≳	-17.9136
≾	-17.9136
≿	-17.9136
⊤	-17.9136
⊨	-17.9136
⋂	-17.9136
⌊	-17.9136
⌋	-17.9136
▯	-17.9136
Ʊ	-17.9136
ϋ	-17.9136
⇋	-17.9136
≧	-17.9136
č	-17.9136
ό	-17.9136
