<unk>	0
<s>	0
</s>	0
▁the	-3.18996
,	-3.31754
.	-3.48377
▁of	-3.49586
▁and	-3.7941
▁in	-3.95585
▁to	-4.15286
s	-4.35434
▁a	-4.39646
▁(	-4.41902
-	-4.45761
▁that	-4.70801
▁is	-4.80003
▁for	-5.11278
▁with	-5.23741
▁are	-5.26663
)	-5.34268
▁as	-5.41056
▁by	-5.42326
▁be	-5.44654
▁	-5.51705
▁The	-5.53566
▁on	-5.62334
▁from	-5.62886
▁al	-5.66508
▁et	-5.68205
▁have	-5.7592
▁this	-5.77663
▁not	-5.91887
▁or	-5.94555
▁species	-5.96675
▁an	-5.98414
▁In	-5.99203
e	-5.99451
▁we	-6.00412
▁which	-6.0178
▁at	-6.0761
▁was	-6.10763
.,	-6.12175
▁between	-6.12653
ing	-6.21738
▁been	-6.22088
▁these	-6.2287
▁were	-6.28195
▁may	-6.2971
▁also	-6.29883
▁can	-6.2999
▁genes	-6.30383
▁has	-6.31202
▁gene	-6.32173
▁A	-6.35095
▁it	-6.40016
ed	-6.4193
▁their	-6.42041
▁other	-6.42885
1	-6.46902
▁more	-6.47821
2	-6.50298
▁This	-6.50743
g	-6.51046
▁than	-6.52071
▁two	-6.53751
).	-6.5403
▁data	-6.54793
a	-6.56528
d	-6.57101
▁different	-6.5751
▁but	-6.59496
▁study	-6.62177
▁our	-6.63549
▁We	-6.65057
▁S	-6.66029
;	-6.66166
ly	-6.67864
▁model	-6.68577
▁such	-6.70502
i	-6.73197
▁during	-6.73277
▁both	-6.78571
▁C	-6.78947
/	-6.79011
▁P	-6.80578
),	-6.82517
A	-6.83113
▁only	-6.83278
▁found	-6.83377
C	-6.8347
▁all	-6.84567
▁However	-6.88574
▁studies	-6.89194
▁one	-6.89487
▁results	-6.90806
B	-6.91654
▁expression	-6.92704
b	-6.94024
▁high	-6.95258
▁protein	-6.95619
▁could	-7.00418
▁within	-7.00432
▁most	-7.02443
:	-7.0296
▁time	-7.04959
▁genetic	-7.05581
al	-7.07756
▁its	-7.07766
▁analysis	-7.08051
▁used	-7.08098
▁D	-7.09694
▁cell	-7.09975
in	-7.11568
▁number	-7.11964
▁when	-7.12323
▁some	-7.12993
▁into	-7.13011
▁evolution	-7.14885
▁cells	-7.15627
S	-7.15934
▁selection	-7.17953
▁would	-7.18168
▁proteins	-7.18531
or	-7.18877
▁well	-7.19445
▁T	-7.20095
▁they	-7.20597
▁populations	-7.21869
▁present	-7.22604
▁observed	-7.22922
▁B	-7.22942
▁H	-7.2324
▁rate	-7.25792
n	-7.26109
▁network	-7.28472
t	-7.288
▁M	-7.29132
▁using	-7.30786
▁changes	-7.30889
▁system	-7.31725
y	-7.31736
▁similar	-7.31789
▁response	-7.31978
▁among	-7.33554
▁non	-7.33891
'	-7.34282
P	-7.34595
p	-7.34992
▁important	-7.35188
▁E	-7.35235
▁evolutionary	-7.37271
D	-7.3766
▁each	-7.37734
c	-7.38364
▁It	-7.38686
▁levels	-7.38832
3	-7.38885
▁population	-7.38915
R	-7.38945
▁L	-7.38968
▁large	-7.39023
▁no	-7.39961
▁size	-7.41641
▁For	-7.41693
▁1	-7.41964
▁These	-7.42443
▁there	-7.42507
▁function	-7.42999
▁genome	-7.43384
▁under	-7.44034
▁R	-7.44042
▁F	-7.44227
▁three	-7.44333
▁body	-7.44893
er	-7.45112
▁higher	-7.45125
m	-7.45298
▁same	-7.45572
▁based	-7.45578
▁Our	-7.46358
▁differences	-7.46577
▁because	-7.46887
▁shown	-7.47258
▁low	-7.47788
▁many	-7.4791
o	-7.48633
K	-7.49803
▁likely	-7.49843
▁role	-7.49881
▁might	-7.50594
▁phylogenetic	-7.50784
▁will	-7.50881
▁2	-7.5119
▁over	-7.51444
▁activity	-7.51506
T	-7.51695
▁N	-7.51836
F	-7.51986
▁through	-7.52192
▁increase	-7.52782
▁s	-7.53062
es	-7.53189
▁first	-7.53448
us	-7.53607
▁variation	-7.53995
▁G	-7.54287
▁metabolic	-7.54318
▁several	-7.55195
▁where	-7.55733
▁models	-7.55926
▁sequence	-7.55993
▁effects	-7.56852
▁O	-7.5769
▁conditions	-7.57844
M	-7.58318
▁show	-7.58643
▁level	-7.58857
N	-7.58917
G	-7.58945
▁single	-7.59743
▁those	-7.60001
▁sequences	-7.60205
▁known	-7.60325
4	-7.61263
L	-7.61889
–	-7.62417
r	-7.62458
▁due	-7.62508
▁complex	-7.62698
H	-7.62919
▁example	-7.63136
▁associated	-7.63395
l	-7.63419
▁muscle	-7.63844
▁evidence	-7.64986
▁effect	-7.65365
▁molecular	-7.66338
Fig	-7.66404
▁[	-7.66537
▁increased	-7.66811
▁group	-7.67469
▁possible	-7.6772
▁result	-7.67775
▁significant	-7.67847
▁related	-7.68575
▁fish	-7.69316
’	-7.69603
▁use	-7.70176
▁functional	-7.7061
▁patterns	-7.70638
▁while	-7.71052
▁rates	-7.71221
▁after	-7.71234
▁suggest	-7.71252
▁I	-7.71366
▁host	-7.71433
▁p	-7.71509
E	-7.71601
▁structure	-7.7164
▁small	-7.72368
▁including	-7.72755
▁if	-7.72858
▁new	-7.72972
▁range	-7.7314
▁growth	-7.73336
▁do	-7.73521
▁K	-7.73662
▁information	-7.74642
▁identified	-7.75886
▁3	-7.75999
▁further	-7.76464
▁across	-7.78112
ic	-7.78123
▁compared	-7.79399
▁very	-7.79524
▁specific	-7.80182
▁human	-7.80745
▁approach	-7.80757
▁control	-7.81065
▁As	-7.81185
▁development	-7.81532
▁analyses	-7.81735
▁thus	-7.82281
▁potential	-7.82376
▁mechanisms	-7.82687
▁should	-7.83206
▁pattern	-7.83411
▁any	-7.83495
5	-7.83641
▁long	-7.84699
9	-7.84882
▁provide	-7.84976
▁interactions	-7.85206
6	-7.85599
▁lower	-7.85728
▁even	-7.86361
▁networks	-7.86433
▁lineages	-7.86516
ation	-7.87141
O	-7.87355
▁distribution	-7.87406
0	-7.87417
V	-7.87664
▁multiple	-7.87797
▁common	-7.87851
▁co	-7.87933
▁addition	-7.8813
▁methods	-7.88227
▁re	-7.88233
▁divergence	-7.88496
▁Although	-7.88718
▁systems	-7.88917
▁reported	-7.89266
▁hypothesis	-7.89411
▁Thus	-7.89543
▁groups	-7.89686
▁showed	-7.89897
▁work	-7.90029
▁involved	-7.90085
▁diversity	-7.90261
▁suggests	-7.90563
8	-7.90626
▁whether	-7.90722
▁region	-7.90764
x	-7.90942
▁pathway	-7.91182
▁biological	-7.91495
specific	-7.91593
▁regions	-7.91675
▁To	-7.91876
▁how	-7.92246
▁method	-7.92612
▁set	-7.93005
▁support	-7.93884
▁highly	-7.94197
▁factors	-7.94304
▁case	-7.94424
▁DNA	-7.94487
▁less	-7.94783
▁change	-7.94922
▁contrast	-7.95226
▁animals	-7.95241
▁so	-7.95325
f	-7.95859
▁about	-7.95917
▁experimental	-7.96018
k	-7.96069
▁temperature	-7.96152
▁water	-7.96287
I	-7.9636
▁recent	-7.96535
to	-7.96755
▁values	-7.97087
▁previous	-7.97215
▁family	-7.97266
▁processes	-7.97556
▁relative	-7.98378
▁process	-7.98601
▁i	-7.98794
▁energy	-7.98932
▁however	-8.01101
▁pathways	-8.01143
re	-8.01215
▁had	-8.01273
▁therefore	-8.01448
▁sites	-8.01548
▁did	-8.01819
▁presence	-8.0234
Figure	-8.03034
h	-8.03638
en	-8.03924
▁V	-8.04168
▁production	-8.042
▁flow	-8.0423
▁major	-8.04685
▁previously	-8.04998
▁order	-8.05226
▁m	-8.05383
an	-8.06016
▁significantly	-8.06518
▁individual	-8.06539
▁either	-8.0664
W	-8.08731
▁does	-8.09337
▁h	-8.09632
▁mechanism	-8.10133
▁mass	-8.1037
▁here	-8.10482
▁stress	-8.10724
▁individuals	-8.10724
▁frequency	-8.10981
▁4	-8.11086
▁mitochondrial	-8.1136
see	-8.11371
▁experiments	-8.1144
on	-8.1157
▁consistent	-8.12306
▁e	-8.12355
▁regulation	-8.12747
▁males	-8.13142
▁out	-8.13529
▁events	-8.13585
▁5	-8.13655
▁particular	-8.13783
▁taxa	-8.13884
▁lineage	-8.13955
▁male	-8.14124
▁suggested	-8.14676
▁available	-8.14983
▁un	-8.15444
▁females	-8.15513
▁file	-8.15693
▁form	-8.1624
▁regulatory	-8.16339
▁proposed	-8.16537
▁relatively	-8.16719
▁functions	-8.16757
▁tree	-8.16972
▁early	-8.1712
▁genomes	-8.1757
▁positive	-8.17737
▁=	-8.17804
▁environmental	-8.18003
▁acid	-8.18514
▁least	-8.18565
▁light	-8.18756
▁often	-8.19214
▁domain	-8.19468
▁much	-8.19487
▁length	-8.19568
▁reduced	-8.1991
▁performance	-8.20215
▁state	-8.20742
▁conserved	-8.21224
▁then	-8.21263
▁four	-8.21791
7	-8.22285
▁relationship	-8.22288
▁type	-8.22542
is	-8.23044
▁described	-8.23087
▁given	-8.23259
▁indicate	-8.23382
▁amino	-8.23471
▁test	-8.2354
▁binding	-8.23581
▁parameters	-8.23776
▁Therefore	-8.23961
based	-8.23975
le	-8.24379
um	-8.2464
▁signal	-8.24667
▁expected	-8.24681
▁strong	-8.24751
▁although	-8.24796
like	-8.25182
▁relationships	-8.25321
▁loss	-8.25355
ion	-8.25533
▁natural	-8.2601
▁g	-8.26163
▁responses	-8.26362
▁environment	-8.26368
▁de	-8.26773
▁clade	-8.26822
▁being	-8.27029
▁interaction	-8.27133
ta	-8.27377
▁c	-8.27973
▁female	-8.28461
▁force	-8.2859
▁greater	-8.28643
at	-8.28787
▁expressed	-8.28792
▁suggesting	-8.28797
▁whereas	-8.28826
▁types	-8.2885
▁behavior	-8.29057
▁organisms	-8.29158
▁l	-8.29189
th	-8.2927
▁distinct	-8.29353
▁ability	-8.29726
▁larger	-8.29956
(	-8.3007
▁traits	-8.30173
▁additional	-8.30301
▁signaling	-8.30944
ity	-8.31028
▁general	-8.31479
▁sub	-8.31506
ally	-8.32345
▁Furthermore	-8.32514
▁transcription	-8.32595
▁mammals	-8.32837
▁10	-8.33261
▁cellular	-8.33302
▁tissue	-8.33564
▁fact	-8.3379
▁considered	-8.34146
id	-8.34442
▁difference	-8.34608
▁morphological	-8.34648
▁rather	-8.34952
▁food	-8.35132
▁Figure	-8.35456
▁metabolism	-8.35498
▁few	-8.35513
▁up	-8.3558
▁short	-8.35728
▁origin	-8.36274
"	-8.36284
v	-8.36339
▁properties	-8.36531
▁various	-8.37199
▁cycle	-8.37321
▁predicted	-8.37551
▁plant	-8.37587
▁them	-8.37612
+	-8.37697
▁surface	-8.37815
–1	-8.37816
U	-8.38015
▁factor	-8.38104
▁demonstrated	-8.38242
▁birds	-8.38271
▁still	-8.38281
▁limited	-8.38404
▁part	-8.38517
▁f	-8.39074
▁per	-8.39125
▁mutations	-8.39314
▁activation	-8.39464
▁history	-8.39762
▁understanding	-8.39877
▁via	-8.40281
▁novel	-8.40471
▁life	-8.40523
▁occur	-8.40546
ur	-8.4089
▁nuclear	-8.41106
▁able	-8.41365
▁lack	-8.41403
▁dynamics	-8.42111
▁6	-8.42561
▁pre	-8.42575
▁ancestral	-8.42649
▁‘	-8.42985
▁fitness	-8.43504
▁An	-8.43538
ol	-8.43677
▁"	-8.43721
X	-8.43833
-1	-8.43997
▁reproductive	-8.44346
▁physiological	-8.44456
▁since	-8.44921
▁current	-8.44983
▁–	-8.45149
▁required	-8.45517
▁respectively	-8.45765
▁revealed	-8.45956
▁Here	-8.46494
▁differentiation	-8.46543
▁target	-8.46567
▁second	-8.46839
▁identify	-8.47008
Y	-8.47079
▁phase	-8.47107
▁total	-8.47192
the	-8.47205
▁studied	-8.4726
▁above	-8.47315
ia	-8.47335
▁without	-8.47816
▁plants	-8.48103
u	-8.48122
as	-8.48289
▁components	-8.48465
and	-8.48564
il	-8.48593
▁features	-8.49242
▁site	-8.49439
▁adaptive	-8.49496
▁recently	-8.49726
▁animal	-8.49907
▁U	-8.49908
▁increases	-8.5016
▁prey	-8.50244
it	-8.50272
▁formation	-8.50336
▁membrane	-8.50523
▁receptor	-8.50644
el	-8.50833
▁obtained	-8.50854
▁represent	-8.50884
▁along	-8.51017
▁measured	-8.51686
▁position	-8.5199
▁X	-8.5283
▁8	-8.52889
▁increasing	-8.53008
▁genomic	-8.53045
▁loci	-8.53227
▁influence	-8.53415
▁Moreover	-8.5344
▁provides	-8.53447
▁W	-8.53868
▁period	-8.5399
co	-8.54031
▁active	-8.54097
▁While	-8.54113
▁probably	-8.54593
▁detected	-8.54618
▁insects	-8.54879
▁oxygen	-8.55083
▁feeding	-8.55215
▁key	-8.55375
▁point	-8.55483
▁2007)	-8.55511
▁findings	-8.55681
▁t	-8.55909
▁flight	-8.56137
▁explain	-8.56494
▁d	-8.56521
▁following	-8.56539
▁against	-8.56693
▁distance	-8.56695
▁visual	-8.56799
ar	-8.56843
▁cases	-8.5705
▁immune	-8.57074
▁cancer	-8.57419
▁occurred	-8.57841
lo	-8.57862
▁negative	-8.57905
▁speed	-8.58096
▁If	-8.5812
▁resulting	-8.58492
▁parameter	-8.58506
▁cannot	-8.58811
▁duplication	-8.58995
▁disease	-8.59107
▁Additional	-8.59145
▁evolved	-8.59165
▁direct	-8.59472
▁appears	-8.59473
▁families	-8.59602
et	-8.59739
▁post	-8.59785
man	-8.59966
▁independent	-8.60123
▁closely	-8.60142
▁genus	-8.6026
ate	-8.60272
ine	-8.60424
▁area	-8.60496
▁adaptation	-8.60572
▁muscles	-8.60629
idae	-8.61234
▁before	-8.61338
▁7	-8.61475
▁determine	-8.61545
▁shows	-8.61546
▁decrease	-8.61549
▁affect	-8.61595
ous	-8.61598
▁inter	-8.61842
▁directly	-8.6198
▁elements	-8.62093
▁mating	-8.62134
▁appear	-8.62311
▁b	-8.62322
▁power	-8.62727
▁sexual	-8.62968
▁produce	-8.63098
▁alternative	-8.63167
▁better	-8.6322
▁years	-8.63368
▁see	-8.63373
▁One	-8.63393
▁supported	-8.63402
▁diversification	-8.63618
▁structures	-8.6378
=	-8.63991
▁find	-8.64104
▁times	-8.64279
▁whole	-8.64483
▁correlation	-8.64559
▁RNA	-8.64901
▁resistance	-8.65
▁must	-8.65083
▁value	-8.65088
▁sensitivity	-8.6512
z	-8.65429
▁behaviour	-8.65532
▁brain	-8.65553
dependent	-8.65591
▁lead	-8.65624
▁sex	-8.65685
▁derived	-8.658
▁generally	-8.65903
▁members	-8.66035
▁phylogeny	-8.66068
▁sperm	-8.66146
▁local	-8.66172
▁clear	-8.66174
▁main	-8.66264
▁remains	-8.66343
▁Ca	-8.66606
▁wild	-8.66641
▁mutation	-8.66672
ent	-8.66702
▁maximum	-8.66784
▁another	-8.66853
▁reaction	-8.66999
▁reactions	-8.67013
▁swimming	-8.67166
▁absence	-8.67559
▁mean	-8.67585
▁context	-8.67774
▁pressure	-8.67921
ul	-8.68129
▁signals	-8.68244
▁There	-8.68287
▁2006)	-8.68292
▁play	-8.68312
▁particularly	-8.68414
▁approaches	-8.68496
▁concentration	-8.68654
▁produced	-8.68732
▁include	-8.68745
▁comparison	-8.68768
▁strongly	-8.68857
▁central	-8.69229
ma	-8.69263
▁reduction	-8.69332
de	-8.69463
▁complete	-8.69473
▁tissues	-8.69977
▁At	-8.70061
ter	-8.70244
▁multi	-8.70248
▁knowledge	-8.70437
ra	-8.7088
▁Z	-8.70937
▁adult	-8.70968
▁ecological	-8.71009
▁exposure	-8.71136
▁developed	-8.71157
▁line	-8.71259
▁domains	-8.71422
▁importance	-8.71571
▁together	-8.71906
▁close	-8.7225
ating	-8.7237
▁source	-8.72378
▁capacity	-8.72459
▁blood	-8.72917
ry	-8.73315
▁strains	-8.73353
▁“	-8.73414
▁essential	-8.73493
▁clades	-8.73613
▁tested	-8.73744
▁age	-8.73833
▁mammalian	-8.7388
▁rapid	-8.73995
▁applied	-8.74059
”	-8.7418
▁enzymes	-8.74225
10	-8.74422
▁need	-8.74627
▁Drosophila	-8.74672
▁selective	-8.7469
▁research	-8.74833
li	-8.74859
▁far	-8.75394
▁n	-8.75676
▁indicates	-8.75731
1,	-8.75783
▁receptors	-8.75885
▁initial	-8.76095
ri	-8.76449
ir	-8.7649
▁average	-8.76521
▁investigated	-8.76917
▁especially	-8.76921
▁estimated	-8.76943
▁mRNA	-8.77134
▁transport	-8.77171
st	-8.77211
▁Ma	-8.7726
▁concentrations	-8.77478
▁morphology	-8.77484
▁allow	-8.77485
Table	-8.77785
▁overall	-8.77791
▁trees	-8.77845
▁seems	-8.77921
]	-8.78245
ca	-8.7825
▁field	-8.7827
▁19	-8.78423
▁environments	-8.78433
▁2)	-8.78445
▁Y	-8.78607
▁degree	-8.7864
▁treatment	-8.78691
▁vertebrates	-8.78721
ian	-8.79007
vi	-8.79227
able	-8.79333
▁phenotypic	-8.79355
▁smaller	-8.79397
▁performed	-8.79419
▁forces	-8.79484
▁end	-8.79656
▁estimates	-8.79815
▁presented	-8.80008
▁wing	-8.80346
▁generated	-8.80425
▁dispersal	-8.80706
▁sets	-8.80707
▁way	-8.8083
▁larvae	-8.80894
ton	-8.80985
▁markers	-8.81149
▁yet	-8.81165
▁amount	-8.81207
▁underlying	-8.81399
▁unique	-8.81405
ive	-8.81613
▁examined	-8.81646
▁leading	-8.81674
▁Such	-8.81752
▁ratio	-8.81818
▁r	-8.81837
▁temperatures	-8.82017
▁towards	-8.82071
▁occurs	-8.82292
▁like	-8.82301
os	-8.82358
▁us	-8.82547
ers	-8.82601
▁insect	-8.82619
▁neurons	-8.82623
ad	-8.82655
▁little	-8.83039
▁developmental	-8.83204
▁expansion	-8.83257
▁future	-8.83259
▁biology	-8.83452
▁flux	-8.83685
▁Re	-8.83971
▁Fig	-8.83987
▁terms	-8.84046
▁sister	-8.84062
▁By	-8.84269
▁glucose	-8.84307
▁possibility	-8.84438
▁direction	-8.84462
▁2008).	-8.84493
▁potentially	-8.84536
▁survival	-8.8458
me	-8.84709
▁sampling	-8.84744
no	-8.84921
▁transfer	-8.84936
▁necessary	-8.84998
▁structural	-8.84999
▁mice	-8.85079
▁similarity	-8.85157
▁prior	-8.85192
te	-8.85216
ant	-8.85296
▁sea	-8.85304
▁Table	-8.85328
▁substrate	-8.85567
▁speciation	-8.85582
▁contribute	-8.85693
▁ancestor	-8.8581
type	-8.85936
▁shape	-8.85944
▁enzyme	-8.86176
ization	-8.86385
▁samples	-8.86513
▁cluster	-8.866
▁vertebrate	-8.86633
ro	-8.86667
▁difficult	-8.86695
▁Finally	-8.87115
▁content	-8.87352
▁characterized	-8.87629
▁observations	-8.87634
▁correlated	-8.88001
▁provided	-8.88118
▁certain	-8.88305
▁determined	-8.88356
▁spatial	-8.88445
▁corresponding	-8.88515
ae	-8.8856
▁longer	-8.88591
w	-8.88619
▁2004)	-8.89016
▁effective	-8.89277
ness	-8.89564
▁five	-8.89649
▁impact	-8.89727
▁stage	-8.89732
na	-8.89775
ase	-8.89776
▁9	-8.89791
yl	-8.89982
▁k	-8.90007
▁habitat	-8.90029
▁On	-8.90197
▁caused	-8.90321
▁diverse	-8.9062
▁exhibit	-8.90651
▁bacteria	-8.90658
son	-8.90915
▁differ	-8.90992
▁hand	-8.91172
ch	-8.91242
▁contain	-8.91277
▁When	-8.91291
▁II	-8.91333
scale	-8.91659
▁variable	-8.91846
ated	-8.9199
▁finding	-8.92124
▁combination	-8.92229
▁wide	-8.92409
▁phenotype	-8.92599
▁account	-8.92637
▁drug	-8.92693
▁20	-8.9284
▁allows	-8.92861
▁bacterial	-8.92954
J	-8.92961
▁primary	-8.93003
▁seen	-8.9323
▁simple	-8.93254
ii	-8.93283
▁normal	-8.93349
Additional	-8.93409
▁mtDNA	-8.93515
▁chromosome	-8.93552
▁included	-8.93592
ci	-8.93612
▁Because	-8.93613
▁cost	-8.93808
▁best	-8.94188
▁cross	-8.94199
▁lateral	-8.94491
▁around	-8.94618
▁recombination	-8.94678
▁yeast	-8.94747
α	-8.94769
▁Indeed	-8.94822
▁lines	-8.94847
▁detect	-8.95038
▁investigate	-8.95106
ting	-8.95136
▁space	-8.9518
▁indicating	-8.95219
▁cause	-8.95275
▁pro	-8.95314
related	-8.95322
▁approximately	-8.95338
Z	-8.95341
se	-8.95647
▁transcriptional	-8.95683
ment	-8.95753
ner	-8.95898
▁demonstrate	-8.9591
▁β	-8.96176
▁head	-8.96195
▁stages	-8.96227
▁constant	-8.96451
▁di	-8.96628
▁nature	-8.96674
▁indicated	-8.96715
▁strain	-8.96727
ata	-8.96748
▁located	-8.96815
▁make	-8.96847
ig	-8.96883
ial	-8.96898
▁unknown	-8.96933
▁mouse	-8.96953
am	-8.96963
▁alleles	-8.97182
▁humans	-8.97226
▁become	-8.97276
▁contact	-8.97351
▁molecules	-8.9751
▁Na	-8.97588
▁reflect	-8.97615
▁affected	-8.97692
▁what	-8.97742
▁18	-8.97897
▁habitats	-8.97923
▁experiment	-8.98069
ling	-8.9811
▁composition	-8.98146
▁red	-8.98188
▁scale	-8.98365
▁areas	-8.98377
▁problem	-8.98412
▁step	-8.98452
▁global	-8.98496
▁strategy	-8.98536
▁pairs	-8.9866
▁frequencies	-8.98665
▁2009).	-8.98875
▁measurements	-8.98944
▁targets	-8.99024
▁interesting	-8.99146
▁estimate	-8.99215
▁selected	-8.99235
▁predict	-8.99303
▁paper	-8.99447
▁basis	-8.9945
ac	-8.99463
▁differential	-8.99483
tic	-8.99563
▁predictions	-8.9973
▁Interestingly	-8.99754
▁throughout	-8.99889
▁component	-8.99961
▁last	-8.99976
▁clusters	-9.00013
▁infection	-9.00108
▁isolation	-9.00225
▁upon	-9.00308
].	-9.0037
▁thermal	-9.00489
▁condition	-9.00654
▁relevant	-9.00657
▁class	-9.0068
▁generation	-9.00744
▁migration	-9.00745
▁density	-9.00872
▁responsible	-9.00907
▁conservation	-9.00934
▁reproduction	-9.00936
▁social	-9.0095
▁free	-9.00963
▁identification	-9.01013
▁association	-9.01334
▁12	-9.01587
▁design	-9.01689
▁α	-9.01784
▁marine	-9.0189
▁algorithm	-9.01913
▁means	-9.02062
▁made	-9.02082
▁variability	-9.02154
▁characteristics	-9.02189
▁v	-9.02222
▁prediction	-9.02396
ne	-9.02424
▁computational	-9.02582
▁combined	-9.0262
▁synthesis	-9.02703
▁defined	-9.02714
▁clearly	-9.02762
▁event	-9.02825
▁cold	-9.03051
▁μ	-9.0309
▁2003)	-9.03112
▁movement	-9.03439
▁J	-9.0358
▁nodes	-9.03607
▁isolated	-9.03977
▁duration	-9.04202
▁2006;	-9.04205
mo	-9.04457
▁basal	-9.04502
▁critical	-9.04505
la	-9.04529
▁induced	-9.0478
est	-9.04901
▁understand	-9.05046
om	-9.05075
▁observation	-9.05089
▁decreased	-9.05127
▁secondary	-9.05261
2,	-9.05295
▁2010).	-9.05341
for	-9.05382
▁question	-9.056
▁useful	-9.05634
▁mechanical	-9.05648
▁heat	-9.05705
▁though	-9.05773
▁hypotheses	-9.05825
▁needed	-9.0638
▁genera	-9.06559
▁constraints	-9.0661
▁reduce	-9.06639
▁mainly	-9.06724
▁help	-9.06736
▁thought	-9.06814
▁2005;	-9.06824
▁latter	-9.0686
▁linked	-9.0688
▁dynamic	-9.07062
▁despite	-9.07136
▁framework	-9.07164
q	-9.07177
▁noise	-9.07376
ized	-9.07493
▁oxidative	-9.07544
con	-9.07572
11	-9.07688
▁intron	-9.07906
▁hypoxia	-9.07981
un	-9.08071
?	-9.08094
▁modeling	-9.0826
▁hybrid	-9.08348
ke	-9.08351
▁acids	-9.08473
▁remain	-9.08606
off	-9.0878
▁1).	-9.08804
▁putative	-9.08911
▁transition	-9.08939
▁variety	-9.08948
▁chemical	-9.08986
▁larval	-9.09015
term	-9.09201
▁sample	-9.09205
▁All	-9.09336
▁largely	-9.09774
▁Since	-9.09781
▁analyzed	-9.09903
▁sensory	-9.10106
▁stimuli	-9.10242
im	-9.10375
ard	-9.10397
▁usually	-9.10668
▁cues	-9.1072
▁fast	-9.10763
▁extent	-9.11174
▁locomotion	-9.11231
▁roles	-9.11326
▁offspring	-9.11508
▁geographic	-9.11692
▁represents	-9.11858
▁'	-9.11878
up	-9.11898
▁They	-9.11941
▁shared	-9.11984
▁efficiency	-9.12171
▁open	-9.12322
▁organism	-9.12356
▁substitution	-9.1246
▁-	-9.12544
▁now	-9.12558
▁costs	-9.1256
▁simulation	-9.12574
▁+	-9.12621
▁residues	-9.12705
▁maintain	-9.12737
▁explanation	-9.12761
▁hosts	-9.13029
▁exposed	-9.13298
▁phenotypes	-9.13411
ler	-9.13433
ox	-9.13502
▁days	-9.13536
▁act	-9.13702
▁below	-9.13752
▁fishes	-9.13763
min	-9.13776
▁micro	-9.13965
induced	-9.14009
▁volume	-9.14139
β	-9.14191
▁generate	-9.14205
ill	-9.14234
▁explained	-9.14246
▁interest	-9.1428
▁2003;	-9.14318
▁temporal	-9.14327
▁view	-9.14636
▁dataset	-9.14667
▁detailed	-9.14671
ct	-9.14708
▁already	-9.14742
▁respect	-9.14848
▁velocity	-9.15038
▁foraging	-9.15132
▁complexes	-9.15277
▁abundance	-9.1541
▁typically	-9.1544
▁damage	-9.15503
▁con	-9.15521
▁majority	-9.15851
ids	-9.15909
▁2005).	-9.15964
▁lost	-9.15971
▁nucleotide	-9.16011
▁contains	-9.16064
▁release	-9.16069
▁heart	-9.16168
▁vivo	-9.16208
▁resulted	-9.16274
mer	-9.16337
▁strategies	-9.16391
▁2007;	-9.16426
▁success	-9.16433
▁true	-9.16504
ha	-9.16675
▁optimal	-9.16773
▁advantage	-9.16852
▁require	-9.17089
▁down	-9.17108
▁instance	-9.17161
ba	-9.17327
▁almost	-9.17406
▁slow	-9.17445
▁restricted	-9.17469
▁intracellular	-9.17538
▁2004;	-9.1762
▁elevated	-9.17703
ot	-9.17843
▁output	-9.17851
▁currently	-9.17856
▁forms	-9.17865
▁bees	-9.17881
▁measure	-9.18052
▁near	-9.18124
▁peak	-9.18255
▁uptake	-9.18289
▁six	-9.18304
▁2008;	-9.18541
▁detection	-9.18573
▁Further	-9.18599
▁stem	-9.18726
▁biochemical	-9.18824
▁fully	-9.18948
▁inferred	-9.19016
▁stable	-9.19132
▁input	-9.1929
▁numbers	-9.19409
▁2001;	-9.19414
▁robust	-9.19443
▁states	-9.19454
▁behavioral	-9.19581
▁subsequent	-9.19776
▁random	-9.19794
▁2012)	-9.19799
ak	-9.19805
▁literature	-9.20059
▁rapidly	-9.20384
▁sp	-9.2042
▁2001)	-9.20445
▁full	-9.20546
protein	-9.20573
▁possibly	-9.20875
▁earlier	-9.20925
ho	-9.2105
▁feedback	-9.21054
▁competition	-9.21086
▁showing	-9.21155
▁sufficient	-9.21226
▁CO	-9.2127
all	-9.21291
▁day	-9.21303
[	-9.21378
▁points	-9.21597
▁parasite	-9.21597
▁datasets	-9.21653
▁followed	-9.21674
▁simulations	-9.2168
▁requires	-9.21717
▁feature	-9.21751
▁probability	-9.21766
▁widely	-9.21771
▁branch	-9.22055
ex	-9.22294
▁flies	-9.22502
▁established	-9.22532
▁Despite	-9.22581
▁min	-9.22612
▁11	-9.22892
ip	-9.2316
▁gain	-9.2317
▁divergent	-9.23174
▁stimulus	-9.23185
▁First	-9.23312
▁proportion	-9.23574
▁limb	-9.23598
▁Based	-9.23736
▁Given	-9.23768
▁exchange	-9.23861
▁external	-9.239
▁internal	-9.23926
▁take	-9.2394
▁hybridization	-9.24215
▁2002;	-9.24256
12	-9.24282
▁tolerance	-9.24314
▁motion	-9.24361
▁side	-9.24745
▁Using	-9.24872
rich	-9.24946
▁having	-9.25143
▁later	-9.25196
−1	-9.25259
▁bi	-9.25414
▁containing	-9.25461
▁standard	-9.25516
▁taxonomic	-9.25551
ang	-9.25613
ub	-9.25626
▁Both	-9.25742
▁fin	-9.25898
▁choice	-9.25934
▁broad	-9.26034
▁propose	-9.26147
▁core	-9.26256
ut	-9.2629
em	-9.26354
▁tend	-9.26409
▁periods	-9.2642
▁laboratory	-9.26522
▁ATP	-9.26674
▁regulated	-9.26696
▁With	-9.26719
▁consider	-9.26735
op	-9.2674
▁De	-9.26817
tin	-9.26838
land	-9.26929
▁quality	-9.26958
▁extensive	-9.27184
▁vary	-9.27197
▁deep	-9.2735
di	-9.27397
▁versus	-9.27515
▁complexity	-9.27539
▁dependent	-9.27581
▁signalling	-9.27758
▁North	-9.27788
age	-9.27842
▁[1].	-9.27876
▁posterior	-9.28036
▁magnitude	-9.28102
rs	-9.28141
▁scenario	-9.28164
▁profiles	-9.2823
▁egg	-9.28247
▁sound	-9.28387
▁good	-9.28531
▁diet	-9.2885
▁led	-9.28905
▁according	-9.2893
▁coli	-9.29098
▁sources	-9.2926
▁exist	-9.29386
fold	-9.29482
▁bats	-9.29482
▁[1,	-9.29608
ran	-9.29657
▁plasma	-9.29676
▁carbon	-9.29726
▁seem	-9.29752
▁steady	-9.29871
▁ancient	-9.30061
▁Additionally	-9.30101
▁codon	-9.30107
▁movements	-9.3011
▁real	-9.30177
▁2011).	-9.30471
ce	-9.30592
▁linear	-9.30649
_	-9.30662
▁variables	-9.307
▁16	-9.30707
▁modules	-9.30839
20	-9.30856
▁capture	-9.30951
▁entire	-9.30963
▁eukaryotic	-9.31088
▁learning	-9.31322
▁statistical	-9.31365
▁coding	-9.31468
2+	-9.31487
Q	-9.31635
▁parallel	-9.31713
▁separate	-9.31721
▁trait	-9.3176
▁search	-9.31818
▁primarily	-9.31839
▁orientation	-9.31875
▁trout	-9.31877
▁sensitive	-9.31885
uc	-9.3213
nt	-9.32205
▁accumulation	-9.32235
▁melanogaster	-9.32235
▁characters	-9.32304
be	-9.32305
▁1999;	-9.32394
▁action	-9.32452
▁distributed	-9.32488
▁African	-9.325
one	-9.3254
50	-9.32571
],	-9.32625
▁crucial	-9.32633
▁zebrafish	-9.32707
▁threshold	-9.32743
▁0	-9.32835
▁air	-9.32852
▁motifs	-9.32862
▁metabolites	-9.32878
▁2000;	-9.32912
▁joint	-9.32981
▁independently	-9.33004
▁secretion	-9.33032
cell	-9.33162
▁comparative	-9.33308
▁consequence	-9.33567
▁activities	-9.33579
▁inhibition	-9.33833
▁apparent	-9.33894
▁13	-9.33934
lin	-9.33959
▁sequencing	-9.3401
▁location	-9.34144
▁plasticity	-9.34173
▁distributions	-9.34281
▁horizontal	-9.34409
▁material	-9.34429
-2	-9.34505
pt	-9.34506
▁locus	-9.34549
▁Nevertheless	-9.34571
▁[12]	-9.34585
ts	-9.34872
ten	-9.34931
oc	-9.34964
▁Most	-9.35087
▁ground	-9.35121
▁running	-9.35261
▁neural	-9.35345
▁alone	-9.35381
▁[8]	-9.35495
▁[3]	-9.35519
▁stability	-9.35536
▁15	-9.35567
▁freshwater	-9.35573
▁estimation	-9.3561
▁unlikely	-9.35611
▁bio	-9.35746
▁southern	-9.35873
▁includes	-9.35892
70	-9.35897
▁positions	-9.35928
15	-9.35947
▁phosphorylation	-9.35961
▁terrestrial	-9.35965
▁eukaryotes	-9.36132
▁maintenance	-9.36218
line	-9.36275
▁share	-9.36293
gene	-9.36356
▁date	-9.36371
ti	-9.36389
▁reveal	-9.364
▁sizes	-9.36458
▁leads	-9.36495
▁just	-9.36543
▁motif	-9.36675
▁highest	-9.36678
ty	-9.36796
▁intra	-9.36888
▁availability	-9.36924
▁Several	-9.37037
▁bias	-9.3711
▁base	-9.37215
ins	-9.37261
–2	-9.37498
▁theory	-9.37501
▁fluid	-9.37569
▁During	-9.37584
▁focus	-9.37609
▁[6]	-9.37694
▁maintained	-9.377
▁intermediate	-9.37749
▁original	-9.37789
▁matrix	-9.37835
▁rise	-9.38001
▁report	-9.38034
▁introns	-9.38045
13	-9.38069
ted	-9.38074
▁Some	-9.38145
▁neutral	-9.38165
▁Africa	-9.3832
▁pair	-9.38327
▁diseases	-9.38455
▁place	-9.38467
▁aspects	-9.38488
▁substantial	-9.38592
ka	-9.38619
▁shift	-9.38623
▁confirmed	-9.38744
▁strength	-9.38782
▁1)	-9.38792
▁green	-9.38927
▁anti	-9.39028
▁variants	-9.39052
▁Similarly	-9.39067
▁efficient	-9.39072
▁extreme	-9.39094
▁whose	-9.3915
ary	-9.39267
▁late	-9.39302
▁possess	-9.39459
▁why	-9.39569
▁[11]	-9.3965
▁existence	-9.39665
▁MHC	-9.39677
▁reconstruction	-9.39684
▁olfactory	-9.40034
▁compare	-9.40135
end	-9.40149
▁inference	-9.40314
ies	-9.40335
▁identical	-9.40346
▁turn	-9.40359
▁virus	-9.40361
▁radiation	-9.40387
ea	-9.40403
▁instead	-9.40503
▁trans	-9.40593
ini	-9.40646
terminal	-9.40653
▁faster	-9.40663
▁tests	-9.40692
ab	-9.40746
▁1999)	-9.4078
▁dis	-9.40977
▁numerous	-9.41053
▁2009;	-9.4118
▁w	-9.41238
▁assumed	-9.41266
2)	-9.41332
▁2002).	-9.41429
▁stochastic	-9.41462
▁comprehensive	-9.41487
▁quantitative	-9.41496
▁30	-9.41668
▁integration	-9.41735
▁topology	-9.41806
▁specifically	-9.41889
▁clock	-9.41947
mann	-9.41965
▁unclear	-9.42162
▁experimentally	-9.42179
▁ants	-9.42253
po	-9.42287
▁taxon	-9.42309
▁Another	-9.42326
▁develop	-9.42344
▁describe	-9.42371
ve	-9.42385
▁others	-9.42434
ell	-9.4245
ov	-9.42529
▁series	-9.42655
▁liver	-9.42689
16	-9.42771
ina	-9.42947
▁recognition	-9.42982
▁walking	-9.43023
▁timing	-9.43043
▁assess	-9.43048
▁examine	-9.43069
▁contribution	-9.43198
▁published	-9.4341
inae	-9.43473
▁called	-9.43538
▁stimulation	-9.43541
▁evolve	-9.43677
▁tail	-9.43686
level	-9.4391
▁candidate	-9.43934
▁focused	-9.44103
▁24	-9.44139
▁amplitude	-9.44205
▁northern	-9.44228
▁calculated	-9.44235
iv	-9.44257
▁Previous	-9.44293
▁self	-9.44297
ure	-9.44442
▁represented	-9.44637
▁lipid	-9.4465
▁always	-9.44665
▁o	-9.4469
▁experience	-9.4477
▁fraction	-9.44826
▁mate	-9.44866
▁great	-9.44878
ap	-9.44935
▁resources	-9.45269
▁regulate	-9.45307
▁completely	-9.45378
▁allowed	-9.45391
▁climate	-9.45392
ow	-9.45409
red	-9.45544
ris	-9.45545
▁transmission	-9.45648
▁background	-9.45683
▁fossil	-9.45736
▁commonly	-9.45838
mediated	-9.45849
▁extant	-9.45937
▁leg	-9.4595
▁third	-9.45979
▁classes	-9.46027
▁viruses	-9.46033
▁3).	-9.46069
▁resolution	-9.46108
▁Bayesian	-9.46145
▁degradation	-9.46198
▁frequently	-9.46234
▁taken	-9.46273
▁subject	-9.46312
▁existing	-9.46397
ley	-9.46426
▁course	-9.46486
tion	-9.46537
▁physical	-9.46581
per	-9.46589
▁elegans	-9.46642
▁(1)	-9.46716
▁copies	-9.46726
ula	-9.46766
sp	-9.46792
▁angle	-9.46845
▁investigation	-9.46891
▁depends	-9.46894
▁typical	-9.46916
▁1997)	-9.47167
ensis	-9.47184
▁copy	-9.47195
▁organ	-9.47196
of	-9.47233
▁proliferation	-9.47353
▁balance	-9.47379
▁haplotypes	-9.47389
▁respond	-9.47428
▁fixed	-9.47568
▁rare	-9.47571
▁vitro	-9.47734
▁branches	-9.47847
▁chromosomes	-9.47867
▁1,	-9.47907
▁past	-9.47913
ph	-9.47937
▁intensity	-9.47958
▁compounds	-9.47961
▁pH	-9.47994
▁mutant	-9.48071
ga	-9.48194
▁insights	-9.48232
▁(2)	-9.48255
▁vertical	-9.48325
▁organization	-9.48337
▁[14]	-9.48362
▁breeding	-9.48373
▁perform	-9.48457
▁distances	-9.4849
▁significance	-9.48662
▁Le	-9.48707
▁section	-9.48765
▁poly	-9.48791
▁techniques	-9.48793
▁Hence	-9.489
▁extended	-9.49052
1)	-9.49304
14	-9.49316
▁interact	-9.49339
▁nest	-9.49435
▁accuracy	-9.49529
▁Co	-9.4964
▁reason	-9.49747
▁motor	-9.49799
▁downstream	-9.49861
▁anterior	-9.50178
▁address	-9.5032
▁x	-9.50428
▁mathematical	-9.50464
ose	-9.50484
▁eggs	-9.5056
▁kinase	-9.50609
▁fungi	-9.50673
▁risk	-9.50725
▁mediated	-9.50809
▁1998;	-9.50827
▁providing	-9.50854
io	-9.50892
AR	-9.50956
▁14	-9.5098
▁thereby	-9.50995
▁Many	-9.51009
▁ca	-9.51014
ey	-9.51053
gen	-9.51151
▁status	-9.51295
▁error	-9.51301
les	-9.51453
▁mode	-9.51511
▁embryos	-9.51533
cer	-9.51536
▁[19]	-9.51579
ver	-9.51679
▁expect	-9.51741
▁activated	-9.51743
▁1998)	-9.5176
▁[22]	-9.52006
▁assumption	-9.52144
▁agreement	-9.52259
ome	-9.5233
▁indeed	-9.52394
▁dorsal	-9.52426
▁overlap	-9.52528
▁infer	-9.52529
▁clustering	-9.52593
▁deg	-9.5266
▁comparisons	-9.52807
▁database	-9.52908
▁likelihood	-9.52956
▁half	-9.52962
▁gill	-9.53129
▁variance	-9.53164
▁classification	-9.53234
▁translation	-9.53244
▁influenced	-9.53333
fi	-9.53346
▁parasites	-9.5335
▁occurrence	-9.53449
oid	-9.53467
▁100	-9.53476
▁limit	-9.5349
▁pathogen	-9.53509
▁South	-9.53526
ie	-9.53531
▁weak	-9.53534
▁More	-9.5362
CA	-9.53828
▁Second	-9.53863
che	-9.53878
▁supports	-9.53891
bo	-9.53939
▁allele	-9.54111
▁term	-9.54187
▁authors	-9.54192
binding	-9.54263
ize	-9.54356
bi	-9.54411
▁color	-9.54511
▁display	-9.54538
▁idea	-9.54578
▁tri	-9.54621
▁causes	-9.54676
ob	-9.54801
▁node	-9.54818
▁tools	-9.54964
▁manner	-9.54984
000	-9.55009
tt	-9.55053
ide	-9.55122
▁processing	-9.55204
▁monophyletic	-9.55205
mon	-9.55214
19	-9.55258
▁acclimation	-9.55342
▁appropriate	-9.55399
▁parts	-9.55458
tri	-9.55638
▁Cl	-9.55685
ence	-9.5606
▁specificity	-9.56077
ella	-9.56098
▁comparable	-9.56129
▁allowing	-9.56187
▁slightly	-9.56201
▁capable	-9.56261
▁substrates	-9.5632
▁involving	-9.56346
▁aquatic	-9.56378
▁consequences	-9.56408
▁colour	-9.56445
▁encoding	-9.56457
▁hence	-9.56469
▁million	-9.56631
▁1997;	-9.56638
▁improve	-9.5665
▁characteristic	-9.56657
▁formed	-9.56773
lic	-9.56777
▁mono	-9.56847
▁behaviors	-9.56865
ist	-9.5695
▁tool	-9.56983
▁application	-9.57031
da	-9.57034
ability	-9.5718
▁promoter	-9.57251
▁plays	-9.57259
der	-9.57337
chi	-9.57353
▁skin	-9.57411
▁depend	-9.57507
▁duplications	-9.57511
▁ventral	-9.57558
▁mitochondria	-9.57559
▁cardiac	-9.57593
pro	-9.57655
pod	-9.57681
1-	-9.57685
hi	-9.57735
wide	-9.57736
▁trade	-9.57798
out	-9.57803
▁genetically	-9.57808
▁noted	-9.5783
▁explore	-9.57875
▁parental	-9.57891
▁hypothesized	-9.579
▁remaining	-9.57918
▁preference	-9.58023
▁eye	-9.58069
▁insulin	-9.58071
▁Q	-9.58084
he	-9.58151
▁Among	-9.58155
▁European	-9.58215
ism	-9.58282
▁discussed	-9.58448
ium	-9.58463
▁occurring	-9.58576
▁controlled	-9.58738
▁genotype	-9.58776
▁enhanced	-9.58821
▁land	-9.58859
▁documented	-9.58981
reviewed	-9.59023
oph	-9.59089
ica	-9.59138
ge	-9.59183
▁phylogenies	-9.59234
▁nearly	-9.59282
▁substitutions	-9.59299
▁net	-9.59368
▁sampled	-9.59413
▁integrated	-9.59447
▁eyes	-9.59473
▁ex	-9.59498
▁polymorphism	-9.59591
ni	-9.59642
▁hyper	-9.59668
rus	-9.59675
va	-9.59681
her	-9.59687
▁memory	-9.59802
▁experienced	-9.59819
▁living	-9.59839
▁alignment	-9.59883
▁obtain	-9.59965
▁1:	-9.60019
▁until	-9.60057
▁back	-9.60096
▁mostly	-9.60099
ier	-9.60156
▁widespread	-9.60184
▁America	-9.60269
sh	-9.60291
▁functionally	-9.60416
▁considerable	-9.60443
▁organs	-9.60575
▁acting	-9.60593
▁itself	-9.60635
▁Pro	-9.60655
▁serve	-9.60709
▁perhaps	-9.60771
▁questions	-9.60964
▁driven	-9.60967
▁sequenced	-9.61244
▁extracellular	-9.61288
▁makes	-9.61311
▁seven	-9.6135
ber	-9.61356
▁[31]	-9.61378
▁continuous	-9.61417
▁teleost	-9.61462
▁[23]	-9.61471
▁predators	-9.61567
▁St	-9.61598
▁conclusion	-9.61677
▁behavioural	-9.61684
▁examples	-9.61716
▁accurate	-9.61791
▁cycles	-9.61895
▁measures	-9.61967
▁insight	-9.6198
▁decreases	-9.61981
▁photo	-9.62004
▁kinetic	-9.62104
ative	-9.62115
▁making	-9.62145
▁comparing	-9.62255
▁achieved	-9.62277
▁Other	-9.62304
▁extension	-9.62305
▁1996;	-9.62317
▁facilitate	-9.62329
▁Al	-9.62381
II	-9.62386
▁genotypes	-9.62387
do	-9.62487
▁j	-9.62528
▁La	-9.62567
25	-9.62609
▁bone	-9.62709
▁depending	-9.62757
▁induce	-9.62899
▁maternal	-9.62963
▁consumption	-9.63038
▁enough	-9.63039
less	-9.63169
▁basic	-9.63303
▁maximal	-9.6332
▁shifts	-9.63414
art	-9.6354
j	-9.63544
▁blue	-9.63665
▁element	-9.63753
-3	-9.63785
▁link	-9.63822
▁scales	-9.63828
▁challenge	-9.6397
▁skeletal	-9.63999
60	-9.64033
BP	-9.64053
▁zone	-9.64113
▁easily	-9.64123
▁equal	-9.64133
coding	-9.64276
▁ion	-9.64285
53	-9.64291
au	-9.64326
▁testing	-9.64436
▁connected	-9.64451
▁exhibited	-9.64461
▁axis	-9.64501
tra	-9.64514
▁Two	-9.64681
▁conversion	-9.64755
▁quite	-9.64823
by	-9.64875
▁locomotor	-9.64955
▁character	-9.6517
▁gradient	-9.6517
▁<	-9.65296
▁[33]	-9.65365
▁note	-9.65389
▁variations	-9.65395
▁meta	-9.65433
▁avoid	-9.65539
2-	-9.65545
▁No	-9.65718
▁UV	-9.65778
▁partial	-9.65845
▁4).	-9.65851
▁calcium	-9.65878
ities	-9.66078
▁introduced	-9.6614
▁predator	-9.66174
▁viral	-9.6618
▁robustness	-9.66201
▁speeds	-9.66273
▁seed	-9.66291
▁pathogens	-9.66338
▁Di	-9.66599
▁profile	-9.666
den	-9.66796
▁Even	-9.66822
▁st	-9.67181
▁understood	-9.67197
▁2000).	-9.67199
▁weight	-9.67205
▁dominant	-9.67343
▁regarding	-9.67391
▁systematic	-9.67401
atus	-9.67456
▁[24]	-9.6751
res	-9.67569
▁Ro	-9.67633
regulated	-9.67769
▁left	-9.67866
▁fly	-9.67926
▁Con	-9.67969
▁own	-9.68139
▁white	-9.68151
▁Sch	-9.68226
▁From	-9.68342
▁reference	-9.68343
▁algorithms	-9.68436
pi	-9.68471
▁diverged	-9.68517
▁escape	-9.6859
▁aerobic	-9.68639
▁recognized	-9.68776
pp	-9.68784
mat	-9.68789
▁mutants	-9.68834
▁colleagues	-9.68847
ps	-9.68861
▁fundamental	-9.68983
ron	-9.69028
▁altered	-9.69095
▁Asia	-9.69219
▁17	-9.69224
osa	-9.69241
▁~	-9.69284
▁recorded	-9.69322
ec	-9.69403
▁composed	-9.69473
30	-9.69518
▁embryonic	-9.69621
▁root	-9.69664
▁collected	-9.69713
ens	-9.7001
ari	-9.70049
▁exon	-9.70051
pho	-9.70067
▁>	-9.70092
▁1994;	-9.70116
3,	-9.70121
▁extremely	-9.70221
▁adults	-9.70266
▁%	-9.70277
▁Ne	-9.70284
▁Sp	-9.70445
ish	-9.70534
▁tumor	-9.70602
▁respiratory	-9.70738
▁Arabidopsis	-9.7095
▁[2,	-9.70954
▁energetic	-9.71138
ru	-9.71191
▁50	-9.71228
▁ago	-9.71246
▁Also	-9.71261
▁pheromone	-9.71351
▁right	-9.71352
▁products	-9.71367
phy	-9.71436
▁solution	-9.71526
▁pressures	-9.71537
▁contraction	-9.71617
que	-9.71689
▁phenomenon	-9.71696
▁[27]	-9.71747
▁drift	-9.7175
▁wall	-9.71791
▁evaluate	-9.71797
▁peptide	-9.71827
▁death	-9.71898
▁extinction	-9.71934
–3	-9.71956
▁largest	-9.71971
▁depth	-9.72005
▁conducted	-9.7206
▁absent	-9.72125
17	-9.72224
▁associations	-9.72252
AT	-9.72368
▁[2].	-9.72467
▁outside	-9.7247
▁subfamily	-9.72509
▁mid	-9.72523
▁physiology	-9.72532
▁switch	-9.72552
▁So	-9.72618
▁duplicated	-9.72692
▁identifying	-9.72714
▁split	-9.7287
▁encoded	-9.72923
▁opposite	-9.72935
▁Europe	-9.73046
▁deletion	-9.73188
▁fat	-9.73245
▁separated	-9.73251
▁interpretation	-9.73282
▁situation	-9.73331
ep	-9.73412
▁employed	-9.73505
▁combinations	-9.73524
▁transcripts	-9.73524
▁homologous	-9.73526
▁colony	-9.73548
▁vs	-9.7363
▁fungal	-9.73642
▁suitable	-9.73751
▁simultaneously	-9.73765
▁Recent	-9.73845
▁1995)	-9.7393
▁[4,	-9.73933
▁steps	-9.73956
▁rest	-9.74001
sensitive	-9.74009
▁Pleistocene	-9.74013
▁spread	-9.74019
▁simply	-9.74079
▁Atlantic	-9.74105
SA	-9.74111
SC	-9.74151
▁kinematics	-9.74174
ance	-9.74198
18	-9.74201
▁segments	-9.74261
▁minimal	-9.743
▁ranges	-9.74302
▁coupled	-9.74309
▁shorter	-9.74362
▁miRNA	-9.74417
▁give	-9.74526
▁resource	-9.74535
AP	-9.74593
und	-9.74702
ical	-9.74718
▁[35]	-9.74727
ax	-9.74751
▁upper	-9.74772
▁adaptations	-9.748
▁problems	-9.7489
aceae	-9.74911
▁optimization	-9.7502
▁seasonal	-9.75068
▁acceleration	-9.75071
▁identity	-9.75071
▁units	-9.75092
▁improved	-9.75125
pa	-9.75212
▁adapted	-9.75292
▁affinity	-9.75383
▁forward	-9.75389
ev	-9.75544
rin	-9.75555
▁25	-9.7557
▁specimens	-9.75581
yn	-9.75598
eri	-9.75703
▁ammonia	-9.75849
▁next	-9.75854
▁positively	-9.7595
▁[3,	-9.76105
▁1995;	-9.76144
▁Mo	-9.76149
▁cerevisiae	-9.7624
fer	-9.76249
▁yield	-9.76303
▁supporting	-9.76347
▁poorly	-9.76405
▁final	-9.76423
qui	-9.7643
▁achieve	-9.76439
▁presumably	-9.76648
▁fluxes	-9.76665
▁Consequently	-9.76689
▁spectral	-9.76766
▁aim	-9.768
go	-9.76807
▁paralogs	-9.76832
▁theoretical	-9.76846
▁black	-9.769
tus	-9.76939
▁fibers	-9.77039
▁acoustic	-9.77112
ren	-9.77161
lan	-9.77319
▁sense	-9.77411
▁demographic	-9.77423
▁eight	-9.7744
▁repeated	-9.77481
▁introgression	-9.77538
▁treatments	-9.77555
▁auto	-9.77556
▁constraint	-9.77558
);	-9.7757
▁changing	-9.77623
▁fluctuations	-9.77717
▁isoforms	-9.77781
▁rule	-9.77782
▁define	-9.77797
▁1994)	-9.77849
▁incomplete	-9.77921
▁emergence	-9.7795
▁phylogeographic	-9.77992
▁abundant	-9.78049
▁module	-9.78148
▁considering	-9.78152
▁communication	-9.78164
▁involves	-9.78223
▁evolving	-9.78226
▁assume	-9.78319
if	-9.7835
ay	-9.78359
▁frequent	-9.78381
▁PO	-9.78537
ns	-9.78547
isation	-9.78551
▁Ta	-9.78557
▁New	-9.78567
gr	-9.786
alis	-9.78601
▁double	-9.78621
▁American	-9.78747
▁Ba	-9.78775
▁historical	-9.78792
▁nervous	-9.78965
▁reducing	-9.78985
▁databases	-9.79098
▁bo	-9.79183
▁replication	-9.79312
associated	-9.79606
▁except	-9.79704
▁ER	-9.79717
▁edge	-9.79733
▁[4].	-9.79874
▁developing	-9.79889
▁correct	-9.79928
▁climatic	-9.79943
act	-9.79997
▁microarray	-9.80007
▁fruit	-9.80256
▁He	-9.80271
▁successful	-9.80298
▁reach	-9.80324
▁division	-9.80473
rt	-9.80479
▁GC	-9.80483
▁distinguish	-9.80533
▁modern	-9.80535
▁relation	-9.80577
▁winter	-9.80586
▁affects	-9.80663
izing	-9.80704
CR	-9.80762
▁bat	-9.80777
▁growing	-9.80838
▁Li	-9.80872
▁marker	-9.80874
▁channels	-9.80914
▁call	-9.80952
▁macro	-9.81055
▁greatly	-9.81061
ou	-9.81064
▁observe	-9.81098
▁correlations	-9.81133
▁acquired	-9.81167
▁regression	-9.8118
ans	-9.81191
▁super	-9.81238
▁East	-9.81258
40	-9.81276
▁determining	-9.81319
▁islands	-9.8138
▁benefit	-9.81423
°	-9.81448
▁drugs	-9.81457
▁hybrids	-9.81477
ida	-9.81505
gu	-9.8151
▁geographical	-9.81515
▁legs	-9.81553
▁subunits	-9.81579
▁discovery	-9.81613
▁fit	-9.81624
▁tropical	-9.81703
▁minimum	-9.81708
▁TF	-9.81712
kin	-9.81739
▁consists	-9.81781
ite	-9.81807
▁PPI	-9.81831
str	-9.81889
▁unit	-9.81892
▁ant	-9.81896
▁alter	-9.82031
mb	-9.82033
▁newly	-9.82059
▁splicing	-9.82092
▁recovery	-9.82099
▁2,	-9.82143
tch	-9.82238
▁biosynthesis	-9.82242
▁miRNAs	-9.82293
▁appeared	-9.82302
▁Pa	-9.82304
▁colonization	-9.82327
▁opsin	-9.82336
▁live	-9.82369
tan	-9.82425
▁surprising	-9.82474
▁2010;	-9.82599
▁confirm	-9.82615
▁beyond	-9.82659
▁[5].	-9.82673
▁Similar	-9.82713
▁apoptosis	-9.82718
▁loop	-9.82727
▁varying	-9.82738
▁nor	-9.82765
▁once	-9.828
▁partially	-9.82806
▁CD	-9.82831
▁apical	-9.82839
▁intake	-9.82959
our	-9.82972
▁representing	-9.82981
wa	-9.82999
▁circadian	-9.83017
▁1993)	-9.83023
▁becomes	-9.83274
▁drag	-9.83325
▁too	-9.83573
ates	-9.83586
▁carried	-9.83679
▁necessarily	-9.83679
gi	-9.83709
▁[7].	-9.83733
▁[6,	-9.83803
▁product	-9.83807
▁Alternatively	-9.83813
▁metabolite	-9.84016
▁fusion	-9.84196
state	-9.84226
▁conclude	-9.84268
▁1993;	-9.84296
▁task	-9.84306
▁40	-9.84353
▁analyze	-9.84451
▁2008)	-9.84597
ales	-9.84601
▁layer	-9.84638
▁[9].	-9.84726
▁upstream	-9.84777
▁who	-9.84797
▁enhance	-9.84801
▁implies	-9.84954
▁2013)	-9.8497
▁neuro	-9.84995
▁eastern	-9.85017
▁channel	-9.85069
▁producing	-9.85083
▁Ha	-9.85087
▁[7,	-9.85111
▁HGT	-9.85152
CO	-9.8518
▁center	-9.85192
▁equivalent	-9.85222
ach	-9.85239
▁successfully	-9.85268
▁hormone	-9.853
over	-9.85316
▁nutrient	-9.85355
cul	-9.85388
ile	-9.85562
4,	-9.85596
▁simulated	-9.85632
▁stiffness	-9.85633
ana	-9.85653
way	-9.85656
▁remained	-9.85732
▁locations	-9.8576
mol	-9.85762
▁rat	-9.85842
▁CA	-9.85867
cl	-9.85891
ick	-9.8591
▁edges	-9.85917
▁regulating	-9.85931
▁empirical	-9.85997
▁lengths	-9.86164
max	-9.86196
▁implications	-9.86213
▁gut	-9.86248
▁Gene	-9.86271
▁Of	-9.86271
▁western	-9.86291
▁segment	-9.86324
▁bound	-9.8633
▁placed	-9.86343
▁path	-9.86392
▁niche	-9.8642
▁correspond	-9.86422
▁benefits	-9.8645
▁recovered	-9.86467
ich	-9.86515
pe	-9.86538
▁distal	-9.86628
my	-9.86647
▁[5,	-9.8665
▁originated	-9.86679
▁onset	-9.86689
▁wings	-9.86711
▁chain	-9.86756
▁bird	-9.86757
▁Po	-9.8676
▁substantially	-9.86881
▁rDNA	-9.87003
▁ligand	-9.87022
▁turtles	-9.87038
▁GO	-9.87039
▁heterogeneity	-9.87178
ole	-9.87221
ug	-9.87401
▁vector	-9.87435
▁surrounding	-9.87448
▁contained	-9.87476
▁chloroplast	-9.87491
ator	-9.87555
oma	-9.87633
ward	-9.87646
si	-9.87727
tr	-9.87745
▁salt	-9.87764
MC	-9.8796
▁modified	-9.87968
▁Mi	-9.87978
▁characterize	-9.87991
▁intrinsic	-9.88032
mp	-9.88037
▁Lo	-9.88055
▁[10].	-9.88066
▁exception	-9.88175
▁beneficial	-9.88183
Co	-9.88272
▁driving	-9.88309
▁diffusion	-9.88356
▁attention	-9.88373
▁limits	-9.8838
▁calls	-9.884
PR	-9.8844
▁haplotype	-9.8846
▁transcript	-9.88578
▁reasons	-9.88638
▁subunit	-9.88682
▁graph	-9.88684
▁architecture	-9.88772
▁apparently	-9.88905
▁move	-9.88949
▁rotation	-9.89005
▁[8,	-9.89019
3)	-9.89148
▁cm	-9.89175
fr	-9.89374
▁detail	-9.89453
▁reliable	-9.89517
▁list	-9.89546
▁jaw	-9.89555
▁acquisition	-9.89581
tes	-9.89599
▁regulators	-9.89608
▁oscillations	-9.89624
▁maintaining	-9.89625
▁plastid	-9.89807
▁nerve	-9.8987
not	-9.89893
▁22	-9.89937
▁poor	-9.89977
▁[9,	-9.89979
▁issue	-9.90011
▁diploid	-9.90046
▁evident	-9.90095
▁arm	-9.90101
▁goal	-9.90133
▁details	-9.902
par	-9.90236
▁orthologs	-9.90254
sen	-9.90276
▁iron	-9.90332
▁para	-9.90342
cy	-9.90456
▁concept	-9.90457
▁Recently	-9.90499
▁III	-9.90504
▁Bo	-9.90526
▁differentially	-9.90534
▁hetero	-9.90572
CC	-9.90596
▁`	-9.9063
▁peptides	-9.9064
▁load	-9.90759
amp	-9.90855
▁prevent	-9.90857
▁immunity	-9.91001
oidea	-9.91042
5%	-9.91078
ER	-9.91078
ST	-9.91099
▁generations	-9.91303
▁start	-9.91383
fish	-9.9147
▁predation	-9.9152
▁stronger	-9.91562
▁enriched	-9.91566
▁community	-9.91585
▁map	-9.91638
▁±	-9.91678
▁coral	-9.91739
▁chromosomal	-9.91845
▁Mc	-9.91863
▁attributed	-9.91872
hr	-9.91882
species	-9.91993
▁barriers	-9.92031
▁similarities	-9.92064
▁exercise	-9.9207
▁complement	-9.921
▁en	-9.9212
▁[10,	-9.92151
▁actually	-9.92167
▁ROS	-9.92173
▁En	-9.9222
PP	-9.92291
▁virulence	-9.92325
dy	-9.92439
▁limitation	-9.92446
eno	-9.92517
▁actual	-9.92518
▁involve	-9.92548
▁exclusively	-9.92569
▁young	-9.92578
but	-9.92627
▁conclusions	-9.9263
▁juvenile	-9.92635
dimensional	-9.92831
▁[13].	-9.92897
▁review	-9.92947
sis	-9.9299
IP	-9.9299
cin	-9.93049
▁every	-9.93263
▁synthetic	-9.93273
▁molecule	-9.9329
▁percentage	-9.933
▁foot	-9.93434
▁training	-9.93438
▁exons	-9.93495
▁origins	-9.93519
▁song	-9.93626
▁medium	-9.9363
▁3)	-9.93659
▁belong	-9.93686
▁resolve	-9.93693
ei	-9.93748
▁According	-9.93773
sch	-9.93799
▁avian	-9.9381
Ch	-9.93815
we	-9.93845
ong	-9.93878
▁bp	-9.93891
▁ML	-9.94047
▁modifications	-9.94119
▁Ar	-9.94255
▁shell	-9.94347
▁acute	-9.94368
▁1990;	-9.94387
▁subfamilies	-9.94435
▁terminal	-9.94446
▁subsequently	-9.94629
▁5).	-9.94702
▁After	-9.94702
▁constructed	-9.94712
▁procedure	-9.9473
lu	-9.9477
▁ways	-9.94845
▁considerably	-9.94977
▁colonies	-9.95042
tal	-9.95074
▁exists	-9.9516
eng	-9.95165
let	-9.95165
▁indirect	-9.95177
PC	-9.95197
▁amounts	-9.95234
▁Ka	-9.95237
▁peripheral	-9.95243
▁missing	-9.95245
mi	-9.95308
▁separation	-9.9531
ern	-9.95356
tor	-9.95363
▁reflects	-9.95377
so	-9.95386
▁toward	-9.95442
▁decline	-9.95555
▁Within	-9.95676
▁designed	-9.95724
▁Ex	-9.95737
▁×	-9.95765
▁feed	-9.95769
▁absolute	-9.95786
▁consensus	-9.95854
▁perturbations	-9.95857
▁[41]	-9.95881
▁bind	-9.95883
▁interpreted	-9.95888
od	-9.95889
▁subset	-9.9592
▁transduction	-9.95922
▁lung	-9.95983
▁MR	-9.96006
90	-9.9602
▁analysed	-9.96038
▁limitations	-9.96071
▁TFs	-9.96095
▁transitions	-9.96117
▁shallow	-9.96195
▁directional	-9.96205
ple	-9.96271
3–	-9.96274
ised	-9.9644
▁false	-9.96469
▁trend	-9.96524
▁Under	-9.96607
▁ones	-9.96686
▁representation	-9.96689
▁semi	-9.96707
▁glacial	-9.96717
▁perspective	-9.96744
time	-9.96809
▁modelling	-9.96811
▁clinical	-9.96813
▁moving	-9.96853
▁apply	-9.96891
▁dark	-9.96972
▁storage	-9.97088
▁drive	-9.9709
▁specialized	-9.97097
▁spring	-9.97098
▁NO	-9.97099
▁connectivity	-9.97176
▁deleterious	-9.97226
▁[18].	-9.97231
▁localization	-9.97284
▁patients	-9.97292
▁precise	-9.97309
wi	-9.97315
▁Wolbachia	-9.97364
gn	-9.97386
▁1992)	-9.97441
▁requirements	-9.97456
*	-9.97519
▁modulation	-9.97572
▁[42]	-9.97632
▁assembly	-9.97682
▁[40]	-9.97822
ast	-9.97837
▁former	-9.97849
▁monophyly	-9.9785
▁traditional	-9.97934
▁Sa	-9.97952
▁fixation	-9.98002
▁again	-9.98044
▁studying	-9.98084
▁kinetics	-9.98186
▁[15].	-9.98275
▁fatty	-9.98279
▁narrow	-9.98284
▁1991)	-9.9835
▁forest	-9.98365
ura	-9.98503
▁induction	-9.98548
ear	-9.98587
▁gas	-9.98645
▁vocal	-9.98687
▁season	-9.98704
▁subspecies	-9.98714
▁Overall	-9.98763
▁adjacent	-9.98828
2%	-9.9883
▁invertebrates	-9.98845
car	-9.98935
▁primates	-9.98959
▁proximal	-9.99039
▁needs	-9.99087
▁vi	-9.99154
▁mmol	-9.99257
▁native	-9.99273
▁Sea	-9.99321
▁[17].	-9.99361
dis	-9.99396
▁off	-9.99404
▁promote	-9.99426
▁unpublished	-9.99436
▁generating	-9.99439
▁objective	-9.9947
▁China	-9.99478
low	-9.99486
%	-9.99519
▁effort	-9.99549
▁representative	-9.99651
▁[13,	-9.99677
ric	-9.99698
mit	-9.997
▁[16].	-9.99748
▁affecting	-9.99825
26	-9.99848
▁algae	-9.99941
▁regard	-9.99945
▁salinity	-9.99957
▁ratios	-9.99991
▁teleosts	-10.0003
▁added	-10.0004
▁pool	-10.0005
▁lacking	-10.0008
▁mortality	-10.001
mes	-10.002
▁favor	-10.0021
vo	-10.0024
▁software	-10.0024
▁respiration	-10.0025
▁orthologous	-10.0025
▁mapping	-10.0025
▁1992;	-10.0026
▁ITS	-10.0031
▁discovered	-10.0031
nes	-10.0041
▁insertion	-10.0042
▁rely	-10.0043
▁seawater	-10.0047
▁synonymous	-10.0051
▁stroke	-10.0053
▁[11,	-10.0053
▁fewer	-10.0054
▁temperate	-10.0056
tis	-10.0061
▁discrete	-10.0067
▁scaling	-10.0067
group	-10.007
▁statistically	-10.0071
▁embryo	-10.0078
▁respective	-10.008
ors	-10.0082
▁member	-10.0085
▁kg	-10.0091
▁transcriptome	-10.0092
ud	-10.0093
ero	-10.0094
▁decreasing	-10.0096
▁explored	-10.0102
▁homologs	-10.0103
gl	-10.0107
▁NF	-10.0107
PS	-10.0115
▁Specifically	-10.0118
▁equations	-10.0118
▁wave	-10.0121
▁infected	-10.0125
rr	-10.0127
▁[43]	-10.0137
▁implicated	-10.0148
cho	-10.0159
▁landscape	-10.016
▁score	-10.0162
▁establish	-10.0162
av	-10.0167
expression	-10.0176
regulation	-10.0177
▁vision	-10.0182
cr	-10.0184
▁severe	-10.0184
▁phases	-10.0197
▁Col	-10.0201
▁[12,	-10.0204
king	-10.0209
▁biomass	-10.0219
▁endemic	-10.0221
▁(3)	-10.0226
▁depression	-10.0227
▁se	-10.0232
▁28	-10.0239
▁confidence	-10.0242
▁scenarios	-10.0249
▁extra	-10.0251
▁PC	-10.0258
2].	-10.0259
▁[20].	-10.0264
▁Wnt	-10.0266
▁nucleus	-10.0267
▁repeat	-10.0267
▁year	-10.0272
▁interacting	-10.0272
functional	-10.0276
▁Per	-10.0278
tu	-10.0282
MR	-10.0288
▁older	-10.0289
▁signature	-10.029
▁nitrogen	-10.0291
▁discrimination	-10.0291
▁resting	-10.0296
▁obvious	-10.0308
1/	-10.0316
▁tandem	-10.032
▁dive	-10.0323
ys	-10.0325
Ca	-10.0326
▁curve	-10.0328
▁0.1	-10.0328
±	-10.033
▁CR	-10.0337
▁expanded	-10.0337
▁released	-10.0346
tro	-10.0346
set	-10.0348
▁miR	-10.035
▁description	-10.035
▁initiation	-10.035
▁technique	-10.0357
▁arise	-10.0365
▁ten	-10.0368
▁0.5	-10.037
▁definition	-10.0372
▁mature	-10.0372
▁constitute	-10.0372
▁my	-10.0385
▁Ac	-10.0386
▁constrained	-10.0388
▁intact	-10.0402
▁access	-10.0405
27	-10.041
▁IL	-10.0415
▁know	-10.0417
▁rRNA	-10.0418
▁2]	-10.0422
▁Th	-10.0422
data	-10.0424
▁demonstrates	-10.043
▁absorption	-10.0438
▁follow	-10.044
▁progression	-10.0441
▁[21].	-10.0442
▁endogenous	-10.0446
aria	-10.0446
▁attack	-10.0453
▁exact	-10.0457
qua	-10.0457
▁inbreeding	-10.0461
▁corresponds	-10.0463
▁enable	-10.0465
▁ecology	-10.0468
ML	-10.0469
▁repair	-10.047
▁controls	-10.0473
▁moment	-10.0475
▁coefficient	-10.0478
with	-10.0484
▁never	-10.0485
pha	-10.0488
▁mechanistic	-10.0491
▁reveals	-10.05
▁zero	-10.0501
▁rats	-10.0501
▁equilibrium	-10.0502
ning	-10.0504
+/	-10.0506
▁initially	-10.0506
▁modes	-10.051
hl	-10.0512
mar	-10.0513
▁Mediterranean	-10.0515
▁effectively	-10.0515
▁minor	-10.0523
▁retained	-10.0524
ations	-10.0526
▁inside	-10.053
▁y	-10.0531
ock	-10.0533
▁adapt	-10.0534
▁away	-10.0535
ser	-10.0544
ert	-10.0545
ring	-10.0547
▁culture	-10.0561
▁pigment	-10.0564
▁eu	-10.0564
▁hind	-10.0569
▁2009)	-10.057
▁measurement	-10.0571
▁interspecific	-10.0574
▁1991;	-10.0574
▁reasonable	-10.0576
▁homology	-10.0577
▁extend	-10.0577
▁resolved	-10.058
▁neuronal	-10.0583
▁Central	-10.0588
▁topological	-10.0588
▁contributed	-10.0588
▁intervals	-10.0593
▁2011;	-10.0596
▁chicken	-10.0599
▁surfaces	-10.0602
▁ambient	-10.0603
▁diameter	-10.0603
▁microbial	-10.0603
▁homeostasis	-10.0603
▁investigations	-10.0603
▁construct	-10.0606
▁face	-10.0606
ino	-10.0611
▁repeats	-10.0612
▁3,	-10.0623
▁Do	-10.0628
▁transient	-10.0628
▁run	-10.0636
▁portion	-10.0645
▁im	-10.0646
▁belonging	-10.0648
▁Instead	-10.0648
ful	-10.0652
▁errors	-10.0654
cre	-10.0662
4)	-10.0662
▁classical	-10.0664
rum	-10.0666
▁sympatric	-10.0671
▁varies	-10.0687
▁modulate	-10.0688
cus	-10.0689
▁1990)	-10.069
eg	-10.0693
▁reflected	-10.0704
▁hypo	-10.0709
▁silico	-10.0709
side	-10.0712
▁array	-10.0714
iform	-10.0715
▁trials	-10.0716
▁fate	-10.0721
▁namely	-10.0723
▁summary	-10.0725
▁transporters	-10.0726
▁controlling	-10.0729
bl	-10.0731
▁loading	-10.0733
cal	-10.0738
▁uses	-10.0739
▁opportunity	-10.074
▁predicts	-10.0741
Ma	-10.0745
▁mm	-10.0748
▁1989;	-10.0749
▁Or	-10.0749
▁record	-10.075
4%	-10.0753
▁classified	-10.0756
▁closer	-10.0759
▁influences	-10.0763
sc	-10.0765
▁mixed	-10.0779
▁elastic	-10.078
itt	-10.0782
▁reports	-10.0784
▁rainbow	-10.0786
▁leaf	-10.0786
▁modification	-10.0806
▁enrichment	-10.0809
ung	-10.0811
▁tRNA	-10.082
ld	-10.0822
▁reached	-10.0823
8%	-10.0823
▁changed	-10.0824
▁Rh	-10.0837
▁signatures	-10.0841
▁Ho	-10.0847
▁River	-10.0848
▁hair	-10.0851
7%	-10.0852
▁middle	-10.0855
3].	-10.0855
▁hearing	-10.0856
▁tract	-10.0861
▁encode	-10.0863
▁supply	-10.0864
late	-10.0869
▁PI	-10.0873
▁similarly	-10.0882
▁intestine	-10.0886
RT	-10.0887
▁equation	-10.0893
RP	-10.0893
▁intraspecific	-10.0894
▁targeted	-10.0898
▁isolates	-10.0899
branch	-10.0902
▁powerful	-10.0904
38	-10.0905
▁assumptions	-10.0906
▁purifying	-10.091
3%	-10.0915
▁pulse	-10.0922
▁spectrum	-10.0927
▁island	-10.093
▁interface	-10.0933
▁done	-10.0934
5)	-10.0935
▁plan	-10.0937
▁epithelial	-10.0937
ack	-10.0938
▁consistently	-10.0944
▁slower	-10.0949
▁hard	-10.0963
▁Mb	-10.0963
▁intestinal	-10.0969
▁assigned	-10.0972
▁mis	-10.0978
▁Hz	-10.0979
▁ranging	-10.0984
dd	-10.0985
MP	-10.0987
▁accurately	-10.0992
▁neo	-10.0998
▁urea	-10.0999
▁fine	-10.1004
▁nm	-10.1006
▁plausible	-10.1011
▁fold	-10.1013
6%	-10.1013
RNA	-10.1015
han	-10.102
▁gland	-10.1041
▁adhesion	-10.1043
val	-10.1053
▁disc	-10.1055
▁But	-10.1059
▁snakes	-10.1059
och	-10.106
▁Eu	-10.106
▁he	-10.1061
▁acts	-10.1061
▁auditory	-10.1066
▁Ra	-10.107
▁themselves	-10.1074
▁linkage	-10.1076
▁lizards	-10.1079
▁mouth	-10.1088
▁chronic	-10.109
▁conflict	-10.1096
▁dry	-10.1098
▁challenges	-10.1108
é	-10.1114
▁mentioned	-10.1116
nic	-10.1122
▁barrier	-10.1123
▁car	-10.113
▁Each	-10.113
sta	-10.1132
▁Note	-10.1133
24	-10.1136
▁unable	-10.114
▁efforts	-10.1144
▁old	-10.1149
▁catalytic	-10.1154
▁varied	-10.1154
▁sounds	-10.1159
▁kidney	-10.1162
▁polymorphisms	-10.1165
▁ms	-10.1166
▁salmon	-10.1167
▁outcome	-10.118
▁transferred	-10.118
yr	-10.1182
ice	-10.1186
▁dietary	-10.1196
▁[16,	-10.1202
ski	-10.1205
ria	-10.1212
▁2005)	-10.1218
▁26	-10.1221
▁inhibitor	-10.1226
ATPase	-10.1243
▁electro	-10.1245
▁gap	-10.1253
▁5-	-10.1254
▁sometimes	-10.1258
://	-10.1258
▁[14,	-10.1261
▁PS	-10.1261
▁excretion	-10.1266
▁sleep	-10.1266
pre	-10.1266
▁[15,	-10.1266
til	-10.1268
▁evaluated	-10.127
optera	-10.1272
▁principal	-10.1274
23	-10.1277
RS	-10.1283
MS	-10.1285
▁antioxidant	-10.1294
▁return	-10.1304
▁Ko	-10.1309
▁workers	-10.1311
▁neither	-10.1323
fe	-10.1325
del	-10.1329
▁endo	-10.135
▁microsatellite	-10.1352
▁Asian	-10.1362
ros	-10.1363
DNA	-10.1364
▁MC	-10.1366
▁follows	-10.137
▁regulator	-10.1375
iss	-10.1375
▁Lake	-10.1381
day	-10.1387
▁cryptic	-10.139
amine	-10.1395
genic	-10.1398
free	-10.1406
▁ro	-10.1408
▁retina	-10.1414
aw	-10.1427
▁code	-10.1429
▁2010)	-10.143
▁flexibility	-10.1437
▁reduces	-10.1443
▁Hox	-10.1449
Pa	-10.1451
▁heterogeneous	-10.1453
▁nematodes	-10.1455
▁cave	-10.1457
▁1996).	-10.1461
▁SR	-10.1462
ster	-10.1464
▁select	-10.1471
SP	-10.1477
CD	-10.148
ene	-10.148
80	-10.148
▁overlapping	-10.1484
▁preferences	-10.1485
▁frogs	-10.1486
▁delay	-10.1491
ano	-10.1491
▁connections	-10.1494
ja	-10.1496
▁Δ	-10.1497
▁orders	-10.15
▁195	-10.1501
derived	-10.1504
▁differs	-10.1505
▁[25].	-10.1505
▁differentiated	-10.1511
▁uncertainty	-10.1511
▁limiting	-10.1515
▁fed	-10.152
trophic	-10.1526
▁actin	-10.1526
▁usage	-10.1531
▁negatively	-10.1538
▁treated	-10.1538
▁artificial	-10.154
▁ha	-10.1542
mic	-10.155
4].	-10.1551
▁column	-10.1552
rid	-10.1555
▁asexual	-10.1558
▁invasion	-10.156
▁create	-10.1563
▁Ch	-10.1564
▁reverse	-10.1572
lus	-10.1573
▁fall	-10.1575
▁cone	-10.1577
ogenesis	-10.1581
▁Ga	-10.1583
▁fibres	-10.1585
▁go	-10.1585
▁rodents	-10.1588
▁starting	-10.1595
CS	-10.1599
▁referred	-10.16
▁repertoire	-10.1602
▁applications	-10.1603
ker	-10.161
▁assessed	-10.1611
▁perturbation	-10.1618
▁valuable	-10.1619
▁sh	-10.1619
ok	-10.1623
▁2008),	-10.1628
▁refugia	-10.1631
sa	-10.1645
▁Tri	-10.1652
▁addressed	-10.1658
pin	-10.1667
▁survive	-10.1672
▁Only	-10.168
▁extensively	-10.1699
▁1989)	-10.1701
▁removal	-10.1702
▁striking	-10.1707
HT	-10.1707
water	-10.1708
SS	-10.1716
▁passive	-10.1724
▁Micro	-10.1726
▁fins	-10.1734
▁Me	-10.1735
▁rich	-10.1746
zo	-10.1748
▁informative	-10.175
▁pronounced	-10.1753
cor	-10.1762
▁image	-10.1773
throughput	-10.1781
▁integrate	-10.1782
▁researchers	-10.1785
▁elevation	-10.1786
phi	-10.1788
▁moderate	-10.1801
lar	-10.1803
▁validation	-10.1809
▁boundary	-10.1814
▁ST	-10.1822
9].	-10.1824
can	-10.1825
▁ensure	-10.183
▁lift	-10.183
test	-10.1831
▁top	-10.1834
▁communities	-10.1838
▁proportional	-10.1842
lia	-10.1847
CT	-10.1855
▁unexpected	-10.1855
ko	-10.1856
▁cr	-10.1857
▁prolonged	-10.1858
▁defense	-10.1858
▁predominantly	-10.1861
▁causing	-10.1872
▁discuss	-10.1876
▁Hsp	-10.1881
NA	-10.1882
▁bootstrap	-10.1891
ped	-10.1899
log	-10.19
▁attachment	-10.1916
▁quickly	-10.1919
▁interval	-10.1921
▁remarkable	-10.1924
▁marked	-10.1925
▁match	-10.1926
▁opening	-10.193
▁Car	-10.1931
▁1988;	-10.1932
ray	-10.1934
▁ribosomal	-10.1935
non	-10.1937
▁criteria	-10.1941
por	-10.1943
▁competitive	-10.1943
5,	-10.1946
▁methylation	-10.1951
▁demands	-10.1952
▁displayed	-10.1955
DR	-10.1959
▁divided	-10.1971
▁innate	-10.1978
▁[17,	-10.1985
▁block	-10.199
nn	-10.1994
▁21	-10.2
▁inner	-10.2002
▁[18,	-10.2002
fin	-10.2003
▁infections	-10.2009
22	-10.2015
▁Mya	-10.2023
▁hypothesize	-10.2023
TA	-10.2026
▁Mar	-10.2028
MA	-10.2031
ew	-10.2033
▁compound	-10.2033
▁[46]	-10.2033
▁epi	-10.2045
ood	-10.2048
▁distant	-10.205
▁world	-10.205
▁chosen	-10.2058
oli	-10.206
▁excess	-10.2061
▁[28].	-10.2062
▁thrust	-10.2063
▁enter	-10.2064
1].	-10.2069
▁biologically	-10.2072
za	-10.2075
len	-10.2077
Figs	-10.208
TR	-10.2083
cro	-10.2085
▁determination	-10.2089
▁[26].	-10.2092
▁&	-10.2093
▁nine	-10.2098
▁build	-10.2104
▁placement	-10.2112
▁membranes	-10.2118
▁inhibitors	-10.2121
▁brood	-10.2124
▁tendon	-10.2125
▁isoform	-10.213
}	-10.2147
▁night	-10.215
▁appearance	-10.2153
▁[48]	-10.2156
morph	-10.2157
−	-10.2169
pos	-10.2172
▁created	-10.2174
▁60	-10.2178
PA	-10.2183
eu	-10.2192
▁pollen	-10.2194
▁turnover	-10.2196
which	-10.2199
▁silk	-10.2203
▁displacement	-10.2203
▁35	-10.2205
▁burst	-10.2206
▁elucidate	-10.2207
▁inhibit	-10.2208
▁special	-10.221
▁Model	-10.2213
▁produces	-10.223
▁specialization	-10.224
▁ultimately	-10.2242
▁consisting	-10.2243
▁takes	-10.2254
▁spiders	-10.2256
▁chromatin	-10.2257
ction	-10.2258
inus	-10.2261
berg	-10.2263
▁vortex	-10.2265
ification	-10.2267
▁Pacific	-10.2274
▁breast	-10.2274
▁undergo	-10.2275
▁TLR	-10.229
▁imply	-10.2298
▁aspect	-10.231
bu	-10.2314
▁residue	-10.2314
▁Methods	-10.2314
▁arrangement	-10.2319
▁4,	-10.2321
SH	-10.2324
▁str	-10.2325
cu	-10.2329
▁calibration	-10.2329
▁assays	-10.2334
▁electron	-10.2337
▁relevance	-10.2337
28	-10.2341
▁became	-10.2346
characterization	-10.2346
▁connection	-10.2347
oides	-10.2348
▁express	-10.2356
IS	-10.2356
sum	-10.236
▁bars	-10.2361
▁jet	-10.2363
▁enzymatic	-10.2368
▁codons	-10.2368
▁annotation	-10.2373
▁me	-10.2375
com	-10.2376
35	-10.2379
▁machinery	-10.2383
▁tip	-10.2387
▁parasitic	-10.2391
▁investment	-10.2392
▁contributes	-10.2392
▁bodies	-10.24
ham	-10.2401
▁plane	-10.2402
▁27	-10.2406
▁Yet	-10.2408
▁readily	-10.2409
▁[47]	-10.2412
▁FA	-10.2416
@	-10.2421
▁reconstructed	-10.2423
▁care	-10.2423
BS	-10.2437
▁bar	-10.2443
▁[1]	-10.2444
▁epithelium	-10.2445
containing	-10.2451
cap	-10.2452
75	-10.2453
▁SC	-10.2458
▁predictive	-10.2459
▁failure	-10.2464
▁offer	-10.249
▁anaerobic	-10.2491
▁spp	-10.2492
▁principle	-10.2493
▁transformation	-10.2495
▁property	-10.25
bil	-10.2501
▁route	-10.2502
most	-10.2502
▁Their	-10.2504
▁removed	-10.2508
ena	-10.2508
▁arthropods	-10.2511
including	-10.2524
▁assay	-10.2533
—	-10.2533
▁seals	-10.2534
▁swim	-10.2535
▁rearrangements	-10.2536
ble	-10.2537
▁north	-10.2544
▁partly	-10.2553
▁directed	-10.2563
aa	-10.2564
pl	-10.2564
▁zones	-10.2566
▁methodology	-10.2567
▁nutritional	-10.2568
▁Phylogenetic	-10.2573
0–	-10.2576
▁mixture	-10.2576
▁his	-10.2578
ö	-10.2582
▁1985;	-10.2582
▁Bi	-10.2585
▁ne	-10.2587
▁flying	-10.259
▁assessment	-10.2591
▁gait	-10.2595
▁played	-10.2596
▁shed	-10.2598
▁anatomical	-10.2601
nate	-10.2607
don	-10.2612
▁[49]	-10.2616
▁issues	-10.2624
▁failed	-10.2624
pan	-10.2627
EC	-10.2629
az	-10.2632
▁discriminate	-10.2633
▁branching	-10.2639
▁diving	-10.2642
▁collection	-10.2643
▁overcome	-10.2656
▁program	-10.2661
ible	-10.2668
8].	-10.2668
▁dependence	-10.2676
▁stop	-10.2676
▁prominent	-10.2684
▁2009),	-10.2684
▁regime	-10.2689
▁differed	-10.2691
dent	-10.2692
▁Be	-10.2699
▁[19,	-10.2703
▁smooth	-10.2712
▁validated	-10.2714
genome	-10.2716
▁yellow	-10.2717
▁That	-10.2718
ise	-10.2718
▁pi	-10.2718
lum	-10.2718
▁[10	-10.2718
oni	-10.272
▁gills	-10.2723
▁soil	-10.2723
▁challenging	-10.273
▁transporter	-10.2733
▁[10]	-10.2733
7)	-10.2739
pen	-10.2747
ck	-10.2749
▁recruitment	-10.275
ocytes	-10.2752
▁entirely	-10.2754
▁crabs	-10.2755
▁gradients	-10.2759
▁restriction	-10.2762
odon	-10.2762
▁losses	-10.2764
lock	-10.2769
▁leaves	-10.2776
▁Future	-10.2777
▁predicting	-10.2783
▁1988)	-10.2787
▁exhibits	-10.2791
▁partners	-10.2791
rh	-10.2794
▁SNPs	-10.2795
▁stance	-10.28
▁equally	-10.2801
▁numerical	-10.2805
▁links	-10.2809
▁emerged	-10.2814
▁phospho	-10.2814
rp	-10.2816
▁hypoxic	-10.2824
▁flexible	-10.2824
▁ice	-10.2825
▁correlate	-10.2826
▁Results	-10.2834
▁solutions	-10.2839
domain	-10.2841
▁Bar	-10.2842
▁coupling	-10.2843
hu	-10.2848
▁migratory	-10.2848
▁object	-10.2848
▁demand	-10.2849
Cl	-10.2849
▁[20,	-10.2853
▁ideal	-10.2857
▁candidates	-10.2861
▁somewhat	-10.2862
▁none	-10.2862
▁sustained	-10.2863
▁nematode	-10.2869
▁quantify	-10.287
▁operate	-10.2872
dh	-10.2873
▁counter	-10.2873
icus	-10.2875
▁accompanied	-10.2882
ases	-10.2882
▁symbionts	-10.2883
▁lab	-10.2892
▁outer	-10.2892
32	-10.2896
▁11]	-10.2896
▁expenditure	-10.29
ath	-10.29
▁MT	-10.29
▁annotated	-10.2914
▁7)	-10.2917
▁investigating	-10.2922
▁1),	-10.2924
▁sc	-10.2925
▁log	-10.2925
ding	-10.2929
cha	-10.293
▁bending	-10.2935
omy	-10.2935
▁Su	-10.2935
▁metazoan	-10.2936
LC	-10.2941
▁PD	-10.2944
▁sorting	-10.2945
▁Sh	-10.2945
NP	-10.2947
▁retention	-10.2947
▁rice	-10.2959
▁increasingly	-10.2963
ott	-10.2976
▁chance	-10.2977
▁preferred	-10.2977
6)	-10.2982
▁sexes	-10.2986
▁believe	-10.2991
▁purpose	-10.3004
▁[29].	-10.3004
▁van	-10.3006
▁Chi	-10.3008
▁stride	-10.3008
▁otherwise	-10.3008
load	-10.3012
▁inhibitory	-10.3013
ious	-10.3013
▁implemented	-10.3013
▁clones	-10.3016
iformes	-10.3017
▁loops	-10.3025
▁involvement	-10.3026
ulin	-10.3029
▁actively	-10.3029
5].	-10.3033
eck	-10.3039
▁taking	-10.3044
▁alterations	-10.3049
ek	-10.3054
▁advantages	-10.3057
AC	-10.3058
LP	-10.3059
plant	-10.3062
▁daily	-10.3063
trans	-10.3065
thy	-10.3076
▁u	-10.3076
▁cuticle	-10.3082
ik	-10.3088
▁snails	-10.3093
ming	-10.3095
▁hydrodynamic	-10.3101
tid	-10.3105
row	-10.3107
▁highlight	-10.3112
▁1987)	-10.3121
AS	-10.3122
ants	-10.3123
ius	-10.3124
▁PCR	-10.3124
▁dose	-10.3125
▁protection	-10.3129
▁odour	-10.3131
κ	-10.3139
AD	-10.3143
▁coefficients	-10.3148
▁height	-10.315
NT	-10.3151
ven	-10.3151
▁PA	-10.3155
▁scores	-10.3163
▁combine	-10.3167
rel	-10.3172
▁attempt	-10.3174
▁span	-10.3174
▁rarely	-10.3179
lis	-10.3184
▁progress	-10.3184
▁TE	-10.3185
▁relatives	-10.3187
▁categories	-10.3189
▁thaliana	-10.3189
▁[30].	-10.319
▁cal	-10.3192
▁dives	-10.3193
1%	-10.3195
ions	-10.3196
▁immediately	-10.3198
▁analyzing	-10.3206
tract	-10.3212
order	-10.3215
▁6).	-10.3218
RE	-10.3219
▁regardless	-10.3219
▁introduction	-10.322
▁engineering	-10.3221
6,	-10.3227
▁lowest	-10.3229
LR	-10.323
▁particle	-10.323
oth	-10.3232
zi	-10.3235
▁activate	-10.3236
▁myo	-10.3237
▁Studies	-10.3238
▁My	-10.3243
led	-10.3244
▁12]	-10.3245
ified	-10.3254
▁1984;	-10.3257
▁epigenetic	-10.3258
45	-10.326
▁examining	-10.3267
FA	-10.3275
▁km	-10.3276
▁superfamily	-10.3277
old	-10.328
▁fields	-10.3281
▁vascular	-10.3286
▁simultaneous	-10.3294
▁house	-10.3301
▁avoidance	-10.3303
▁caudal	-10.3304
▁courtship	-10.3307
▁dehydrogenase	-10.3307
rd	-10.3307
▁variant	-10.331
phosphate	-10.3316
–1)	-10.3316
▁trajectories	-10.3317
▁knockout	-10.332
48	-10.3324
▁zebra	-10.3326
▁topologies	-10.3326
▁λ	-10.3339
▁vast	-10.3341
▁ME	-10.3343
GA	-10.3344
▁birth	-10.3346
St	-10.3347
BI	-10.3349
▁consequently	-10.335
▁believed	-10.3351
omorph	-10.3357
9%	-10.3358
ret	-10.3363
▁enables	-10.3365
▁[13]	-10.3369
▁PP	-10.3372
▁Cor	-10.3373
▁grow	-10.3374
▁therapeutic	-10.3376
▁scope	-10.3376
▁unusual	-10.3384
▁forming	-10.3385
▁carp	-10.3388
▁17]	-10.3389
▁elicit	-10.339
use	-10.3395
21	-10.3396
▁minimize	-10.3396
▁PR	-10.3404
▁Boolean	-10.3406
▁14]	-10.3422
6].	-10.3422
ean	-10.3423
▁lactate	-10.3436
▁beginning	-10.3436
▁suppression	-10.3438
▁injection	-10.3441
▁accumulate	-10.3442
such	-10.3444
▁15]	-10.3444
▁received	-10.3445
▁[9]	-10.3445
▁10]	-10.345
▁stretch	-10.345
su	-10.3451
200	-10.3453
▁localized	-10.3464
100	-10.3479
bol	-10.3491
▁Se	-10.3493
Le	-10.3493
▁1987;	-10.3496
gal	-10.35
▁sa	-10.3504
ons	-10.3505
▁1983;	-10.3506
▁pairwise	-10.3507
OX	-10.351
▁1985)	-10.3517
▁mal	-10.352
▁argue	-10.3521
receptor	-10.3526
▁user	-10.3526
1).	-10.3528
▁Australia	-10.3529
▁solely	-10.3533
▁29	-10.3534
▁filter	-10.3537
7].	-10.354
▁utilize	-10.3543
▁RH	-10.3545
▁hours	-10.3545
92	-10.355
▁cascade	-10.3553
van	-10.356
▁construction	-10.3561
rm	-10.3566
▁[22,	-10.3568
▁replacement	-10.3569
cc	-10.3569
ema	-10.3576
▁evolutionarily	-10.3577
+-	-10.3578
field	-10.3578
▁morphologically	-10.3579
tel	-10.3587
▁histories	-10.3587
▁favour	-10.359
▁somatic	-10.3591
▁pigments	-10.3595
▁arms	-10.3595
PI	-10.3598
▁TR	-10.3608
▁4)	-10.3614
site	-10.3616
▁index	-10.3619
▁shortening	-10.3628
▁boundaries	-10.3628
cle	-10.363
▁[50]	-10.363
▁biased	-10.3639
▁flowers	-10.3641
▁proto	-10.3641
▁biogeographic	-10.3645
▁immuno	-10.3646
▁naturally	-10.3648
▁contributing	-10.3649
▁behind	-10.3649
▁torpor	-10.3649
▁Am	-10.3651
position	-10.3657
▁decay	-10.3669
ks	-10.3675
▁γ	-10.3676
▁sac	-10.368
▁16]	-10.3682
▁VEGF	-10.3684
▁32	-10.3686
▁syn	-10.3688
▁High	-10.3689
▁circuits	-10.3698
▁combining	-10.371
▁Hb	-10.3711
ual	-10.3712
▁evaluation	-10.3713
▁regulates	-10.3715
▁fiber	-10.3718
▁measuring	-10.372
iz	-10.3722
▁El	-10.3724
▁fail	-10.3726
▁warm	-10.3726
▁invertebrate	-10.3729
mis	-10.373
▁fragments	-10.3735
▁drop	-10.3736
Mo	-10.3741
▁normally	-10.3743
AG	-10.3743
▁GA	-10.3743
anus	-10.3746
ili	-10.3749
int	-10.3749
▁shock	-10.3749
ever	-10.3749
hin	-10.375
▁DA	-10.3755
▁complicated	-10.3759
▁coastal	-10.3771
0)	-10.3776
▁cover	-10.3778
▁ocean	-10.3783
▁Due	-10.3791
▁Accordingly	-10.3791
▁2002)	-10.3795
PO	-10.3798
men	-10.3805
▁subjected	-10.3813
▁alpha	-10.3816
GI	-10.3816
▁2009	-10.3819
▁Hu	-10.382
▁oxidation	-10.3822
ological	-10.3827
tho	-10.3833
LS	-10.3833
ull	-10.3839
▁brown	-10.384
AM	-10.384
▁targeting	-10.3844
▁gives	-10.3853
▁glands	-10.3855
▁behaviours	-10.3859
▁50%	-10.3863
▁qualitative	-10.3864
▁frog	-10.3867
▁Rab	-10.3873
▁platform	-10.3876
▁carry	-10.3879
▁thresholds	-10.3882
Ps	-10.3882
IN	-10.3883
▁Gr	-10.3886
▁web	-10.3887
vis	-10.389
▁mt	-10.389
▁ta	-10.3896
▁amplification	-10.3897
▁directions	-10.3897
▁causal	-10.3905
▁desiccation	-10.3908
▁[32].	-10.3909
ral	-10.391
▁honey	-10.3918
cut	-10.3919
▁Data	-10.3924
▁inclusion	-10.393
▁hormones	-10.3934
▁etc	-10.3935
▁toxic	-10.3935
▁pectoral	-10.3947
▁sand	-10.395
ele	-10.3957
▁tasks	-10.3957
▁18]	-10.3959
mid	-10.3961
▁sun	-10.3962
▁SW	-10.3972
▁mosquito	-10.3976
▁lipids	-10.3979
▁summer	-10.3983
target	-10.3984
living	-10.3984
▁ba	-10.3985
▁13]	-10.3987
ost	-10.399
▁corals	-10.3994
▁[53]	-10.3996
▁[34].	-10.3997
▁broader	-10.3999
▁dynamical	-10.4
ves	-10.4001
▁[16]	-10.4007
▁onto	-10.4009
GS	-10.4013
▁convergent	-10.4014
PD	-10.4016
▁ring	-10.4017
▁Wa	-10.4025
▁weeks	-10.4025
▁[21,	-10.4025
▁excluded	-10.4026
▁translational	-10.4028
▁circuit	-10.4028
ger	-10.4031
▁stored	-10.4032
-4	-10.4033
▁World	-10.4034
2).	-10.4041
▁south	-10.4042
▁IV	-10.4042
▁capabilities	-10.4045
▁convergence	-10.4045
▁NP	-10.405
▁contractions	-10.405
▁notion	-10.4051
8)	-10.4055
▁lactation	-10.4056
▁home	-10.4056
▁decision	-10.4058
CL	-10.4067
▁arose	-10.4067
▁tension	-10.4067
ya	-10.4068
eus	-10.4072
29	-10.4073
▁discussion	-10.4073
▁Analysis	-10.4077
ix	-10.408
▁2007),	-10.408
biased	-10.4088
▁clustered	-10.4089
population	-10.409
DH	-10.409
▁DR	-10.4095
▁recover	-10.4098
ME	-10.4098
▁sum	-10.4104
▁retain	-10.4105
▁duplicates	-10.411
▁coast	-10.4116
▁metal	-10.4122
▁[5]	-10.4129
▁0.2	-10.413
part	-10.4137
mel	-10.4143
▁concluded	-10.4144
▁resistant	-10.4146
▁fecundity	-10.4152
chemical	-10.4154
▁trends	-10.4155
▁mutational	-10.4157
hel	-10.4164
▁rules	-10.4164
▁pa	-10.4166
▁accepted	-10.4168
ace	-10.4168
▁compensate	-10.4181
rate	-10.4185
×	-10.4188
▁regional	-10.4188
▁MP	-10.4188
▁explicitly	-10.4192
ition	-10.4192
=1	-10.4197
ef	-10.42
Na	-10.4206
▁contributions	-10.4207
▁NR	-10.4213
▁whales	-10.4214
▁[7]	-10.4214
▁tr	-10.4215
▁allopatric	-10.4217
▁encodes	-10.4219
sky	-10.4219
▁reconstruct	-10.4222
▁8]	-10.4224
▁Her	-10.4224
▁interpret	-10.4225
▁lakes	-10.4226
▁trunk	-10.4228
▁qu	-10.4228
▁ancestors	-10.4228
BD	-10.4229
▁Gu	-10.423
γ	-10.4231
▁Miocene	-10.4233
head	-10.4234
ll	-10.4235
▁concerning	-10.4238
▁maturation	-10.4239
▁2011)	-10.424
▁posture	-10.4243
▁Vi	-10.4244
▁employ	-10.4246
▁facilitated	-10.4247
▁Bio	-10.4249
▁indication	-10.425
▁23	-10.4262
▁front	-10.4268
pr	-10.427
▁Conversely	-10.4271
▁comprising	-10.4271
down	-10.4273
▁1982;	-10.4282
din	-10.4282
ai	-10.4284
Fr	-10.4284
▁IGF	-10.4302
▁homo	-10.4305
▁stresses	-10.4308
▁[52]	-10.4308
▁nutrients	-10.4309
▁45	-10.4313
34	-10.4314
▁paired	-10.4317
tur	-10.4318
arch	-10.4318
▁sugar	-10.4321
▁uniform	-10.433
fa	-10.4332
BA	-10.4336
value	-10.4337
▁cavity	-10.4337
▁strand	-10.4337
▁angiosperms	-10.435
▁[18]	-10.4355
▁argued	-10.4356
▁cytoplasmic	-10.4362
▁picture	-10.437
TF	-10.437
rea	-10.4371
ular	-10.4372
▁cap	-10.4374
▁advantageous	-10.4376
▁23]	-10.4377
ani	-10.438
▁GR	-10.4381
▁velocities	-10.4381
▁pseudo	-10.4384
▁utilized	-10.4385
treated	-10.4387
▁flat	-10.439
▁hy	-10.4397
▁photoreceptors	-10.44
▁ear	-10.4401
IM	-10.4403
linked	-10.4404
Sch	-10.441
▁2010),	-10.4412
▁suction	-10.4414
▁CORT	-10.4415
▁situ	-10.4424
▁2007	-10.4426
▁melan	-10.4428
mers	-10.4434
▁stores	-10.4435
MT	-10.4435
▁demonstrating	-10.4436
well	-10.4437
cephal	-10.4439
▁crustaceans	-10.4441
▁wind	-10.4444
spi	-10.4454
▁lymph	-10.4458
▁taxonomy	-10.4459
▁ongoing	-10.446
▁magnetic	-10.4469
▁Taken	-10.447
▁closed	-10.4472
▁relaxed	-10.4472
▁baseline	-10.4473
▁par	-10.4475
▁deeper	-10.4476
▁1981;	-10.448
▁myosin	-10.4481
▁beta	-10.4481
▁come	-10.4482
▁canal	-10.4483
▁2005),	-10.4487
▁introduce	-10.4489
▁3-	-10.449
▁kinases	-10.4491
▁1986;	-10.4491
▁ligands	-10.4493
▁GH	-10.4497
-6	-10.4497
▁kind	-10.4498
▁detecting	-10.4502
Re	-10.4503
▁establishment	-10.4504
▁[2]	-10.4507
▁mosquitoes	-10.4508
bar	-10.4513
-5	-10.4515
air	-10.4519
▁mediate	-10.4521
lot	-10.4522
▁fasting	-10.4523
▁Importantly	-10.4526
▁promoters	-10.4527
osis	-10.4527
ators	-10.4533
▁cleavage	-10.4536
▁describing	-10.4536
▁soft	-10.454
▁river	-10.4541
▁slowly	-10.4547
▁images	-10.4556
ense	-10.4557
▁break	-10.4557
▁Nonetheless	-10.4558
sk	-10.456
▁version	-10.4562
▁Op	-10.4565
▁symbiont	-10.4566
▁regular	-10.4568
▁angles	-10.457
pla	-10.4572
▁http	-10.4574
▁analytical	-10.4576
▁centre	-10.4579
▁ankle	-10.4581
▁2006),	-10.4583
shi	-10.4589
▁aimed	-10.4592
▁inputs	-10.4599
▁suffer	-10.4603
▁reconstructions	-10.4606
att	-10.4616
▁cis	-10.4617
IR	-10.4619
▁glycogen	-10.462
▁speculate	-10.4623
▁building	-10.4625
▁odor	-10.4625
ory	-10.4626
▁jump	-10.4627
▁circles	-10.4636
mm	-10.4637
▁Ste	-10.4637
▁AP	-10.464
▁representatives	-10.4645
ux	-10.4647
36	-10.4647
▁kHz	-10.4648
▁dramatically	-10.4651
▁benthic	-10.4651
▁pitch	-10.4655
▁Fa	-10.4657
ü	-10.466
▁proximity	-10.466
▁CYP	-10.466
PE	-10.4661
▁efficiently	-10.4662
▁persist	-10.4665
TP	-10.4668
▁AT	-10.4668
▁cortisol	-10.4671
La	-10.4676
▁22]	-10.4677
▁frame	-10.4678
▁stimulated	-10.4681
▁ch	-10.4682
col	-10.4684
NS	-10.4684
app	-10.4684
pper	-10.469
▁Third	-10.4694
nk	-10.4696
▁objects	-10.4697
called	-10.4698
▁row	-10.4702
▁[15]	-10.4702
▁Ser	-10.4703
▁precursor	-10.4705
itz	-10.4705
history	-10.4711
▁[4]	-10.4712
▁worth	-10.4715
▁phenomena	-10.4716
rap	-10.4724
▁AD	-10.4725
hn	-10.4728
▁realistic	-10.4729
▁[34]	-10.4729
ms	-10.4732
7,	-10.4732
defined	-10.4733
pul	-10.4738
CE	-10.474
▁geographically	-10.475
▁Cell	-10.4751
omic	-10.4751
De	-10.4752
SE	-10.4755
▁slope	-10.4756
▁asymmetry	-10.4762
▁persistence	-10.4763
rad	-10.4769
GC	-10.477
▁promising	-10.4773
tre	-10.4779
▁track	-10.478
ult	-10.4782
ita	-10.4782
▁hydrogen	-10.4783
▁shaped	-10.4784
vari	-10.4785
▁Para	-10.479
nal	-10.4791
Ba	-10.4791
▁flowering	-10.4791
▁reproduce	-10.4794
▁morphs	-10.4795
▁[23,	-10.4797
acclimated	-10.4798
▁compatible	-10.48
▁neuron	-10.4803
▁limbs	-10.4806
▁exert	-10.4808
▁approximation	-10.4808
▁put	-10.4809
▁[54]	-10.4812
▁disruption	-10.4812
▁CS	-10.4814
▁broadly	-10.4816
ale	-10.4822
▁TGF	-10.4822
▁thin	-10.4822
▁48	-10.4829
▁yolk	-10.4831
dr	-10.4837
evolutionary	-10.4838
▁pathogenic	-10.4838
▁Clade	-10.4838
▁Pi	-10.4839
▁1983)	-10.4842
▁spider	-10.4844
▁complementary	-10.4844
ade	-10.4846
ogenic	-10.4853
range	-10.4856
▁protect	-10.4857
▁exclude	-10.4863
▁mol	-10.4863
▁her	-10.4865
ight	-10.4865
SM	-10.4867
▁maps	-10.4868
ophora	-10.4869
leg	-10.4875
uch	-10.4875
▁[24,	-10.4878
▁moths	-10.4883
▁named	-10.4884
▁congruent	-10.4889
▁histone	-10.4889
▁∼	-10.4891
68	-10.4892
phase	-10.4892
ith	-10.4893
model	-10.4896
▁sufficiently	-10.4898
▁[17]	-10.4899
▁longitudinal	-10.49
▁coverage	-10.4901
▁primate	-10.4903
▁distantly	-10.4905
▁How	-10.4905
▁switching	-10.4908
▁Tr	-10.4911
▁(~	-10.4912
▁squid	-10.4912
▁undergone	-10.4913
ably	-10.4921
86	-10.4923
▁coloration	-10.4923
▁hemolymph	-10.4924
ki	-10.4924
▁blocks	-10.4929
▁36	-10.4933
▁words	-10.4935
right	-10.4941
▁Wood	-10.4942
fl	-10.4947
▁27]	-10.4948
▁Unlike	-10.4948
▁West	-10.4949
▁manipulation	-10.4949
CoA	-10.495
▁HIV	-10.4952
▁induces	-10.4953
▁extinct	-10.4953
▁morph	-10.4954
yo	-10.496
▁reciprocal	-10.496
rb	-10.4961
▁CI	-10.4965
▁abdominal	-10.497
▁donor	-10.497
▁confer	-10.4971
rop	-10.4974
▁eventually	-10.4982
▁polymorphic	-10.4982
nus	-10.4983
wing	-10.4984
▁turtle	-10.4985
feeding	-10.4989
▁2008	-10.4989
AF	-10.4994
▁fl	-10.4995
▁bee	-10.4996
▁examination	-10.5005
▁mountain	-10.5005
▁kinematic	-10.5008
port	-10.5009
▁dramatic	-10.5014
▁particles	-10.5014
CP	-10.5016
light	-10.5016
▁File	-10.5017
known	-10.5021
▁[20]	-10.5024
▁hierarchical	-10.5029
bin	-10.503
DA	-10.5032
▁separately	-10.5034
▁wake	-10.5041
▁gall	-10.5041
▁ω	-10.5044
oh	-10.5048
3-	-10.5049
wise	-10.505
▁balancing	-10.5052
bert	-10.5055
positive	-10.5059
▁editing	-10.506
▁clonal	-10.5062
▁RA	-10.5071
▁plastic	-10.5073
▁harbor	-10.5075
▁phosphate	-10.5076
▁grouping	-10.5084
▁EC	-10.5094
press	-10.5099
▁motility	-10.5099
AA	-10.5103
▁took	-10.5105
▁asymmetric	-10.5105
zy	-10.5107
br	-10.5108
▁Cha	-10.511
▁comes	-10.5111
▁Whether	-10.5111
▁lifespan	-10.5111
hen	-10.5117
▁1984)	-10.5123
▁Ap	-10.5124
▁differing	-10.5126
▁[55]	-10.5126
▁get	-10.5129
▁th	-10.513
▁kb	-10.513
▁multicellular	-10.5134
▁crown	-10.5135
nu	-10.5137
▁5,	-10.5139
▁paralog	-10.5139
Br	-10.5143
▁intriguing	-10.5147
▁9]	-10.5149
▁Group	-10.5152
▁splice	-10.5154
▁90	-10.5158
▁tendency	-10.5159
▁originally	-10.5159
elli	-10.5162
duct	-10.5164
pri	-10.5165
driven	-10.5166
▁jumping	-10.5168
▁indicative	-10.517
vin	-10.5179
▁GS	-10.5181
▁recognize	-10.5183
▁translocation	-10.5183
AL	-10.5187
▁roughly	-10.5188
▁circulating	-10.5194
xfr	-10.52
III	-10.5201
▁consideration	-10.5202
ulation	-10.5204
bound	-10.5208
uk	-10.5214
▁reptiles	-10.5215
▁median	-10.5215
▁saturation	-10.5216
▁synthase	-10.5218
▁Har	-10.5219
▁alignments	-10.5222
▁offers	-10.5227
▁Bur	-10.5228
▁practical	-10.523
▁susceptibility	-10.5242
▁unlike	-10.5246
▁wet	-10.5247
▁[38]	-10.5247
▁reward	-10.5249
▁fragment	-10.5252
▁cue	-10.5255
rn	-10.5255
cellular	-10.5255
bra	-10.526
iii	-10.5263
▁depletion	-10.5266
▁earliest	-10.5266
▁[26,	-10.5267
Δ	-10.5274
▁Unfortunately	-10.5278
▁wavelength	-10.528
▁Not	-10.5281
▁conspecific	-10.5287
▁randomly	-10.5289
▁situations	-10.5291
▁2011	-10.5292
yer	-10.5293
▁greatest	-10.5294
icular	-10.53
▁setting	-10.5302
▁perception	-10.5302
▁quantified	-10.5304
top	-10.5306
lit	-10.5307
▁glutamate	-10.531
▁detectable	-10.531
▁imposed	-10.531
EP	-10.5313
▁lifestyle	-10.5315
▁meso	-10.532
ology	-10.5321
ez	-10.5323
▁zinc	-10.5327
▁photosynthetic	-10.5327
▁SO	-10.5329
▁domestic	-10.5332
▁[39]	-10.5334
▁trigger	-10.5335
phyll	-10.5335
fo	-10.5335
rat	-10.534
Net	-10.534
▁allocation	-10.5343
physiological	-10.5347
▁beetles	-10.5351
flow	-10.5353
▁[36].	-10.5358
▁peri	-10.536
▁MA	-10.536
▁rodent	-10.536
▁refer	-10.5362
▁assuming	-10.5363
▁meal	-10.5363
GP	-10.5366
ery	-10.5368
▁parent	-10.5371
frequency	-10.5372
▁7]	-10.5373
▁indirectly	-10.5373
Bo	-10.5374
etic	-10.5374
▁chamber	-10.5375
▁paralogous	-10.5377
OC	-10.5381
▁[37]	-10.5386
▁nonlinear	-10.5387
▁utilization	-10.5387
77	-10.539
expressed	-10.5391
▁[57]	-10.5391
▁Du	-10.5392
▁swing	-10.5394
▁rank	-10.5397
illa	-10.5397
▁Go	-10.5401
▁26]	-10.5401
▁MS	-10.5405
▁fertilization	-10.5408
linear	-10.5424
▁encounter	-10.543
▁valid	-10.5435
comp	-10.5436
▁digestive	-10.5437
ati	-10.5444
ulf	-10.5444
▁Sc	-10.5444
83	-10.5445
▁insufficient	-10.5447
▁answer	-10.5449
▁inhabit	-10.5449
▁curves	-10.5449
▁performing	-10.5458
ifera	-10.5461
▁requirement	-10.5463
78	-10.5466
▁health	-10.5467
▁Rho	-10.5469
▁sexually	-10.5471
▁Together	-10.5473
▁carbohydrate	-10.5473
▁opsins	-10.5474
mal	-10.5474
▁33	-10.5474
▁cur	-10.5476
▁ecologically	-10.5477
active	-10.5484
Al	-10.5484
pec	-10.5485
▁underlie	-10.5486
▁fossils	-10.5489
host	-10.5493
▁worms	-10.5494
▁organic	-10.5497
▁months	-10.5499
oper	-10.5505
SR	-10.5505
▁abilities	-10.5507
▁coordination	-10.551
▁window	-10.5511
net	-10.5511
▁viable	-10.5516
▁figure	-10.5519
distance	-10.5519
▁feasible	-10.5522
▁IR	-10.5523
▁expand	-10.5524
▁Br	-10.5527
▁illustrate	-10.5527
ites	-10.5531
DS	-10.5532
▁NH	-10.5532
▁OR	-10.5532
▁comprises	-10.5533
▁sections	-10.554
▁regimes	-10.554
ech	-10.5544
▁guide	-10.5545
▁aggressive	-10.5547
▁intense	-10.5547
▁dating	-10.5548
▁null	-10.5549
ogen	-10.5549
▁inherited	-10.555
▁functionality	-10.5552
▁feather	-10.5558
rab	-10.556
ned	-10.5562
genetic	-10.5562
▁cut	-10.5563
pal	-10.5568
mate	-10.557
RA	-10.5576
RF	-10.5577
▁[56]	-10.5579
▁viability	-10.5585
1–	-10.5587
▁antennal	-10.5587
ines	-10.5589
▁peaks	-10.5595
▁reflecting	-10.5596
otic	-10.5598
tz	-10.5599
1),	-10.5605
▁Consistent	-10.5609
▁clarify	-10.5609
▁proper	-10.5612
▁instances	-10.5613
hy	-10.5617
▁duplicate	-10.562
▁prevalence	-10.5621
gon	-10.5625
▁tracheal	-10.5626
▁25]	-10.563
▁mechanics	-10.5634
▁accordance	-10.5634
▁wider	-10.5634
▁emerging	-10.5634
istic	-10.5636
▁secreted	-10.5638
SI	-10.5638
▁static	-10.564
xi	-10.5656
▁grouped	-10.5662
▁[37].	-10.5667
47	-10.5668
▁shaping	-10.5671
▁width	-10.5671
▁costly	-10.5672
An	-10.5679
▁retinal	-10.5679
▁homolog	-10.5681
0.00	-10.5682
▁participate	-10.5683
▁lip	-10.5687
33	-10.5689
▁MI	-10.569
▁HP	-10.5692
▁incorporated	-10.5696
▁JH	-10.5705
IC	-10.5705
▁closest	-10.5707
▁10-	-10.5707
▁derive	-10.5708
▁apparatus	-10.5709
▁circular	-10.5709
▁SNP	-10.5713
eni	-10.5715
▁systematically	-10.5715
system	-10.5719
▁Daphnia	-10.5721
▁Three	-10.5721
▁man	-10.5722
▁essentially	-10.5724
gan	-10.5726
▁binds	-10.5727
Ha	-10.5727
▁accelerated	-10.5731
SL	-10.5733
▁universal	-10.5734
▁transmembrane	-10.5734
▁exclusive	-10.5734
▁Over	-10.5736
▁Si	-10.5736
▁patterning	-10.5737
▁[21]	-10.574
▁integrating	-10.5741
▁hatching	-10.5747
▁sharing	-10.5747
bp	-10.5747
▁conservative	-10.5749
dic	-10.575
▁accumulated	-10.5751
cur	-10.5753
▁tuning	-10.5756
onic	-10.5758
iidae	-10.576
▁prefer	-10.5763
▁waves	-10.5765
73	-10.5769
▁Che	-10.5771
▁[25,	-10.5773
▁explanations	-10.5773
▁media	-10.5774
▁AS	-10.5774
▁{	-10.5775
▁recordings	-10.5777
▁[25]	-10.5779
▁Mus	-10.5782
▁contrary	-10.5785
▁trajectory	-10.5785
▁deletions	-10.5786
67	-10.5787
ops	-10.5788
▁compartment	-10.5792
▁count	-10.5806
▁gained	-10.5809
▁precision	-10.581
▁hindlimb	-10.5812
▁learn	-10.5812
56	-10.5814
▁por	-10.5817
▁allelic	-10.5817
▁compartments	-10.5822
▁200	-10.5824
▁cDNA	-10.5827
▁dimer	-10.5827
▁densities	-10.5835
▁nectar	-10.5835
▁comprise	-10.5836
▁2000)	-10.5839
▁2006	-10.584
▁conditioning	-10.5842
▁applying	-10.5845
▁matching	-10.5846
▁utility	-10.5848
▁inhibited	-10.5849
▁pyruvate	-10.5851
▁correlates	-10.5852
▁joints	-10.5853
▁pan	-10.586
▁crayfish	-10.5861
▁deterministic	-10.5864
▁agents	-10.5867
ane	-10.5868
▁z	-10.5869
ller	-10.5869
▁teeth	-10.5874
▁deal	-10.5875
▁dB	-10.5876
▁2012;	-10.5881
matic	-10.5882
NO	-10.5883
▁lag	-10.5886
▁built	-10.5886
▁cAMP	-10.5888
▁lake	-10.589
▁TM	-10.589
▁carrying	-10.5891
▁Mac	-10.5896
ze	-10.5899
▁article	-10.5899
▁−	-10.5904
nd	-10.5908
▁fuel	-10.5912
ess	-10.5913
▁Ge	-10.5927
EM	-10.5932
char	-10.5937
▁regeneration	-10.594
Gs	-10.5944
▁displays	-10.5947
▁initiate	-10.595
▁adhesive	-10.5951
ori	-10.5952
▁2010	-10.5953
▁agree	-10.5954
▁termed	-10.5959
▁yielded	-10.5962
▁degrees	-10.5964
▁inherent	-10.5964
▁decades	-10.5965
▁δ	-10.5971
evolution	-10.5971
▁hip	-10.5976
▁maximize	-10.5976
▁Ocean	-10.5976
mod	-10.5978
offs	-10.5978
▁estimating	-10.5989
▁serotonin	-10.5989
▁ubiquitous	-10.5989
▁compensatory	-10.5989
▁foragers	-10.599
▁diapause	-10.5996
▁CT	-10.5998
▁simulate	-10.6001
FP	-10.6002
ola	-10.6004
▁ad	-10.6012
▁freezing	-10.6015
▁juveniles	-10.6015
▁Notably	-10.6015
▁tit	-10.6025
5–	-10.6025
rP	-10.6027
▁interference	-10.6028
▁[38].	-10.6029
▁elephant	-10.6032
▁certainly	-10.6033
▁permeability	-10.6041
▁compass	-10.6041
▁injury	-10.6041
▁echolocation	-10.6041
▁What	-10.6042
▁toxicity	-10.6044
ij	-10.6047
▁eco	-10.6049
▁2003	-10.6051
▁30]	-10.6054
▁0.3	-10.6056
▁seal	-10.6059
▁walk	-10.6061
▁retro	-10.6061
▁diets	-10.6065
itu	-10.6067
body	-10.6067
▁Western	-10.6068
TC	-10.607
▁tooth	-10.607
▁coevolution	-10.6071
▁project	-10.6071
▁flower	-10.6072
uro	-10.6077
vel	-10.6077
▁lethal	-10.6077
▁impacts	-10.6078
▁applicable	-10.608
▁dense	-10.6085
▁crab	-10.6089
▁Different	-10.6092
▁calculate	-10.6093
▁exogenous	-10.6093
▁musculature	-10.6093
57	-10.6095
ook	-10.6099
▁Ag	-10.6104
▁Da	-10.6107
aving	-10.6109
▁constrain	-10.6109
▁protocol	-10.6112
▁tightly	-10.6118
dia	-10.6121
▁Hol	-10.6122
Es	-10.6127
▁chi	-10.6128
length	-10.6131
▁attraction	-10.6135
organ	-10.6136
▁Class	-10.6136
▁germ	-10.6144
▁Pr	-10.6145
rib	-10.6145
▁band	-10.6145
emia	-10.6148
▁susceptible	-10.6149
▁expansions	-10.6151
31	-10.6151
88	-10.6151
▁attractive	-10.6159
je	-10.6159
▁solid	-10.6161
▁HCO	-10.6164
▁waters	-10.6171
▁Ni	-10.6174
▁read	-10.6174
▁[59]	-10.619
▁moth	-10.6191
04	-10.6193
▁proton	-10.6193
▁annotations	-10.6198
▁EST	-10.6198
▁sucrose	-10.6198
▁biodiversity	-10.6198
▁IS	-10.6201
lid	-10.6202
▁antigen	-10.6205
▁RNAs	-10.621
▁stationary	-10.6218
▁parsimony	-10.6225
lon	-10.6227
▁Considering	-10.6228
▁operon	-10.6232
▁4]	-10.6232
▁layers	-10.6234
▁raised	-10.6234
NF	-10.6235
Sp	-10.6241
\	-10.6242
▁6]	-10.6243
▁conventional	-10.6246
37	-10.6256
TG	-10.6259
▁2),	-10.626
▁extract	-10.6261
500	-10.6265
▁patches	-10.627
acea	-10.6272
▁cysteine	-10.6273
▁osmotic	-10.6276
▁dominance	-10.6277
▁subjects	-10.6279
▁patch	-10.628
▁Notch	-10.6281
▁cytochrome	-10.6282
▁triggered	-10.6282
bel	-10.629
▁BMP	-10.6292
▁star	-10.6294
▁du	-10.6297
▁mo	-10.6304
▁aerodynamic	-10.6304
▁subtypes	-10.6305
lac	-10.6305
Sh	-10.6306
▁Cu	-10.6306
▁ODE	-10.6309
▁SM	-10.6311
▁altitude	-10.6315
▁pure	-10.6321
▁preferentially	-10.6324
▁su	-10.6324
▁muscular	-10.6327
▁Australian	-10.6328
▁coordinated	-10.633
̇	-10.6331
▁hydrophobic	-10.6331
▁probable	-10.6331
▁visible	-10.6331
▁outgroup	-10.6339
▁plus	-10.6342
activated	-10.6345
▁immediate	-10.6346
GO	-10.6348
▁associate	-10.6349
▁bridge	-10.6353
▁transcriptomic	-10.6356
▁QTL	-10.6357
▁exploit	-10.6358
form	-10.6359
▁chemo	-10.6359
▁Inter	-10.6361
▁originate	-10.6362
▁1982)	-10.6371
▁differently	-10.6372
▁29]	-10.6383
▁canonical	-10.6385
▁[27,	-10.6385
▁PE	-10.6388
independent	-10.639
▁steroid	-10.6393
uck	-10.6393
▁prokaryotes	-10.6394
▁outcomes	-10.6394
▁proportions	-10.6396
▁homing	-10.6398
lli	-10.6399
PT	-10.6407
gar	-10.6409
mus	-10.6411
▁improvement	-10.6411
▁annual	-10.6412
▁regarded	-10.6416
loop	-10.6419
aaa	-10.6419
▁32]	-10.6421
▁scheme	-10.6421
▁mRNAs	-10.6424
▁electric	-10.6424
ink	-10.6427
Ro	-10.6432
▁implementation	-10.6432
dS	-10.6439
▁silencing	-10.6439
▁relies	-10.6439
▁eIF	-10.6441
▁Gal	-10.6442
▁assignment	-10.6443
5°	-10.6443
▁Then	-10.6447
Gi	-10.6448
2/	-10.6451
types	-10.6451
▁twice	-10.6452
▁operating	-10.6452
0,000	-10.6455
▁reared	-10.6455
du	-10.6461
udi	-10.6463
▁odorant	-10.6465
▁influenza	-10.6466
▁COM	-10.6467
▁niches	-10.6469
org	-10.6475
med	-10.6477
▁2011),	-10.6486
▁upregulated	-10.6489
▁attempts	-10.6491
▁op	-10.6492
▁highlights	-10.6492
▁consist	-10.6493
▁vectors	-10.6493
▁wood	-10.6494
mean	-10.6497
ney	-10.6498
▁Ph	-10.6498
▁meaning	-10.6499
▁CC	-10.6501
▁mates	-10.6501
▁collagen	-10.6507
▁hibernation	-10.6507
▁statistics	-10.6517
▁adopt	-10.6518
▁Comparison	-10.652
▁ontogeny	-10.652
▁strike	-10.652
▁wasps	-10.6522
39	-10.6522
▁forests	-10.6524
AB	-10.6529
ploid	-10.6532
▁phage	-10.6532
▁anoxia	-10.6534
▁ontogenetic	-10.6534
▁tracking	-10.6535
▁gave	-10.6536
▁paths	-10.6538
▁tight	-10.6538
▁survey	-10.6539
▁algal	-10.6546
▁ovarian	-10.6548
▁axial	-10.6548
▁ions	-10.6549
85	-10.6551
shaped	-10.6552
atic	-10.6553
▁[39].	-10.6559
▁excellent	-10.6561
▁aging	-10.6562
ute	-10.6565
▁travel	-10.6568
▁2002),	-10.6571
loc	-10.6571
▁plate	-10.6572
▁defence	-10.6573
▁38	-10.6584
hard	-10.6586
▁opportunities	-10.6589
▁urine	-10.6591
▁PIN	-10.6591
▁crystal	-10.6593
PK	-10.6594
▁computer	-10.6597
blast	-10.6598
▁Hill	-10.6601
▁transmitted	-10.6603
▁trace	-10.6604
idi	-10.6611
SD	-10.6612
▁precisely	-10.6613
▁enabled	-10.6614
▁antennae	-10.6616
sia	-10.6616
AU	-10.6617
▁folding	-10.6624
▁6,	-10.6626
▁partitioning	-10.6628
SB	-10.6629
▁fashion	-10.663
−1)	-10.6636
▁tube	-10.6642
▁continue	-10.6643
▁incorporate	-10.6643
▁[26]	-10.6643
www	-10.6644
ote	-10.6644
ft	-10.6646
▁computation	-10.6648
uri	-10.6648
▁polar	-10.6651
▁homogeneous	-10.6652
▁nucleotides	-10.6654
▁difficulty	-10.6655
ä	-10.6658
▁differentiate	-10.6658
▁mon	-10.6659
▁bring	-10.6661
▁comp	-10.6665
▁captured	-10.6669
▁Poly	-10.6672
▁screening	-10.6672
▁Fe	-10.6673
▁Fu	-10.6677
sim	-10.668
▁Trans	-10.6683
ala	-10.6684
wer	-10.6685
▁giving	-10.6685
mata	-10.6694
oral	-10.6695
tens	-10.6697
Ar	-10.6699
▁capability	-10.67
tric	-10.6703
▁thousands	-10.6711
á	-10.6713
▁Early	-10.6713
▁knockdown	-10.6713
▁Pan	-10.6716
▁(5	-10.6717
lt	-10.6719
▁repression	-10.672
unt	-10.6723
▁novo	-10.6725
EF	-10.6725
▁Gl	-10.6726
▁acetate	-10.6732
tidae	-10.6732
▁Indian	-10.674
▁probabilities	-10.6741
▁venom	-10.6741
▁urchin	-10.6741
▁meaningful	-10.6741
▁add	-10.6741
sea	-10.6754
▁cichlid	-10.6755
▁preliminary	-10.6756
lea	-10.6761
OR	-10.6765
▁routes	-10.6765
▁east	-10.6766
▁(3	-10.6768
▁34	-10.6771
▁relate	-10.6776
terminus	-10.6777
▁37	-10.6778
tum	-10.6779
▁Southern	-10.6784
ds	-10.6795
65	-10.6795
▁beat	-10.6796
▁1979;	-10.6797
▁exploration	-10.6797
▁0.9	-10.6799
▁0.8	-10.6804
▁invasive	-10.6807
▁[28]	-10.6807
▁radiations	-10.681
▁Besides	-10.6811
▁fibre	-10.6811
GR	-10.6815
lated	-10.6818
▁highlighted	-10.682
▁advanced	-10.6822
▁knee	-10.6825
lc	-10.6827
▁shear	-10.6829
▁proven	-10.6833
▁bottom	-10.6834
▁dogs	-10.6834
▁da	-10.6837
▁nocturnal	-10.6839
▁aggregation	-10.6839
▁conspecifics	-10.6845
▁optic	-10.6848
▁sensing	-10.6852
ough	-10.6852
▁seeds	-10.6853
▁Biewener	-10.6854
▁2004),	-10.6854
▁pulses	-10.6855
adapted	-10.6855
▁meet	-10.6856
cher	-10.6857
▁parents	-10.6857
▁crickets	-10.6858
ami	-10.6861
chy	-10.6867
from	-10.6867
▁compensation	-10.6867
▁forelimb	-10.6869
rac	-10.6872
▁keep	-10.6875
▁hold	-10.6877
▁covered	-10.6883
4-	-10.6886
▁characterised	-10.6886
▁progenitor	-10.6887
▁extrinsic	-10.6895
▁lo	-10.6902
2),	-10.6903
▁ml	-10.6903
66	-10.6913
▁0.6	-10.6914
▁searching	-10.6917
▁pigeons	-10.692
▁visualization	-10.6921
▁competing	-10.6924
▁cichlids	-10.6924
▁proteome	-10.6926
▁ubiquitin	-10.6927
▁synaptic	-10.6927
ken	-10.6929
▁digestion	-10.6939
▁fluorescence	-10.6945
▁70	-10.6947
regulatory	-10.695
▁longevity	-10.6952
▁polymerase	-10.6955
▁obligate	-10.6956
▁Pre	-10.6959
sson	-10.6962
▁discrepancy	-10.6966
▁upregulation	-10.6971
graph	-10.6976
chrom	-10.6978
▁CP	-10.6984
▁1980;	-10.6984
ju	-10.699
▁Wang	-10.6993
▁antibody	-10.6996
▁deviation	-10.6998
step	-10.6999
ians	-10.7003
▁biases	-10.7004
loss	-10.7008
▁imp	-10.7009
▁initiated	-10.701
▁[1],	-10.7011
▁Northern	-10.7011
point	-10.7011
▁RNAi	-10.7019
MI	-10.7023
▁diagnostic	-10.7024
▁envelope	-10.7024
▁incorporation	-10.7024
▁geometric	-10.7024
▁phylogenomic	-10.7024
▁And	-10.7027
76	-10.7028
▁photoreceptor	-10.7028
▁adding	-10.7031
Rs	-10.7034
▁computed	-10.7034
▁KEGG	-10.7038
▁Xenopus	-10.7038
▁[29,	-10.7038
▁MAPK	-10.7042
▁aphid	-10.7043
▁adjust	-10.7043
0].	-10.7045
▁EF	-10.7051
▁scaffold	-10.7052
▁entities	-10.7052
genomic	-10.7058
▁exactly	-10.7062
aph	-10.7062
ny	-10.7064
▁sustain	-10.7065
▁[28,	-10.7067
▁Mal	-10.7067
▁floral	-10.7069
▁spatially	-10.7072
▁IC	-10.7072
▁illustrated	-10.7075
▁contrasting	-10.7075
▁AQP	-10.7076
>	-10.7079
▁modeled	-10.7079
▁kept	-10.7081
▁[30,	-10.7082
▁Antarctic	-10.7085
▁react	-10.7086
▁31]	-10.7086
▁AR	-10.7093
ND	-10.7095
▁repetitive	-10.7095
▁Mor	-10.7104
▁spectra	-10.7105
▁cytoplasm	-10.7106
ivity	-10.7109
▁[1–3]	-10.711
▁easy	-10.711
▁mat	-10.7111
▁modulated	-10.7112
vol	-10.7116
▁3),	-10.7119
▁la	-10.7121
▁5'	-10.7123
▁paradigm	-10.7124
▁[45].	-10.7125
bio	-10.7127
▁promoting	-10.713
▁contexts	-10.7134
synonymous	-10.7136
▁Caenorhabditis	-10.7139
▁iso	-10.7146
chromosome	-10.7147
▁skull	-10.7153
▁elongation	-10.7154
▁priori	-10.7156
tia	-10.7159
▁starvation	-10.7168
▁Wi	-10.7172
▁placental	-10.7173
▁spent	-10.7176
1]	-10.7176
▁burrow	-10.7177
▁SWS	-10.7179
▁nested	-10.7179
aga	-10.718
▁LWS	-10.7183
▁Likewise	-10.7183
▁[44].	-10.7188
▁carotenoid	-10.7188
▁amphibians	-10.719
▁generates	-10.7192
▁intervention	-10.7197
46	-10.7202
▁Wilson	-10.7203
9)	-10.7204
▁1.5	-10.7206
▁Man	-10.7209
▁Peninsula	-10.7212
▁butterflies	-10.7212
▁redundancy	-10.7212
▁prokaryotic	-10.7212
4–	-10.7212
▁hundreds	-10.7216
▁box	-10.7218
amm	-10.7226
▁bottleneck	-10.7232
0.5	-10.7237
▁criterion	-10.7241
▁contractile	-10.7241
▁continuously	-10.7249
▁met	-10.7251
EN	-10.7265
▁homologues	-10.727
▁argument	-10.7273
▁[9],	-10.7275
▁inflammatory	-10.7276
▁locusts	-10.7279
▁queens	-10.7281
06	-10.7285
2]	-10.7286
▁correctly	-10.7287
▁nests	-10.7288
▁SA	-10.7288
▁partner	-10.7291
osomes	-10.7291
Me	-10.7299
▁wingbeat	-10.73
▁[29]	-10.7301
▁approximate	-10.7303
function	-10.7305
ff	-10.7308
▁oil	-10.7309
▁larva	-10.7314
▁31	-10.7318
99	-10.7322
har	-10.7323
▁secretory	-10.7329
▁mapped	-10.733
▁metazoans	-10.7332
▁Lu	-10.7336
opt	-10.7336
▁insertions	-10.7338
▁3'	-10.7339
▁extends	-10.7339
▁slight	-10.7339
▁strict	-10.734
▁selfing	-10.7342
▁opposed	-10.7346
▁bite	-10.7346
▁unrelated	-10.7346
▁becoming	-10.735
▁Par	-10.7352
▁34]	-10.7355
▁gambiae	-10.7359
71	-10.736
▁repeatedly	-10.7362
DL	-10.7363
▁ortholog	-10.7366
87	-10.7368
▁counterparts	-10.7373
▁NKA	-10.7374
▁2005	-10.7378
centric	-10.7379
activation	-10.7383
▁cultures	-10.7384
▁Pla	-10.7385
▁Whereas	-10.7389
▁dimensions	-10.7392
mating	-10.7395
▁95%	-10.7396
bit	-10.74
▁rub	-10.74
▁0.4	-10.74
troph	-10.7403
▁[60]	-10.7407
fly	-10.7411
▁preparation	-10.7412
▁cranial	-10.7413
▁assessing	-10.7417
▁impossible	-10.7418
▁skeleton	-10.7418
▁language	-10.7418
▁periodic	-10.742
▁distinguished	-10.743
▁1979)	-10.7433
▁grey	-10.7435
▁Late	-10.7437
▁ob	-10.744
▁normalized	-10.744
▁activating	-10.7444
▁che	-10.7446
▁inferences	-10.7448
morphic	-10.7448
meric	-10.7449
era	-10.745
▁2:	-10.7451
ridge	-10.7453
▁PL	-10.7457
▁SD	-10.7458
▁Tb	-10.746
acc	-10.7463
▁unicellular	-10.7463
CH	-10.7469
▁searches	-10.7472
74	-10.7474
▁activator	-10.7474
▁inactive	-10.7475
tail	-10.748
▁describes	-10.7483
▁replaced	-10.7485
▁BLAST	-10.7489
▁[6	-10.7489
▁recombinant	-10.7493
▁preventing	-10.7494
▁ti	-10.7494
▁pseudogenes	-10.7496
▁sign	-10.7497
▁modular	-10.7499
▁ERK	-10.7503
▁relatedness	-10.7508
▁mini	-10.7512
▁younger	-10.7521
▁actions	-10.7522
▁subtle	-10.7525
▁cones	-10.7531
▁verified	-10.7539
▁RT	-10.754
GT	-10.7549
ecto	-10.7552
▁contradict	-10.7553
PG	-10.7553
▁propulsive	-10.7553
79	-10.756
▁preparations	-10.756
fu	-10.7562
▁*	-10.7565
▁computationally	-10.7566
▁serves	-10.7569
▁modularity	-10.7571
▁name	-10.7577
▁mammal	-10.7578
▁lens	-10.758
▁100%	-10.7582
In	-10.7582
▁matrices	-10.7584
▁cli	-10.7588
▁redox	-10.759
▁Red	-10.7593
▁primitive	-10.7599
▁implying	-10.7602
▁[61]	-10.7605
ocyte	-10.7609
Mc	-10.7614
▁remodeling	-10.7614
▁serine	-10.7615
▁relaxation	-10.7615
▁glycerol	-10.7621
els	-10.7621
PCR	-10.7623
▁glycolytic	-10.7629
▁ribosome	-10.7629
▁reversible	-10.7633
▁yields	-10.7635
▁angiosperm	-10.7641
▁sparse	-10.7645
▁arises	-10.7645
▁analogous	-10.7645
▁malaria	-10.7645
▁coordinate	-10.7647
▁apart	-10.7647
▁80	-10.7654
▁cyto	-10.7655
▁notable	-10.7658
▁Ru	-10.766
▁Ju	-10.7663
▁Bu	-10.7665
▁reaching	-10.7666
▁possesses	-10.7667
base	-10.767
▁[32]	-10.767
▁explaining	-10.7671
llar	-10.7671
▁principles	-10.7672
polar	-10.7674
▁emphasize	-10.7677
▁remove	-10.7677
pon	-10.7678
▁gradual	-10.7678
EL	-10.7678
▁[30]	-10.7686
Li	-10.7687
▁preserved	-10.7689
▁testosterone	-10.769
▁phyla	-10.7691
▁aid	-10.7694
▁wavelengths	-10.7697
▁medial	-10.7699
▁Once	-10.77
▁emerge	-10.7704
▁2003),	-10.7705
▁cla	-10.7708
ural	-10.7711
▁arthropod	-10.7716
Figures	-10.7719
start	-10.772
sub	-10.7721
zon	-10.7727
42	-10.7732
▁Island	-10.7734
▁inheritance	-10.7737
▁ethanol	-10.7737
high	-10.774
ides	-10.7742
▁domestication	-10.7742
▁DE	-10.7744
▁facilitates	-10.7747
▁margin	-10.7747
▁biologists	-10.775
▁cooperative	-10.7752
▁[10],	-10.7753
BC	-10.7754
▁extracted	-10.7755
DP	-10.7756
▁mya	-10.7757
negative	-10.7758
▁disrupt	-10.7759
are	-10.776
▁started	-10.776
IL	-10.7762
▁ABC	-10.7766
▁public	-10.7766
▁category	-10.7767
▁dimorphism	-10.7767
▁fungus	-10.7767
▁generic	-10.777
▁dual	-10.7775
▁→	-10.7778
▁snail	-10.7781
▁arising	-10.7784
typical	-10.7789
]).	-10.7798
▁Pol	-10.7801
box	-10.7801
▁0.7	-10.7803
bre	-10.7805
ue	-10.7805
▁programs	-10.7806
▁sensu	-10.7806
▁mimic	-10.7812
▁desert	-10.7814
itis	-10.7815
▁Lys	-10.7818
▁Meta	-10.782
▁dolphins	-10.7825
opsis	-10.7826
▁Sub	-10.7828
▁template	-10.7829
3).	-10.783
▁matter	-10.7834
▁localities	-10.7835
▁transcribed	-10.7835
BM	-10.7835
▁receive	-10.7842
pair	-10.7843
▁Cer	-10.7845
▁1978;	-10.7845
▁ancestry	-10.7845
▁cooperation	-10.7845
▁surprisingly	-10.7846
▁rec	-10.7848
▁exhibiting	-10.785
▁driver	-10.7855
97	-10.7861
oids	-10.7862
▁Genetic	-10.7864
▁presents	-10.7869
nat	-10.787
mber	-10.7874
▁look	-10.7875
▁HSP	-10.7875
▁nuclei	-10.7876
▁Compared	-10.7876
▁Following	-10.7876
▁Through	-10.7876
▁goldfish	-10.7876
▁polarization	-10.7878
▁dN	-10.7878
product	-10.7881
clade	-10.7881
▁fH	-10.7883
peak	-10.7883
▁39]	-10.7883
▁antagonistic	-10.7896
▁amongst	-10.7896
▁kinds	-10.7896
cine	-10.7899
vic	-10.7904
▁weakly	-10.7904
▁Species	-10.7907
▁problematic	-10.7909
▁lac	-10.7914
▁Network	-10.7923
▁whereby	-10.7924
0%	-10.7926
▁polyploid	-10.7933
▁sponge	-10.7939
gna	-10.7941
▁validate	-10.7946
′	-10.7947
54	-10.7953
▁1977;	-10.7954
▁glycolysis	-10.7954
▁practice	-10.7954
▁cardiovascular	-10.7954
stra	-10.7958
▁Like	-10.796
▁sequential	-10.7961
▁SE	-10.7961
▁TNF	-10.7964
sti	-10.7965
▁locally	-10.7965
▁reserves	-10.7971
rog	-10.7973
▁explains	-10.7974
▁tyrosine	-10.7975
sym	-10.7975
GE	-10.7976
▁conflicting	-10.7978
▁thick	-10.798
tim	-10.798
▁rhythms	-10.7982
virus	-10.7983
hol	-10.7983
▁appendages	-10.7985
▁caution	-10.7986
▁push	-10.7986
▁geological	-10.7986
▁raises	-10.7988
▁ph	-10.7996
▁CL	-10.7997
09	-10.8001
▁contemporary	-10.8002
▁management	-10.8003
breeding	-10.8009
▁3]	-10.8011
lived	-10.8016
▁label	-10.8017
▁turning	-10.8019
▁functioning	-10.8021
▁1980)	-10.8021
CM	-10.8022
▁cha	-10.8027
▁ter	-10.8029
▁ES	-10.803
BL	-10.803
▁angular	-10.8033
▁feathers	-10.8035
▁Tra	-10.804
ah	-10.8043
Ho	-10.8044
▁pump	-10.8045
gy	-10.8046
▁flapping	-10.805
ota	-10.8052
▁NA	-10.8054
▁markedly	-10.8056
▁trained	-10.8057
▁10%	-10.8061
▁rays	-10.8062
▁strictly	-10.8063
▁FBA	-10.8065
▁6)	-10.8068
Mar	-10.8069
▁fertility	-10.8072
seq	-10.8073
▁[44]	-10.8081
▁focal	-10.8082
▁[31,	-10.8083
▁194	-10.8086
▁encountered	-10.8086
▁importantly	-10.809
▁additive	-10.8092
▁cyanobacteria	-10.8092
84	-10.8095
▁uncertain	-10.8096
hine	-10.8097
▁aegypti	-10.8097
▁controversial	-10.8097
▁effector	-10.8098
▁spontaneous	-10.8101
▁20].	-10.8102
▁Kr	-10.8102
▁matched	-10.8103
▁redundant	-10.8107
osome	-10.8113
atter	-10.8113
locus	-10.8114
3]	-10.8119
▁attached	-10.8121
▁uncover	-10.8129
▁θ	-10.8129
▁Understanding	-10.8129
inter	-10.8132
own	-10.8139
▁deviations	-10.8142
03	-10.8144
▁heavy	-10.8145
▁entry	-10.8146
▁arrest	-10.8149
urus	-10.815
▁Math	-10.8153
ras	-10.8153
▁successive	-10.8153
▁aphids	-10.8157
gel	-10.8159
▁inflammation	-10.8161
▁migrate	-10.8161
▁milk	-10.8161
▁LD	-10.8166
▁massive	-10.8167
Type	-10.8168
▁tubules	-10.8168
▁trial	-10.8168
▁Lauder	-10.8169
▁apo	-10.8171
▁organismal	-10.8174
▁Saccharomyces	-10.8177
ges	-10.8177
▁profound	-10.8178
▁tra	-10.8183
studied	-10.8186
sperm	-10.8187
▁ecosystems	-10.8187
▁proved	-10.819
ozoa	-10.8192
▁ages	-10.8197
▁[62]	-10.82
parasite	-10.8202
<0.05)	-10.8204
IV	-10.8207
agu	-10.8207
▁Lee	-10.8211
NG	-10.8223
▁Cretaceous	-10.8226
▁defining	-10.8226
▁responsiveness	-10.8227
flu	-10.8227
var	-10.8228
▁focusing	-10.8229
▁pest	-10.8229
▁feeder	-10.8231
▁stimulate	-10.8232
▁discover	-10.8235
▁structured	-10.824
bach	-10.824
▁continued	-10.8242
▁compete	-10.8242
▁unresolved	-10.8243
▁richness	-10.8244
▁spite	-10.8244
green	-10.8251
81	-10.8251
▁pools	-10.8252
genes	-10.8253
▁worker	-10.8253
▁endocrine	-10.8258
▁Van	-10.8259
omics	-10.8261
ments	-10.8262
▁queen	-10.8262
▁GI	-10.8263
yan	-10.8268
▁Can	-10.8274
NR	-10.8277
▁plot	-10.8285
▁knock	-10.8289
▁pore	-10.829
▁admixture	-10.829
rod	-10.8292
▁drawn	-10.8295
▁FW	-10.8299
omorpha	-10.8304
▁document	-10.8307
▁distinctive	-10.8308
▁export	-10.8308
cop	-10.8315
▁grass	-10.8317
ste	-10.8319
▁occupy	-10.8319
▁conspicuous	-10.8323
▁interplay	-10.8323
aud	-10.8325
OP	-10.8327
▁whale	-10.8328
▁inferring	-10.8331
▁connect	-10.8331
▁19].	-10.8333
long	-10.8337
▁Cas	-10.8338
▁Rather	-10.8339
▁auxin	-10.834
▁litter	-10.8341
7–	-10.8341
TE	-10.8343
rio	-10.8344
▁kin	-10.8354
▁[5],	-10.8355
inger	-10.8355
▁rigid	-10.8356
69	-10.8367
58	-10.8371
lines	-10.8372
▁fatigue	-10.8372
▁shrimp	-10.8372
▁affinities	-10.8372
▁Eastern	-10.8373
plast	-10.8374
▁stickleback	-10.8378
)]	-10.8379
▁neighboring	-10.838
MM	-10.8382
▁modify	-10.8385
▁36]	-10.8387
▁WGD	-10.8387
▁precursors	-10.8389
ries	-10.8393
55	-10.8397
▁suggestion	-10.8398
▁mg	-10.84
▁Hy	-10.8402
▁render	-10.8402
syn	-10.8404
▁profiling	-10.8405
▁haplogroup	-10.8406
RD	-10.8407
▁acquire	-10.8408
▁archaeal	-10.8412
ova	-10.8412
▁trn	-10.8414
ulo	-10.8414
▁[13],	-10.8414
ford	-10.8421
▁simplified	-10.8421
lab	-10.8424
▁Glu	-10.8425
▁38]	-10.8427
▁genetics	-10.843
▁7,	-10.8431
vert	-10.8432
▁cat	-10.8432
SF	-10.8432
▁2-	-10.8432
ela	-10.8433
▁formal	-10.8436
▁captive	-10.8438
▁circulation	-10.8438
▁coalescent	-10.8438
▁systemic	-10.8438
▁metamorphosis	-10.8438
▁choose	-10.8439
▁transmit	-10.844
gam	-10.8441
cia	-10.8443
64	-10.8444
▁Protein	-10.8445
iana	-10.8448
▁1000	-10.8448
▁aerial	-10.8451
ada	-10.8452
▁cuticular	-10.8455
▁(>	-10.8461
-1,	-10.8461
▁[2	-10.8462
ID	-10.8466
▁thoracic	-10.8468
▁influencing	-10.8471
▁symbiotic	-10.8471
▁fo	-10.8471
▁mediating	-10.8473
▁segregation	-10.8473
▁chose	-10.8483
▁disadvantage	-10.8488
▁meiotic	-10.8488
▁progeny	-10.8488
▁ever	-10.8488
▁Markov	-10.8488
▁SI	-10.8493
omys	-10.8495
cis	-10.8496
▁genomics	-10.8501
▁diurnal	-10.8504
▁imaging	-10.8505
cies	-10.8507
▁5].	-10.8508
▁works	-10.8509
ebb	-10.851
▁lizard	-10.8512
▁Qu	-10.8512
pers	-10.8513
olo	-10.8515
▁ur	-10.8515
ima	-10.8516
▁promotes	-10.8517
▁lamprey	-10.8521
▁consistency	-10.8521
cos	-10.8523
▁Tur	-10.8524
▁adopted	-10.8524
ffer	-10.8524
▁mutual	-10.8524
49	-10.8525
▁notably	-10.8526
▁attributes	-10.8531
icola	-10.8536
▁Molecular	-10.8538
▁efficacy	-10.8538
▁incubation	-10.8538
▁stiff	-10.8538
▁decisions	-10.8551
▁Though	-10.8555
pine	-10.8557
▁2000),	-10.8558
TM	-10.8562
▁σ	-10.8563
07	-10.8566
4]	-10.8567
ardi	-10.8569
▁superior	-10.8571
▁debate	-10.8574
▁assign	-10.8576
▁viewed	-10.8577
▁500	-10.8579
▁begin	-10.8582
aka	-10.8582
▁style	-10.8582
▁calculations	-10.8583
▁radical	-10.8588
nc	-10.859
band	-10.859
▁inhibits	-10.859
▁LPS	-10.8591
lay	-10.8591
▁personal	-10.8597
▁gaps	-10.8598
ram	-10.8602
▁thermo	-10.8603
▁probe	-10.8603
▁quantity	-10.8605
▁reversal	-10.8605
▁vegetation	-10.8605
▁[32,	-10.8606
▁advances	-10.8607
▁aggregate	-10.8607
▁abiotic	-10.8608
enni	-10.8611
▁[7],	-10.8617
▁pelagic	-10.8617
pG	-10.8617
▁finally	-10.862
▁confirms	-10.8621
▁desired	-10.8621
▁[4	-10.8627
▁rhythmic	-10.8633
ibility	-10.8638
▁geometry	-10.8638
▁continental	-10.8639
▁bacterium	-10.8642
▁exponential	-10.8644
▁aligned	-10.8648
cluster	-10.8649
odes	-10.865
▁[2],	-10.865
▁San	-10.8654
▁efflux	-10.8655
▁kDa	-10.8655
▁pups	-10.8655
ress	-10.8657
He	-10.866
lap	-10.8662
some	-10.8663
transcriptional	-10.8666
▁orient	-10.8666
▁pose	-10.8671
▁butterfly	-10.8672
▁query	-10.8672
Gu	-10.8673
ester	-10.8674
UC	-10.8674
▁consume	-10.8676
▁sl	-10.8679
▁TH	-10.8679
▁try	-10.868
▁working	-10.8684
ising	-10.8688
▁west	-10.869
▁mut	-10.869
▁[18],	-10.8691
▁GP	-10.8693
cel	-10.8694
▁Ter	-10.8695
▁[64]	-10.8696
▁midgut	-10.8706
male	-10.8706
▁compact	-10.8707
▁bear	-10.871
ET	-10.8712
▁pr	-10.8713
▁cod	-10.872
▁enabling	-10.8723
umb	-10.8726
▁penguins	-10.8729
▁Cy	-10.8729
▁agent	-10.8729
44	-10.8731
▁concerted	-10.8733
▁oriented	-10.8734
▁RP	-10.8736
run	-10.8737
▁straight	-10.874
▁fairly	-10.874
▁Ly	-10.874
▁indels	-10.8745
▁delayed	-10.8745
Ne	-10.8746
▁dates	-10.875
▁activates	-10.8753
▁specification	-10.8754
bia	-10.8757
▁oral	-10.8762
orum	-10.8765
89	-10.8765
cycle	-10.8768
▁electrical	-10.8768
ail	-10.877
▁Middle	-10.8774
▁[15],	-10.8774
▁vein	-10.8775
▁comprised	-10.8775
▁[45]	-10.878
▁40]	-10.8783
▁[8],	-10.8787
▁reject	-10.8788
▁gradually	-10.8788
▁antibodies	-10.8791
▁wheat	-10.8791
▁engage	-10.8791
▁1978)	-10.8791
uff	-10.8792
▁kPa	-10.8794
cf	-10.8795
dio	-10.8797
▁[17],	-10.8798
▁Smith	-10.8801
▁vent	-10.8801
▁MY	-10.8805
▁0.01	-10.8808
via	-10.8808
▁purposes	-10.881
▁stick	-10.881
▁sharp	-10.8813
▁difficulties	-10.8814
lk	-10.8815
▁structurally	-10.8817
ened	-10.8819
▁indicator	-10.882
▁straightforward	-10.8825
factor	-10.8826
▁saline	-10.8827
▁reporter	-10.8829
▁stabilize	-10.8829
▁MYA	-10.8836
▁resemble	-10.8837
▁21].	-10.8837
▁oxidase	-10.8842
▁panel	-10.8843
▁[4],	-10.8843
▁accelerate	-10.8846
tone	-10.8847
CI	-10.8847
43	-10.8849
▁effectiveness	-10.8853
individual	-10.8854
▁estrogen	-10.886
▁residual	-10.886
▁CG	-10.8866
▁193	-10.887
▁syndrome	-10.8877
▁Iberian	-10.8879
▁responsive	-10.8883
▁amplified	-10.8884
▁[63]	-10.8884
▁suite	-10.8885
lam	-10.8887
tolerant	-10.8889
▁machine	-10.8893
▁propulsion	-10.8894
valent	-10.8896
limited	-10.8899
▁testis	-10.8899
▁2001	-10.89
acid	-10.89
▁fragmentation	-10.89
▁today	-10.8902
▁del	-10.8903
ln	-10.8904
▁SBML	-10.8912
▁Green	-10.8917
ule	-10.8918
Clark	-10.8924
▁antagonist	-10.8924
ara	-10.8927
▁confined	-10.8929
▁dosage	-10.8929
▁backward	-10.8931
▁cope	-10.8935
ctive	-10.8935
▁(10	-10.8936
▁postulated	-10.8937
▁prove	-10.894
▁39	-10.8941
ope	-10.8943
▁responded	-10.8944
▁expressing	-10.8944
▁paternal	-10.8946
▁ventilation	-10.8946
▁selectively	-10.8948
uni	-10.8955
01	-10.8956
▁perceived	-10.8971
▁moments	-10.8978
▁lacks	-10.8979
▁Genome	-10.8982
▁tetra	-10.8983
translational	-10.8986
Po	-10.8986
▁[16],	-10.8987
▁divergences	-10.8988
pass	-10.8994
▁logic	-10.8994
speed	-10.8995
MDH	-10.8995
▁fig	-10.8996
rine	-10.8997
▁optimum	-10.8998
▁advance	-10.8999
▁fauna	-10.9001
▁cytosolic	-10.9001
▁interacts	-10.9002
▁constitutive	-10.9003
▁inconsistent	-10.9005
▁durations	-10.9011
▁belongs	-10.9013
▁attract	-10.9014
▁incorporating	-10.9016
▁technologies	-10.9016
▁creating	-10.9017
▁distinction	-10.9018
▁EMG	-10.9021
▁41]	-10.9023
▁loads	-10.9023
▁acclimated	-10.9024
tein	-10.9027
ave	-10.9027
▁elicited	-10.9027
▁BMR	-10.9033
▁format	-10.9035
▁dominated	-10.9035
cross	-10.9035
▁shifted	-10.9037
▁revealing	-10.9038
Lear	-10.904
4).	-10.9041
▁reductions	-10.9042
▁Type	-10.9042
5@	-10.9047
▁[3],	-10.9048
▁shark	-10.9049
▁synteny	-10.9051
pu	-10.9063
atum	-10.9065
NC	-10.9066
▁[14],	-10.9067
▁5)	-10.9067
▁descent	-10.907
▁logical	-10.9071
▁pen	-10.9072
▁finches	-10.9072
▁topic	-10.9073
▁rock	-10.9074
ese	-10.9075
▁37]	-10.9079
72	-10.9079
ists	-10.908
represented	-10.9081
supported	-10.9081
▁deprivation	-10.9086
Ra	-10.9088
1/2	-10.909
▁col	-10.9094
▁chicks	-10.9098
▁therapy	-10.9104
▁worldwide	-10.9105
toxin	-10.9107
ces	-10.9108
▁pyr	-10.9108
▁reactive	-10.9111
▁extending	-10.9115
▁τ	-10.9117
rv	-10.9117
▁1975;	-10.9121
▁California	-10.9121
▁moved	-10.9124
ebr	-10.9126
▁impaired	-10.9132
▁possibilities	-10.9139
▁photosynthesis	-10.9139
▁stand	-10.9143
=0	-10.9148
▁VS	-10.9152
▁snake	-10.9155
▁landmarks	-10.9155
▁cholesterol	-10.9157
▁adipose	-10.9157
▁fluorescent	-10.9157
▁freeze	-10.9159
59	-10.9161
Lo	-10.9167
sign	-10.9168
▁smallest	-10.9168
eh	-10.917
worm	-10.9172
▁quantitatively	-10.9177
Lx	-10.9179
▁crosses	-10.918
▁Sal	-10.9186
▁maneuver	-10.9192
▁LRR	-10.9193
OM	-10.9193
▁GABA	-10.9193
af	-10.9194
▁intergenic	-10.9197
▁inducing	-10.9206
▁beetle	-10.921
▁honeybees	-10.921
▁biosynthetic	-10.9211
▁spiral	-10.9211
▁transfers	-10.9214
TI	-10.9218
stone	-10.922
▁LGT	-10.922
▁24].	-10.9221
▁inactivation	-10.9223
▁[21],	-10.9226
▁package	-10.9228
▁remarkably	-10.9228
▁[34,	-10.9229
birds	-10.923
▁Mut	-10.9231
▁Secondly	-10.9242
uli	-10.9242
▁configuration	-10.9246
▁integrity	-10.9246
▁mandible	-10.9246
▁gravity	-10.9247
▁CB	-10.9247
EG	-10.9247
▁suppress	-10.9248
db	-10.925
▁comm	-10.9251
ark	-10.9255
mination	-10.9255
▁[12],	-10.9257
▁1.0	-10.9258
▁basolateral	-10.9264
▁Alu	-10.9269
▁tadpoles	-10.9277
▁Dis	-10.9278
micro	-10.928
▁threat	-10.928
4+	-10.9282
▁COI	-10.9283
450	-10.9284
▁tag	-10.9286
layer	-10.9294
{	-10.9295
▁held	-10.9296
▁Un	-10.93
▁harbour	-10.93
▁propagation	-10.93
▁navigation	-10.93
▁pig	-10.9303
iaceae	-10.9306
▁arrays	-10.9308
uW	-10.9308
▁determines	-10.931
stein	-10.931
▁arch	-10.9318
▁White	-10.9318
▁transgenic	-10.932
▁ND	-10.932
▁Taylor	-10.9321
▁denote	-10.9323
41	-10.9323
print	-10.9326
3/	-10.9336
▁explicit	-10.9342
▁cancers	-10.9346
▁bones	-10.9348
▁accounted	-10.9348
▁matches	-10.9348
▁2000	-10.9349
coming	-10.935
kel	-10.9354
-10	-10.9355
FR	-10.9357
Ka	-10.9359
▁predominant	-10.9361
▁Phy	-10.9363
cyto	-10.9367
▁overexpression	-10.9368
lat	-10.937
▁accommodate	-10.9372
▁century	-10.9372
▁weaker	-10.9377
▁assembled	-10.9378
▁cooling	-10.938
▁pheromones	-10.9381
▁Williams	-10.9382
▁implement	-10.9383
▁graphs	-10.9386
axis	-10.9387
í	-10.939
▁lumen	-10.939
▁1977)	-10.939
▁solve	-10.9394
▁42	-10.9398
▁video	-10.9398
nar	-10.94
terior	-10.9403
▁spacer	-10.9406
▁swarm	-10.9409
tory	-10.9412
▁EGFR	-10.9413
▁organized	-10.9413
▁tribe	-10.9414
▁prone	-10.9418
▁compute	-10.9421
▁requiring	-10.9427
▁vesicles	-10.943
▁store	-10.9435
▁2002	-10.9435
AMP	-10.9444
▁NADH	-10.9448
▁Bra	-10.9448
▁eliminate	-10.9449
▁adequate	-10.9451
wan	-10.9453
▁mainland	-10.9454
where	-10.946
▁incline	-10.9461
▁Madagascar	-10.9463
▁ganglion	-10.9463
▁torque	-10.9463
▁mild	-10.9464
▁[67]	-10.947
▁Myr	-10.9474
▁[11],	-10.9476
▁grown	-10.9476
bro	-10.9479
▁circumstances	-10.9482
▁occupied	-10.9482
▁microscopy	-10.9482
war	-10.9484
▁8)	-10.9486
iro	-10.9487
▁deposition	-10.9488
DC	-10.9491
▁phosphatase	-10.9492
▁assist	-10.9492
▁assumes	-10.9498
▁resist	-10.9498
▁constitutes	-10.9499
Ga	-10.95
▁latency	-10.95
▁tuberculosis	-10.95
▁tunnel	-10.95
eth	-10.9503
▁landing	-10.9504
gf	-10.9508
02	-10.9509
▁reef	-10.9509
▁cilia	-10.9512
▁pointed	-10.9512
82	-10.9515
▁conformation	-10.9518
▁corticosterone	-10.9518
▁diversified	-10.9518
▁crossing	-10.9519
Bar	-10.952
opo	-10.9526
▁synthesized	-10.9527
eli	-10.9528
▁tumors	-10.9529
ago	-10.9529
▁phylum	-10.953
▁counteract	-10.9532
▁carrier	-10.9537
▁disorders	-10.9537
FL	-10.9538
rag	-10.9538
▁mole	-10.9538
▁toadfish	-10.9539
▁stressors	-10.9541
oo	-10.9547
▁suited	-10.9551
GL	-10.9551
▁arisen	-10.9554
▁persistent	-10.9558
▁ends	-10.9559
▁latitude	-10.9567
▁restrict	-10.9569
▁Differences	-10.9574
▁protrusion	-10.9574
▁[33,	-10.9575
▁1996)	-10.9575
▁owing	-10.9575
▁albeit	-10.958
▁records	-10.958
▁altering	-10.9581
ji	-10.9581
▁Jo	-10.9582
Aae	-10.9586
▁freely	-10.9587
rain	-10.9588
▁exploring	-10.9592
▁facilitating	-10.9592
unc	-10.9592
▁parasitism	-10.9597
▁Pliocene	-10.9598
2–	-10.9598
▁energetically	-10.9601
▁rhythm	-10.9602
▁TCA	-10.9604
BR	-10.9607
sens	-10.9608
enia	-10.9609
reg	-10.961
▁accounts	-10.9614
▁[36]	-10.9615
activity	-10.9615
▁favored	-10.9616
▁20%	-10.9618
▁44	-10.9619
CF	-10.9621
▁2004	-10.9634
▁dolphin	-10.9634
▁tetrapods	-10.9635
▁pigmentation	-10.9639
rot	-10.9641
odi	-10.9646
▁import	-10.9647
▁plumage	-10.9648
chin	-10.9652
▁permit	-10.9659
▁influx	-10.966
▁cox	-10.966
▁attempted	-10.966
▁suppressed	-10.9665
xb	-10.9665
▁detrimental	-10.9667
▁files	-10.9668
▁cyclic	-10.9672
molecular	-10.9682
▁[6],	-10.9682
Fj	-10.9685
▁abnormal	-10.9685
▁heavily	-10.9685
▁(<	-10.9687
also	-10.9688
▁chemicals	-10.9693
▁worm	-10.9695
ext	-10.9695
▁RI	-10.9696
▁tends	-10.9699
rep	-10.9699
▁microRNA	-10.9707
▁Brown	-10.9707
▁AM	-10.9707
▁references	-10.9707
▁calculation	-10.971
▁42]	-10.971
family	-10.9717
▁infect	-10.9719
human	-10.9719
▁1974;	-10.9723
▁diagram	-10.9723
▁mantle	-10.9723
▁vital	-10.9724
▁ray	-10.9724
▁Human	-10.9726
▁carotenoids	-10.9734
▁linking	-10.9734
▁exceptions	-10.974
▁sponges	-10.9741
▁heterozygosity	-10.9742
▁antibiotic	-10.9748
▁symbols	-10.975
rick	-10.9752
▁materials	-10.9757
▁integrative	-10.976
▁synergistic	-10.976
▁microorganisms	-10.976
▁pharmacological	-10.976
▁1975)	-10.976
Burrows	-10.9761
▁SLC	-10.9761
▁India	-10.9762
▁downregulation	-10.9763
US	-10.9765
oster	-10.9765
▁oscillation	-10.9767
dus	-10.9772
gram	-10.9779
▁elimination	-10.9779
▁prevalent	-10.9782
▁accounting	-10.9782
▁border	-10.9783
▁relations	-10.9783
structure	-10.9786
▁subsets	-10.9786
▁bottlenecks	-10.979
08	-10.979
producing	-10.9792
▁Old	-10.9793
▁Speakman	-10.9793
▁SL	-10.9794
▁Part	-10.9795
evolving	-10.9796
▁filament	-10.9797
▁mobility	-10.9798
▁arid	-10.9799
▁claim	-10.98
rc	-10.9802
▁supplementary	-10.9802
LA	-10.9809
▁adjustments	-10.9812
▁Experimental	-10.9817
▁capacities	-10.9817
▁thickness	-10.9819
▁pathogenesis	-10.9819
▁2001),	-10.9822
▁Fin	-10.9824
▁manual	-10.9824
▁protease	-10.9824
▁repressor	-10.9824
▁screen	-10.9826
▁calling	-10.9827
▁big	-10.9827
▁8,	-10.9831
atory	-10.9831
DE	-10.9834
▁cartilage	-10.9836
▁labeled	-10.9839
▁[65]	-10.9843
▁Sox	-10.9854
▁assemblage	-10.9855
▁sensitivities	-10.9855
obacter	-10.9857
▁spore	-10.9858
▁physiologically	-10.986
95	-10.986
▁defects	-10.9861
▁4),	-10.9868
ette	-10.9872
▁bile	-10.9873
▁Escherichia	-10.9874
▁Surprisingly	-10.9874
▁anatomy	-10.9874
▁cor	-10.9878
▁attractor	-10.9881
▁endosymbiont	-10.9882
MBP	-10.9883
▁GFP	-10.9884
▁sole	-10.9885
lio	-10.9888
▁phosphorylated	-10.989
pg	-10.989
Cv	-10.9892
▁mismatch	-10.9892
▁autosomal	-10.9894
▁fla	-10.9898
▁invest	-10.9899
▁cord	-10.99
▁filaments	-10.9906
▁44]	-10.9908
rey	-10.9908
▁scan	-10.9909
▁mu	-10.9909
▁[35,	-10.9913
▁delivery	-10.9916
eeu	-10.9918
▁staining	-10.9918
enberg	-10.9924
iti	-10.9925
▁toxin	-10.9928
▁exp	-10.9928
▁hel	-10.9929
▁Mean	-10.9929
mut	-10.9932
other	-10.9935
assi	-10.9941
back	-10.9941
▁runs	-10.9943
▁currents	-10.9947
▁segmental	-10.9948
gBa	-10.995
▁incongruence	-10.9951
▁meiosis	-10.9951
▁[20],	-10.9951
▁individually	-10.9952
cata	-10.9954
▁Ku	-10.9957
▁expectations	-10.9962
▁generalized	-10.9967
GD	-10.9969
▁curvature	-10.997
ond	-10.997
▁accessions	-10.9972
▁bass	-10.9973
pel	-10.9977
▁CH	-10.9979
▁colonized	-10.9979
▁[3	-10.9982
▁45]	-10.9984
▁aggression	-10.9989
carp	-10.9991
98	-10.9994
▁[66]	-10.9996
bI	-10.9999
▁behave	-11
ony	-11.0002
ui	-11.0006
▁crustacean	-11.0006
▁reaches	-11.0008
▁technology	-11.0008
▁helix	-11.001
ona	-11.001
▁9,	-11.0011
▁enhancement	-11.0015
▁concepts	-11.0016
▁reads	-11.0017
▁hydr	-11.0019
▁bifurcation	-11.0028
▁probabilistic	-11.0028
▁oldest	-11.0031
63	-11.0033
class	-11.0045
aster	-11.0045
significant	-11.0046
generation	-11.0047
▁HE	-11.005
1;	-11.0054
▁expectation	-11.0055
▁hub	-11.0055
▁[51].	-11.0057
▁marginal	-11.0057
DM	-11.0058
▁ni	-11.006
▁turns	-11.0061
ky	-11.0061
nrfifHhDYfgasaac	-11.0064
vqai	-11.0065
@5@	-11.0065
▁reviews	-11.0065
feaa	-11.0065
▁noteworthy	-11.0067
▁intertidal	-11.0067
▁tetraploid	-11.0067
▁binary	-11.0067
+=	-11.0074
▁archaea	-11.0077
▁endosymbionts	-11.0078
▁Evidence	-11.0086
▁popular	-11.0086
last	-11.0086
▁ornament	-11.0086
▁anchor	-11.0088
qV	-11.0088
▁crypt	-11.0088
left	-11.009
meta	-11.0091
omi	-11.0094
Xat	-11.0096
▁shapes	-11.0099
fK	-11.0104
▁underwent	-11.0106
Ko	-11.0109
▁nearby	-11.011
▁Pho	-11.0111
Xdb	-11.0111
Mi	-11.0117
NE	-11.012
▁paraphyletic	-11.0125
▁Changes	-11.0127
▁cyclin	-11.013
▁AMP	-11.0136
▁mutually	-11.014
▁analyse	-11.0142
▁Cal	-11.0146
▁Plant	-11.0147
uma	-11.0148
▁chains	-11.0149
▁lies	-11.0149
▁JA	-11.015
▁deformation	-11.0152
fic	-11.0152
anti	-11.0153
▁rearing	-11.0155
▁flanking	-11.0156
▁SP	-11.0161
▁founder	-11.0164
▁scientific	-11.0164
▁swimbladder	-11.0164
▁elsewhere	-11.0164
▁uncovered	-11.0165
▁11,	-11.017
▁43]	-11.017
Gr	-11.0172
▁allometric	-11.0174
ash	-11.0178
▁LGM	-11.0178
ected	-11.0179
▁hypothetical	-11.0184
▁tilapia	-11.0184
▁fourth	-11.0186
copy	-11.0187
▁delimitation	-11.0187
▁dog	-11.0188
▁phyto	-11.019
imp	-11.019
▁signs	-11.0191
▁rotational	-11.0191
py	-11.0193
▁soon	-11.0194
Hu	-11.0194
▁toxins	-11.0196
▁bouts	-11.0196
xa	-11.0201
▁covering	-11.0202
iff	-11.0204
▁1976)	-11.0204
sha	-11.0207
▁Significant	-11.0211
▁translate	-11.0212
▁weights	-11.0213
pis	-11.0216
▁inhabiting	-11.0216
hE	-11.0217
path	-11.0219
▁enhances	-11.0223
▁buffer	-11.0223
▁incorrect	-11.0223
▁recurrent	-11.0225
▁biotic	-11.0226
▁tolerate	-11.0227
▁hot	-11.0227
▁oscillatory	-11.0228
▁1972;	-11.0243
▁nevertheless	-11.0243
▁max	-11.0244
met	-11.0247
▁qualitatively	-11.0247
▁herein	-11.0255
rk	-11.0256
distinguishable	-11.0259
▁Japan	-11.0263
▁Fox	-11.0267
▁recording	-11.0267
▁helps	-11.0269
aki	-11.0271
▁optical	-11.0272
▁47]	-11.0277
iae	-11.0279
gue	-11.028
▁orthologues	-11.0281
▁Effect	-11.0283
▁augment	-11.0283
▁exclusion	-11.0283
▁plume	-11.0283
▁visit	-11.0283
▁connecting	-11.0287
nis	-11.0288
▁prevents	-11.0289
▁mussels	-11.0289
▁locust	-11.0293
cke	-11.0294
▁kingdom	-11.0295
▁converted	-11.0298
cker	-11.0302
▁fresh	-11.0302
▁1976;	-11.0303
▁concomitant	-11.0303
▁conjunction	-11.0303
▁Bacteria	-11.0303
▁morphometric	-11.0303
Di	-11.0303
▁accessory	-11.0303
borne	-11.0307
▁stabilizing	-11.0312
GG	-11.0312
▁responding	-11.0317
▁photoperiod	-11.0318
62	-11.0319
▁generalist	-11.0319
▁lose	-11.032
encoded	-11.0322
▁Maximum	-11.0323
▁inversion	-11.0324
▁hubs	-11.0332
▁interactome	-11.0333
▁300	-11.0339
lex	-11.034
▁mobile	-11.0342
▁TFBS	-11.0344
DI	-11.0344
▁43	-11.035
▁fur	-11.0351
▁spend	-11.0353
▁HR	-11.0354
onia	-11.0359
▁converge	-11.0361
▁kernel	-11.0362
rist	-11.0366
▁Islands	-11.0366
▁constants	-11.0367
▁Neo	-11.0369
▁comparatively	-11.0371
▁Fish	-11.0371
▁traditionally	-11.0378
try	-11.0379
▁gape	-11.0379
▁RNase	-11.0381
lip	-11.0381
▁filtering	-11.0382
▁eutherian	-11.0383
▁depress	-11.0384
▁Ber	-11.0384
▁virtually	-11.0389
▁modest	-11.039
eria	-11.0392
▁sides	-11.0393
▁trachea	-11.0395
▁spin	-11.0396
▁aims	-11.0397
▁Firstly	-11.0398
▁trophic	-11.0399
▁segregat	-11.04
▁warming	-11.0401
▁radial	-11.0403
haus	-11.0408
▁0.05	-11.0411
▁pass	-11.0414
▁bearing	-11.0419
▁optimized	-11.0421
▁DS	-11.0421
▁combinatorial	-11.0423
▁AFLP	-11.0423
▁biomechanical	-11.0423
▁parsimonious	-11.0426
▁neck	-11.0427
▁gray	-11.0429
▁microsatellites	-11.0431
▁procedures	-11.0435
▁existed	-11.0435
▁bands	-11.0435
tent	-11.0439
▁cultured	-11.0439
▁cortex	-11.0443
▁resolving	-11.0443
▁Japanese	-11.0443
miRNA	-11.0445
▁flexion	-11.0445
adi	-11.0447
▁cofactor	-11.0447
▁catch	-11.0448
cula	-11.0449
▁fus	-11.0449
▁1986).	-11.045
ulus	-11.0451
ifying	-11.0452
▁healthy	-11.0454
▁option	-11.0457
aba	-11.0457
5]	-11.0458
▁proteomic	-11.0459
▁holds	-11.0461
pol	-11.0461
▁Bl	-11.0462
qq	-11.0462
somal	-11.0463
▁amphioxus	-11.0463
▁touch	-11.0463
▁[37,	-11.0464
arctic	-11.0464
node	-11.0465
▁tibia	-11.0466
▁[5	-11.047
▁neuromasts	-11.0474
▁~1	-11.0476
▁ORF	-11.0478
▁sediment	-11.0479
▁haemolymph	-11.0483
forming	-11.0484
▁alternate	-11.0485
mount	-11.0486
▁GRN	-11.0487
iger	-11.0495
▁Chinese	-11.0504
iso	-11.0506
▁clone	-11.0506
▁evidenced	-11.0507
▁blot	-11.0507
▁PM	-11.0508
▁concentrated	-11.0508
▁lesser	-11.051
94	-11.0511
▁mother	-11.0512
▁Currently	-11.0514
▁specimen	-11.052
▁fitting	-11.0522
▁automated	-11.0524
▁familiar	-11.0524
▁retrotransposon	-11.0524
dwelling	-11.0524
▁Lepidoptera	-11.0529
ttle	-11.053
wood	-11.0534
▁reside	-11.054
▁hemi	-11.0542
▁dispersed	-11.0543
▁morphologies	-11.0544
▁stomach	-11.0544
▁friction	-11.0544
▁GATA	-11.0545
▁taste	-11.0545
▁humidity	-11.0546
▁parasitoid	-11.0548
▁Ja	-11.0549
xc	-11.055
▁inverse	-11.0552
▁Hetero	-11.0556
NV	-11.0561
▁promoted	-11.0564
▁Plasmodium	-11.0565
▁quantities	-11.0565
▁rod	-11.0565
uf	-11.0567
▁weighted	-11.0568
TEF	-11.0569
▁enhancing	-11.057
olytic	-11.0572
▁spawning	-11.0573
▁substances	-11.0576
pur	-11.0581
▁MO	-11.0585
▁arboreal	-11.0585
▁outperform	-11.0585
▁programming	-11.0586
▁axes	-11.0587
▁protective	-11.0588
▁brief	-11.0593
chus	-11.0594
▁Cre	-11.0598
▁Genes	-11.06
▁reviewed	-11.0604
▁drainage	-11.0606
▁presumed	-11.0606
▁ver	-11.0609
ivorous	-11.061
▁raise	-11.061
▁replicate	-11.0611
▁depths	-11.0612
▁Nu	-11.0618
▁MG	-11.062
edge	-11.062
MD	-11.0621
▁alternatively	-11.0623
lium	-11.0623
hydr	-11.0624
▁anthropogenic	-11.0626
▁propensity	-11.0626
▁maize	-11.0626
▁copulation	-11.0626
▁chimpanzee	-11.0627
mark	-11.0631
▁learned	-11.0632
plan	-11.0632
▁inversions	-11.0635
▁(4)	-11.064
▁unravel	-11.0647
▁vicariance	-11.0647
▁1974)	-11.0647
▁concern	-11.065
▁conduct	-11.065
▁interested	-11.0655
▁structuring	-11.0655
▁antioxidants	-11.0657
hand	-11.0664
▁junction	-11.0666
ency	-11.0666
▁mosaic	-11.0667
▁sodium	-11.0667
HE	-11.0668
▁Long	-11.0668
ode	-11.0668
oll	-11.0671
standing	-11.0672
hydroxy	-11.0673
▁convert	-11.0674
amide	-11.0676
▁Ver	-11.0676
▁verify	-11.0679
HO	-11.068
▁spores	-11.068
▁lowland	-11.0681
▁Cd	-11.0685
cot	-11.0686
▁Four	-11.0687
▁skew	-11.0688
▁1972)	-11.0688
▁infectious	-11.0688
▁impose	-11.0696
put	-11.0702
TH	-11.0707
▁strongest	-11.0708
▁modulating	-11.0709
▁oviposition	-11.071
▁DM	-11.0723
▁pull	-11.0723
▁concatenated	-11.0729
▁defensive	-11.0729
▁hormonal	-11.0729
yne	-11.0731
▁stream	-11.0731
▁validity	-11.0734
▁men	-11.0735
[1	-11.074
grade	-11.0742
▁[25],	-11.0745
▁sudden	-11.075
▁voltage	-11.075
TT	-11.0751
▁sharks	-11.0754
▁balanced	-11.0756
cep	-11.0757
▁stressful	-11.0759
▁transform	-11.0759
▁correction	-11.0759
cyst	-11.0765
etz	-11.0766
▁CF	-11.0767
▁game	-11.0768
93	-11.0769
▁isometric	-11.077
▁CDK	-11.077
▁pancreatic	-11.0771
▁leaving	-11.0771
▁holo	-11.0775
▁projection	-11.0775
▁[19],	-11.0775
▁48]	-11.0776
ophil	-11.0776
roid	-11.0778
▁accessible	-11.0782
▁rivers	-11.0782
ES	-11.0783
▁contrasts	-11.0786
▁cycling	-11.0787
▁Ig	-11.0791
▁classifier	-11.0792
▁definitive	-11.0792
▁killifish	-11.0792
▁proceed	-11.0792
▁paleo	-11.0792
lateral	-11.0796
ify	-11.0796
▁hearts	-11.0799
myc	-11.08
▁catalyze	-11.0803
▁2.5	-11.0806
talk	-11.0808
ó	-11.0813
▁microbes	-11.0813
▁41	-11.0818
▁glutamine	-11.0819
▁forage	-11.082
oco	-11.0822
▁handling	-11.0824
▁conditional	-11.0825
ometric	-11.0826
aging	-11.0828
▁Perhaps	-11.0834
▁determinant	-11.0834
▁vibration	-11.0834
▁obstacle	-11.0834
nose	-11.0836
▁dead	-11.0839
sized	-11.0843
▁150	-11.0847
DD	-11.085
FF	-11.0853
▁collapse	-11.0855
▁tongue	-11.0855
Vg	-11.0859
▁minutes	-11.0861
▁Monte	-11.0862
▁selecting	-11.0864
▁threads	-11.0864
race	-11.0874
▁improving	-11.0876
▁pelvic	-11.0876
▁Large	-11.0877
nidae	-11.0884
▁potent	-11.0886
west	-11.0887
▁IP	-11.0894
▁FST	-11.0894
▁predictor	-11.0895
▁rejected	-11.0896
arc	-11.0897
table	-11.0897
▁ensemble	-11.0897
▁patient	-11.0898
05	-11.0898
μ	-11.0899
LM	-11.09
▁gains	-11.0901
▁repress	-11.0902
▁vice	-11.0903
▁biomarkers	-11.0907
▁users	-11.0908
▁progressive	-11.091
▁opossum	-11.0918
▁CNS	-11.0919
▁removing	-11.0919
▁Hap	-11.0921
more	-11.0923
win	-11.0924
elo	-11.0924
▁outcrossing	-11.0939
▁feet	-11.0939
IF	-11.0945
▁digit	-11.0947
▁specialist	-11.0958
rgic	-11.0958
▁reliably	-11.0961
▁conductance	-11.0961
▁rearrangement	-11.0962
volu	-11.0964
peptide	-11.0969
▁prevented	-11.0971
▁paralogues	-11.0973
▁sensor	-11.0978
▁[51]	-11.0978
▁leave	-11.0979
▁evaluating	-11.0982
▁negligible	-11.0982
▁ovary	-11.0982
▁Clearly	-11.0982
▁[36,	-11.0983
▁resembles	-11.0988
▁additionally	-11.0991
tailed	-11.0991
9]	-11.0994
▁haplogroups	-11.0996
▁ATPase	-11.0998
chain	-11.0998
▁basin	-11.1002
▁identifies	-11.1003
▁Johnson	-11.1005
response	-11.1006
sexual	-11.1011
▁LTM	-11.1011
ON	-11.1015
▁consumed	-11.1021
▁Shi	-11.1024
▁bladder	-11.1025
▁NE	-11.1027
glucose	-11.1028
thal	-11.1031
▁Em	-11.1032
▁radio	-11.1033
▁16,	-11.1033
▁settings	-11.1034
▁epithelia	-11.1041
▁uni	-11.1044
▁forced	-11.1044
▁classic	-11.1044
▁duck	-11.105
▁subtype	-11.105
▁masses	-11.1054
▁methyl	-11.1058
5).	-11.106
ATP	-11.1061
▁plots	-11.1062
PN	-11.1063
▁versa	-11.1063
asso	-11.1067
▁Expression	-11.1067
▁integral	-11.1067
▁whilst	-11.1067
▁scarce	-11.1067
▁PV	-11.1068
▁offset	-11.1069
▁biogenesis	-11.107
▁dance	-11.1076
life	-11.1078
▁sparrows	-11.1078
open	-11.108
▁Syn	-11.1084
▁Uni	-11.1088
▁endothelial	-11.1089
▁gibbon	-11.1089
▁hepatic	-11.1089
▁impulse	-11.1089
enter	-11.109
▁plotted	-11.109
mag	-11.109
▁bioinformatics	-11.1091
▁IF	-11.1092
▁Comp	-11.1096
▁upward	-11.1097
▁SMR	-11.1097
▁exceed	-11.11
▁Storey	-11.11
eau	-11.1103
▁law	-11.1104
now	-11.1106
▁sympatry	-11.111
▁[38,	-11.1111
arm	-11.1112
zz	-11.1116
▁ANOVA	-11.1119
▁dec	-11.1121
▁starch	-11.1122
▁corroborate	-11.1123
▁constituent	-11.1132
▁tumour	-11.1132
▁BP	-11.1135
▁exerted	-11.1141
▁See	-11.1143
chr	-11.1146
▁hsp	-11.1149
▁round	-11.1151
▁library	-11.1154
▁semantic	-11.1154
▁interfere	-11.1154
▁49]	-11.1159
▁diverge	-11.1161
▁claw	-11.1162
▁prim	-11.1167
▁operation	-11.1171
aff	-11.1172
▁transposon	-11.1175
▁unchanged	-11.1175
▁Assuming	-11.1175
auer	-11.1182
▁scoring	-11.1186
▁charge	-11.1186
▁eliminated	-11.1192
▁steep	-11.1192
▁contract	-11.1196
NM	-11.1197
▁trafficking	-11.1197
uan	-11.1204
▁ser	-11.1204
▁confirming	-11.1204
▁illustrates	-11.1204
viruses	-11.1205
▁metric	-11.121
rian	-11.1213
▁90%	-11.1215
▁supposed	-11.1223
▁spike	-11.1224
▁flows	-11.123
ila	-11.1237
▁exponent	-11.124
▁dopamine	-11.1241
▁disparity	-11.1241
▁telomere	-11.1241
aspe	-11.1242
▁reflex	-11.1244
▁Young	-11.1252
▁Low	-11.1255
▁PK	-11.1256
▁latitudes	-11.1258
▁1973;	-11.1263
▁hidden	-11.1263
▁retraction	-11.1263
▁giant	-11.1263
▁unstable	-11.1265
igh	-11.1266
blue	-11.1267
▁extraction	-11.1269
▁expensive	-11.1271
▁mere	-11.1272
gui	-11.1273
▁droplets	-11.1274
96	-11.1275
▁perfect	-11.1276
▁pur	-11.1279
▁OA	-11.128
▁arousal	-11.1285
▁reliability	-11.1285
▁RF	-11.1289
▁tolerant	-11.1292
▁Han	-11.1299
▁leuc	-11.1305
▁12,	-11.1317
▁places	-11.1317
▁Wehner	-11.1318
▁deer	-11.1318
rium	-11.1319
▁72	-11.1319
▁28].	-11.1329
▁Great	-11.133
▁PPIs	-11.1332
▁glycoprotein	-11.1333
▁5%	-11.1333
2°	-11.1334
omes	-11.1334
▁physically	-11.135
▁caspase	-11.1351
▁fluctuating	-11.1351
▁rigorous	-11.1351
▁stoichiometric	-11.1351
tine	-11.1351
allo	-11.1352
▁doses	-11.1352
▁potentials	-11.1352
logical	-11.1354
▁subcellular	-11.1355
xH	-11.1356
▁formulation	-11.1357
▁13,	-11.1357
▁monomer	-11.1358
▁[68]	-11.1359
▁oocytes	-11.1361
▁melatonin	-11.1373
ostom	-11.1375
▁eel	-11.1377
▁q	-11.1381
▁burrowing	-11.1381
▁[69]	-11.1381
300	-11.1382
▁Bre	-11.1382
mass	-11.1383
▁subnetworks	-11.1384
▁contacts	-11.139
▁1971;	-11.1395
▁closure	-11.1395
this	-11.1395
▁deficiency	-11.1396
▁mutated	-11.1397
▁Myo	-11.1397
Car	-11.1409
▁frontal	-11.141
rob	-11.141
▁subgroup	-11.141
LE	-11.141
▁subgroups	-11.1411
▁macrophages	-11.1416
▁EM	-11.1416
▁japonica	-11.1417
▁mirror	-11.1417
▁Lin	-11.1425
▁click	-11.1427
void	-11.1429
▁cetaceans	-11.143
▁arginine	-11.1435
▁emphasis	-11.1439
▁incidence	-11.1439
▁2014)	-11.144
▁WT	-11.144
▁emission	-11.1441
▁bright	-11.1442
Cyc	-11.1442
▁bases	-11.1442
▁Epi	-11.1443
▁AL	-11.1445
▁NI	-11.1445
RI	-11.1462
▁biofilm	-11.1462
▁Quaternary	-11.1462
▁[39,	-11.1462
ground	-11.1463
▁Leu	-11.1465
▁primers	-11.1465
▁tuna	-11.1465
▁inhibiting	-11.1467
▁allopolyploid	-11.1467
HR	-11.1475
▁progenitors	-11.1482
▁Regardless	-11.1484
▁arranged	-11.1484
▁cognitive	-11.1484
▁indices	-11.1484
▁processed	-11.1484
▁Sta	-11.1485
▁routine	-11.1494
▁expanding	-11.1498
▁positioned	-11.1506
▁microtubule	-11.1507
▁passerine	-11.1507
▁refuge	-11.1507
catenin	-11.1507
▁14,	-11.1508
▁15,	-11.151
▁master	-11.151
copulatory	-11.1511
▁bud	-11.1512
▁isolate	-11.1514
▁crest	-11.1515
Sa	-11.1519
phe	-11.1521
▁Er	-11.1522
▁80%	-11.1526
▁EOD	-11.1527
▁Sequence	-11.1529
▁applies	-11.1529
▁congruence	-11.1529
▁climbing	-11.1529
▁Ciona	-11.153
▁names	-11.1536
itch	-11.1536
▁exo	-11.1539
▁US	-11.1548
▁Southeast	-11.155
▁solitary	-11.1552
▁1971)	-11.1552
▁neuropeptide	-11.1552
▁copepod	-11.1552
▁motivation	-11.1553
▁marsupials	-11.1561
▁ste	-11.1561
Seq	-11.1568
quality	-11.1568
▁geo	-11.1571
▁extensor	-11.1574
▁recommend	-11.1574
Ja	-11.1575
▁alteration	-11.1576
▁BC	-11.1578
Du	-11.1582
▁horizontally	-11.1583
▁lie	-11.1583
▁disperse	-11.1584
▁declines	-11.1584
Whit	-11.159
auto	-11.159
LG	-11.1593
proteobacteria	-11.1594
▁sophisticated	-11.1597
▁Sha	-11.1599
▁mining	-11.1599
▁PG	-11.16
fit	-11.1608
▁cytokine	-11.1608
▁bonds	-11.1609
rank	-11.1609
▁AA	-11.1609
▁came	-11.161
▁PT	-11.161
▁catfish	-11.1613
▁2012	-11.1619
▁cultivated	-11.1619
▁irrespective	-11.1619
utilizing	-11.1619
▁morphogenesis	-11.162
▁plateau	-11.1621
▁yaw	-11.1621
ould	-11.1625
▁ID	-11.1635
▁metrics	-11.1637
▁Ang	-11.1638
▁mated	-11.1638
nia	-11.1638
▁hierarchy	-11.1642
▁sought	-11.1642
▁Pf	-11.1643
▁characterizing	-11.1645
▁Ple	-11.1645
▁cyt	-11.1647
▁cyanobacterial	-11.1649
▁instar	-11.1654
▁bond	-11.1657
▁gonad	-11.166
▁normoxic	-11.1665
▁UCP	-11.1669
that	-11.1672
▁nerves	-11.1676
ua	-11.1678
▁unless	-11.1679
▁sticklebacks	-11.168
cular	-11.168
▁pin	-11.1686
▁insert	-11.1686
transferase	-11.1688
▁[41,	-11.1691
▁sec	-11.1694
▁square	-11.1696
ool	-11.1699
▁elucidated	-11.17
▁projects	-11.1702
Her	-11.1706
present	-11.1711
▁computing	-11.1711
▁modulator	-11.1711
▁quantification	-11.1711
▁text	-11.1712
▁settlement	-11.1713
▁strengthen	-11.1717
▁10,	-11.1718
nuclear	-11.1718
▁SV	-11.1722
▁51]	-11.1723
▁ambiguous	-11.1734
▁falciparum	-11.1734
▁serious	-11.1734
HC	-11.1735
▁den	-11.1738
▁mothers	-11.1741
▁triggers	-11.1742
chromatic	-11.1744
even	-11.1748
▁absorb	-11.1755
erman	-11.1755
▁attracted	-11.1755
▁safety	-11.1757
▁shunt	-11.1757
▁drivers	-11.1761
▁theoretically	-11.1761
exposed	-11.1763
▁shore	-11.1765
prote	-11.1769
▁thread	-11.1769
amino	-11.177
▁moves	-11.1773
▁gamma	-11.178
rach	-11.1781
▁50]	-11.1783
▁classify	-11.1785
▁Martin	-11.1786
=2	-11.1788
▁cytokines	-11.1789
▁establishing	-11.1797
Bur	-11.1801
▁epidermal	-11.1803
▁pl	-11.1804
▁1999),	-11.1805
eller	-11.1805
lidae	-11.1806
▁obtaining	-11.1807
▁acetyl	-11.1807
dactylus	-11.1808
▁optimize	-11.1809
▁clearance	-11.181
▁[23],	-11.1811
apping	-11.1812
▁Archaea	-11.1817
▁outputs	-11.1822
hon	-11.1824
▁percent	-11.1825
▁abdomen	-11.1826
▁people	-11.1826
▁Guinea	-11.1826
▁compromise	-11.1829
▁dominate	-11.1835
▁reading	-11.1838
▁marsupial	-11.1839
▁sect	-11.1841
▁cloned	-11.1842
uring	-11.1846
▁webs	-11.1846
▁brought	-11.1849
▁preclude	-11.1849
▁synchronous	-11.1849
mur	-11.1851
▁LA	-11.1853
▁His	-11.1854
ido	-11.186
▁PH	-11.1866
▁Met	-11.1868
▁Population	-11.1872
▁desirable	-11.1872
▁immunological	-11.1873
▁assimilation	-11.1873
OD	-11.1876
▁essentiality	-11.1878
subunit	-11.1879
→	-11.1879
▁pharyngeal	-11.1881
hydro	-11.1882
▁9)	-11.1883
illi	-11.1884
▁axon	-11.1888
Go	-11.1895
▁composite	-11.1896
▁dehydration	-11.1896
▁diabetes	-11.1896
▁intensities	-11.1896
etti	-11.1896
▁partition	-11.1896
ptera	-11.1898
▁17,	-11.1898
▁RE	-11.1901
▁receiver	-11.1902
▁tendons	-11.1905
▁gaits	-11.191
▁cricket	-11.191
omycetes	-11.1916
▁30%	-11.192
▁pole	-11.1922
coupled	-11.1924
▁translated	-11.1927
▁instability	-11.1927
▁portions	-11.1931
▁organelles	-11.1932
▁Mon	-11.1933
▁[29],	-11.1935
▁ka	-11.1935
zygotic	-11.194
▁gecko	-11.1942
▁Ur	-11.1946
biotic	-11.1947
▁21,	-11.1947
▁positives	-11.1951
▁Sto	-11.1951
▁nonsynonymous	-11.1953
Mb	-11.1953
Hb	-11.1961
emi	-11.1962
▁Tet	-11.1962
▁commercial	-11.1966
▁discrepancies	-11.1966
▁Biology	-11.1967
▁haploid	-11.1969
cells	-11.1973
▁Ve	-11.1983
RM	-11.1983
▁reductase	-11.1989
▁senescence	-11.1989
▁tuned	-11.199
▁[70]	-11.199
SW	-11.1992
▁fits	-11.1994
▁mediates	-11.1996
▁sexta	-11.1997
▁era	-11.2005
▁tetrapod	-11.2006
limb	-11.2006
▁avoiding	-11.2012
▁artefact	-11.2013
▁cylinder	-11.2013
molt	-11.2014
epae	-11.2015
hold	-11.2017
▁compression	-11.2018
▁diverging	-11.2019
oviruses	-11.2021
fed	-11.2023
▁sugars	-11.2024
▁bears	-11.2032
qGq	-11.2036
▁multivariate	-11.2037
▁radius	-11.2037
▁stabilization	-11.2037
▁subgenus	-11.2037
▁mediator	-11.2038
▁junctions	-11.2039
▁lysine	-11.2039
▁LI	-11.204
opsin	-11.2043
▁lever	-11.2043
▁fix	-11.2045
▁hope	-11.2045
▁33].	-11.2047
▁GL	-11.2051
▁manually	-11.2052
▁arc	-11.2056
▁let	-11.2058
▁draw	-11.2058
aabeqaa	-11.2059
▁consecutive	-11.206
▁erythrocyte	-11.206
▁propagate	-11.206
Gaai	-11.2061
lla	-11.2063
LO	-11.2064
▁(20	-11.2067
▁walls	-11.2067
▁(∼	-11.2069
▁protists	-11.2072
black	-11.2076
▁cy	-11.2079
▁[22],	-11.2081
▁Comparative	-11.2084
▁daughter	-11.2084
▁supertree	-11.2085
▁amphi	-11.2085
▁ectotherms	-11.2087
AI	-11.2087
▁polarity	-11.2088
iceps	-11.2088
▁tethered	-11.2092
▁thermodynamic	-11.2097
▁defenses	-11.21
▁effectors	-11.2101
▁Gly	-11.2101
▁46	-11.2104
▁chaperone	-11.2108
mRNA	-11.2109
▁domesticated	-11.2111
expressing	-11.2116
▁FM	-11.2117
▁HT	-11.2119
8°	-11.212
▁cytosol	-11.2128
xNi	-11.213
fsY	-11.213
adbaqaaeGac	-11.213
▁embedded	-11.2132
▁pregnancy	-11.2132
▁iterative	-11.2132
▁spanning	-11.2133
asi	-11.2134
▁Au	-11.2136
gent	-11.214
▁therein	-11.2141
directed	-11.2144
dXdb	-11.2146
mt	-11.2149
▁CE	-11.2149
▁mites	-11.215
▁keeping	-11.2154
▁lys	-11.2156
▁administration	-11.2156
▁vortices	-11.2156
▁paracellular	-11.2157
▁traces	-11.2159
▁49	-11.2163
adaptive	-11.2164
▁update	-11.2166
▁began	-11.2167
6).	-11.2169
lineage	-11.217
▁averaged	-11.2171
gger	-11.2175
Con	-11.2176
▁blocked	-11.2177
▁[24],	-11.2178
▁murine	-11.2182
▁recruit	-11.2186
oxy	-11.2189
▁Its	-11.2194
▁intermediates	-11.2196
▁dimension	-11.2203
▁fascicle	-11.2204
▁siRNA	-11.2204
▁noisy	-11.2204
▁seemingly	-11.2204
▁Multiple	-11.2204
▁Previously	-11.2205
▁switches	-11.2205
▁concerns	-11.2206
▁55	-11.221
▁EGF	-11.2211
▁inability	-11.2215
▁acted	-11.2216
values	-11.222
▁haem	-11.2223
▁plasmid	-11.2224
▁employing	-11.2224
BF	-11.2226
ander	-11.2226
1.2	-11.2226
▁[28],	-11.2226
▁ram	-11.2227
▁liquid	-11.2228
immer	-11.223
▁pairing	-11.2232
▁elementary	-11.2233
ending	-11.2235
▁displaying	-11.2237
▁Non	-11.2238
▁CpG	-11.2246
▁compress	-11.2247
▁shortest	-11.2248
▁pseudogene	-11.2249
▁[40,	-11.2253
▁continues	-11.2254
▁bursts	-11.2256
atura	-11.2256
▁serum	-11.2257
▁HA	-11.2257
▁([	-11.2258
▁allometry	-11.2259
▁putatively	-11.2261
▁check	-11.2262
meter	-11.2264
▁dated	-11.2264
sample	-11.2268
▁ruf	-11.2271
▁agonist	-11.2272
▁facultative	-11.2276
▁libraries	-11.2276
▁subdivision	-11.2276
▁collision	-11.2276
▁NMDA	-11.2276
▁gastric	-11.2277
▁subfunctionaliz	-11.2279
stream	-11.2281
toxic	-11.2285
▁1998),	-11.2286
thio	-11.229
▁clicks	-11.2292
▁NHE	-11.2293
▁colon	-11.2298
▁Myc	-11.2298
▁subterranean	-11.23
▁heterodimer	-11.23
cyt	-11.2301
ifolia	-11.2306
▁pectoralis	-11.2307
▁locate	-11.2311
escent	-11.2316
tune	-11.2316
▁vesicle	-11.2321
▁beam	-11.2321
▁asymmetrical	-11.2324
▁arrows	-11.2325
▁cortical	-11.2325
▁descriptions	-11.2325
▁pathological	-11.2326
▁starts	-11.2332
oda	-11.2334
▁treat	-11.2336
stage	-11.2341
▁hotspot	-11.2349
▁device	-11.2349
▁termination	-11.2349
▁injected	-11.2351
▁loud	-11.2352
MO	-11.2352
▁SH	-11.2355
▁centrality	-11.2356
analysis	-11.2358
rup	-11.2361
▁Systems	-11.2362
CG	-11.2364
▁vertebral	-11.2365
dactyl	-11.2369
▁disturbance	-11.237
▁seek	-11.2371
▁acidic	-11.2372
▁coherent	-11.2374
▁latitudinal	-11.2374
▁transverse	-11.2374
▁cho	-11.2378
ku	-11.2378
ifies	-11.2381
▁wasp	-11.2381
▁dysfunction	-11.2383
▁preserve	-11.2384
zen	-11.2388
▁soluble	-11.2392
▁pads	-11.2393
<	-11.2395
▁oyster	-11.2398
▁[71]	-11.2398
▁ejaculate	-11.2399
▁automatically	-11.24
▁ciliary	-11.24
▁molt	-11.2401
UTR	-11.2403
angle	-11.2408
iness	-11.2412
logic	-11.2412
CK	-11.2415
▁tradeoff	-11.2418
▁approaching	-11.2419
▁40%	-11.242
▁decade	-11.242
▁catabolism	-11.2423
▁gastrocnemius	-11.2423
▁isotope	-11.2423
▁subordinate	-11.2424
color	-11.2424
▁Hymenoptera	-11.2429
▁1981).	-11.2431
vr	-11.2433
▁Com	-11.2434
8]	-11.2434
▁Ran	-11.2434
▁recruited	-11.2439
800	-11.2442
▁3:	-11.2443
▁47	-11.2446
▁heritable	-11.2447
▁pleiotropic	-11.2447
▁properly	-11.2447
phen	-11.245
▁finite	-11.2451
▁confounding	-11.2455
▁cascades	-11.2457
tree	-11.2459
ipes	-11.246
▁challenged	-11.2466
▁RMR	-11.2467
▁forelimbs	-11.2469
▁tick	-11.2471
▁rings	-11.2472
▁improves	-11.2474
▁inbred	-11.2474
arth	-11.2479
▁65	-11.248
▁monkeys	-11.2481
▁favoured	-11.2487
Pro	-11.2492
▁Cro	-11.2495
▁innovation	-11.2495
▁purely	-11.2495
▁leak	-11.2496
▁foreign	-11.2497
▁waveform	-11.2498
▁cyst	-11.25
▁breeds	-11.2505
random	-11.2506
▁Fr	-11.2512
▁400	-11.2513
▁Pax	-11.2514
typic	-11.2515
▁ganglia	-11.2522
▁retractor	-11.2522
▁sibling	-11.2522
▁possessing	-11.2525
glacial	-11.2528
acclimat	-11.253
eff	-11.2531
▁tricho	-11.2534
NK	-11.2538
Fe	-11.2544
7°	-11.2546
▁exhaustive	-11.2546
▁symbiosis	-11.2546
▁bipedal	-11.2546
▁spacing	-11.2546
▁[27],	-11.2547
▁crosstalk	-11.2548
▁PPAR	-11.2548
only	-11.2551
180	-11.2551
flex	-11.2552
▁Next	-11.2554
▁nestlings	-11.2555
▁dashed	-11.256
▁manipulated	-11.2565
▁specify	-11.2571
▁slopes	-11.2571
▁separating	-11.2571
▁technical	-11.2571
▁dys	-11.2572
ound	-11.2572
▁AMPK	-11.2579
▁lifetime	-11.258
▁flagella	-11.258
|	-11.2581
ranging	-11.2582
▁Pal	-11.2582
▁Current	-11.2584
61	-11.2587
▁mind	-11.2588
▁suppressor	-11.2592
▁mucus	-11.2597
▁correspondence	-11.2599
Mor	-11.2601
nce	-11.2601
▁52]	-11.2602
▁occasionally	-11.2605
▁HIF	-11.2605
▁colonisation	-11.2609
▁LP	-11.2614
▁seemed	-11.2615
rina	-11.2619
▁preservation	-11.2621
born	-11.2622
dra	-11.2623
▁NC	-11.2623
▁[42,	-11.2624
▁fitted	-11.2625
▁triple	-11.2625
▁Generally	-11.2626
▁week	-11.2626
anger	-11.263
ovirus	-11.2632
▁intensive	-11.2634
wait	-11.2638
▁coincides	-11.2638
▁Nox	-11.2639
▁pup	-11.2645
vent	-11.2645
▁Eocene	-11.2647
▁blubber	-11.2647
▁buccal	-11.2647
▁gliding	-11.2647
▁honeybee	-11.2647
▁selectivity	-11.2647
▁lobe	-11.265
ided	-11.2651
▁performs	-11.2656
▁arrow	-11.2656
<0.05	-11.2657
shift	-11.2658
51	-11.266
▁phy	-11.2661
▁elephants	-11.2663
▁circum	-11.2672
▁Individual	-11.2672
▁glutathione	-11.2672
▁medaka	-11.2672
▁sarcomere	-11.2672
▁graphical	-11.2674
Har	-11.2674
▁shares	-11.2675
▁motions	-11.268
▁intuitive	-11.268
neurotransmitter	-11.2681
▁attain	-11.2681
ED	-11.2685
idium	-11.2687
▁ci	-11.2688
methyl	-11.2689
▁architectures	-11.2689
▁genital	-11.2695
▁Increased	-11.2697
▁adverse	-11.2697
▁letters	-11.2697
▁creates	-11.27
▁homoplasy	-11.2701
▁descend	-11.2702
IA	-11.2702
▁eukaryote	-11.2707
▁branchial	-11.2707
▁think	-11.2717
▁bra	-11.2721
▁Anopheles	-11.2722
▁premature	-11.2722
▁falls	-11.2725
▁Gram	-11.2727
▁reflectance	-11.2728
two	-11.273
key	-11.2731
▁rotate	-11.2732
▁symmetrical	-11.2735
▁Amazon	-11.2737
▁elongated	-11.2737
▁Tu	-11.274
sectional	-11.2743
▁Ci	-11.2744
▁NADPH	-11.2748
▁elaborate	-11.2748
▁normoxia	-11.2748
▁bulk	-11.2748
▁cattle	-11.2749
ager	-11.2749
2+-	-11.275
regulate	-11.275
▁delays	-11.2753
▁prostate	-11.2753
▁oceanic	-11.2756
Lee	-11.2756
▁perch	-11.2757
Do	-11.2757
▁accomplished	-11.2757
wavelength	-11.2759
▁flexor	-11.2761
version	-11.2762
▁54	-11.2765
LL	-11.277
▁tap	-11.277
▁Sim	-11.2772
▁flights	-11.2773
▁experiencing	-11.2773
▁transposition	-11.2775
▁stock	-11.2775
▁neighbors	-11.2778
▁probes	-11.278
▁120	-11.2781
▁cru	-11.2784
▁listed	-11.2787
▁globin	-11.2789
▁reversed	-11.279
▁stimulates	-11.2793
▁table	-11.2794
▁tips	-11.2798
▁attributable	-11.2799
▁hovering	-11.2799
▁embryogenesis	-11.2799
▁landmark	-11.2802
▁stay	-11.2802
▁Nor	-11.2805
δ	-11.281
Smith	-11.281
nan	-11.281
▁brevi	-11.2812
ylation	-11.2817
▁laterally	-11.2818
▁hindlimbs	-11.2821
▁superficial	-11.2824
▁unaffected	-11.2824
▁Roberts	-11.2828
▁adjusted	-11.2833
▁PTH	-11.2834
▁habit	-11.2834
weight	-11.2837
otropic	-11.2837
▁warmer	-11.2838
location	-11.2839
10)	-11.2845
script	-11.2848
▁opposing	-11.285
▁pipeline	-11.285
▁sensilla	-11.285
▁ventricle	-11.285
ophilic	-11.2851
▁disrupted	-11.2851
▁LH	-11.2852
▁CV	-11.2853
▁looking	-11.2857
5%)	-11.2859
▁Min	-11.2861
eira	-11.2864
wal	-11.2865
▁economic	-11.2873
▁Mexico	-11.2876
▁compliance	-11.2876
▁arterial	-11.2876
▁hydrocarbon	-11.2876
▁contamination	-11.2877
▁temporally	-11.2879
▁identifiability	-11.2881
proteins	-11.2881
network	-11.2889
▁oligomer	-11.2901
▁Im	-11.2901
▁maturity	-11.2901
▁symmetry	-11.2901
▁plug	-11.2902
▁ChIP	-11.2903
jo	-11.2905
▁karyotype	-11.2906
▁downward	-11.2906
▁plates	-11.2906
FM	-11.2907
qual	-11.2913
▁duct	-11.2913
▁21]	-11.2914
▁hinder	-11.2916
NH	-11.2919
▁transit	-11.2922
▁vertically	-11.2926
▁35].	-11.2927
▁Symbiodinium	-11.2927
kov	-11.293
▁cockroaches	-11.2932
▁hits	-11.294
▁TEs	-11.2942
tsch	-11.2942
▁nesting	-11.2944
stress	-11.2945
emp	-11.2945
bearing	-11.2946
▁transported	-11.2948
▁Miller	-11.295
phil	-11.2952
ococcus	-11.2953
▁venous	-11.2953
▁proxy	-11.2953
▁standing	-11.2954
▁[43,	-11.2955
▁ja	-11.2955
▁5),	-11.2962
▁orthology	-11.2964
burg	-11.2969
▁Ty	-11.2971
▁Eurasia	-11.2971
▁tau	-11.2977
▁FGF	-11.2982
▁Jones	-11.2982
▁race	-11.2986
motor	-11.2987
▁equi	-11.2991
Williams	-11.2991
▁Ham	-11.2993
▁[58].	-11.2996
▁mixing	-11.2998
▁Full	-11.2998
▁antenna	-11.3
cycl	-11.3003
▁CRF	-11.3003
▁detoxification	-11.3005
▁pocket	-11.3005
▁perturbed	-11.3005
▁curated	-11.3008
alth	-11.3009
▁fermentation	-11.3009
ernal	-11.3011
▁Reynolds	-11.3011
ographic	-11.3015
▁inertial	-11.3017
▁Arg	-11.3018
▁inserted	-11.3024
▁clutch	-11.3026
▁1996),	-11.3029
mini	-11.303
▁Cap	-11.303
▁coexist	-11.303
▁arena	-11.3031
LD	-11.3031
▁CEACAM	-11.3031
▁irregular	-11.3031
▁wound	-11.3032
prop	-11.3033
▁methodological	-11.304
0.8	-11.304
actin	-11.3042
pterid	-11.3045
▁jaws	-11.3046
▁cast	-11.3046
ceae	-11.3051
local	-11.3053
▁digest	-11.3055
▁vitamin	-11.3057
▁trip	-11.3061
ncRNA	-11.3065
sensu	-11.3066
▁[26],	-11.3068
▁undergoing	-11.3069
female	-11.3071
▁globally	-11.3081
▁symmetric	-11.3083
▁mellifera	-11.3084
▁ovaries	-11.3084
▁viscous	-11.3084
▁glycine	-11.3084
▁Again	-11.3084
▁replicates	-11.3087
idia	-11.3091
▁specified	-11.3096
▁underwater	-11.3102
▁obviously	-11.3102
erson	-11.3102
▁lemurs	-11.3108
▁autumn	-11.311
▁pulmonary	-11.311
▁synthetase	-11.311
▁pine	-11.3111
▁hyoid	-11.3112
▁finch	-11.3115
▁exploited	-11.3116
▁positioning	-11.3116
▁neofunctionaliz	-11.3117
▁SAM	-11.3119
▁Dickinson	-11.3122
▁damaged	-11.3123
▁thorough	-11.3124
flies	-11.3126
esis	-11.3126
lag	-11.3129
eter	-11.313
▁Indo	-11.3132
▁Wal	-11.3135
▁cytoskeleton	-11.3136
▁diffuse	-11.3136
▁dsRNA	-11.3136
▁/	-11.3138
▁Mu	-11.3142
▁plasmids	-11.3142
▁corn	-11.3143
▁2013;	-11.3144
opoda	-11.3147
bat	-11.3148
olar	-11.3149
▁Bro	-11.3153
HA	-11.3156
uter	-11.3156
▁DH	-11.3158
▁Contrary	-11.3163
▁proteasome	-11.3163
▁[73]	-11.3163
▁crack	-11.3164
viridae	-11.3165
1.1	-11.3167
-3-	-11.3171
▁lin	-11.3178
inase	-11.3179
▁cre	-11.3184
▁thorax	-11.3188
▁melanin	-11.3189
▁demonstration	-11.3189
▁paternity	-11.3189
▁Tc	-11.319
▁covariance	-11.3191
▁items	-11.3191
▁fire	-11.3194
▁Phylo	-11.3195
▁sweep	-11.3196
▁improvements	-11.3199
▁adjustment	-11.3199
▁nucleo	-11.3201
hill	-11.3202
▁dissect	-11.3212
▁proteomes	-11.3212
ifer	-11.3214
▁IM	-11.3215
▁archipelago	-11.3216
▁easier	-11.3216
ophore	-11.3217
▁enhancer	-11.3218
▁Tre	-11.3218
▁EO	-11.3219
▁possessed	-11.3221
▁breaks	-11.3221
aver	-11.3224
neu	-11.3233
▁severely	-11.3235
▁[30],	-11.3236
gia	-11.3239
▁pad	-11.324
▁colouration	-11.3241
▁simpler	-11.3242
ø	-11.3243
▁flagellum	-11.3243
▁fibroblast	-11.3243
▁Eqn	-11.3243
▁chemotaxis	-11.3243
▁phospholipid	-11.3243
▁Lep	-11.3246
PM	-11.3248
phox	-11.3249
▁Figures	-11.325
section	-11.3252
▁digital	-11.3255
▁begins	-11.3256
UT	-11.3257
▁inform	-11.3258
▁addressing	-11.3259
▁simplest	-11.326
LDH	-11.3262
▁[32],	-11.3264
▁genotypic	-11.3269
▁rabbit	-11.3269
▁recipient	-11.3269
▁replicator	-11.327
▁splits	-11.3271
▁drives	-11.3273
▁diversifying	-11.3279
hereafter	-11.3281
2.1	-11.3282
▁roots	-11.3283
▁trap	-11.3288
▁Gro	-11.3288
▁uniquely	-11.3289
horn	-11.3289
▁alarm	-11.329
iensis	-11.3292
osine	-11.3295
▁Functional	-11.3296
▁imprinting	-11.3296
▁diatom	-11.3296
▁ingestion	-11.3299
▁orange	-11.3299
▁besides	-11.3299
kon	-11.3301
▁56]	-11.3301
▁Oligocene	-11.3302
Ph	-11.3302
▁acidification	-11.3305
▁artifact	-11.3305
▁refers	-11.3307
▁operons	-11.3309
▁surveys	-11.3309
although	-11.3314
▁Marshall	-11.3318
▁Str	-11.3319
static	-11.3322
▁MAT	-11.3323
▁innervation	-11.3323
▁increment	-11.3323
▁cpDNA	-11.3323
▁conclusive	-11.3324
ozoan	-11.3326
▁regularly	-11.3326
cera	-11.3329
▁lungs	-11.3332
ania	-11.3334
▁Pyr	-11.3335
▁manage	-11.3336
tendon	-11.3339
OG	-11.334
nell	-11.334
dc	-11.3341
death	-11.3342
▁echinoderm	-11.335
▁lepidopteran	-11.335
▁doubt	-11.335
▁upstroke	-11.3352
ship	-11.3355
▁downregulated	-11.3355
▁carbohydrates	-11.3356
▁fleas	-11.3357
▁GTPase	-11.3359
▁trail	-11.3361
eae	-11.3367
▁Fra	-11.3369
▁vir	-11.3369
▁GenBank	-11.3371
strain	-11.3375
▁chick	-11.3377
▁Numerous	-11.3377
▁antimicrobial	-11.3377
▁vicinity	-11.3377
▁femur	-11.3377
▁ordinary	-11.3377
▁hemisphere	-11.3377
▁anoxic	-11.3377
▁[72]	-11.3377
▁trotting	-11.3378
▁encounters	-11.3382
abd	-11.3384
▁schemes	-11.3385
▁fragmented	-11.3386
FT	-11.339
▁focuses	-11.3391
▁heterospecific	-11.3392
▁1981)	-11.3395
▁20]	-11.3396
▁odours	-11.3401
▁squirrels	-11.3404
▁hermaphrodites	-11.3404
▁piece	-11.3404
▁interrupt	-11.3404
▁Amphi	-11.3406
▁23,	-11.3409
▁lions	-11.3412
▁ecosystem	-11.3415
▁evoked	-11.3424
rf	-11.3425
▁maintains	-11.3425
▁filled	-11.3428
▁conform	-11.343
▁guarantee	-11.3431
▁hydrolysis	-11.3431
▁75	-11.3434
take	-11.3435
▁proteomics	-11.3437
▁Lar	-11.3439
▁Eurasian	-11.344
▁partitions	-11.3442
mia	-11.3445
▁linearly	-11.3445
filled	-11.3446
Si	-11.3448
▁exceeds	-11.3454
▁54]	-11.3458
▁determinants	-11.3458
▁tunicate	-11.3459
▁biomedical	-11.3459
▁budding	-11.3459
dict	-11.3459
bridge	-11.346
▁highlighting	-11.346
ryl	-11.3462
HL	-11.3465
▁Müller	-11.3473
control	-11.3473
▁Homo	-11.3474
▁constructing	-11.3476
▁squares	-11.3478
▁manipulations	-11.3479
▁surge	-11.3486
▁56	-11.3486
▁bilateral	-11.3487
▁quantifying	-11.3489
ridae	-11.3489
▁modelled	-11.3494
▁War	-11.3495
responsive	-11.3501
iformis	-11.3506
▁emb	-11.3509
▁endurance	-11.3513
▁raising	-11.3513
▁Variation	-11.3513
▁conceptual	-11.3515
▁repeatability	-11.3516
▁crop	-11.3516
FBA	-11.3518
=3	-11.352
▁sort	-11.3521
▁extracts	-11.3524
▁ingested	-11.3524
▁mar	-11.3526
▁colors	-11.3528
▁glu	-11.3529
▁progressively	-11.3529
▁agrees	-11.3531
▁ii	-11.3534
▁vertebrae	-11.3541
▁[75]	-11.3541
▁breakdown	-11.3541
▁19]	-11.3542
▁scent	-11.3545
▁fructose	-11.3546
▁phages	-11.3547
tron	-11.3548
para	-11.3548
comb	-11.3548
▁renal	-11.3551
▁pollinator	-11.3553
▁horse	-11.3553
▁≥	-11.3556
▁align	-11.3557
▁[36],	-11.3557
▁considerations	-11.3558
▁segmentation	-11.3561
▁mineral	-11.3567
▁Lymnaea	-11.3568
▁chromatophore	-11.3568
▁revision	-11.3568
▁viscosity	-11.3568
▁labeling	-11.3575
▁dependency	-11.3577
▁episodes	-11.358
▁frames	-11.3582
▁permanent	-11.3583
▁preferential	-11.3583
condition	-11.3584
▁norm	-11.3595
mu	-11.3595
▁instantaneous	-11.3596
▁1970;	-11.3596
▁ligase	-11.3596
▁relating	-11.3596
▁jumps	-11.3599
▁organisation	-11.36
▁30°	-11.36
▁hydro	-11.3602
▁handle	-11.3603
efficient	-11.3608
▁amphibian	-11.3609
▁organelle	-11.3609
hybrid	-11.3611
cili	-11.3614
Par	-11.3614
▁Examples	-11.3622
▁Malpighian	-11.3624
▁captivity	-11.3624
▁illumination	-11.3624
▁mix	-11.3624
▁Mel	-11.3624
▁concurrent	-11.3624
▁obscure	-11.3624
▁resultant	-11.3627
existing	-11.3627
▁adhere	-11.3627
▁53	-11.363
▁identifiable	-11.3635
lm	-11.3636
▁synthesize	-11.3638
complex	-11.364
▁25%	-11.3642
trix	-11.3646
▁Black	-11.3649
▁alcohol	-11.3651
▁resonance	-11.3651
▁scallop	-11.3651
▁unequal	-11.3651
▁blind	-11.3651
▁51	-11.3652
fishes	-11.3652
▁inspection	-11.3653
elia	-11.3656
cen	-11.3662
▁Sec	-11.3664
▁rough	-11.3668
▁Fo	-11.3671
erri	-11.3678
▁glucocorticoid	-11.3679
▁Golgi	-11.3679
▁1973)	-11.3679
▁discern	-11.3681
▁finger	-11.3687
▁Somero	-11.369
chl	-11.369
▁TB	-11.3692
Graham	-11.3693
organism	-11.3697
▁spinal	-11.3697
conserved	-11.3697
▁reconstructing	-11.3703
▁therapies	-11.3707
▁endoderm	-11.3708
▁epistatic	-11.3708
▁[44,	-11.3709
mma	-11.3709
Glu	-11.371
▁settle	-11.3711
▁Later	-11.3712
▁Neuro	-11.3713
omo	-11.3716
▁hummingbirds	-11.3721
▁salamanders	-11.3724
▁trailing	-11.3728
▁[12	-11.3729
▁stated	-11.373
▁cassette	-11.3735
▁lysozyme	-11.3735
▁aversive	-11.3735
lim	-11.3738
▁Macro	-11.374
jun	-11.3742
▁1.2	-11.3743
▁degraded	-11.3744
▁Lastly	-11.3745
▁55]	-11.3746
▁Cho	-11.3746
normal	-11.3751
Wilson	-11.3751
▁ρ	-11.3751
4°	-11.3752
ibb	-11.3755
lau	-11.3758
▁arbitrary	-11.3763
▁epistasis	-11.3763
▁laevis	-11.3763
▁valley	-11.3763
▁huge	-11.3763
▁aware	-11.3764
▁deviate	-11.3764
▁helpful	-11.3768
▁ultra	-11.377
region	-11.3772
▁visually	-11.3772
▁PHA	-11.3772
opus	-11.3775
▁concert	-11.3775
▁lobsters	-11.3776
▁53]	-11.3777
▁lobster	-11.3778
trivial	-11.3779
No	-11.378
▁cation	-11.3783
amo	-11.3786
▁IFN	-11.3788
▁phylo	-11.3789
Wood	-11.3789
▁medicine	-11.3791
▁peculiar	-11.3791
▁subtilis	-11.3791
▁silent	-11.3791
▁firing	-11.3792
cad	-11.3793
viral	-11.3795
▁70%	-11.3796
▁enlarged	-11.3796
▁recognised	-11.3798
▁180	-11.3799
▁intestinalis	-11.3802
▁impair	-11.3802
▁carefully	-11.3804
rove	-11.3804
▁monitoring	-11.3811
50%	-11.3812
▁anal	-11.3812
▁laying	-11.3813
▁OS	-11.3814
▁interpretations	-11.382
▁phylogeography	-11.382
▁abstract	-11.382
▁ablation	-11.382
<0.001	-11.382
scribed	-11.3822
▁attractiveness	-11.3823
▁predatory	-11.3828
▁serial	-11.3829
▁bell	-11.3831
▁diminish	-11.3832
▁presentation	-11.3833
inflammatory	-11.3836
geographic	-11.3836
▁amplitudes	-11.3837
▁solved	-11.3841
▁mega	-11.3841
EX	-11.3843
▁interpreting	-11.3843
Rh	-11.3846
▁mesenchymal	-11.3848
▁defend	-11.3848
▁Time	-11.3853
both	-11.3854
▁scaled	-11.3858
▁replace	-11.3862
▁ESTs	-11.3863
▁inducible	-11.3865
tica	-11.3866
▁acyl	-11.3868
▁57	-11.3873
▁swelling	-11.3876
▁returned	-11.3877
▁inverted	-11.3877
DV	-11.3877
▁coincide	-11.3877
RING	-11.3878
lean	-11.3879
▁excessive	-11.3881
▁Subsequently	-11.3886
▁distinguishing	-11.3888
▁degenerate	-11.3888
▁antigenic	-11.3889
▁φ	-11.3891
variable	-11.3897
▁GRF	-11.39
▁AU	-11.3903
▁edit	-11.3905
▁1967;	-11.3905
▁outbreak	-11.3905
▁mechanosensory	-11.3905
▁imbalance	-11.3905
▁hypertrophy	-11.3906
0.05	-11.3907
ules	-11.3912
▁breath	-11.3914
▁depict	-11.3918
SO	-11.3921
PPI	-11.3921
▁dealing	-11.3921
phosphorylation	-11.3922
temporal	-11.3922
▁survived	-11.3923
▁collect	-11.3924
ison	-11.3926
▁STAT	-11.3926
▁anion	-11.393
place	-11.393
▁apoptotic	-11.3931
▁Iso	-11.3931
▁relates	-11.3933
theria	-11.3936
▁tea	-11.3939
▁19,	-11.3939
core	-11.3943
rmoregulatory	-11.3943
▁horn	-11.3949
▁pollinators	-11.395
▁horses	-11.395
mura	-11.395
▁careful	-11.3951
▁continent	-11.3952
▁pea	-11.3953
▁foundation	-11.3961
▁burden	-11.3962
▁musculus	-11.3962
▁porpoise	-11.3962
▁Relative	-11.3962
▁methodologies	-11.3962
▁virgin	-11.3962
▁favorable	-11.3968
▁compensated	-11.397
▁blocking	-11.397
tional	-11.3971
▁lowered	-11.3971
▁excluding	-11.3972
2.5	-11.3976
▁char	-11.398
▁oocyte	-11.3982
▁nutrition	-11.3985
Ta	-11.3987
▁angiogenesis	-11.3991
▁[1–4]	-11.3991
▁Up	-11.3991
illo	-11.3994
cott	-11.3996
▁hybridisation	-11.3997
▁molar	-11.4
▁panels	-11.4
▁neighbouring	-11.4005
▁Gi	-11.4005
▁deposited	-11.4006
▁protocols	-11.4008
coil	-11.4011
▁Bel	-11.4013
▁Materials	-11.402
▁agricultural	-11.402
▁implicit	-11.402
▁shelter	-11.402
▁[74]	-11.402
▁downstroke	-11.402
▁granulo	-11.4022
▁hepatocytes	-11.4026
−2	-11.403
▁Oct	-11.4031
Per	-11.4036
▁contents	-11.4037
egg	-11.4038
▁proline	-11.4039
hara	-11.4039
poly	-11.4044
kar	-11.4048
▁Ec	-11.4048
▁proboscis	-11.4049
▁surviving	-11.4049
▁completed	-11.4052
fecting	-11.4052
▁setup	-11.4055
bacteria	-11.4058
bird	-11.4059
▁[58]	-11.406
▁scattered	-11.4062
▁kill	-11.4062
▁underestimate	-11.4064
▁Cry	-11.4065
cp	-11.4067
▁responds	-11.4067
▁magn	-11.4067
▁counts	-11.407
▁Net	-11.4075
▁breed	-11.4076
▁Taiwan	-11.4078
▁buoyancy	-11.4078
▁vegetative	-11.4078
▁productivity	-11.4079
rew	-11.4079
▁backgrounds	-11.4082
▁parasitoids	-11.4082
how	-11.4083
tropical	-11.4093
▁Nme	-11.4094
plasma	-11.4102
▁defect	-11.4103
▁≤	-11.4105
▁ciliate	-11.4106
migrant	-11.4106
▁centromere	-11.4107
▁contralateral	-11.4107
▁dissipation	-11.4107
▁introducing	-11.4107
▁prerequisite	-11.4107
nec	-11.4107
▁dimorphic	-11.4109
▁retrieved	-11.4112
▁Mountains	-11.4116
▁Mur	-11.4117
▁Hypo	-11.4117
rom	-11.4118
nucleotide	-11.4124
▁androgen	-11.4126
▁hundred	-11.4127
pathogen	-11.4128
▁osteo	-11.4129
▁58	-11.4133
▁fracture	-11.4136
▁reservoir	-11.4136
▁[4–6]	-11.4136
▁Neotropical	-11.4136
▁[46,	-11.4137
▁bony	-11.414
under	-11.4141
▁oscillator	-11.415
▁happened	-11.4151
NI	-11.4151
▁grade	-11.4151
▁CAT	-11.4151
▁Pseudo	-11.4151
▁Basin	-11.4153
http	-11.4154
resistant	-11.4154
▁reflection	-11.4155
▁phago	-11.4156
▁cnidarian	-11.4156
exp	-11.4158
▁monitor	-11.4158
▁cup	-11.4159
▁Zn	-11.4159
turn	-11.416
▁ribo	-11.4161
rill	-11.4161
▁exceptional	-11.4162
arn	-11.4162
▁57]	-11.4162
▁fission	-11.4165
▁irradiance	-11.4165
▁odontocete	-11.4165
▁simplicity	-11.4165
caught	-11.4165
_{	-11.4166
stem	-11.4171
▁palm	-11.4172
case	-11.4179
6°	-11.4184
Cas	-11.4185
0=	-11.4192
▁Sand	-11.4192
acanth	-11.4193
▁Caribbean	-11.4194
▁analysing	-11.4194
aldehyde	-11.4194
▁mesoderm	-11.4194
▁bimodal	-11.4195
▁FL	-11.4197
pterus	-11.42
▁invade	-11.42
3°	-11.4204
▁PCO	-11.4205
ogram	-11.4207
▁moderately	-11.4208
▁setae	-11.4209
rav	-11.421
effect	-11.4212
▁Will	-11.4217
▁served	-11.422
nid	-11.4221
▁coat	-11.4221
idase	-11.4222
▁obscur	-11.4223
▁dissociation	-11.4224
▁elusive	-11.4224
▁immature	-11.4224
▁science	-11.4224
arrow	-11.4224
▁chemosensory	-11.4224
▁glyco	-11.4225
▁[45,	-11.423
ortic	-11.4231
fast	-11.4234
▁directionality	-11.4234
▁Vir	-11.4238
dip	-11.4239
1–3	-11.4243
fused	-11.4246
▁quasi	-11.4253
▁aforementioned	-11.4253
▁benchmark	-11.4253
▁stringent	-11.4253
▁autosomes	-11.4253
▁[76]	-11.4253
▁neuromuscular	-11.4254
▁mitosis	-11.4254
▁roll	-11.4254
▁triploid	-11.4255
▁multilocus	-11.4256
▁compositional	-11.4259
▁want	-11.4259
▁ticks	-11.4265
▁coll	-11.4267
▁salmonids	-11.427
▁depicted	-11.427
▁diminished	-11.427
▁proteases	-11.4272
gated	-11.4274
AST	-11.4282
▁assortative	-11.4283
▁camouflage	-11.4283
▁drought	-11.4283
▁endosymbiotic	-11.4283
▁deleted	-11.4283
Collett	-11.4283
▁HEA	-11.4285
front	-11.4285
▁flex	-11.4287
▁echo	-11.4291
▁66	-11.4292
▁biogeographical	-11.4294
▁reinforce	-11.4297
▁postulate	-11.4299
▁multigene	-11.4299
▁entrain	-11.4301
▁crops	-11.4301
▁charged	-11.4302
▁compromised	-11.4305
shore	-11.4305
▁250	-11.4305
▁exceptionally	-11.4307
▁relying	-11.4307
▁tentacles	-11.431
▁calculating	-11.4313
▁transposable	-11.4313
inositol	-11.4313
▁spectrometry	-11.4313
▁glide	-11.4316
aaaaa	-11.4317
▁zoo	-11.4318
▁alters	-11.4321
▁infra	-11.4323
▁train	-11.4324
▁inertia	-11.4329
ω	-11.4332
▁1986)	-11.4332
▁conflicts	-11.4336
▁APC	-11.4337
▁polarized	-11.4345
▁encompass	-11.4347
▁fused	-11.4347
▁ADP	-11.4348
▁spine	-11.4348
▁Gra	-11.435
▁indicators	-11.4352
▁integrin	-11.4353
▁plastids	-11.4357
▁NLR	-11.4365
▁debated	-11.4367
groups	-11.4368
ostoma	-11.437
▁lobes	-11.4372
supervised	-11.4373
▁transformed	-11.438
▁curation	-11.4383
▁rot	-11.4386
▁Stra	-11.4387
▁designated	-11.4387
▁ranged	-11.4388
sequence	-11.4391
▁60%	-11.4397
▁biogeography	-11.4402
▁reticulum	-11.4402
▁NKCC	-11.4402
facial	-11.4403
▁Database	-11.4403
▁turned	-11.4406
▁Bass	-11.4408
▁versions	-11.4408
▁Act	-11.4415
carboxyl	-11.4415
▁divide	-11.4418
▁screens	-11.4421
closed	-11.4423
environment	-11.4429
▁MF	-11.443
▁views	-11.4431
awn	-11.4432
▁Jurassic	-11.4432
▁bHLH	-11.4432
▁simplification	-11.4432
▁NECs	-11.4433
▁TRIM	-11.4433
▁κ	-11.4435
▁Nan	-11.4437
▁Test	-11.4437
▁Heli	-11.4439
▁58]	-11.4441
▁Males	-11.4442
▁List	-11.4447
▁searched	-11.4448
▁PKA	-11.4448
▁Kiss	-11.445
▁mixtures	-11.4451
▁ranking	-11.4451
▁permits	-11.4453
stranded	-11.4456
ophilus	-11.4459
▁28]	-11.446
▁drastic	-11.446
▁polyphyletic	-11.4462
▁vulnerable	-11.4462
▁backcross	-11.4463
ctus	-11.4466
▁chill	-11.4469
▁Smad	-11.4475
▁manipulate	-11.4479
▁59	-11.4479
▁predictable	-11.448
▁sweeps	-11.4485
culus	-11.4489
▁satellite	-11.4491
metric	-11.4491
▁Alaska	-11.4492
▁migrating	-11.4492
▁potato	-11.4492
▁iteration	-11.4494
LI	-11.4495
logy	-11.4495
thus	-11.4502
taxis	-11.4504
▁Johnston	-11.4507
▁exit	-11.4511
▁lay	-11.4512
▁COX	-11.4516
▁cockroach	-11.4517
▁corroborated	-11.4518
hat	-11.4521
▁mark	-11.4522
▁Pathway	-11.4523
▁Evolutionary	-11.4523
▁countries	-11.4523
▁firm	-11.4523
change	-11.4524
▁dictate	-11.4526
encoding	-11.4533
▁GPCRs	-11.4534
▁FOX	-11.454
hall	-11.4543
growth	-11.4544
▁oligo	-11.4544
▁keratin	-11.4547
▁Tyr	-11.4548
grad	-11.455
▁overestimate	-11.4552
▁arrival	-11.4553
▁concordant	-11.4553
▁clues	-11.4553
▁abolish	-11.4553
▁spermatozoa	-11.4553
▁pain	-11.4556
▁deduced	-11.4559
▁rerio	-11.456
▁afferents	-11.457
stance	-11.4578
Cha	-11.4579
▁follicle	-11.4584
▁heuristic	-11.4584
▁succinate	-11.4584
▁bugs	-11.4584
▁salivary	-11.4585
▁drastically	-11.4586
▁Taking	-11.4586
▁filamentous	-11.4587
▁Small	-11.4587
▁consisted	-11.459
▁exchanger	-11.459
▁speculated	-11.459
400	-11.4595
Bu	-11.4597
zero	-11.4597
gastr	-11.4604
3.1	-11.4607
ister	-11.4612
▁Metabolic	-11.4614
▁fidelity	-11.4614
▁leptin	-11.4614
▁periphery	-11.4614
▁[47,	-11.4615
▁Those	-11.4617
▁disturbances	-11.4618
▁rhodopsin	-11.4621
gaard	-11.4623
▁nucle	-11.4627
ecta	-11.4628
▁intronic	-11.4629
anthus	-11.4632
▁sheet	-11.4632
optimal	-11.4633
▁gametes	-11.4638
▁satisfy	-11.4645
▁mori	-11.4645
▁expense	-11.4645
trial	-11.4646
▁uninfected	-11.4648
agon	-11.4649
▁pumping	-11.4653
▁Carlo	-11.4655
▁Prim	-11.4656
▁25°	-11.466
prey	-11.4661
▁critically	-11.4662
▁MH	-11.4662
▁novelty	-11.4664
130	-11.4666
number	-11.4667
▁sensors	-11.4673
▁applicability	-11.4676
▁deficit	-11.4676
▁ecdysteroid	-11.4676
▁syntenic	-11.4676
▁pulex	-11.4676
▁anemone	-11.4676
▁medical	-11.4676
▁garden	-11.4676
▁59]	-11.4677
▁theories	-11.4679
▁Anderson	-11.4679
▁cats	-11.4689
idine	-11.4692
▁maternally	-11.4692
▁Hel	-11.4701
▁seasons	-11.4702
▁basins	-11.4704
ophytes	-11.4705
series	-11.4705
▁gravi	-11.4706
▁leatherback	-11.4707
▁ligament	-11.4707
▁misleading	-11.4707
▁territory	-11.4707
▁reproducing	-11.4713
▁unusually	-11.4715
tella	-11.4716
Pi	-11.4717
▁RBC	-11.4717
▁ruled	-11.4719
▁colonize	-11.4725
▁ultimate	-11.4725
rmoregulation	-11.4727
compatible	-11.4729
▁evolves	-11.473
▁var	-11.4731
adult	-11.4733
▁independence	-11.4735
▁convincing	-11.4738
▁enormous	-11.4738
▁nitrite	-11.4738
▁simulans	-11.4738
▁connective	-11.474
ault	-11.474
▁natal	-11.4741
▁LTR	-11.4752
Prot	-11.4752
▁Ben	-11.4756
▁Values	-11.4769
▁conceivable	-11.4769
▁contributor	-11.4769
▁substitute	-11.4769
▁emitted	-11.4769
pping	-11.4775
Walker	-11.4777
▁Far	-11.4783
▁disorder	-11.4785
▁sink	-11.4785
▁perceive	-11.4786
▁hypothesised	-11.4787
▁objectives	-11.479
formed	-11.4791
except	-11.4793
relative	-11.4793
▁~2	-11.4796
▁Cys	-11.4798
▁amplify	-11.48
▁cultivation	-11.48
phagous	-11.48
▁Arctic	-11.4801
▁1.1	-11.4802
▁proof	-11.4809
finned	-11.481
ophila	-11.4812
cir	-11.4813
tetra	-11.4815
▁entail	-11.4815
▁Sym	-11.4822
▁continuum	-11.4831
▁disulfide	-11.4831
▁epidemic	-11.4831
▁pufferfish	-11.4831
▁stimulating	-11.4831
▁CES	-11.4831
▁buffering	-11.4831
▁formalism	-11.4832
▁coincident	-11.4833
UP	-11.484
▁interconnected	-11.484
▁ranked	-11.4841
▁resident	-11.4846
▁chordates	-11.4848
▁Exp	-11.4849
infection	-11.4854
neutral	-11.4854
▁paradox	-11.4861
▁discordance	-11.4862
▁minimizing	-11.4862
▁rescue	-11.4862
▁lengthening	-11.4863
▁homologue	-11.4863
▁glass	-11.4864
▁dynamically	-11.4864
▁coexistence	-11.4864
▁chitin	-11.4865
▁raw	-11.4874
▁persisted	-11.4876
▁5]	-11.4879
▁Bor	-11.4884
Mu	-11.4885
enzyme	-11.4885
stoma	-11.4886
▁colours	-11.4892
▁granules	-11.4892
▁arrangements	-11.4893
–30	-11.4894
threonine	-11.4894
▁1969;	-11.4894
▁asymptotic	-11.4894
▁coalescence	-11.4894
▁crowding	-11.4894
▁musculoskeletal	-11.4894
▁simulating	-11.4894
▁truly	-11.4894
▁prompt	-11.4894
▁scanning	-11.4895
▁odors	-11.4897
▁Coast	-11.4898
▁PRR	-11.4904
going	-11.4905
▁vessels	-11.4905
▁bilaterian	-11.4905
▁deposit	-11.4906
▁governed	-11.4908
▁1999	-11.4911
▁cavefish	-11.4912
▁governing	-11.4912
1.5	-11.4916
0.9	-11.4916
▁Thr	-11.4926
▁COG	-11.4927
▁seminal	-11.4927
▁Still	-11.4935
▁spreading	-11.4945
▁52	-11.4947
adaptation	-11.4949
▁budget	-11.4957
▁superoxide	-11.4957
▁trehalose	-11.4957
▁Factor	-11.4957
▁vocalizations	-11.4957
▁subpopulations	-11.4957
▁hatchlings	-11.4957
▁moult	-11.4958
ography	-11.4958
rost	-11.4962
▁shifting	-11.4962
▁latent	-11.4965
▁pet	-11.4966
▁spiny	-11.4967
Wei	-11.4967
▁Clark	-11.4968
▁filters	-11.4969
▁fertile	-11.4973
ench	-11.4973
▁batch	-11.4976
lower	-11.4977
▁USA	-11.4984
▁gate	-11.4989
▁epidermis	-11.4989
▁preceding	-11.4989
▁frond	-11.4989
▁[77]	-11.4989
▁entity	-11.4989
▁harmonic	-11.4989
▁configurations	-11.4989
▁appendage	-11.499
▁von	-11.4991
▁conditioned	-11.4993
▁defences	-11.4994
▁PPP	-11.4995
beta	-11.4996
▁cnidarians	-11.4998
▁4:	-11.4998
▁conformational	-11.5005
▁gram	-11.5007
▁restore	-11.501
▁atrophy	-11.5012
▁descending	-11.5014
▁Bru	-11.5016
▁abrupt	-11.5021
▁cumulative	-11.5021
▁Simulation	-11.5021
phal	-11.5025
stable	-11.5025
▁pathogenicity	-11.5027
cardi	-11.5029
bodied	-11.5031
oro	-11.5032
▁collectively	-11.5033
▁cp	-11.5034
0.7	-11.5035
▁updated	-11.5039
▁deeply	-11.504
essential	-11.5045
120	-11.5048
▁Lind	-11.505
uda	-11.505
▁sky	-11.5052
▁hemoglobin	-11.5052
▁rbcL	-11.5052
▁reprogramming	-11.5052
▁Metazoa	-11.5053
▁suggestive	-11.5054
▁orchid	-11.5054
▁situated	-11.5056
intron	-11.506
▁locomotory	-11.5062
▁adds	-11.5062
▁mill	-11.5062
▁conifer	-11.5064
▁tens	-11.5067
▁Bay	-11.5068
ender	-11.5069
▁corrected	-11.5072
assa	-11.5073
synaptic	-11.5075
growing	-11.5077
animal	-11.5077
▁DGC	-11.5082
▁190	-11.5084
3−	-11.5084
▁concordance	-11.5085
▁dwarf	-11.5085
▁plesiomorphic	-11.5085
▁saccade	-11.5085
▁annelid	-11.5087
moto	-11.5097
▁Male	-11.5098
▁breathing	-11.51
▁nM	-11.5102
▁happen	-11.5104
▁pip	-11.5104
▁collective	-11.5106
infected	-11.5106
▁gastropods	-11.5106
▁24]	-11.5108
established	-11.5114
▁uplift	-11.5117
▁proposal	-11.5117
▁voluntary	-11.5117
▁allosteric	-11.5117
▁implied	-11.5117
▁spotted	-11.5118
strand	-11.5118
▁pupae	-11.5118
▁Kar	-11.5119
▁Without	-11.5123
▁formulated	-11.5124
Hammond	-11.5134
▁Chloro	-11.5134
▁underestimated	-11.5135
work	-11.5136
▁quick	-11.5137
ello	-11.5137
gluco	-11.5137
For	-11.5143
▁deuterostomes	-11.5145
▁fulfill	-11.5148
▁vibrations	-11.5149
syllable	-11.5149
mimetic	-11.5149
▁[48,	-11.515
teen	-11.515
▁protected	-11.5162
▁Lim	-11.5164
▁strikingly	-11.5164
flagell	-11.5166
troch	-11.5166
fall	-11.5167
▁spot	-11.5167
ILP	-11.5168
▁sprint	-11.5172
course	-11.5174
average	-11.5175
▁rational	-11.5177
▁tribes	-11.5178
▁truncated	-11.5181
▁unidirectional	-11.5181
▁myoglobin	-11.5182
▁terrain	-11.5182
▁formula	-11.5183
▁gross	-11.5183
▁marks	-11.5186
▁darkness	-11.5188
▁sediments	-11.5188
▁entering	-11.519
▁TOR	-11.5192
▁Gil	-11.5194
azo	-11.5197
At	-11.5198
ien	-11.5199
uchi	-11.5202
Bennet	-11.5204
▁constitutively	-11.5204
▁parametric	-11.5207
▁folds	-11.5212
▁decapod	-11.5214
▁Aedes	-11.5215
▁refined	-11.5225
▁goals	-11.5227
▁hour	-11.5235
▁antibiotics	-11.5236
▁clines	-11.5237
▁Sun	-11.5238
▁spikes	-11.5238
generating	-11.5239
Myc	-11.5241
UV	-11.5243
▁manifest	-11.5245
▁localize	-11.5245
▁ascertain	-11.5246
▁Analyse	-11.5246
▁Ontology	-11.5246
▁Regarding	-11.5246
▁breadth	-11.5246
▁excursion	-11.5246
▁reinhardtii	-11.5246
▁[5–7]	-11.5246
▁[2–4]	-11.5246
raft	-11.5251
Mat	-11.5253
mont	-11.5253
▁UTR	-11.5254
lack	-11.5256
▁deliver	-11.5256
▁realized	-11.5257
▁summarized	-11.5259
▁pond	-11.526
▁Kim	-11.5261
elle	-11.5265
▁recall	-11.5265
NAT	-11.5266
ventral	-11.5273
▁divers	-11.5273
▁saturated	-11.5275
▁Lam	-11.5275
clusive	-11.5277
▁%)	-11.5277
▁briggsae	-11.5279
▁tactile	-11.5279
▁varieties	-11.5279
▁blade	-11.5279
▁Dlx	-11.5279
▁synchronization	-11.5281
▁wa	-11.5281
▁pivotal	-11.5284
inia	-11.5285
▁bow	-11.5285
stigma	-11.5298
▁Val	-11.5302
▁Pörtner	-11.5304
λ	-11.5305
idea	-11.5309
forward	-11.5311
▁simplify	-11.5312
▁cohort	-11.5312
▁fifth	-11.5312
▁transplant	-11.5315
▁degeneration	-11.5316
▁kya	-11.5316
▁surveyed	-11.5318
▁flagellar	-11.5318
▁46].	-11.5324
▁continents	-11.5325
▁GE	-11.5327
▁representations	-11.5328
▁depleted	-11.533
▁Webb	-11.533
▁absorbed	-11.5335
muscle	-11.5338
genesis	-11.5339
▁offered	-11.5341
lectin	-11.5344
▁1%	-11.5344
gastrointestinal	-11.5345
▁incipient	-11.5345
▁observable	-11.5345
twitch	-11.5345
▁isotopic	-11.5345
▁Jayne	-11.5345
acyl	-11.5348
▁mimicry	-11.5348
▁lamellae	-11.5351
omonas	-11.5354
En	-11.536
▁Muller	-11.5361
▁Berg	-11.5363
▁accordingly	-11.5363
1.0	-11.5364
aya	-11.5367
raw	-11.537
membrane	-11.537
▁publicly	-11.5371
▁95	-11.5373
Green	-11.5375
▁aberrant	-11.5378
▁serotonergic	-11.5378
▁ventilatory	-11.5378
Linnaeus	-11.5378
▁Arabian	-11.5378
perturb	-11.5379
eger	-11.538
▁reasonably	-11.538
▁deflection	-11.538
▁favourable	-11.5383
▁68	-11.5385
ticus	-11.5391
trophy	-11.5392
▁artificially	-11.5394
▁couple	-11.5397
▁VI	-11.5401
▁EL	-11.5405
▁faced	-11.5405
than	-11.5411
▁Morphological	-11.5411
▁Zealand	-11.5411
▁choosing	-11.5411
▁naïve	-11.5411
▁facing	-11.5411
ogon	-11.5413
▁MIR	-11.5413
▁overview	-11.5415
▁ORFs	-11.5419
tle	-11.5419
▁Lower	-11.5425
▁stereo	-11.5428
▁plantar	-11.5429
arian	-11.543
▁elevations	-11.5436
▁calibrated	-11.5438
kawa	-11.5439
HCO	-11.544
beat	-11.5443
▁methionine	-11.5444
▁parthenogenesis	-11.5444
▁[3–5]	-11.5444
▁invariant	-11.5444
▁tracer	-11.5444
▁Direct	-11.5445
▁tRNase	-11.5446
▁projections	-11.5446
▁postglacial	-11.5447
▁demanding	-11.5447
▁heme	-11.5454
▁locality	-11.5455
▁1998	-11.5461
▁UT	-11.5462
▁Multi	-11.5463
round	-11.5466
▁Hart	-11.5468
amy	-11.5469
GAP	-11.5469
heim	-11.547
disease	-11.5471
space	-11.5475
odo	-11.5477
▁CRISPR	-11.5477
▁Research	-11.5477
▁endemism	-11.5477
▁synchrony	-11.5477
▁1970)	-11.5478
▁empirically	-11.5478
▁ecotypes	-11.5478
▁Crypt	-11.5479
east	-11.5483
SSR	-11.5483
▁glob	-11.5483
▁Mer	-11.5486
placing	-11.5489
▁carboxy	-11.5497
▁bumblebees	-11.5498
▁spec	-11.55
4.5	-11.5502
Chen	-11.5506
▁polyp	-11.5506
▁Land	-11.5506
▁subclades	-11.5508
▁ommatidia	-11.5511
}}	-11.5512
▁61]	-11.5514
▁motivated	-11.5517
▁herbivores	-11.552
▁Gen	-11.5526
▁pol	-11.5529
fusion	-11.554
epi	-11.5543
=5	-11.5544
▁gymnosperm	-11.5544
▁disequilibrium	-11.5545
▁Italy	-11.5546
etter	-11.555
▁modifying	-11.5552
validation	-11.5554
▁statistic	-11.5558
▁flank	-11.5559
▁suspected	-11.556
▁closing	-11.5563
▁Any	-11.5563
▁flora	-11.5564
▁grows	-11.5564
▁Information	-11.5565
▁Much	-11.5567
▁π	-11.5568
hem	-11.557
Taylor	-11.5572
lipid	-11.5576
▁aestivation	-11.5578
▁sativa	-11.5578
▁relied	-11.5578
▁delineate	-11.5579
erry	-11.5579
▁chirp	-11.5579
▁Eq	-11.558
▁draft	-11.558
gaart	-11.558
▁germline	-11.5581
▁subtropical	-11.5581
▁disruptive	-11.5581
▁creation	-11.5583
▁79	-11.5583
▁spliced	-11.5583
▁phenotypically	-11.5584
▁emerges	-11.5584
▁ref	-11.5589
▁rps	-11.5591
▁domesticus	-11.5593
▁attach	-11.5593
–40	-11.5593
▁monocots	-11.5595
▁Farrell	-11.56
▁ε	-11.5601
Ku	-11.5607
meth	-11.5608
▁robustly	-11.5609
▁96	-11.5611
▁throughput	-11.5611
▁bleaching	-11.5612
▁metastasis	-11.5612
▁octopamine	-11.5612
▁temporary	-11.5612
▁insecticide	-11.5612
▁convey	-11.5613
▁metabolically	-11.5614
▁Alps	-11.5617
▁moss	-11.5617
▁ventricular	-11.5621
▁outlined	-11.5621
▁unambiguously	-11.5622
▁bend	-11.5627
bacterium	-11.563
▁swimmers	-11.5631
▁triggering	-11.5634
source	-11.5637
wind	-11.5639
+]	-11.564
▁64	-11.5642
▁allozyme	-11.5646
▁disparate	-11.5646
▁heritability	-11.5646
▁heterozygous	-11.5646
▁territories	-11.5646
▁secondarily	-11.5646
▁supra	-11.5646
▁1967)	-11.5646
▁mitogenome	-11.5649
▁[51,	-11.565
1-2	-11.5651
▁GRNs	-11.5653
▁gel	-11.5655
▁stressor	-11.5655
▁Animals	-11.5657
▁ROM	-11.5657
▁ignored	-11.5658
▁—	-11.5658
rip	-11.5662
▁SCN	-11.5666
▁Schmidt	-11.5671
transport	-11.5675
▁attenuation	-11.568
▁hibernating	-11.568
▁histological	-11.568
▁luminal	-11.568
▁rainforest	-11.568
▁[7–9]	-11.568
▁cloning	-11.568
cord	-11.568
▁Mitochondrial	-11.5681
▁dental	-11.5682
▁derivatives	-11.5682
def	-11.5682
eva	-11.5687
▁pit	-11.5689
hawk	-11.5694
▁caveat	-11.5698
house	-11.5698
▁3.5	-11.5703
▁adequately	-11.5703
current	-11.5703
▁testes	-11.5703
▁collecting	-11.5704
▁rounds	-11.5708
▁shoulder	-11.5711
·	-11.5714
▁modulus	-11.5714
▁necessity	-11.5714
▁tryptophan	-11.5714
▁uncertainties	-11.5714
▁guard	-11.5714
▁TG	-11.5721
▁avoided	-11.5722
tax	-11.5724
▁recogniz	-11.5726
itter	-11.573
West	-11.5733
▁bin	-11.5734
▁stochasticity	-11.5735
segment	-11.5743
=10	-11.5747
▁Diamond	-11.5748
▁unpredictable	-11.5748
▁Selection	-11.5749
rest	-11.575
▁lot	-11.5751
▁leucine	-11.5751
Hill	-11.5759
700	-11.5765
▁collections	-11.5767
▁spines	-11.5769
▁fight	-11.577
supplementary	-11.5777
phenotype	-11.5777
cancer	-11.578
▁Brazil	-11.5781
▁mangrove	-11.5783
▁nitrate	-11.5783
▁recycling	-11.5783
▁silence	-11.5783
▁0.02	-11.5783
▁coarse	-11.5783
▁contradictory	-11.5783
▁innovations	-11.5785
▁barb	-11.5787
exon	-11.5788
▁LG	-11.5788
▁harm	-11.579
▁oscillators	-11.5793
▁copper	-11.5794
▁warrant	-11.5801
▁mention	-11.5803
▁publication	-11.5803
▁62]	-11.5803
▁Yu	-11.5804
▁ERV	-11.5805
ellus	-11.5806
white	-11.5812
selective	-11.5812
first	-11.5812
frame	-11.5812
▁atmospheric	-11.5817
▁Comparing	-11.5817
▁alternating	-11.5817
▁backbone	-11.5817
▁sheath	-11.5817
▁Rhcg	-11.5817
▁Hemisphere	-11.5817
▁blend	-11.5817
▁methanol	-11.5818
erial	-11.5818
▁pipiens	-11.5819
▁stressed	-11.5819
sensitivity	-11.582
Danio	-11.5822
▁hamsters	-11.5823
glu	-11.5828
EST	-11.5831
▁thoroughly	-11.5833
▁bivalves	-11.5838
▁neutrality	-11.5839
▁dissimilar	-11.585
▁squamate	-11.5852
▁sinensis	-11.5852
▁harmful	-11.5852
Dawson	-11.5852
▁MSV	-11.5863
▁predate	-11.5865
▁Out	-11.5865
▁clean	-11.5865
▁hint	-11.5873
▁bout	-11.5884
▁PER	-11.5885
▁govern	-11.5885
▁cerebral	-11.5886
▁sapiens	-11.5886
▁wheel	-11.5886
▁passage	-11.5888
▁0.001	-11.5889
▁[14	-11.589
▁PDE	-11.5893
1°	-11.5899
▁volatiles	-11.59
▁precipitation	-11.5902
▁suspect	-11.5905
force	-11.5907
▁inversely	-11.5908
▁(‘	-11.5908
▁undergoes	-11.5909
▁1.3	-11.5916
▁synonym	-11.5919
▁industrial	-11.5921
▁remnant	-11.5921
▁solving	-11.5921
▁60]	-11.5922
▁cent	-11.5929
Alexander	-11.5951
labeled	-11.5951
▁ECM	-11.5951
▁consuming	-11.5955
rem	-11.5955
▁ectoderm	-11.5956
▁exoskeleton	-11.5956
▁[78]	-11.5956
▁Prior	-11.5956
▁attribute	-11.5957
▁tank	-11.5957
▁[50,	-11.5958
▁33]	-11.5959
▁lethality	-11.5963
▁exploitation	-11.5966
ometry	-11.5971
▁hemocytes	-11.5971
=4	-11.5985
deficient	-11.5986
degree	-11.5986
hormone	-11.5986
▁CHH	-11.5987
Brown	-11.5987
▁nt	-11.5987
ratio	-11.599
▁adulthood	-11.5991
▁excitatory	-11.5991
▁loose	-11.5994
tRNA	-11.5996
▁sonar	-11.5999
▁MIP	-11.6004
Van	-11.6005
▁polymer	-11.6005
▁Moore	-11.6008
▁°	-11.6011
▁streams	-11.6012
early	-11.6018
▁soma	-11.6021
▁enhancers	-11.6022
vector	-11.6023
▁ammonium	-11.6026
▁homogeneity	-11.6026
▁thyroid	-11.6026
▁1966;	-11.6026
▁severity	-11.6026
▁bream	-11.6026
▁Italian	-11.6027
▁excitation	-11.6027
▁migrants	-11.6027
▁Upon	-11.6035
▁leader	-11.6036
gust	-11.6044
▁playing	-11.6044
▁impede	-11.6044
scens	-11.6047
element	-11.6052
▁Cdc	-11.6053
▁breaking	-11.6054
ado	-11.6056
▁endonuclease	-11.6062
▁Gondwana	-11.6062
▁Various	-11.6062
▁grasp	-11.6062
▁hopping	-11.6062
▁epitope	-11.6062
▁[79]	-11.6062
▁housekeeping	-11.6062
▁[49,	-11.6062
▁ease	-11.6063
▁63]	-11.6066
kinase	-11.6067
map	-11.6068
motion	-11.6074
▁supplement	-11.6076
▁provision	-11.6077
Stevens	-11.6078
zer	-11.6087
▁scler	-11.6092
▁spots	-11.6094
▁annelids	-11.6094
▁exceeding	-11.6094
▁capillary	-11.6097
▁compliant	-11.6097
▁obesity	-11.6097
▁remodelling	-11.6097
▁deserve	-11.6097
ORF	-11.6098
▁bistable	-11.6098
▁stalk	-11.6107
▁neglected	-11.611
▁Wainwright	-11.6111
▁Zhang	-11.6116
▁corresponded	-11.6119
▁gar	-11.612
▁AOX	-11.6122
Roberts	-11.6129
MAPK	-11.6129
▁\	-11.6131
Tobalske	-11.6133
▁Nematostella	-11.6133
▁mutagenesis	-11.6133
▁oxide	-11.6133
▁slip	-11.6138
▁NW	-11.6139
iella	-11.6139
▁helices	-11.6145
▁chordate	-11.6146
▁fundamentally	-11.6147
wo	-11.6155
▁reefs	-11.6163
▁lamina	-11.6163
▁Trp	-11.6167
‰	-11.6169
▁grasshopper	-11.6169
▁mammary	-11.6169
▁reminiscent	-11.6169
▁Cluster	-11.6169
▁ErbB	-11.6169
▁Until	-11.6169
fur	-11.617
▁barcoding	-11.6171
▁incorporates	-11.6172
▁uneven	-11.6173
petal	-11.6174
600	-11.6175
▁Dec	-11.6177
▁alga	-11.618
▁sparrow	-11.6187
▁disappear	-11.6188
▁droplet	-11.6188
▁marking	-11.6193
▁bill	-11.6193
▁impacted	-11.6199
▁hit	-11.62
▁Females	-11.62
▁glaciations	-11.6202
▁Depending	-11.6204
▁frozen	-11.6204
▁guppies	-11.6204
▁heterozygote	-11.6205
very	-11.6206
far	-11.6207
▁chimpanzees	-11.6208
▁rain	-11.6209
year	-11.6211
▁cline	-11.6214
▁lend	-11.6216
▁pupal	-11.6216
▁illustrat	-11.6221
▁Cyp	-11.6225
San	-11.6225
▁claws	-11.6233
through	-11.6236
McDonald	-11.624
▁capturing	-11.624
▁irreversible	-11.624
▁neurite	-11.624
Saharan	-11.624
▁alkaline	-11.624
▁Baltic	-11.624
ozo	-11.6241
▁microhabitat	-11.6241
▁neurogenesis	-11.6241
▁quail	-11.6241
▁polypeptide	-11.6242
▁prioritize	-11.6242
▁playback	-11.6244
▁Cross	-11.6244
▁mandibular	-11.6249
▁decora	-11.6251
▁Strait	-11.6251
dark	-11.6253
▁outward	-11.6257
▁pollination	-11.6259
▁hummingbird	-11.6259
▁summarize	-11.6263
▁Apart	-11.6264
▁publications	-11.6265
cz	-11.6267
Anderson	-11.6273
determined	-11.6273
▁shortly	-11.6276
▁Holocene	-11.6276
▁compelling	-11.6276
▁elbow	-11.6276
▁hallmark	-11.6276
▁ectothermic	-11.6278
compare	-11.6278
▁Section	-11.6279
7.5	-11.628
▁rho	-11.6281
▁Rep	-11.6283
▁competitors	-11.6283
stained	-11.6286
±0.0	-11.6287
▁TRP	-11.6288
▁rocky	-11.629
▁virulent	-11.6291
▁AEP	-11.6291
laying	-11.6292
▁implication	-11.6296
▁protist	-11.6296
▁scatter	-11.6297
▁artifacts	-11.6301
acetyl	-11.6307
▁pHi	-11.6307
posterior	-11.631
▁SOD	-11.631
resolution	-11.631
bill	-11.6311
▁pinniped	-11.6313
▁proximate	-11.6313
▁bidirectional	-11.6314
▁tubes	-11.6316
▁timescale	-11.6317
▁arg	-11.6317
▁labor	-11.6318
▁lectin	-11.6321
▁splitting	-11.6321
mond	-11.6322
▁axons	-11.6323
▁PIP	-11.6326
ocephalus	-11.633
poor	-11.6341
▁races	-11.6344
cqWG	-11.6345
▁Remarkably	-11.6349
▁elucidating	-11.6349
▁intermittent	-11.6349
▁1968;	-11.6349
▁avenue	-11.6349
▁sterile	-11.6349
▁solute	-11.6349
▁remote	-11.6349
▁mitotic	-11.635
▁alanine	-11.6351
▁typ	-11.6358
▁momentum	-11.6362
▁MSC	-11.6364
Au	-11.6368
ABC	-11.637
▁Proteins	-11.6372
phosphorylate	-11.6372
▁nano	-11.6377
▁ponds	-11.638
Johnson	-11.6382
▁densely	-11.6384
▁SSD	-11.6384
▁reconcile	-11.6386
▁undertaken	-11.6386
▁autophagy	-11.6386
▁chloride	-11.6386
ichthys	-11.6388
▁[8–10]	-11.6388
▁merge	-11.639
▁positional	-11.6392
Hol	-11.6398
▁Higher	-11.6406
GFP	-11.6409
▁partitioned	-11.6411
▁appropriately	-11.6412
2–4	-11.6417
▁heading	-11.6418
▁cytoskeletal	-11.6422
oideae	-11.6422
▁Members	-11.6423
Gal	-11.6424
▁furthermore	-11.643
▁Lepto	-11.643
▁midline	-11.6431
▁35]	-11.6432
mission	-11.6433
▁69	-11.6435
▁acceptor	-11.6435
▁falling	-11.6437
▁Mono	-11.6439
▁MLC	-11.644
▁nmol	-11.6442
▁accept	-11.6443
▁tubule	-11.6443
▁May	-11.6445
▁subnetwork	-11.6447
ASP	-11.6447
CYC	-11.645
▁symptoms	-11.6458
▁chlorophyll	-11.6459
▁contigs	-11.6459
▁decipher	-11.6459
▁epaxial	-11.6459
▁parthenogenetic	-11.6459
▁zooplankton	-11.6459
Met	-11.646
▁cease	-11.646
▁fru	-11.6467
▁surrounded	-11.6468
▁fastest	-11.6474
signal	-11.648
▁highland	-11.6488
▁AHR	-11.6488
Wang	-11.6489
▁NAD	-11.649
▁habits	-11.6492
▁constantly	-11.6493
Jones	-11.6493
lich	-11.6494
▁demography	-11.6496
▁[6–8]	-11.6496
▁adductor	-11.6496
▁mitochondrion	-11.6496
▁fell	-11.6498
▁breakage	-11.6499
▁ionic	-11.6501
metry	-11.6514
▁NAT	-11.6517
ambi	-11.6524
▁supergroup	-11.6526
▁digits	-11.6529
selected	-11.653
▁molting	-11.653
localization	-11.6532
Ponganis	-11.6533
▁Asterisks	-11.6533
▁lncRNAs	-11.6533
▁stepping	-11.6533
▁Andean	-11.6534
Simmons	-11.6535
utt	-11.6537
▁subclass	-11.6538
▁tubulin	-11.6545
▁volatile	-11.6556
▁encompassing	-11.6558
▁synapses	-11.6562
▁drawing	-11.6564
component	-11.6567
continent	-11.6567
▁Król	-11.657
▁chemistry	-11.657
▁decomposition	-11.657
▁bovine	-11.657
▁undulation	-11.657
▁shoot	-11.657
▁carboxylase	-11.657
▁visualize	-11.6572
▁1997	-11.6577
▁historically	-11.6578
▁striped	-11.658
▁grasses	-11.6583
▁vessel	-11.6594
▁transitional	-11.6594
▁mitigate	-11.6599
new	-11.6602
drug	-11.6607
▁barnacle	-11.6607
▁broken	-11.6607
▁dedicated	-11.6607
▁dissolved	-11.6607
▁histidine	-11.6607
▁leukocyte	-11.6607
▁notothenioid	-11.6607
▁planktonic	-11.6607
▁sulfide	-11.6607
▁1968)	-11.6608
▁barcode	-11.6608
▁barley	-11.6611
square	-11.6611
▁analog	-11.6612
▁nucleosome	-11.6614
▁Upper	-11.6615
zel	-11.6619
▁Last	-11.6621
▁precede	-11.6634
self	-11.6635
ophyta	-11.6639
controlled	-11.6643
▁Manduca	-11.6645
▁Salmonella	-11.6645
▁ascidian	-11.6645
▁pombe	-11.6645
▁tactic	-11.6645
▁afford	-11.6645
▁inorganic	-11.6645
▁drawback	-11.6645
BEAST	-11.6646
▁germination	-11.6646
▁GPCR	-11.6646
▁terminate	-11.6647
▁Pcrit	-11.6653
▁Earth	-11.6655
▁caterpillars	-11.6655
plasmic	-11.6656
esser	-11.6656
direct	-11.6658
▁Tree	-11.6659
▁MSP	-11.6661
ODE	-11.6661
▁interactive	-11.6664
▁penguin	-11.6669
vertebrate	-11.6676
▁eels	-11.6679
dynamic	-11.668
depth	-11.668
▁nestling	-11.6681
▁Relationship	-11.6682
▁convenient	-11.6682
▁refugium	-11.6682
▁territorial	-11.6682
▁pha	-11.6682
▁aromatic	-11.6682
ethyl	-11.6683
▁Ross	-11.6686
▁refinement	-11.6686
▁asked	-11.6687
▁priority	-11.6688
▁prepare	-11.6692
▁LHC	-11.6699
dive	-11.67
▁hum	-11.6702
▁routinely	-11.6703
tip	-11.6704
after	-11.6708
▁complicat	-11.6709
networks	-11.671
▁leech	-11.6714
▁placenta	-11.6716
workers	-11.6716
▁sonic	-11.6717
▁lesions	-11.6719
▁carcinoma	-11.672
▁interneurons	-11.672
▁hagfish	-11.672
▁danger	-11.6723
▁macaques	-11.6724
▁predictors	-11.6726
▁Nv	-11.6729
flight	-11.673
▁spiracles	-11.6731
2+]	-11.6732
due	-11.6738
▁mussel	-11.6746
▁Jan	-11.6746
▁chromatic	-11.6749
▁say	-11.6751
▁consequent	-11.6752
▁karyotypes	-11.6753
▁Hydro	-11.6756
generated	-11.6756
▁Dictyostelium	-11.6758
▁amniote	-11.6758
Ṁ	-11.6758
hydrolase	-11.676
representation	-11.676
▁foil	-11.6763
▁laws	-11.6763
lec	-11.6765
▁SPL	-11.6771
▁Andes	-11.6774
▁2.0	-11.6774
limiting	-11.6776
▁monitored	-11.6779
▁MAP	-11.6781
▁taxonomically	-11.6786
▁Anti	-11.679
▁Jun	-11.6792
▁breakpoints	-11.6793
Biewener	-11.6794
alanine	-11.6794
score	-11.6795
▁automatic	-11.6795
helix	-11.6795
pituitary	-11.6796
▁Balkan	-11.6796
▁genotyping	-11.6796
▁perpendicular	-11.6796
▁hunting	-11.6796
▁nominal	-11.6797
▁Biological	-11.6798
▁RBCs	-11.6799
▁chrono	-11.68
▁impairment	-11.68
read	-11.68
▁likewise	-11.6801
fowl	-11.6802
▁SVM	-11.6805
▁der	-11.6814
atsu	-11.6814
▁GSK	-11.6814
▁mir	-11.6816
▁lunge	-11.6821
▁extrapolat	-11.6826
▁emphasized	-11.683
▁mito	-11.6833
▁outliers	-11.6833
▁obstacles	-11.6834
▁achieving	-11.6834
▁asterisk	-11.6834
▁cloud	-11.6834
▁reliance	-11.6834
▁neighborhood	-11.6834
▁declined	-11.6835
▁protostomes	-11.6838
neuron	-11.6848
▁cardio	-11.6848
▁anurans	-11.6848
▁tarsal	-11.6855
▁perfectly	-11.6856
▁conserve	-11.6859
uz	-11.6869
▁cephalopods	-11.6869
globin	-11.6871
▁Altogether	-11.6873
▁Paramecium	-11.6873
▁humoral	-11.6873
▁subgraphs	-11.6873
▁expert	-11.6873
▁whi	-11.6874
▁alpine	-11.6874
▁cited	-11.6874
▁genitalia	-11.6876
▁Branch	-11.6876
▁Wright	-11.6879
OH	-11.6889
Walsh	-11.6893
▁CoM	-11.6896
▁PCA	-11.6901
vey	-11.6901
▁minute	-11.6904
▁heterologous	-11.6911
▁Positive	-11.6911
▁dorsoventral	-11.6911
▁Aqp	-11.6911
▁buzz	-11.6912
▁unidentified	-11.6912
▁mutualism	-11.6913
▁bundles	-11.6913
▁ABA	-11.6914
▁dauer	-11.6914
▁guan	-11.6916
▁1.4	-11.692
▁photon	-11.6922
▁pooled	-11.6922
▁basi	-11.6922
chel	-11.6924
▁ignore	-11.6936
7],	-11.6937
▁Fisher	-11.6938
characterized	-11.6946
rini	-11.6946
third	-11.6948
è	-11.695
▁dispersion	-11.695
▁dormancy	-11.695
▁erroneous	-11.695
▁ipsilateral	-11.695
▁receiving	-11.695
▁spermatogenesis	-11.695
▁palaeo	-11.695
▁superfamilies	-11.695
▁unisexual	-11.695
▁osteoblast	-11.695
▁cytogenetic	-11.695
▁microscopic	-11.695
▁ATF	-11.6952
▁85	-11.6955
▁soleus	-11.696
▁anticipated	-11.6963
▁timescales	-11.6969
▁disjunct	-11.6975
▁Subsequent	-11.6976
▁posit	-11.6984
uis	-11.6988
▁flea	-11.6988
▁catabolic	-11.6988
▁hypothalamus	-11.6988
▁messenger	-11.6988
▁scientists	-11.6988
▁Weddell	-11.6988
▁Malawi	-11.6988
▁dorso	-11.6989
▁shedding	-11.699
glycan	-11.699
▁specialised	-11.699
▁invoked	-11.6995
▁rejection	-11.6998
▁reproductively	-11.6999
processing	-11.7004
▁Gulf	-11.7005
▁Perry	-11.701
arri	-11.7014
earing	-11.702
▁Hunt	-11.7024
stimulated	-11.7026
▁mechano	-11.7027
▁bilaterians	-11.7027
▁OXPHOS	-11.7027
▁euryhaline	-11.7027
▁schizophrenia	-11.7027
▁treadmill	-11.7027
▁ovulation	-11.7027
▁voles	-11.7027
▁speculation	-11.7028
▁eggshell	-11.7028
Jensen	-11.7029
▁grand	-11.7029
dependence	-11.7029
▁electrode	-11.7037
▁Experiments	-11.7039
Man	-11.7043
▁Grosell	-11.7045
▁returning	-11.7045
▁mollusks	-11.7049
▁fasted	-11.7049
Su	-11.7052
▁anticipate	-11.7053
▁cage	-11.7057
▁exceeded	-11.7057
▁dimensional	-11.7057
▁Rap	-11.7058
▁Evans	-11.7061
▁Bayes	-11.7061
▁64]	-11.7062
utz	-11.7063
▁branched	-11.7066
parameter	-11.7066
▁brackish	-11.7066
▁discharge	-11.7066
▁manipulating	-11.7066
▁modalities	-11.7066
▁reassortment	-11.7066
▁spheroid	-11.7066
▁osmoregulatory	-11.7067
▁discriminating	-11.7067
▁reinforcement	-11.7069
▁Petri	-11.7069
▁MCMC	-11.7069
▁colonis	-11.7072
▁Gibb	-11.7074
▁molluscs	-11.7075
▁20°	-11.7075
▁standardized	-11.708
▁elasmobranchs	-11.7087
topic	-11.7094
▁reality	-11.7094
▁dinoflagellates	-11.7102
capture	-11.7105
▁calcification	-11.7106
▁ectopic	-11.7106
▁homozygous	-11.7106
▁intended	-11.7106
▁humid	-11.7106
▁Complex	-11.7106
▁Muscle	-11.7107
▁France	-11.7107
Jacob	-11.7108
▁northward	-11.7108
▁mur	-11.7123
▁MDA	-11.7131
▁Halo	-11.7136
▁Cape	-11.7138
▁fill	-11.7139
1–4	-11.7139
oxidant	-11.7144
different	-11.7144
▁Tetrahymena	-11.7145
▁accumulating	-11.7145
▁antennule	-11.7145
▁assemblies	-11.7145
▁diagnosis	-11.7145
▁homeobox	-11.7145
▁optomotor	-11.7145
▁stonechats	-11.7145
▁trypanosomatid	-11.7145
▁fabp	-11.7145
▁GSH	-11.7145
▁metapopulation	-11.7147
▁generator	-11.7153
▁Tetra	-11.7155
▁pineal	-11.7158
oud	-11.7158
▁Nilsson	-11.7161
See	-11.7164
▁grain	-11.7165
▁Ger	-11.7168
ologists	-11.7169
▁elevate	-11.7171
▁valves	-11.7173
▁Weber	-11.7174
▁fluctuation	-11.7177
▁happens	-11.7181
stroke	-11.7181
tinae	-11.7181
Γ	-11.7184
▁execute	-11.7184
▁soybean	-11.7184
▁americanus	-11.7184
▁doubling	-11.7184
▁tempting	-11.7184
▁sliding	-11.7184
immunoreactive	-11.7184
▁[80]	-11.7185
▁ontology	-11.7185
▁MRCs	-11.7185
occur	-11.7186
▁Work	-11.7187
▁neighbor	-11.7197
▁cyclical	-11.7203
▁Char	-11.7213
qaaiab	-11.7219
▁navigational	-11.7223
▁Gaussian	-11.7224
▁luminescence	-11.7224
▁utilise	-11.7224
▁NCBI	-11.7225
▁lice	-11.7225
▁month	-11.7225
pathway	-11.7225
▁postprandial	-11.7225
temp	-11.723
▁agonistic	-11.7231
homo	-11.7234
acting	-11.7239
–18	-11.7245
▁citr	-11.7247
▁arrestin	-11.7255
hot	-11.7256
▁None	-11.7257
▁comb	-11.7258
atz	-11.7261
θ	-11.7264
▁Triassic	-11.7264
▁imprinted	-11.7264
▁incubated	-11.7264
▁lactating	-11.7264
▁genealogical	-11.7264
▁translocate	-11.7264
▁cytotoxic	-11.7264
▁pinpoint	-11.7264
natural	-11.7265
▁CFTR	-11.7265
predator	-11.7265
▁leap	-11.7265
▁SMAD	-11.7265
▁slave	-11.7266
▁intercellular	-11.727
▁testable	-11.7274
▁unbiased	-11.7275
ibly	-11.7277
▁DDI	-11.7282
▁stripes	-11.7283
▁hexa	-11.7283
▁delivered	-11.7284
phus	-11.7291
▁Rad	-11.7294
▁distort	-11.7295
▁inherently	-11.7303
arid	-11.7303
▁Traditional	-11.7304
Srinivasan	-11.7304
ν	-11.7304
▁enigmatic	-11.7304
▁enamel	-11.7304
canonical	-11.7304
▁tide	-11.7305
▁looked	-11.7306
▁duty	-11.7307
▁join	-11.7309
Daniel	-11.7316
▁adjusting	-11.7319
▁exponentially	-11.7334
▁asynchronous	-11.7344
▁sterility	-11.7344
▁synapomorphies	-11.7344
▁overwintering	-11.7344
▁slime	-11.7344
potential	-11.7344
reproductive	-11.7344
▁Mtb	-11.7345
▁quasispecies	-11.7345
▁generalization	-11.7347
▁interglacial	-11.7347
▁Cheng	-11.735
▁NOS	-11.735
▁GTP	-11.735
▁Hall	-11.7351
Mac	-11.7352
▁cultivars	-11.7354
▁Wiltschko	-11.736
▁|	-11.7368
phage	-11.7377
▁questioned	-11.7378
zygote	-11.7384
χ	-11.7384
▁Plateau	-11.7384
▁[13–15]	-11.7384
▁departure	-11.7384
▁entropy	-11.7384
▁microbiota	-11.7384
▁stoichiometry	-11.7384
▁traced	-11.7384
▁empty	-11.7384
▁peroxide	-11.7384
▁ploidy	-11.7385
▁owl	-11.7385
▁analogue	-11.7385
between	-11.7385
▁descendants	-11.7385
text	-11.7387
▁exemplified	-11.7387
enz	-11.7392
law	-11.7394
▁crawling	-11.7395
▁prevailing	-11.7396
▁propel	-11.7401
Wilk	-11.7409
▁refine	-11.7411
2/3	-11.7414
▁denoted	-11.7415
▁occasional	-11.7418
owski	-11.742
▁bioinformatic	-11.7421
▁~3	-11.7421
transferases	-11.7422
dendritic	-11.7425
▁bryozoan	-11.7425
▁onychophoran	-11.7425
▁SINE	-11.7425
▁tomato	-11.7427
▁scene	-11.7427
trained	-11.743
▁attenuated	-11.7434
▁displaced	-11.7434
utter	-11.7442
▁gro	-11.7445
▁usefulness	-11.7445
▁pace	-11.745
oderma	-11.7454
▁generality	-11.746
▁macaque	-11.7462
▁Leishmania	-11.7466
▁albicans	-11.7466
▁subgenera	-11.7466
▁[10–12]	-11.7466
▁proteolytic	-11.7466
▁GLUT	-11.7466
▁thermogenesis	-11.7466
mammalian	-11.7466
swimming	-11.7466
mtDNA	-11.7467
grass	-11.7468
▁noticed	-11.7468
▁Baker	-11.7468
▁deter	-11.747
foot	-11.747
▁cooler	-11.7471
hetero	-11.7471
▁Why	-11.7472
▁laid	-11.7473
▁Bet	-11.7482
▁adaptor	-11.7486
ancy	-11.7493
PIN	-11.7494
▁virtual	-11.7494
▁confirmation	-11.7495
▁helped	-11.7498
▁passed	-11.7499
▁aeruginosa	-11.7506
▁homeostatic	-11.7506
▁primordial	-11.7506
▁dissipate	-11.7506
▁instrument	-11.7506
▁spindle	-11.7506
▁spatiotemporal	-11.7506
▁capsule	-11.7507
▁auratus	-11.7507
sensory	-11.7507
▁env	-11.7508
▁depolarization	-11.7509
▁Morris	-11.7509
▁synchronized	-11.7514
formation	-11.7516
▁accession	-11.7517
▁decided	-11.752
▁UVS	-11.7528
▁68]	-11.753
▁eyespots	-11.7533
▁63	-11.7539
PV	-11.7545
ROS	-11.7546
Φ	-11.7547
▁unequivocal	-11.7547
▁gigas	-11.7547
▁stamen	-11.7547
▁SSU	-11.7548
▁patens	-11.7548
chromosomal	-11.7548
▁circuitry	-11.7554
▁5′	-11.7555
▁acidosis	-11.7558
▁η	-11.7563
▁longest	-11.7565
=8	-11.7567
▁inducer	-11.7567
▁10,000	-11.7568
▁coming	-11.7573
▁secrete	-11.7575
▁replicated	-11.7576
osoma	-11.7585
glyco	-11.7585
Proteobacteria	-11.7589
▁cranio	-11.7589
directional	-11.7589
Lighton	-11.759
eastern	-11.759
▁Ucrit	-11.759
▁[54,	-11.759
▁unsteady	-11.7591
▁metabolomics	-11.7593
▁rising	-11.7593
ADP	-11.7594
▁NaCl	-11.7594
▁Alexander	-11.7594
▁purine	-11.76
▁toothed	-11.76
▁primer	-11.7602
▁erect	-11.7603
theoretic	-11.7609
▁morphotypes	-11.7614
von	-11.7615
0.01	-11.7616
ophyceae	-11.7617
▁predominate	-11.7617
▁confident	-11.7617
▁67	-11.7618
protect	-11.7619
▁concerned	-11.7621
▁[11–13]	-11.763
▁abbreviations	-11.763
▁incompatibility	-11.763
▁subdivided	-11.763
▁cognate	-11.763
▁coiled	-11.763
▁hexapod	-11.7631
surface	-11.7631
consuming	-11.7631
Pacific	-11.7631
thermic	-11.7633
lethal	-11.7637
▁compartmentaliz	-11.7637
▁Apis	-11.7637
▁distortion	-11.764
▁1990	-11.7646
▁neighbour	-11.7651
▁kJ	-11.7653
▁harvest	-11.7671
▁fluctuate	-11.7671
▁nomenclature	-11.7671
▁notochord	-11.7671
▁osmolality	-11.7671
▁Rattus	-11.7671
▁flood	-11.7673
parasitic	-11.7673
▁Cancer	-11.7673
▁mTOR	-11.7674
effective	-11.7675
▁lysis	-11.7677
▁gallop	-11.7678
▁exploiting	-11.7691
▁bath	-11.7696
▁EMT	-11.7706
Peters	-11.7708
▁99	-11.771
▁inadequate	-11.7713
▁cuttlefish	-11.7713
▁gastrulation	-11.7713
▁granular	-11.7713
▁submerged	-11.7713
▁xenobiotic	-11.7713
▁1964;	-11.7713
▁triangles	-11.7713
▁peninsula	-11.7713
▁drone	-11.7714
▁tiger	-11.7718
culture	-11.7719
▁hoc	-11.7727
thaw	-11.7728
▁statement	-11.7728
▁deform	-11.7731
▁Jackson	-11.7732
▁emit	-11.7738
▁Chro	-11.7739
▁adapting	-11.774
rz	-11.7748
▁allopatry	-11.7755
▁bottlenose	-11.7755
▁carnivore	-11.7755
▁SERCA	-11.7755
▁declining	-11.7755
amylase	-11.7755
▁damping	-11.7755
▁flutter	-11.7755
▁GDF	-11.7755
▁Predict	-11.7755
▁carries	-11.7756
dominance	-11.7757
occurrence	-11.7757
restricted	-11.7757
▁NCX	-11.7759
clin	-11.7762
▁caste	-11.7768
▁masking	-11.7773
citation	-11.7776
▁prime	-11.7778
▁hardly	-11.778
▁Bennett	-11.7783
▁NOX	-11.779
ITS	-11.7793
termini	-11.7794
▁Increasing	-11.7797
▁discontinuous	-11.7797
▁Diptera	-11.7798
▁CCR	-11.7798
symbiont	-11.7799
▁dinucleotide	-11.7799
▁solvent	-11.7799
cock	-11.7801
▁optimisation	-11.7802
▁chelicerate	-11.7806
maker	-11.7812
▁mud	-11.7813
▁myco	-11.7813
glycosylation	-11.7816
▁loaded	-11.7818
▁192	-11.7822
▁briefly	-11.7823
▁gaze	-11.7825
▁15%	-11.7825
▁EPO	-11.7828
▁assayed	-11.7829
▁stabilized	-11.7831
▁Prote	-11.7833
▁weighting	-11.7834
▁Gray	-11.7835
▁DMS	-11.7838
▁Collectively	-11.7839
▁baboon	-11.7839
▁cyprinid	-11.7839
▁sheep	-11.7839
▁nymphs	-11.7839
▁[55,	-11.7841
approximately	-11.7841
▁outlier	-11.7843
phospho	-11.785
spot	-11.7852
[14]	-11.7852
▁Post	-11.7857
olf	-11.786
▁Rac	-11.786
SEA	-11.7864
▁solar	-11.7866
▁titin	-11.7869
▁players	-11.7874
▁cow	-11.7876
▁toads	-11.7878
▁osmo	-11.788
▁completion	-11.7881
▁multitude	-11.7881
▁polynomial	-11.7881
▁perennial	-11.7881
▁[81]	-11.7882
≤	-11.7884
QTL	-11.7884
▁HPD	-11.7884
▁Mann	-11.7885
▁Typically	-11.7886
▁GPR	-11.789
▁eury	-11.789
▁unambiguous	-11.7912
▁specificities	-11.7916
▁subsp	-11.792
▁Calli	-11.7922
▁alveolar	-11.7924
▁extraordinary	-11.7924
▁cystatin	-11.7924
▁respirometry	-11.7924
▁logistic	-11.7925
strict	-11.7925
satellite	-11.7926
▁uphill	-11.7928
throp	-11.7933
methylation	-11.7933
evolved	-11.794
coel	-11.7941
▁PAH	-11.7946
▁Meso	-11.7946
▁coexpression	-11.7947
maze	-11.7955
▁Rosen	-11.7961
▁audiogram	-11.7967
▁corridor	-11.7967
▁default	-11.7967
▁pervasive	-11.7967
▁submitted	-11.7967
▁neuropil	-11.7967
▁silkworm	-11.7968
▁mucin	-11.7968
▁abnormalities	-11.7968
▁defective	-11.7969
▁glaciation	-11.7969
▁circle	-11.7969
▁lemur	-11.7969
thorax	-11.797
▁macrophage	-11.797
▁rose	-11.7978
▁Robinson	-11.7979
▁matK	-11.7983
uridae	-11.7988
▁elongate	-11.7991
▁Fla	-11.7996
▁goes	-11.7997
▁erythro	-11.801
▁estimator	-11.801
▁evolvability	-11.801
▁sedentary	-11.801
▁shuffling	-11.801
▁covariation	-11.801
▁session	-11.801
▁promise	-11.801
▁bistability	-11.8011
▁ingest	-11.8011
▁65]	-11.8011
▁Little	-11.8011
▁postnatal	-11.8012
injected	-11.8013
▁fox	-11.8013
▁grip	-11.8013
▁counterpart	-11.8014
▁subclade	-11.802
▁600	-11.802
▁engineered	-11.8022
compete	-11.8025
▁10°	-11.8027
3.3	-11.8028
▁AIC	-11.8029
▁rear	-11.803
imus	-11.8032
▁cadherin	-11.8036
▁linker	-11.8036
lepid	-11.8039
zu	-11.8043
▁uncommon	-11.8053
▁unprecedented	-11.8053
▁1966)	-11.8053
1.3	-11.8053
oder	-11.8053
▁participat	-11.8053
▁emergent	-11.8055
colonial	-11.8056
▁gender	-11.8056
▁tentacle	-11.8057
▁KCN	-11.806
ucci	-11.806
cht	-11.8062
▁cf	-11.8068
▁preceded	-11.8069
▁Yang	-11.8072
Cys	-11.8074
small	-11.8082
▁decide	-11.8088
▁corona	-11.809
▁approximated	-11.8093
▁overwhelm	-11.8096
▁acquiring	-11.8096
▁manuscript	-11.8096
▁ultrasound	-11.8096
articulate	-11.8096
▁initiating	-11.8096
▁southeastern	-11.8097
▁verification	-11.8097
▁sloth	-11.8097
▁ascent	-11.8097
RNase	-11.8098
▁perfusion	-11.8099
▁[53,	-11.8099
especially	-11.8099
▁orthologue	-11.8101
▁echoes	-11.8104
hypo	-11.8115
▁labelled	-11.8116
▁passively	-11.8117
large	-11.8118
▁magna	-11.8123
▁hydroxyl	-11.8125
▁repressed	-11.8129
▁narrower	-11.8132
▁optimis	-11.8134
▁MMP	-11.8135
▁raptor	-11.814
▁Whilst	-11.814
▁[14–16]	-11.814
▁lyrata	-11.814
ár	-11.814
▁missed	-11.8141
▁[52,	-11.8143
▁deuterostome	-11.8144
▁Female	-11.8145
▁74	-11.8146
▁encompasses	-11.8148
short	-11.8151
ESCs	-11.8153
▁1.6	-11.8155
▁holding	-11.8157
▁latest	-11.8159
▁tried	-11.8167
▁delimit	-11.8173
harm	-11.8178
▁Intriguingly	-11.8183
▁drinking	-11.8183
▁glioma	-11.8183
▁guidance	-11.8183
▁prospect	-11.8183
▁alleviate	-11.8183
▁Meanwhile	-11.8183
▁tropics	-11.8184
renewal	-11.8184
▁pedal	-11.8184
▁specialisation	-11.8186
▁uniformly	-11.8189
glucan	-11.8191
▁reproduced	-11.8192
▁accompanying	-11.8192
▁AMF	-11.8197
[18]	-11.8197
Qu	-11.8207
▁filtered	-11.821
▁accomplish	-11.8211
pyr	-11.8211
▁mV	-11.8216
6],	-11.8217
▁ferment	-11.822
▁saw	-11.8222
▁spatio	-11.8227
Kooyman	-11.8227
▁Support	-11.8227
▁catecholamine	-11.8227
▁girdle	-11.8227
▁GWAS	-11.8227
▁singular	-11.8227
▁parrot	-11.8228
▁layout	-11.8228
sensing	-11.8228
▁Short	-11.8229
▁melanoma	-11.8229
balance	-11.8231
ocytic	-11.8233
▁rendering	-11.8236
▁chela	-11.8236
faunal	-11.8237
strom	-11.8242
tension	-11.8243
▁polyploidy	-11.8245
regulating	-11.8247
natal	-11.8248
▁Gold	-11.8249
glycero	-11.8253
chloro	-11.8253
▁Hep	-11.8257
▁degrade	-11.8263
▁EFL	-11.8266
▁[9–11]	-11.8271
▁bipartite	-11.8271
▁guppy	-11.8271
▁interstitial	-11.8271
▁maximizing	-11.8271
▁measurable	-11.8271
▁midshipman	-11.8271
▁1965;	-11.8271
▁geography	-11.8271
▁crater	-11.8271
▁harsh	-11.8271
▁1969)	-11.8271
▁Natural	-11.8271
permeable	-11.8272
▁Detailed	-11.8273
pia	-11.8274
photo	-11.8275
▁Panama	-11.8276
coll	-11.828
▁Wu	-11.8281
▁tempo	-11.8284
▁2.2	-11.8297
▁attained	-11.83
@2	-11.83
▁TAG	-11.8307
▁≈	-11.831
arker	-11.8312
▁Cameroon	-11.8315
▁armigera	-11.8315
▁bioluminescence	-11.8315
▁quadrupedal	-11.8315
▁sword	-11.8315
▁unexplored	-11.8315
▁urinary	-11.8315
▁Gymno	-11.8315
▁averaging	-11.8315
▁maximise	-11.8315
▁pastoris	-11.8315
▁herbivorous	-11.8315
▁mutualistic	-11.8316
▁tensile	-11.8316
▁forewing	-11.8317
▁TJ	-11.8317
▁citrate	-11.8317
1–5	-11.8318
Hart	-11.8319
vascular	-11.832
▁colder	-11.8323
biological	-11.8323
▁glue	-11.8324
nick	-11.833
▁nearest	-11.8332
stability	-11.8334
▁chroma	-11.8336
serine	-11.8337
▁expresses	-11.8344
▁guided	-11.8346
tier	-11.8348
4.1	-11.8354
163	-11.8356
▁assemble	-11.8359
▁Equation	-11.836
▁vitellogenin	-11.836
▁Vibrio	-11.836
Swanson	-11.8361
▁Akt	-11.8361
▁bigger	-11.8362
▁Cooper	-11.8363
apoptotic	-11.8364
climatic	-11.8364
[20]	-11.8365
▁Along	-11.8367
▁thousand	-11.8368
▁RPS	-11.8373
▁Toll	-11.8376
▁Six	-11.8383
uill	-11.8383
▁stretches	-11.8385
▁argu	-11.8386
▁sphere	-11.8393
▁2013	-11.8396
▁transgene	-11.8401
▁homogeniz	-11.8401
math	-11.8402
▁TEP	-11.8403
esophageal	-11.8404
▁Alzheimer	-11.8404
▁flycatcher	-11.8404
▁Computational	-11.8404
▁steering	-11.8404
▁Runx	-11.8404
▁groove	-11.8405
▁cellulase	-11.8405
▁capsid	-11.8405
▁associative	-11.8405
▁Mun	-11.8406
▁krill	-11.8407
arthropod	-11.8409
▁Chen	-11.841
▁disentangle	-11.841
▁deficient	-11.8411
▁gonadal	-11.8414
▁noncoding	-11.8418
MV	-11.8421
▁boxes	-11.8422
evolve	-11.8423
▁Hoffmann	-11.8425
aceous	-11.8433
▁punct	-11.8442
vores	-11.8445
▁discoideum	-11.8449
▁epidemiological	-11.8449
▁overlooked	-11.8449
▁resembling	-11.8449
▁undoubtedly	-11.8449
▁benign	-11.8449
▁eleven	-11.8449
▁Adult	-11.8449
▁multimodal	-11.8451
▁IGFBP	-11.8452
▁Marsh	-11.8452
▁Platy	-11.8452
▁nothing	-11.8452
tissue	-11.8454
saturated	-11.8454
▁supplementation	-11.8454
▁introgressed	-11.8456
<0.01	-11.8462
▁coded	-11.8479
3.0	-11.8493
▁traffic	-11.8494
▁Bacillus	-11.8494
▁cartilaginous	-11.8494
▁dilution	-11.8494
▁funnel	-11.8494
▁mobilization	-11.8494
▁orthogonal	-11.8494
▁phagocytosis	-11.8494
▁recessive	-11.8494
▁fascin	-11.8494
▁parasitiz	-11.8494
▁nasal	-11.8494
Edwards	-11.8494
▁Strong	-11.8495
▁Water	-11.8502
▁allocated	-11.8504
▁COT	-11.8506
▁reinforced	-11.8515
▁CPG	-11.8516
modal	-11.8518
▁fighting	-11.8521
locked	-11.8525
▁adrenergic	-11.8528
▁bank	-11.8528
▁lean	-11.853
▁Alb	-11.853
▁rhabdom	-11.8531
▁MCF	-11.8535
▁intermedia	-11.8537
▁Pearson	-11.854
▁adenosine	-11.854
Schneider	-11.854
▁chewing	-11.854
IAA	-11.8541
▁Dasy	-11.8541
▁Spir	-11.8542
1.4	-11.8545
▁oncogene	-11.8545
▁Super	-11.8545
SNPs	-11.8548
AGE	-11.8549
▁synapse	-11.855
▁killing	-11.8551
▁remainder	-11.8551
▁killer	-11.8554
▁warranted	-11.8561
▁0.000	-11.8561
▁clan	-11.8569
star	-11.8574
linearity	-11.8577
▁retaining	-11.8579
▁maxima	-11.8581
▁[15–17]	-11.8585
▁chaperonin	-11.8585
▁python	-11.8585
▁catalase	-11.8585
▁endangered	-11.8585
▁entrance	-11.8585
▁illuminate	-11.8585
▁viviparous	-11.8585
▁pentose	-11.8585
▁Control	-11.8585
▁0.03	-11.8585
▁ParaHox	-11.8585
violet	-11.8586
▁Chown	-11.8586
−0.	-11.8587
▁attempting	-11.8587
5,000	-11.8588
▁brightness	-11.8588
mputation	-11.8588
speciation	-11.8591
chordate	-11.8591
▁Trk	-11.8591
Jo	-11.8594
tagged	-11.8595
production	-11.8596
▁dung	-11.8597
oxygen	-11.8598
▁Ellington	-11.8599
[15]	-11.8602
▁RNR	-11.8602
omma	-11.8611
▁seasonally	-11.8612
microenvironment	-11.8621
▁TAS	-11.8622
▁Few	-11.8626
▁[12–14]	-11.8631
▁dependencies	-11.8631
▁contour	-11.8631
Jun	-11.8631
▁tele	-11.8631
▁dilute	-11.8631
▁chimeric	-11.8631
▁[56,	-11.8632
▁Gorb	-11.8632
≈	-11.8636
likelihood	-11.8637
▁dye	-11.864
▁operational	-11.864
▁GPx	-11.8641
▁mask	-11.8641
▁HLA	-11.8649
▁patchy	-11.8653
▁Flux	-11.8654
▁Very	-11.8661
itive	-11.8666
▁continual	-11.8677
ström	-11.8677
▁impressive	-11.8677
▁marmoratus	-11.8677
▁observing	-11.8677
telomeric	-11.8677
▁circumvent	-11.8677
▁frameshift	-11.8677
▁torsion	-11.8677
“	-11.8683
▁oxidized	-11.8683
▁catalyzed	-11.8685
feld	-11.869
▁gamete	-11.8692
wick	-11.8697
correlation	-11.8702
neural	-11.8707
▁GnRH	-11.8723
▁dividing	-11.8723
▁paucity	-11.8723
▁polychaete	-11.8723
▁uncoupling	-11.8723
Nielsen	-11.8723
▁antisense	-11.8723
▁mounting	-11.8723
▁intercept	-11.8723
▁isolating	-11.8723
▁minimise	-11.8723
▁advent	-11.8723
▁GluRS	-11.8724
▁accessibility	-11.8724
▁JNK	-11.8725
▁suboptimal	-11.8726
▁Genomic	-11.8727
▁PGC	-11.8727
omus	-11.8728
selection	-11.8729
▁cool	-11.8731
origin	-11.8731
oblasts	-11.8734
▁valve	-11.8736
gressive	-11.8737
[13]	-11.8742
▁spawn	-11.8751
▁nad	-11.8759
Butler	-11.8766
iscus	-11.8768
yama	-11.8768
▁concatenation	-11.8769
▁cultural	-11.8769
▁heterochromatin	-11.8769
▁repetition	-11.8769
▁tectonic	-11.8769
McMahon	-11.8769
▁adipocyte	-11.8769
Hansen	-11.877
▁ridges	-11.8771
▁worse	-11.8771
▁disagreement	-11.8771
dominant	-11.8773
▁†	-11.8774
20%	-11.8775
contraction	-11.878
▁interspecies	-11.8782
▁pigeon	-11.8783
measured	-11.8783
worth	-11.8784
Webb	-11.8784
▁Thomas	-11.8784
▁camera	-11.8785
▁NCC	-11.8786
▁said	-11.8794
process	-11.8802
▁69]	-11.8807
▁Good	-11.8813
▁Mesozoic	-11.8815
▁altitudinal	-11.8815
▁emperor	-11.8815
▁oviparous	-11.8815
▁pleopod	-11.8815
▁pluripotency	-11.8815
▁sequester	-11.8815
▁Sexual	-11.8815
▁metabolize	-11.8816
▁weather	-11.8816
Vogel	-11.8816
▁absorbance	-11.8817
absence	-11.8822
▁Irg	-11.8824
▁Rio	-11.8831
▁coincid	-11.8835
▁Close	-11.8838
▁1995	-11.884
▁withstand	-11.8843
▁transiently	-11.8846
▁neglect	-11.8846
▁tether	-11.8846
▁spontaneously	-11.8852
▁entered	-11.8855
▁PSG	-11.8856
▁Thermo	-11.886
▁apicomplexan	-11.8862
▁bandwidth	-11.8862
▁clutter	-11.8862
▁opportunistic	-11.8862
▁wrong	-11.8862
▁ocelli	-11.8862
▁endoplasmic	-11.8863
morphological	-11.8866
▁Neither	-11.8867
Evans	-11.8869
▁underscore	-11.887
classical	-11.887
Martin	-11.8872
▁montane	-11.8872
▁hook	-11.8874
▁(0.1	-11.8878
oxidation	-11.888
Chi	-11.8886
taxon	-11.8888
▁75%	-11.8889
▁calci	-11.8889
▁complicate	-11.8891
▁tuber	-11.8894
night	-11.8898
▁[19–2	-11.8901
▁optima	-11.8904
▁brachiopod	-11.8909
▁communicate	-11.8909
▁damaging	-11.8909
▁sporadic	-11.8909
▁tobacco	-11.8909
▁vertices	-11.8909
▁vicariant	-11.8909
▁naive	-11.8909
▁golden	-11.8912
▁∈	-11.8915
▁SET	-11.8917
bury	-11.892
▁ubiquitination	-11.8922
▁hive	-11.8929
solid	-11.8929
▁homoplas	-11.8945
▁retreat	-11.8953
saccharide	-11.8956
▁Hemi	-11.8956
▁hepato	-11.8956
absorptive	-11.8956
▁cholinergic	-11.8956
▁encourage	-11.8956
▁necessitate	-11.8956
▁spleen	-11.8956
▁Except	-11.8957
▁intricate	-11.8957
▁osmoregulation	-11.8957
▁bulb	-11.8957
adrenal	-11.8958
▁gastropod	-11.8959
▁OBP	-11.896
resolved	-11.8961
▁[19–21]	-11.8964
▁chemokine	-11.8966
▁sap	-11.8969
▁masked	-11.8973
▁67]	-11.8973
▁eyespot	-11.8973
▁rationale	-11.8974
▁aspartate	-11.8975
[12]	-11.8979
▁manifested	-11.898
MHC	-11.898
The	-11.8981
▁autonomous	-11.8982
▁Buck	-11.8984
▁methylated	-11.8987
▁Mega	-11.8998
Hochachka	-11.9004
▁SNARE	-11.9004
▁[16–18]	-11.9004
▁eliminating	-11.9004
▁ferritin	-11.9004
▁oscillating	-11.9004
▁prolactin	-11.9004
▁tertiary	-11.9004
▁vectensis	-11.9004
▁fascia	-11.9004
▁peptidase	-11.9004
▁rotifer	-11.9004
▁nitric	-11.9004
▁Canada	-11.9004
▁relaxin	-11.9005
▁visualized	-11.9006
Hedrick	-11.9007
▁recolonization	-11.9007
▁malate	-11.9012
reared	-11.9015
Hox	-11.9015
winter	-11.9019
[17]	-11.9024
▁discrimina	-11.9026
▁cyan	-11.9034
▁3.2	-11.9034
mir	-11.9036
▁rolling	-11.9036
▁Vps	-11.9037
▁66]	-11.904
latt	-11.904
▁ARF	-11.9041
▁ambiguity	-11.9051
▁celestial	-11.9051
▁compatibility	-11.9051
▁efficiencies	-11.9051
▁irradiation	-11.9051
▁trypsin	-11.9051
▁eccentric	-11.9051
▁women	-11.9051
▁Lbx	-11.9052
▁nurse	-11.9052
▁plain	-11.9052
▁Acanth	-11.9053
▁postural	-11.9057
Miller	-11.906
▁sagittal	-11.9073
found	-11.9074
Carr	-11.9078
SOD	-11.9079
joining	-11.908
ipping	-11.9084
▁subsection	-11.909
▁chord	-11.9099
▁gluconeogenesis	-11.9099
▁heavier	-11.9099
▁pioneer	-11.9099
▁helicase	-11.9099
▁ratchet	-11.9099
▁sulfur	-11.9099
▁galloprovincial	-11.9099
▁gift	-11.9099
▁chrys	-11.9099
▁innervated	-11.9107
exposure	-11.9107
developed	-11.9107
▁MRP	-11.9108
gula	-11.9108
ordinate	-11.9108
▁hydration	-11.9109
▁proliferative	-11.911
▁insular	-11.9111
▁enforc	-11.9122
▁disordered	-11.9124
▁MFA	-11.9124
▁1996	-11.914
@3	-11.9147
▁passing	-11.9147
stimulatory	-11.9147
▁aberration	-11.9147
▁emersion	-11.9147
▁glomeruli	-11.9147
▁habituation	-11.9147
▁investigators	-11.9147
▁olfaction	-11.9147
▁descriptor	-11.9147
▁Pseudomonas	-11.9147
▁ascending	-11.9147
▁biophysical	-11.9148
Arnold	-11.9148
▁Chang	-11.9148
▁ADAM	-11.9149
▁NRPS	-11.9149
▁Wolf	-11.915
molecule	-11.9155
code	-11.9159
▁finer	-11.9162
osum	-11.9164
▁bacteri	-11.9166
Zeil	-11.9168
▁potentiat	-11.9169
▁sinus	-11.9181
▁arrive	-11.9182
peptid	-11.9184
lench	-11.9186
burn	-11.9188
▁BAC	-11.9194
compatibilities	-11.9196
▁Beyond	-11.9196
▁endocytosis	-11.9196
▁hypercapnia	-11.9196
▁nonetheless	-11.9196
▁prolixus	-11.9196
▁salinities	-11.9196
▁stagnalis	-11.9196
▁tremendous	-11.9196
▁vestibular	-11.9196
▁quiescent	-11.9196
▁entries	-11.9196
▁cyclase	-11.9196
piratory	-11.9196
immunoreactivity	-11.9196
▁[82]	-11.9196
▁losing	-11.9197
▁mantis	-11.9198
▁swam	-11.92
▁flicker	-11.9201
▁command	-11.9201
transcript	-11.9204
pathogenic	-11.9212
about	-11.9213
derma	-11.9215
▁bivalve	-11.9215
▁salamander	-11.9215
▁2.4	-11.9216
▁Near	-11.9223
▁Ferr	-11.9241
Sinclair	-11.9244
^	-11.9244
▁aquaporin	-11.9244
▁bacteriophage	-11.9244
▁reorganization	-11.9244
▁spurious	-11.9244
▁gigant	-11.9244
▁Bradley	-11.9244
Oncorhynchus	-11.9244
▁rostral	-11.9244
▁70]	-11.9245
▁northeastern	-11.9245
▁coelom	-11.9251
migration	-11.9252
▁karyo	-11.9253
▁Cyto	-11.926
▁programmed	-11.9261
▁stricto	-11.9262
▁PTS	-11.9266
▁#	-11.9267
Bartol	-11.9268
phosphorylated	-11.9271
ceptive	-11.9277
▁exonic	-11.9286
deprived	-11.9293
▁cooperativity	-11.9293
▁echolocating	-11.9293
▁execution	-11.9293
▁purpuratus	-11.9293
▁supplied	-11.9293
▁honest	-11.9293
▁pacemaker	-11.9293
▁LEV	-11.9293
▁goats	-11.9293
▁purified	-11.9294
Nawata	-11.9294
degrading	-11.9294
▁savannah	-11.9294
Cu	-11.9296
▁Photo	-11.9299
view	-11.9301
abilities	-11.9302
▁tractable	-11.9302
south	-11.9304
[10]	-11.931
[11]	-11.9314
▁cetacean	-11.9314
enne	-11.9323
web	-11.9327
▁1.7	-11.9333
Higham	-11.9333
▁MMR	-11.9337
aries	-11.9339
∝	-11.9342
▁agriculture	-11.9342
▁destruction	-11.9342
▁necrosis	-11.9342
▁promiscuous	-11.9342
▁unfamiliar	-11.9342
▁vaccine	-11.9342
▁vulgaris	-11.9342
▁BDIM	-11.9342
▁rival	-11.9342
▁cement	-11.9342
▁eusocial	-11.9342
▁methanogen	-11.9343
▁enumerat	-11.9343
▁laser	-11.9344
▁Rhin	-11.9345
▁dimensionality	-11.9345
▁suppressing	-11.9347
▁conduction	-11.9348
▁RAD	-11.935
saturation	-11.9351
▁suborder	-11.9354
▁arrived	-11.9356
▁neuromast	-11.9364
▁Harrison	-11.9365
▁System	-11.9365
▁invaded	-11.9365
▁galloping	-11.9365
amba	-11.9368
▁Thompson	-11.937
New	-11.9388
▁loggerhead	-11.9391
▁scorpion	-11.9391
▁swallow	-11.9391
▁Especially	-11.9391
▁commensal	-11.9391
▁destroy	-11.9391
▁hindgut	-11.9391
▁prognosis	-11.9391
▁protraction	-11.9391
▁quagga	-11.9391
▁tympanal	-11.9391
▁infinite	-11.9391
▁otolith	-11.9391
▁cotton	-11.9391
▁operator	-11.9391
▁receptive	-11.9395
▁Body	-11.9395
arginine	-11.9401
▁occupying	-11.9402
▁projected	-11.9403
▁3′	-11.9405
▁ramp	-11.9406
▁workflow	-11.9406
basal	-11.9406
42–	-11.9407
▁room	-11.941
nephr	-11.9411
▁traveling	-11.9413
▁afferent	-11.9414
▁Endo	-11.9415
▁safe	-11.9416
▁1.9	-11.9417
▁Schul	-11.9426
2.2	-11.9427
▁outline	-11.9432
esia	-11.9435
merging	-11.9438
▁conducting	-11.9439
▁saliva	-11.9439
▁guinea	-11.9441
Montgomery	-11.9441
▁Theoretical	-11.9441
▁cannibalism	-11.9441
▁custom	-11.9441
▁oryzae	-11.9441
▁proteolysis	-11.9441
▁snout	-11.9441
▁Kelly	-11.9441
Menzel	-11.9441
▁pathology	-11.9443
▁restricting	-11.9444
▁goby	-11.9445
thoracic	-11.945
corrected	-11.945
clonal	-11.9451
▁Siberian	-11.9451
carbon	-11.9451
▁TetR	-11.9454
▁fear	-11.9456
▁releasing	-11.9457
▁Liu	-11.9458
WGD	-11.9459
▁Graph	-11.9459
▁biting	-11.9459
▁substance	-11.9468
▁swimmer	-11.947
Berg	-11.9471
osmotic	-11.9473
▁experimentation	-11.9474
▁hinge	-11.9476
nuc	-11.9478
[7]	-11.9482
osity	-11.9486
▁Dscam	-11.949
▁bubble	-11.949
▁conservatism	-11.949
▁devoted	-11.949
▁luminance	-11.949
▁microbiome	-11.949
▁twelve	-11.949
▁Philippine	-11.949
▁ensuring	-11.949
▁freedom	-11.949
▁differentiating	-11.9491
▁merit	-11.9491
▁brachy	-11.9491
▁Single	-11.9492
▁United	-11.9492
▁overlapped	-11.9495
▁farmed	-11.9497
▁reversion	-11.9498
keratin	-11.95
mentioned	-11.95
phasic	-11.9501
▁estradiol	-11.9507
▁demes	-11.9509
▁tropicalis	-11.9514
▁elasmobranch	-11.9515
▁Nelson	-11.9517
▁15°	-11.952
▁amoeba	-11.9521
[8]	-11.9521
▁Davis	-11.9525
▁phasic	-11.953
▁screened	-11.9533
augh	-11.9535
karyotic	-11.9539
telli	-11.9539
▁Representative	-11.954
▁inappropriate	-11.954
▁shuttle	-11.954
▁sporulation	-11.954
▁papilla	-11.954
▁Birds	-11.954
▁floor	-11.954
▁Fungi	-11.9541
▁checkpoint	-11.9541
enchyma	-11.9542
Reilly	-11.9551
▁lato	-11.9553
▁pupil	-11.9553
▁inhabited	-11.9557
▁cutoff	-11.9559
TOR	-11.956
▁intensively	-11.9565
▁monocot	-11.9568
▁USP	-11.9572
▁biota	-11.9577
▁sequentially	-11.958
▁Siberia	-11.958
[...]
