<unk>	0
<s>	0
</s>	0
▁the	-3.3942
s	-3.43931
,	-3.48784
.	-3.68909
▁of	-3.70452
▁and	-4.00748
▁in	-4.1047
▁to	-4.33623
▁a	-4.47414
▁(	-4.60381
-	-4.61673
▁	-4.66172
▁that	-4.92133
▁is	-4.99056
ing	-5.09714
ed	-5.19418
d	-5.26335
▁for	-5.28362
e	-5.33252
ly	-5.42538
▁with	-5.44671
▁are	-5.47705
)	-5.48406
a	-5.56795
▁be	-5.58669
▁by	-5.63617
▁as	-5.6376
al	-5.66201
▁The	-5.72601
i	-5.76263
▁on	-5.78651
▁al	-5.80639
g	-5.82504
▁from	-5.84215
▁et	-5.88133
y	-5.88254
▁have	-5.9725
er	-5.98524
▁this	-5.98998
in	-6.00179
▁S	-6.00841
or	-6.02396
▁an	-6.03576
▁not	-6.04783
b	-6.05378
n	-6.09686
t	-6.11069
A	-6.11842
C	-6.12346
▁or	-6.13415
▁In	-6.13839
▁A	-6.16057
▁we	-6.17048
2	-6.17898
▁species	-6.18025
S	-6.19081
p	-6.20548
r	-6.21402
▁P	-6.21753
c	-6.22635
▁at	-6.22902
▁which	-6.23116
o	-6.23374
.,	-6.26456
▁C	-6.28102
▁was	-6.30451
es	-6.32524
▁between	-6.33981
m	-6.35924
P	-6.37715
1	-6.37991
l	-6.4126
▁been	-6.43587
).	-6.44015
▁re	-6.44068
▁M	-6.44972
M	-6.45179
▁these	-6.45184
us	-6.45936
▁can	-6.47741
ic	-6.48216
▁gene	-6.49358
▁were	-6.49639
▁may	-6.51052
▁also	-6.51235
ation	-6.51411
an	-6.5245
R	-6.52726
▁has	-6.52895
▁genes	-6.53754
B	-6.55029
h	-6.55351
▁H	-6.56076
u	-6.56334
▁p	-6.56925
3	-6.56943
▁other	-6.57409
▁it	-6.58098
▁s	-6.58123
D	-6.59122
G	-6.59865
L	-6.60381
ar	-6.60649
ol	-6.61731
▁G	-6.62228
5	-6.63674
f	-6.63781
▁their	-6.64344
;	-6.66269
T	-6.66878
▁B	-6.68956
▁more	-6.69166
▁c	-6.69415
E	-6.7
7	-6.71779
▁This	-6.72084
at	-6.72297
▁different	-6.72367
it	-6.72521
▁f	-6.73241
▁T	-6.73262
on	-6.73291
▁than	-6.73421
6	-6.74677
▁two	-6.75076
re	-6.75283
▁data	-6.76134
F	-6.78112
▁but	-6.78968
▁m	-6.7915
ion	-6.79234
▁2	-6.79264
▁D	-6.79785
H	-6.79905
▁We	-6.80007
▁study	-6.80087
k	-6.80317
▁model	-6.81159
▁E	-6.82273
le	-6.83119
▁our	-6.85009
/	-6.85328
I	-6.86762
4	-6.87409
▁N	-6.87442
N	-6.87702
),	-6.87957
en	-6.88778
▁g	-6.88779
▁L	-6.90204
▁de	-6.91799
▁such	-6.9185
▁b	-6.93549
0	-6.93838
▁h	-6.94045
▁during	-6.94606
ur	-6.95411
▁co	-6.96342
ent	-6.96699
▁all	-6.96931
▁F	-6.97114
▁[	-6.97993
9	-6.98219
8	-6.99477
li	-6.99518
▁R	-6.99675
el	-6.99711
▁both	-6.99913
▁3	-7.00125
ch	-7.00699
▁found	-7.02194
um	-7.02218
▁only	-7.05745
te	-7.05972
il	-7.07278
et	-7.07346
▁one	-7.08194
ment	-7.0891
▁1	-7.09174
▁However	-7.09902
is	-7.10411
▁studies	-7.10523
▁results	-7.1311
▁expression	-7.14089
▁protein	-7.15068
▁high	-7.15112
ta	-7.15306
ine	-7.15633
x	-7.15781
O	-7.15871
▁most	-7.1647
th	-7.16486
ive	-7.17169
ated	-7.17526
z	-7.17587
ate	-7.18328
:	-7.18649
id	-7.19042
▁con	-7.20633
▁O	-7.2072
K	-7.21008
▁number	-7.21452
▁could	-7.21747
ity	-7.21917
▁time	-7.22491
▁within	-7.22706
ia	-7.23498
▁t	-7.23666
ul	-7.23949
w	-7.24122
v	-7.24198
ter	-7.24788
▁genetic	-7.2485
▁d	-7.25824
ro	-7.268
▁cell	-7.28034
▁pro	-7.28178
as	-7.28443
ut	-7.28539
▁analysis	-7.29374
▁used	-7.29786
▁un	-7.30182
st	-7.31361
▁e	-7.31438
▁its	-7.33242
▁I	-7.33604
▁when	-7.33652
▁some	-7.33731
▁into	-7.34937
▁4	-7.35161
ri	-7.35424
▁evolution	-7.36256
▁19	-7.3626
im	-7.36741
ot	-7.37711
ra	-7.37892
ant	-7.38567
▁cells	-7.3913
▁present	-7.3921
▁selection	-7.39286
▁would	-7.39497
▁no	-7.40134
▁similar	-7.40245
▁well	-7.40849
▁5	-7.41287
tic	-7.41379
▁proteins	-7.42387
to	-7.42508
▁non	-7.43532
▁observed	-7.44277
op	-7.44479
lo	-7.44856
▁populations	-7.4489
ous	-7.44954
▁rate	-7.45432
–	-7.45456
am	-7.46627
ce	-7.47591
▁network	-7.47887
V	-7.47975
able	-7.4813
▁system	-7.48173
'	-7.48453
▁r	-7.48629
▁size	-7.49693
▁K	-7.50554
▁response	-7.51334
▁among	-7.51769
▁under	-7.51926
▁using	-7.52264
▁do	-7.52676
ir	-7.52807
ry	-7.52846
est	-7.5304
▁important	-7.53411
▁changes	-7.53481
▁they	-7.53782
ox	-7.54323
ad	-7.55427
▁It	-7.55557
▁l	-7.56091
la	-7.57051
▁function	-7.57359
▁W	-7.58034
ig	-7.58113
▁population	-7.58326
▁evolutionary	-7.58631
▁sub	-7.58996
ally	-7.59085
▁each	-7.59086
ating	-7.59431
▁large	-7.59825
▁low	-7.60877
▁over	-7.61082
▁For	-7.61416
W	-7.61676
ill	-7.61681
▁levels	-7.61805
co	-7.62292
se	-7.62599
▁genome	-7.62724
▁sequence	-7.63139
▁variation	-7.63922
▁These	-7.64089
▁n	-7.64664
age	-7.65273
▁three	-7.65658
and	-7.66119
▁body	-7.66207
ary	-7.66236
▁so	-7.6675
▁higher	-7.66779
▁same	-7.66917
▁there	-7.67065
ance	-7.6714
▁sp	-7.67164
▁based	-7.67256
▁st	-7.67789
▁Our	-7.6782
▁form	-7.67891
▁because	-7.68213
▁V	-7.68591
▁differences	-7.68735
▁shown	-7.6874
ne	-7.68988
▁role	-7.69306
▁many	-7.69315
ial	-7.69672
▁likely	-7.71263
▁example	-7.71599
▁increase	-7.71759
▁might	-7.71966
▁phylogenetic	-7.72109
▁will	-7.72237
ell	-7.72792
▁activity	-7.72827
na	-7.7294
▁where	-7.73128
▁through	-7.73505
me	-7.73577
▁metabolic	-7.73857
ip	-7.73905
▁v	-7.74226
▁k	-7.74315
uc	-7.74565
▁first	-7.7477
▁functional	-7.74989
▁group	-7.76057
▁several	-7.76524
▁use	-7.76726
▁show	-7.77027
▁comp	-7.7728
▁per	-7.77535
▁effect	-7.77722
om	-7.77738
ist	-7.78093
▁level	-7.78298
specific	-7.78608
vi	-7.79483
▁range	-7.79846
Fig	-7.79878
▁conditions	-7.79982
▁effects	-7.80246
ac	-7.80714
▁single	-7.81074
de	-7.81084
▁those	-7.81344
▁known	-7.81698
ke	-7.82009
▁new	-7.82659
▁models	-7.82659
ci	-7.82932
▁evidence	-7.83032
▁muscle	-7.83201
▁control	-7.83227
▁suggest	-7.83237
▁result	-7.83773
▁support	-7.83787
▁complex	-7.8383
▁due	-7.83864
▁sequences	-7.84053
ase	-7.84097
ma	-7.84378
ti	-7.84389
▁associated	-7.84805
ae	-7.85053
▁related	-7.85523
▁work	-7.86452
▁structure	-7.86615
ap	-7.86698
]	-7.8722
▁ch	-7.87428
▁pre	-7.87665
▁molecular	-7.87697
▁6	-7.87769
▁distribution	-7.8801
▁increased	-7.88586
ers	-7.88719
▁significant	-7.88879
▁possible	-7.89049
▁[2	-7.89142
▁small	-7.89469
ization	-7.89659
up	-7.89784
ies	-7.89827
ten	-7.90248
▁host	-7.90824
▁fish	-7.90921
’	-7.90932
un	-7.91258
▁test	-7.91948
▁while	-7.92375
os	-7.9242
▁after	-7.92559
▁out	-7.9334
▁patterns	-7.93925
▁including	-7.94127
mo	-7.94355
▁di	-7.94561
▁growth	-7.94673
ian	-7.94683
▁if	-7.94726
▁set	-7.95346
ex	-7.95667
▁inter	-7.9571
▁further	-7.95741
▁rates	-7.95801
▁information	-7.95936
▁specific	-7.96027
▁pattern	-7.96423
▁long	-7.9654
lu	-7.96588
oc	-7.96589
▁method	-7.96727
▁identified	-7.97211
▁process	-7.97348
log	-7.97789
ct	-7.98123
▁flow	-7.98724
▁approach	-7.98767
ab	-7.99163
ome	-7.99396
▁across	-7.9951
▁potential	-7.99791
▁part	-7.99836
▁human	-8.00095
di	-8.00758
U	-8.0076
–1	-8.00793
▁compared	-8.00804
▁very	-8.00845
▁U	-8.00874
em	-8.01403
▁As	-8.02156
▁should	-8.02181
▁region	-8.02209
ling	-8.02269
der	-8.0247
▁development	-8.02787
▁change	-8.02938
ver	-8.02941
▁analyses	-8.0301
▁biological	-8.03199
yl	-8.0324
▁thus	-8.03701
son	-8.03751
▁provide	-8.0395
▁lower	-8.0449
ub	-8.04788
▁divergence	-8.05023
ative	-8.05035
mer	-8.05254
▁mechanisms	-8.0554
▁any	-8.05781
▁i	-8.05847
ens	-8.06151
▁contrast	-8.06338
▁sh	-8.0635
fer	-8.06633
▁even	-8.07076
pt	-8.07238
ve	-8.0735
ha	-8.07572
▁interactions	-8.07858
▁hypothesis	-8.07998
▁stress	-8.0815
▁trans	-8.08153
ide	-8.08409
ting	-8.08514
▁addition	-8.08628
▁common	-8.08885
▁multiple	-8.09133
▁lineages	-8.09369
ted	-8.09717
▁Although	-8.10047
▁water	-8.10063
▁relative	-8.10123
ho	-8.10192
hi	-8.10277
line	-8.10414
▁pathway	-8.10535
po	-8.10577
j	-8.10728
▁reported	-8.10772
▁Thus	-8.10949
▁[5	-8.11251
▁networks	-8.11364
les	-8.11412
▁diversity	-8.11587
▁involved	-8.11589
▁less	-8.11691
▁showed	-8.11786
▁methods	-8.12
▁To	-8.12006
▁whether	-8.1205
▁origin	-8.12418
nt	-8.1334
▁imp	-8.13638
▁how	-8.13641
▁7	-8.13879
▁case	-8.13978
▁groups	-8.14
▁systems	-8.14007
io	-8.14501
▁up	-8.14596
▁suggests	-8.14638
iv	-8.14759
ast	-8.14867
▁ex	-8.15013
▁order	-8.15128
ni	-8.15231
▁regions	-8.15307
▁temperature	-8.15509
▁[4	-8.15646
▁0	-8.16025
▁DNA	-8.16039
tu	-8.16068
▁highly	-8.16394
▁positive	-8.16429
▁factors	-8.16926
ose	-8.17075
▁experimental	-8.17133
▁about	-8.1724
all	-8.17301
▁recent	-8.17548
+	-8.17562
Figure	-8.17595
▁J	-8.17678
▁animals	-8.17729
▁An	-8.17752
ized	-8.17762
gen	-8.17808
▁previous	-8.18228
▁family	-8.18575
q	-8.18629
▁processes	-8.1907
▁values	-8.19415
ang	-8.1951
be	-8.19692
con	-8.19881
ge	-8.2009
▁energy	-8.20254
▁me	-8.204
▁length	-8.20567
▁consistent	-8.20628
▁individual	-8.20655
▁mass	-8.20706
ea	-8.20742
ence	-8.21585
min	-8.21706
ata	-8.21888
▁however	-8.22433
▁had	-8.22509
▁10	-8.22711
▁therefore	-8.22777
▁dis	-8.22778
X	-8.23084
▁strong	-8.23581
▁presence	-8.2367
lic	-8.23728
▁fl	-8.23799
▁did	-8.23975
▁sites	-8.24117
ite	-8.24353
ical	-8.24674
▁pathways	-8.24694
▁local	-8.24774
▁here	-8.24975
Y	-8.25362
▁production	-8.25562
▁behavior	-8.25614
▁short	-8.25625
per	-8.2563
▁represent	-8.25645
▁pa	-8.2567
act	-8.25696
▁position	-8.25914
▁major	-8.25964
pe	-8.26138
ner	-8.26161
the	-8.2623
▁acid	-8.26527
▁previously	-8.26667
▁o	-8.2669
man	-8.26823
ow	-8.2692
▁period	-8.2696
tri	-8.27645
1,	-8.27858
▁either	-8.27961
ob	-8.28031
ure	-8.28235
▁significantly	-8.28314
▁[6	-8.28692
▁w	-8.29011
ran	-8.29139
ev	-8.29343
▁mechanism	-8.29491
idae	-8.29496
],	-8.29714
va	-8.30465
▁does	-8.31013
▁file	-8.31264
ue	-8.31325
ec	-8.31429
ness	-8.32213
▁frequency	-8.32358
tion	-8.32375
▁play	-8.32508
▁mitochondrial	-8.3271
mb	-8.32876
▁male	-8.32929
▁lineage	-8.33316
▁cycle	-8.33337
▁experiments	-8.33686
like	-8.33707
ound	-8.33805
gr	-8.33958
av	-8.3399
ick	-8.34063
see	-8.34131
▁loss	-8.34274
▁individuals	-8.34337
▁regulation	-8.3436
▁general	-8.34405
▁state	-8.34424
▁distinct	-8.34596
▁particular	-8.34804
10	-8.34834
=	-8.35034
ron	-8.35112
mon	-8.35169
▁taxa	-8.35213
▁act	-8.35434
one	-8.35589
▁events	-8.3573
▁natural	-8.35822
▁target	-8.36096
▁available	-8.36312
▁tree	-8.36342
▁males	-8.3651
oid	-8.36563
▁suggested	-8.36697
▁four	-8.37282
▁lack	-8.37433
▁regulatory	-8.37856
▁proposed	-8.37992
▁20	-8.38184
▁affect	-8.38311
▁early	-8.38426
gene	-8.38448
▁relatively	-8.38481
bi	-8.38494
▁females	-8.38606
▁vi	-8.38789
end	-8.38831
▁he	-8.38866
▁domain	-8.38911
ca	-8.38938
▁few	-8.3933
[	-8.39371
▁environmental	-8.39425
ud	-8.39682
▁=	-8.39758
▁least	-8.39895
▁Re	-8.40124
▁light	-8.40302
▁appear	-8.40422
▁Ch	-8.40528
▁much	-8.40894
▁post	-8.41017
land	-8.41161
ction	-8.41177
▁reduced	-8.41464
go	-8.41495
ities	-8.4154
▁performance	-8.41558
▁relationship	-8.41642
ward	-8.41689
▁8	-8.41732
her	-8.41796
tro	-8.41864
ations	-8.41928
▁surface	-8.42069
mat	-8.42117
▁predict	-8.42122
pi	-8.42242
bo	-8.42314
▁indicate	-8.42355
▁type	-8.42527
▁conserved	-8.42531
▁functions	-8.42698
▁lead	-8.4298
▁disease	-8.43104
▁genomes	-8.43158
ph	-8.43216
he	-8.43258
▁identify	-8.43295
▁multi	-8.43371
▁morphological	-8.43409
▁Ma	-8.43496
▁force	-8.43536
▁signal	-8.43559
▁often	-8.4374
pp	-8.4407
▁distance	-8.44378
▁reflect	-8.44523
▁described	-8.44581
gu	-8.44581
▁amino	-8.44613
▁given	-8.44648
▁para	-8.44753
based	-8.4479
▁binding	-8.45191
▁Therefore	-8.4529
▁se	-8.4543
▁environment	-8.45675
▁although	-8.461
ard	-8.46194
▁expected	-8.46197
▁clade	-8.46303
(	-8.46462
▁parameters	-8.46522
▁interaction	-8.46544
▁close	-8.4656
ock	-8.46702
▁additional	-8.469
tin	-8.46933
mit	-8.473
ton	-8.475
▁female	-8.478
▁th	-8.4797
▁include	-8.48373
pod	-8.48408
▁duplication	-8.48581
▁exhibit	-8.48606
▁relationships	-8.48722
phy	-8.48763
▁ca	-8.48803
▁source	-8.48821
▁phase	-8.49175
▁min	-8.49358
tract	-8.49679
▁car	-8.49899
▁plant	-8.50113
▁greater	-8.50113
▁speed	-8.50204
▁whereas	-8.50279
▁expressed	-8.50315
type	-8.50928
▁suggesting	-8.50965
▁Y	-8.5116
▁decrease	-8.51248
ak	-8.51438
▁organisms	-8.51623
RNA	-8.51632
▁larger	-8.51652
▁ability	-8.51861
mi	-8.5206
▁traits	-8.52227
▁types	-8.52287
▁Figure	-8.52555
ates	-8.52588
▁op	-8.52603
▁bi	-8.52622
▁signaling	-8.52727
▁tissue	-8.52912
▁responses	-8.52923
▁transport	-8.53038
▁9	-8.53378
ep	-8.53395
no	-8.53398
▁mo	-8.53619
▁Furthermore	-8.53842
ability	-8.53845
▁difference	-8.53987
▁transcription	-8.54015
▁mammals	-8.54055
ga	-8.54168
▁comparison	-8.54215
ach	-8.54242
1)	-8.54282
▁adaptation	-8.54338
ath	-8.54722
ax	-8.54793
▁visual	-8.54899
▁influence	-8.54952
▁micro	-8.55025
▁cellular	-8.55091
▁fact	-8.55112
▁membrane	-8.55141
pos	-8.55217
2,	-8.55242
ru	-8.55274
ster	-8.55496
▁novel	-8.55652
▁considered	-8.55855
▁life	-8.56213
▁being	-8.56278
▁rather	-8.5629
50	-8.56326
sp	-8.56375
▁differ	-8.56376
-1	-8.56509
▁food	-8.5654
cl	-8.56761
▁adult	-8.56778
▁metabolism	-8.56827
pla	-8.56864
ern	-8.56908
"	-8.57069
▁organ	-8.57076
▁bio	-8.57081
▁poly	-8.57242
sis	-8.57465
res	-8.57477
▁explain	-8.57678
▁factor	-8.57762
▁properties	-8.5786
0%	-8.57919
ov	-8.57989
ile	-8.58048
au	-8.5817
▁physiological	-8.5826
if	-8.58358
5].	-8.58399
form	-8.5849
▁various	-8.58527
▁increasing	-8.58541
▁current	-8.58561
br	-8.58591
▁correlation	-8.58737
sh	-8.58765
▁pressure	-8.58877
2].	-8.59089
ff	-8.5927
▁predicted	-8.59451
▁still	-8.59732
tur	-8.59766
▁occur	-8.59871
▁demonstrated	-8.59881
rm	-8.59911
▁birds	-8.60021
▁limited	-8.60048
▁active	-8.60215
ler	-8.60358
▁en	-8.60364
▁negative	-8.60371
ight	-8.60671
▁cr	-8.60679
gn	-8.60739
▁activation	-8.60922
str	-8.60922
▁history	-8.6116
▁understanding	-8.6143
tr	-8.61453
▁2007)	-8.61729
▁reproductive	-8.61873
ty	-8.62218
▁wing	-8.62461
▁via	-8.62475
▁nuclear	-8.62475
▁mutations	-8.6261
ts	-8.62752
▁direct	-8.6301
▁contribute	-8.63077
▁mean	-8.6312
▁sex	-8.63313
tor	-8.63442
▁RNA	-8.63468
cul	-8.63475
qui	-8.63583
▁second	-8.63689
▁ancestral	-8.63972
▁alter	-8.64088
▁Ca	-8.64299
▁place	-8.64349
▁‘	-8.64358
▁la	-8.64718
▁fitness	-8.6484
▁genomic	-8.64948
ug	-8.65047
▁dynamics	-8.65102
▁able	-8.65205
°	-8.6538
▁Z	-8.65462
▁produce	-8.65496
▁"	-8.6564
4].	-8.65905
ay	-8.65922
▁point	-8.66243
▁since	-8.66251
▁fin	-8.66294
ser	-8.66383
ii	-8.66611
▁substrate	-8.66809
▁measure	-8.66856
for	-8.66969
▁direction	-8.67066
▁respectively	-8.67067
▁su	-8.6721
▁required	-8.67217
aw	-8.67365
8].	-8.67549
ory	-8.67572
▁then	-8.67588
▁revealed	-8.67608
ost	-8.67635
200	-8.67739
▁Here	-8.67819
▁differentiation	-8.67863
▁end	-8.67868
ack	-8.67963
▁X	-8.68119
▁class	-8.682
▁treatment	-8.68366
que	-8.68481
▁studied	-8.68551
▁intron	-8.68569
▁above	-8.68644
▁site	-8.6899
▁chromosome	-8.6903
▁sc	-8.69105
▁–	-8.69133
▁animal	-8.69249
tra	-8.69345
▁without	-8.69348
sym	-8.69404
▁along	-8.6953
▁total	-8.69594
▁cancer	-8.6977
▁mutation	-8.69794
▁receptor	-8.70112
▁On	-8.70287
▁behaviour	-8.70394
▁need	-8.7043
tal	-8.70572
J	-8.70832
▁sexual	-8.70835
▁adaptive	-8.70842
▁problem	-8.70894
▁components	-8.70991
▁flight	-8.71099
par	-8.71214
▁anti	-8.71363
▁features	-8.71541
▁recently	-8.71595
▁transfer	-8.7161
▁St	-8.71613
fish	-8.71622
9].	-8.71633
ize	-8.71716
▁plants	-8.71935
▁formation	-8.72029
▁prey	-8.72109
ert	-8.72192
art	-8.72195
▁tra	-8.72213
▁cause	-8.72215
▁sperm	-8.72217
▁str	-8.72332
▁obtained	-8.72355
▁ratio	-8.72368
▁step	-8.72494
▁scale	-8.72609
▁essential	-8.7285
che	-8.7295
▁determine	-8.73063
▁initial	-8.73099
ium	-8.73266
rr	-8.73327
3].	-8.73409
▁2006)	-8.73431
▁measured	-8.73476
dependent	-8.73493
▁effective	-8.73567
▁tri	-8.73864
▁context	-8.74162
cor	-8.74383
AT	-8.74463
▁loci	-8.74585
▁us	-8.74609
▁amount	-8.74686
▁research	-8.74702
▁Moreover	-8.74771
6].	-8.74823
tim	-8.74884
▁way	-8.74918
own	-8.74922
1].	-8.75346
▁qu	-8.75354
▁While	-8.75442
pl	-8.75535
od	-8.75555
▁age	-8.75885
▁probably	-8.75922
▁make	-8.75946
ins	-8.75977
▁alternative	-8.76055
▁oxygen	-8.76138
vo	-8.76184
ult	-8.76295
▁detected	-8.76374
▁tend	-8.76434
▁sa	-8.765
▁feeding	-8.76652
▁key	-8.76715
▁combination	-8.76839
▁increases	-8.76912
dent	-8.76965
▁question	-8.77242
▁Th	-8.77387
▁contain	-8.77435
▁ecological	-8.77545
▁main	-8.77556
▁consider	-8.778
▁parameter	-8.77845
pa	-8.77897
▁insects	-8.7792
red	-8.77925
tt	-8.77927
▁against	-8.78036
▁following	-8.78104
istic	-8.7812
acc	-8.78134
oll	-8.78346
▁immune	-8.78392
▁findings	-8.78407
▁see	-8.78536
▁free	-8.78747
▁provides	-8.78815
▁ro	-8.78983
▁occurred	-8.79181
▁clear	-8.79427
ber	-8.79434
▁them	-8.79479
▁drug	-8.79521
7].	-8.79819
▁shape	-8.79862
cle	-8.79945
▁If	-8.79959
▁cannot	-8.80091
▁detect	-8.8011
pha	-8.80182
0].	-8.80202
▁reduction	-8.80246
rs	-8.8025
▁field	-8.80355
lin	-8.80489
▁Additional	-8.80544
▁hybrid	-8.80573
off	-8.80652
▁evolved	-8.80669
king	-8.80719
▁account	-8.80767
–2	-8.80899
▁families	-8.80924
▁resulting	-8.80925
▁normal	-8.80961
▁CO	-8.80994
▁independent	-8.81056
out	-8.81571
▁genus	-8.81593
ps	-8.81728
▁algorithm	-8.81747
▁difficult	-8.81852
▁closely	-8.81985
fe	-8.81989
▁prior	-8.82012
▁Me	-8.82231
▁cases	-8.82244
▁require	-8.82378
▁j	-8.82384
▁association	-8.8263
▁before	-8.82668
tre	-8.82673
ring	-8.82865
▁central	-8.82968
omy	-8.8324
▁become	-8.83316
▁directly	-8.83722
▁mating	-8.83762
▁design	-8.83906
▁complete	-8.8402
▁power	-8.84049
▁cross	-8.84103
▁mRNA	-8.84249
▁appears	-8.84338
do	-8.84345
▁reason	-8.84387
▁elements	-8.84392
▁better	-8.84553
▁value	-8.84626
CA	-8.84703
▁shift	-8.84711
▁degree	-8.84783
▁remain	-8.84875
▁condition	-8.84901
▁diversification	-8.84946
▁selective	-8.84975
▁ph	-8.84995
▁improve	-8.85037
▁substitution	-8.85164
▁years	-8.85193
▁members	-8.85251
ans	-8.8528
▁One	-8.85284
▁spec	-8.85409
▁separate	-8.85457
3,	-8.85475
▁find	-8.85598
▁whole	-8.85838
▁cluster	-8.85847
▁supported	-8.85897
▁egg	-8.85938
▁assess	-8.86067
▁area	-8.86234
▁resistance	-8.86317
▁reaction	-8.86341
▁sensitivity	-8.86428
▁must	-8.86465
ism	-8.86587
▁ha	-8.86803
▁neuro	-8.86864
▁brain	-8.86947
▁pathogen	-8.87084
▁slow	-8.8719
▁derived	-8.87232
▁muscles	-8.8732
▁differential	-8.87381
▁phylogeny	-8.87391
ari	-8.87399
our	-8.87454
mal	-8.87543
rich	-8.87663
▁demonstrate	-8.8768
oph	-8.87747
▁generally	-8.87806
led	-8.87908
loc	-8.87932
▁wild	-8.8797
▁concentration	-8.88008
▁maximum	-8.881
▁ancestor	-8.88138
▁another	-8.88273
▁parasite	-8.8831
▁maintain	-8.88315
▁generation	-8.88417
eg	-8.88453
▁swimming	-8.88476
ning	-8.88515
11	-8.88599
▁shows	-8.88666
ator	-8.8879
▁absence	-8.88872
▁epi	-8.88956
▁expansion	-8.89023
har	-8.89041
▁impact	-8.8906
cho	-8.89157
ough	-8.89421
▁average	-8.89555
▁depend	-8.89648
ological	-8.89649
ids	-8.89858
ba	-8.90003
▁man	-8.90025
▁transition	-8.90069
▁remains	-8.90087
ST	-8.90144
▁approaches	-8.90174
▁particularly	-8.90279
▁reactions	-8.90352
▁II	-8.90556
▁produced	-8.90572
▁structures	-8.90611
fi	-8.90624
amp	-8.90629
▁strongly	-8.90849
▁Co	-8.90908
▁There	-8.90942
bl	-8.91014
▁advantage	-8.91049
yn	-8.91087
ular	-8.91093
▁turn	-8.91271
nu	-8.91356
zo	-8.91516
12	-8.91749
▁knowledge	-8.91765
▁link	-8.91826
rus	-8.91834
AP	-8.92129
▁far	-8.92336
▁exposure	-8.92448
▁line	-8.92618
▁hand	-8.9264
▁signals	-8.92714
mp	-8.9282
▁developed	-8.92851
▁importance	-8.92899
▁limit	-8.92939
▁certain	-8.93155
▁together	-8.93234
ok	-8.93255
term	-8.93424
▁record	-8.93473
qua	-8.93633
▁pair	-8.93656
ood	-8.93734
ili	-8.93779
▁capacity	-8.93788
▁syn	-8.93857
ear	-8.93979
▁structural	-8.93987
▁tissues	-8.94209
▁blood	-8.94246
omic	-8.94278
▁sea	-8.94344
▁interact	-8.9448
▁2004)	-8.94525
▁insect	-8.94546
▁phenotypic	-8.94565
ish	-8.94717
▁At	-8.94731
▁“	-8.94766
▁spatial	-8.94785
▁great	-8.94877
▁unique	-8.94946
oma	-8.94979
▁rapid	-8.95008
cer	-8.95045
▁infection	-8.95153
▁mammalian	-8.95187
▁applied	-8.95388
▁down	-8.95441
”	-8.95509
▁cost	-8.95583
unt	-8.9561
▁times	-8.95623
ably	-8.95719
▁dynamic	-8.95744
%	-8.95811
▁proportion	-8.95833
ions	-8.9588
▁red	-8.95958
▁Drosophila	-8.95995
▁wide	-8.96105
▁domains	-8.96151
vert	-8.96259
▁strains	-8.96267
▁allow	-8.96268
ven	-8.96326
▁consequence	-8.9634
▁tested	-8.96364
com	-8.96587
▁tr	-8.96684
▁broad	-8.96748
cu	-8.96875
▁auto	-8.96883
▁diet	-8.97017
val	-8.97102
▁meta	-8.97119
▁12	-8.97271
▁enzymes	-8.97293
▁nest	-8.97318
▁fast	-8.97464
▁exist	-8.97502
▁simple	-8.97775
den	-8.97991
▁clades	-8.98169
▁Ne	-8.98197
▁especially	-8.9823
▁reduce	-8.98258
▁investigated	-8.98556
▁estimated	-8.98567
▁branch	-8.98651
▁Ar	-8.98658
4,	-8.98658
000	-8.98729
ier	-8.98776
▁morphology	-8.98822
▁like	-8.98835
ella	-8.99088
Table	-8.99089
ka	-8.99178
▁overall	-8.99202
lar	-8.99278
▁La	-8.99282
▁ortholog	-8.99677
▁receptors	-8.99809
ible	-8.99859
lum	-8.99889
▁constant	-9.00009
ogenesis	-9.0015
let	-9.00206
scale	-9.00391
late	-9.00407
▁indicates	-9.0049
related	-9.00514
▁With	-9.0054
▁eye	-9.00683
▁respect	-9.009
▁concentrations	-9.01004
▁content	-9.01009
▁seems	-9.01012
▁performed	-9.01091
▁help	-9.01098
▁smaller	-9.01323
ace	-9.01589
ull	-9.01892
▁vertebrates	-9.01906
▁media	-9.01909
matic	-9.0198
▁dispersal	-9.02035
▁generated	-9.02099
ulation	-9.02111
▁larvae	-9.02186
▁subsequent	-9.02359
▁yet	-9.02507
▁release	-9.02512
80	-9.02568
▁underlying	-9.02739
▁estimates	-9.02805
pr	-9.02841
▁super	-9.02856
▁trees	-9.02858
mod	-9.02949
mark	-9.0302
▁towards	-9.03065
▁2)	-9.03111
▁reveal	-9.0313
▁environments	-9.03169
▁examined	-9.03179
▁markers	-9.03214
▁Such	-9.03239
▁vary	-9.03312
▁prim	-9.03364
▁presented	-9.03384
70	-9.03533
itu	-9.03606
▁display	-9.0362
▁neurons	-9.03716
▁Na	-9.03728
▁space	-9.03741
▁leading	-9.03881
▁little	-9.04368
▁open	-9.04375
▁forces	-9.0444
ice	-9.04459
▁future	-9.04588
▁homolog	-9.04637
▁report	-9.04781
▁biology	-9.04785
▁developmental	-9.04797
eno	-9.0483
▁flux	-9.04872
5]	-9.04977
pro	-9.0505
▁No	-9.05122
3)	-9.05214
▁search	-9.05385
▁sister	-9.05391
Q	-9.054
air	-9.0543
fin	-9.05457
bol	-9.0548
▁consist	-9.05504
ula	-9.05537
▁enzyme	-9.05551
▁glucose	-9.05581
sens	-9.05715
▁possibility	-9.05766
▁survival	-9.05901
AR	-9.05965
▁vertebrate	-9.05967
ger	-9.05973
dy	-9.0599
▁sampling	-9.06058
▁2008).	-9.06282
▁necessary	-9.06327
zy	-9.0642
▁mice	-9.06539
▁occurs	-9.06686
▁similarity	-9.06761
▁potentially	-9.06794
20	-9.06857
▁speciation	-9.06891
▁insight	-9.06952
▁Fig	-9.07068
Z	-9.07082
▁hetero	-9.07091
▁view	-9.07095
▁Al	-9.07171
▁Q	-9.07303
▁18	-9.07314
iform	-9.07322
▁By	-9.07368
▁predator	-9.07442
▁2003)	-9.07526
▁computational	-9.07572
▁lateral	-9.07573
mic	-9.07586
▁terms	-9.07696
▁Table	-9.0775
izing	-9.07784
▁cap	-9.07799
▁contact	-9.078
ana	-9.07839
cre	-9.07863
ple	-9.07864
▁temperatures	-9.08142
▁sets	-9.08405
▁mol	-9.08431
▁Finally	-9.08442
▁ta	-9.08582
▁Le	-9.08584
8]	-9.08622
▁location	-9.08631
und	-9.08658
▁endo	-9.0868
▁leg	-9.08778
▁take	-9.09004
▁involve	-9.09012
sen	-9.09121
▁segment	-9.09179
▁characterized	-9.09191
ified	-9.09208
▁stage	-9.09237
▁habitat	-9.0931
over	-9.09446
▁samples	-9.09451
▁correlated	-9.09515
ploid	-9.0965
▁apparent	-9.09666
cin	-9.09681
▁gain	-9.09752
ini	-9.09839
rid	-9.09898
▁mutant	-9.09899
ding	-9.09966
▁determined	-9.1022
▁corresponding	-9.1028
▁global	-9.10459
▁provided	-9.10535
▁longer	-9.10538
▁scenario	-9.10577
port	-9.10579
side	-9.1061
▁De	-9.10624
▁observations	-9.10649
ology	-9.10787
▁develop	-9.10833
▁resource	-9.10835
▁head	-9.10903
▁duration	-9.11025
cr	-9.1108
▁composition	-9.11142
▁variable	-9.11173
▁exp	-9.11206
yr	-9.11213
ful	-9.11236
▁im	-9.11315
ensis	-9.11458
protein	-9.11496
part	-9.11604
oper	-9.11728
▁five	-9.11786
▁substantial	-9.11852
▁diverse	-9.11923
▁phenotype	-9.1193
ey	-9.11984
▁experiment	-9.1201
▁finding	-9.12033
so	-9.12047
▁statistical	-9.12137
▁caused	-9.1228
▁valid	-9.12355
▁bacteria	-9.12382
30	-9.12552
▁genotype	-9.12567
▁When	-9.12656
▁reach	-9.12671
duct	-9.12801
5%	-9.12828
atory	-9.12837
▁transcript	-9.12853
▁construct	-9.12903
▁explanation	-9.12999
1]	-9.13061
ogen	-9.13193
ole	-9.13432
2)	-9.13442
9]	-9.13477
ebr	-9.1374
▁subject	-9.13893
▁sound	-9.13974
13	-9.13976
▁deep	-9.14115
▁mode	-9.14172
atus	-9.14172
Additional	-9.14193
ule	-9.14219
▁extensive	-9.1433
▁bacterial	-9.14376
▁primary	-9.14383
▁organism	-9.14616
▁mtDNA	-9.14819
2]	-9.14884
▁embryo	-9.14895
▁Because	-9.14941
▁term	-9.1498
▁seen	-9.15
ves	-9.15168
▁rest	-9.15251
rain	-9.15376
▁product	-9.1538
α	-9.15553
▁input	-9.15577
ene	-9.15721
emi	-9.15733
▁included	-9.15741
▁ba	-9.1575
▁around	-9.15861
▁add	-9.15993
▁recombination	-9.16001
▁hyper	-9.16002
isation	-9.1601
▁dive	-9.16023
terminal	-9.16058
▁investigate	-9.16058
▁yeast	-9.16075
▁instance	-9.16081
vis	-9.16119
▁strain	-9.16127
▁Indeed	-9.16155
ld	-9.16178
▁chemical	-9.16263
▁real	-9.16304
strict	-9.16381
▁generate	-9.1652
▁indicating	-9.16547
▁allows	-9.16572
▁possess	-9.16597
▁approximately	-9.16722
rate	-9.16926
▁transcriptional	-9.17029
▁database	-9.17083
▁critical	-9.17298
▁peak	-9.1736
▁nucleotide	-9.17418
4]	-9.17449
ification	-9.17459
▁base	-9.17475
cop	-9.17481
▁random	-9.17624
▁start	-9.17741
MR	-9.17764
▁haplotype	-9.17826
ft	-9.17946
▁sufficient	-9.17952
▁β	-9.17962
▁nature	-9.18003
▁intra	-9.18062
3]	-9.18101
▁Pa	-9.18124
▁located	-9.1813
▁estimate	-9.18184
▁mono	-9.18235
▁best	-9.18254
▁unknown	-9.1827
▁mouse	-9.18286
14	-9.18306
▁near	-9.18311
▁molecules	-9.18357
▁codon	-9.18383
AD	-9.1842
lan	-9.18492
ele	-9.18546
▁cold	-9.18573
▁lines	-9.18656
▁indicated	-9.18843
▁lo	-9.19019
rop	-9.19037
▁putative	-9.1907
▁what	-9.19071
ew	-9.19093
▁component	-9.19291
–3	-9.19401
▁limb	-9.1956
▁locus	-9.19569
▁alleles	-9.19648
comp	-9.19682
▁stages	-9.19706
vari	-9.19785
▁measurements	-9.19844
arch	-9.19849
▁strategy	-9.19865
▁address	-9.19926
▁frequencies	-9.19994
▁entire	-9.2002
▁affected	-9.2004
▁Cl	-9.2006
ix	-9.20147
▁success	-9.20189
til	-9.2023
▁15	-9.20271
ency	-9.20283
▁useful	-9.20403
way	-9.20537
ris	-9.20543
▁11	-9.20614
▁basis	-9.20691
▁Po	-9.20721
▁2009).	-9.20728
▁Con	-9.20755
▁selected	-9.20789
group	-9.20804
▁paper	-9.20844
▁interesting	-9.20909
▁morph	-9.20929
▁bias	-9.20986
▁call	-9.21003
▁Interestingly	-9.21083
▁throughout	-9.21252
▁habitats	-9.2143
▁homo	-9.21524
▁genera	-9.2155
▁last	-9.21557
▁isolation	-9.21566
can	-9.21635
ker	-9.21685
▁interest	-9.21691
▁thermal	-9.21863
▁respond	-9.21894
▁upon	-9.21928
▁relevant	-9.21973
▁prediction	-9.21976
▁migration	-9.22052
ong	-9.22075
▁adapt	-9.22183
▁density	-9.22184
▁responsible	-9.22236
▁conservation	-9.22263
▁reproduction	-9.22263
▁social	-9.22265
▁identification	-9.22342
ify	-9.22398
osis	-9.22588
▁My	-9.22718
▁North	-9.22774
▁movement	-9.22849
▁predictions	-9.23042
−1	-9.2305
low	-9.23164
▁TF	-9.23196
▁marine	-9.23218
▁pairs	-9.23291
▁made	-9.23416
oth	-9.23461
▁variability	-9.23483
▁16	-9.2363
bil	-9.23642
▁α	-9.237
▁30	-9.23735
▁heart	-9.23822
▁seem	-9.23824
▁synthesis	-9.24019
▁combined	-9.24053
▁avoid	-9.24103
▁investigation	-9.24153
60	-9.24238
▁event	-9.2424
▁threshold	-9.24314
▁defined	-9.24351
▁observation	-9.24447
▁technique	-9.24476
▁clusters	-9.24487
▁μ	-9.24489
▁clearly	-9.246
▁characteristics	-9.24679
▁temporal	-9.24682
▁areas	-9.24816
cellular	-9.2484
II	-9.2488
▁disc	-9.24914
▁humans	-9.25116
▁challenge	-9.25125
cular	-9.25194
▁isolated	-9.25295
NP	-9.25302
fr	-9.25305
chrom	-9.25335
▁2001)	-9.25479
▁2006;	-9.25506
oli	-9.25632
▁load	-9.25678
och	-9.25733
wise	-9.25734
▁targets	-9.2576
▁basal	-9.25835
▁correspond	-9.25852
▁damage	-9.25861
▁understand	-9.25962
ina	-9.26022
▁nodes	-9.26144
▁partial	-9.26168
▁Mo	-9.26305
▁character	-9.26354
TR	-9.26427
▁output	-9.26492
▁focus	-9.2657
▁secondary	-9.26663
SP	-9.26771
▁facilitate	-9.26822
▁land	-9.26932
▁though	-9.26959
▁mechanical	-9.2696
▁induced	-9.26977
we	-9.26999
▁2010).	-9.27099
▁hypotheses	-9.27154
▁error	-9.27154
▁path	-9.27171
nate	-9.27266
▁decreased	-9.27334
▁color	-9.2736
▁bar	-9.27455
▁means	-9.27517
row	-9.2756
genetic	-9.27708
▁perform	-9.27834
onic	-9.279
▁my	-9.27952
▁conclusion	-9.27961
lid	-9.28093
▁2005;	-9.28128
▁sample	-9.28128
▁latter	-9.28219
rad	-9.28283
▁heat	-9.28289
▁thought	-9.283
ley	-9.28351
-2	-9.28441
▁exon	-9.28443
▁despite	-9.28465
▁needed	-9.28478
▁framework	-9.28492
▁mainly	-9.28579
▁assumption	-9.28605
aceae	-9.28679
▁noise	-9.2873
▁grow	-9.28769
▁oxidative	-9.28858
▁Li	-9.28875
▁constraints	-9.28934
16	-9.28984
▁geographic	-9.29051
▁linked	-9.29103
▁explore	-9.29141
IN	-9.29158
▁joint	-9.29197
▁hypoxia	-9.2931
ivity	-9.29321
▁side	-9.29344
▁capture	-9.29344
?	-9.29423
▁First	-9.29423
▁candidate	-9.29565
wa	-9.29607
▁13	-9.29609
chi	-9.29785
etic	-9.2985
gon	-9.30116
15	-9.30154
▁miRNA	-9.30221
▁variety	-9.30277
▁larval	-9.30334
CO	-9.30347
_	-9.30391
max	-9.30411
▁kinetic	-9.30506
biotic	-9.3052
▁taxon	-9.30693
ocytes	-9.30779
▁teleost	-9.30879
▁All	-9.30879
▁1).	-9.30914
sign	-9.30967
▁efficient	-9.30994
▁Since	-9.31113
▁now	-9.31173
▁unit	-9.31222
arth	-9.31365
ane	-9.31374
cell	-9.31381
▁sensory	-9.31398
▁analyzed	-9.31411
ros	-9.31435
RF	-9.31478
▁reconstruction	-9.31492
2+	-9.31548
▁stimuli	-9.31571
▁cues	-9.31762
▁robust	-9.31778
▁electro	-9.3189
▁simulation	-9.31933
▁usually	-9.31977
osa	-9.32262
▁extent	-9.32503
▁mu	-9.32523
▁weak	-9.32547
▁locomotion	-9.3256
▁regulate	-9.32574
▁peptide	-9.32736
▁offspring	-9.32823
▁largely	-9.32865
▁contribution	-9.32882
cur	-9.32927
BP	-9.3306
▁rare	-9.33095
±	-9.33117
▁South	-9.3315
▁cat	-9.33162
▁lipid	-9.33265
ise	-9.33281
▁motion	-9.33295
▁belong	-9.33324
▁+	-9.33334
my	-9.33421
▁efficiency	-9.335
mate	-9.33672
▁shared	-9.33674
ica	-9.33691
▁Recent	-9.33826
▁date	-9.33867
eck	-9.33892
▁dataset	-9.34002
▁inhibitor	-9.34123
alis	-9.34143
omorph	-9.34221
▁application	-9.34241
ense	-9.34249
▁polymorphism	-9.3427
▁prevent	-9.34425
▁preference	-9.34449
▁exposed	-9.34569
▁residues	-9.34697
▁edge	-9.34742
▁2000)	-9.34755
uch	-9.34755
▁successful	-9.3476
▁day	-9.3479
induced	-9.34794
▁modeling	-9.3481
regulation	-9.34825
ral	-9.3485
▁exchange	-9.34867
▁Di	-9.34927
▁channel	-9.34957
fold	-9.34971
β	-9.34975
▁enhance	-9.34984
▁accurate	-9.34987
▁expect	-9.35181
▁action	-9.35191
ren	-9.35219
IP	-9.35242
▁Ba	-9.35309
▁below	-9.3531
▁Ex	-9.35335
kin	-9.35383
▁volume	-9.35467
▁self	-9.35592
▁2003;	-9.35618
▁fishes	-9.35639
▁access	-9.35648
▁1)	-9.35737
amine	-9.35774
rac	-9.35792
▁acids	-9.35812
▁benefit	-9.35889
car	-9.35927
▁nucle	-9.36023
▁gill	-9.36036
▁[10]	-9.36059
▁already	-9.36071
▁Sch	-9.36243
▁velocity	-9.36344
▁back	-9.36357
▁detailed	-9.36448
▁explained	-9.36502
▁angle	-9.36511
pre	-9.36537
4)	-9.36539
ram	-9.36637
▁foraging	-9.36709
▁Gene	-9.36718
▁abundance	-9.36739
▁name	-9.36855
▁'	-9.36857
arc	-9.3688
▁days	-9.36911
ode	-9.36993
▁typically	-9.37001
▁subunit	-9.37014
▁radiation	-9.37106
▁[12]	-9.37116
▁costs	-9.37138
ung	-9.3716
▁phenotypes	-9.3722
ected	-9.37242
▁complexes	-9.37246
▁majority	-9.3733
▁He	-9.37402
▁lost	-9.37495
hen	-9.37531
▁vivo	-9.37583
▁pi	-9.37626
▁Br	-9.37654
▁repeat	-9.37719
▁2007;	-9.37719
▁strategies	-9.37719
▁2005).	-9.37764
by	-9.37853
▁true	-9.37853
▁material	-9.37874
▁comparative	-9.37904
▁rat	-9.37932
ised	-9.37991
ric	-9.38032
▁optimal	-9.38059
▁fossil	-9.38089
cep	-9.38233
▁~	-9.38311
▁taxonomic	-9.38382
▁14	-9.38393
▁carbon	-9.38402
▁inference	-9.38425
▁standard	-9.38554
▁almost	-9.38618
▁yield	-9.38678
SC	-9.38718
genic	-9.38729
▁restricted	-9.38742
▁linear	-9.38774
DNA	-9.38774
of	-9.38821
▁intracellular	-9.38877
▁special	-9.38888
▁2004;	-9.38927
▁progress	-9.38927
▁mate	-9.38932
ases	-9.38966
▁kinase	-9.38992
▁elevated	-9.39021
▁[9]	-9.39125
pen	-9.39182
>	-9.39302
▁correct	-9.39396
▁resulted	-9.39484
▁regard	-9.39605
▁uptake	-9.39615
▁original	-9.39622
▁describe	-9.39699
▁internal	-9.39749
▁six	-9.39829
▁2008;	-9.39835
▁currently	-9.39916
▁weight	-9.39917
▁Further	-9.39929
MP	-9.39944
▁section	-9.40023
▁detection	-9.40077
▁employ	-9.40118
▁[2]	-9.40132
▁biochemical	-9.40157
▁according	-9.40181
▁stem	-9.40189
▁represents	-9.40221
▁inferred	-9.40356
▁air	-9.40413
▁myo	-9.40414
▁late	-9.40466
▁fully	-9.40491
▁[8]	-9.40503
▁2012)	-9.40563
▁horizontal	-9.40624
▁induce	-9.40626
▁fail	-9.40661
▁2001;	-9.40719
▁stable	-9.40719
▁cla	-9.40816
ition	-9.40834
▁[3]	-9.40988
▁feature	-9.41034
▁They	-9.4107
@	-9.41126
ida	-9.41332
▁detail	-9.41343
▁literature	-9.41387
▁switch	-9.41387
▁match	-9.41521
▁behavioral	-9.41522
▁[13]	-9.41589
▁contains	-9.41658
▁[11]	-9.41717
ze	-9.41838
▁full	-9.41845
ray	-9.42106
▁mid	-9.4215
▁evaluate	-9.42157
▁possibly	-9.42189
dia	-9.42214
▁rapidly	-9.42218
▁zone	-9.42224
▁earlier	-9.42253
▁feedback	-9.42382
▁competition	-9.42415
RP	-9.42529
phi	-9.42555
▁idea	-9.42662
▁quantitative	-9.42705
▁equal	-9.42738
▁serve	-9.42745
mann	-9.42795
▁hosts	-9.42859
▁probability	-9.43095
▁bo	-9.43106
▁roles	-9.43149
▁enable	-9.43263
version	-9.43274
regulated	-9.43294
▁share	-9.43345
▁followed	-9.43438
▁[7]	-9.43469
eng	-9.43563
▁gradient	-9.43583
▁widely	-9.43642
CC	-9.43725
▁[5]	-9.43841
▁flies	-9.43906
▁Despite	-9.4391
▁[10	-9.43911
▁map	-9.43963
but	-9.43978
▁promoter	-9.44127
▁established	-9.44244
▁intermediate	-9.44338
▁actual	-9.44363
▁17	-9.44383
▁[6]	-9.44408
▁Mar	-9.44433
▁divergent	-9.44501
▁stimulus	-9.44501
▁strength	-9.44567
▁showing	-9.44678
▁[4]	-9.44737
vent	-9.44791
▁cover	-9.44851
▁inhibit	-9.44942
▁Based	-9.45095
▁Given	-9.451
▁datasets	-9.4514
▁hydr	-9.45192
▁simulations	-9.45212
amm	-9.45225
▁external	-9.45228
ress	-9.45337
ious	-9.4537
▁bees	-9.45417
▁rule	-9.45463
▁2002;	-9.45561
▁hybridization	-9.45599
▁tolerance	-9.45629
press	-9.45699
uk	-9.45723
▁ATP	-9.45919
▁1999)	-9.45961
adi	-9.4598
▁confirm	-9.46041
▁later	-9.46181
▁Using	-9.4628
ute	-9.46368
ales	-9.46416
▁having	-9.46467
ich	-9.46727
pho	-9.4673
▁core	-9.46832
▁infer	-9.46849
▁fit	-9.46885
▁states	-9.46902
PR	-9.46964
ano	-9.47024
▁limitation	-9.47031
▁propose	-9.47101
tho	-9.47154
▁Both	-9.47166
−	-9.47181
▁choice	-9.4724
vel	-9.47254
▁[18]	-9.47352
▁points	-9.47458
▁Some	-9.47558
▁requires	-9.47659
▁alignment	-9.47749
▁laboratory	-9.47851
▁containing	-9.47937
▁solution	-9.47953
▁[14]	-9.48032
▁aim	-9.48054
▁[16]	-9.48065
75	-9.48128
▁quality	-9.48227
19	-9.48767
pec	-9.48843
▁versus	-9.48844
▁drive	-9.48891
▁neutral	-9.48947
▁[15]	-9.49097
▁complexity	-9.49125
▁signalling	-9.49145
▁isoform	-9.49192
▁regulated	-9.49236
▁posterior	-9.49327
▁plan	-9.49345
▁magnitude	-9.4943
▁suppress	-9.49673
ino	-9.49736
▁[1].	-9.49783
hel	-9.49864
OR	-9.49975
▁Previous	-9.49986
▁Pro	-9.50021
▁good	-9.50031
▁2008)	-9.50055
▁colour	-9.50126
▁bats	-9.50143
▁[17]	-9.50274
▁balance	-9.50302
▁dependent	-9.5033
coding	-9.50422
cycl	-9.50583
▁physical	-9.50614
▁pigment	-9.50755
▁profiles	-9.50925
▁plasma	-9.5093
▁highlight	-9.50949
▁steady	-9.51176
ada	-9.51234
▁[1,	-9.51236
▁trait	-9.51348
▁ancient	-9.51353
▁coli	-9.51377
▁resolve	-9.51529
▁just	-9.5153
inus	-9.51816
▁stochastic	-9.51847
pon	-9.51873
cyt	-9.51959
▁Additionally	-9.52077
▁amplitude	-9.52096
▁contraction	-9.52203
▁2011).	-9.52245
▁evolve	-9.52295
18	-9.52382
▁eukaryotic	-9.52416
inae	-9.52425
[1	-9.52548
▁follow	-9.52608
ER	-9.52664
▁regulator	-9.52681
▁interpret	-9.52761
▁exception	-9.52821
▁Second	-9.52845
▁modification	-9.52845
▁learning	-9.52874
▁parallel	-9.53024
▁x	-9.53065
40	-9.53102
▁primarily	-9.53168
▁barrier	-9.53169
▁bound	-9.53174
▁ER	-9.53232
▁trout	-9.53233
▁orientation	-9.53257
▁block	-9.53278
▁modules	-9.53417
▁accumulation	-9.53564
▁melanogaster	-9.53564
▁sensitive	-9.53573
▁coding	-9.53615
▁1999;	-9.53708
▁background	-9.53708
▁distributed	-9.5378
<	-9.53817
▁[19]	-9.53827
▁crucial	-9.53961
▁African	-9.53966
▁eu	-9.53987
▁arm	-9.53998
▁distinguish	-9.54007
▁zebrafish	-9.5404
▁movements	-9.54069
▁2000;	-9.54215
fic	-9.54227
▁continuous	-9.54251
morph	-9.54259
▁24	-9.54338
▁fragment	-9.5436
▁secretion	-9.5436
▁give	-9.54387
▁vertical	-9.5447
▁systematic	-9.5451
▁cyto	-9.54553
emp	-9.54637
▁fiber	-9.54653
▁activities	-9.54907
90	-9.54952
ometric	-9.54962
▁independently	-9.55003
▁variables	-9.55006
lac	-9.55028
cus	-9.55063
▁establish	-9.5512
▁inhibition	-9.55259
▁create	-9.55285
wide	-9.5529
▁sequencing	-9.5531
▁metabolites	-9.55408
▁led	-9.55486
▁plasticity	-9.55494
▁translation	-9.55587
▁loop	-9.55672
ttle	-9.55847
▁Nevertheless	-9.55899
ulf	-9.55961
▁motif	-9.56007
▁1998)	-9.5601
▁[20]	-9.56112
▁motifs	-9.56125
▁Tr	-9.56199
▁ground	-9.56382
▁protect	-9.56488
▁running	-9.56577
osome	-9.56627
▁neural	-9.56641
▁Most	-9.56873
▁freshwater	-9.56901
▁unlikely	-9.56902
▁estimation	-9.56938
▁characters	-9.56949
▁stability	-9.56956
▁equation	-9.56976
▁photo	-9.57014
▁kinematic	-9.57088
▁southern	-9.57213
▁eukaryotes	-9.57275
▁terrestrial	-9.57275
▁effort	-9.57312
▁phosphorylation	-9.57361
▁situation	-9.57388
▁alone	-9.57427
▁perturbation	-9.575
▁maintenance	-9.57537
▁signature	-9.57612
fusion	-9.57885
▁collect	-9.57888
▁[21]	-9.5789
▁Comp	-9.57938
▁immuno	-9.5814
▁availability	-9.58253
▁[22]	-9.5832
▁Several	-9.58367
▁highest	-9.58483
▁Ro	-9.58569
▁issue	-9.58575
aria	-9.58594
38	-9.58717
▁undergo	-9.58772
▁deletion	-9.58784
berg	-9.58802
▁fluid	-9.58899
▁During	-9.58907
▁matrix	-9.59164
▁tumor	-9.59243
▁persist	-9.5929
▁expand	-9.59357
▁pH	-9.59401
▁rise	-9.59441
position	-9.59487
▁seed	-9.59494
rap	-9.59503
▁Africa	-9.59503
▁her	-9.59544
▁100	-9.59593
▁break	-9.59892
▁maintained	-9.59953
▁extreme	-9.60106
▁green	-9.60163
▁task	-9.60168
▁clock	-9.60278
17	-9.60283
▁wave	-9.60473
▁bone	-9.60491
▁whose	-9.60511
▁Similarly	-9.60601
▁confirmed	-9.6061
▁extend	-9.60612
▁hormone	-9.60663
▁counter	-9.60664
▁aspects	-9.60675
▁conclude	-9.60818
▁why	-9.60897
▁MHC	-9.60901
rot	-9.61001
▁existence	-9.61024
▁compare	-9.61055
3–	-9.61089
▁variants	-9.61162
▁past	-9.61227
▁olfactory	-9.61362
▁move	-9.61399
rel	-9.61426
▁Car	-9.61482
▁virus	-9.61644
▁identical	-9.61675
icular	-9.61682
▁Asia	-9.61723
▁recover	-9.61797
▁instead	-9.61832
▁trade	-9.61928
▁ne	-9.61962
▁nutrient	-9.62106
▁arise	-9.62131
▁obtain	-9.62139
other	-9.62263
▁wall	-9.62351
▁numerous	-9.62381
▁faster	-9.62392
▁2009;	-9.62509
▁comprehensive	-9.62816
DH	-9.62875
▁assumed	-9.62967
▁integration	-9.63053
▁En	-9.63132
▁topology	-9.63137
▁demand	-9.63177
synonymous	-9.63212
▁attempt	-9.63212
▁2002).	-9.63252
▁graph	-9.63258
▁promote	-9.63312
▁specifically	-9.63379
▁unclear	-9.63491
▁ion	-9.63545
▁pseudo	-9.6365
▁ants	-9.63654
▁Another	-9.63679
▁ligand	-9.6381
▁culture	-9.6385
▁series	-9.63934
▁split	-9.64054
▁examine	-9.64057
▁opsin	-9.64092
▁Rh	-9.6411
▁liver	-9.64136
▁element	-9.64196
▁recognition	-9.6429
▁walking	-9.64291
▁retain	-9.64297
▁timing	-9.64389
1–	-9.64396
▁interval	-9.64405
producing	-9.64412
▁published	-9.64733
▁tail	-9.64783
tric	-9.64826
level	-9.64831
▁stimulation	-9.64854
▁experimentally	-9.64929
▁appropriate	-9.65016
bacteria	-9.65022
▁coral	-9.65046
▁pur	-9.65168
▁reference	-9.65259
▁overlap	-9.65343
▁According	-9.65421
▁called	-9.65481
▁northern	-9.65558
▁turtle	-9.65584
▁[23]	-9.6566
▁calculated	-9.65662
▁dorsal	-9.6567
▁experience	-9.65723
▁always	-9.66007
▁focused	-9.66081
▁assay	-9.66148
▁fraction	-9.66155
war	-9.6624
reviewed	-9.66403
mediated	-9.66609
▁geographical	-9.66612
▁concept	-9.66651
cap	-9.66681
▁climate	-9.66688
▁[25]	-9.66747
OX	-9.66755
evolution	-9.6686
▁pheromone	-9.66894
tid	-9.66965
▁transmission	-9.66976
▁repeated	-9.67062
active	-9.67103
▁2009)	-9.67144
▁program	-9.67186
▁energetic	-9.67224
▁extant	-9.67266
▁third	-9.67266
▁resolution	-9.67389
▁attribute	-9.67431
▁viruses	-9.67432
▁completely	-9.67449
▁Bayesian	-9.67472
PCR	-9.6748
▁degradation	-9.67514
▁allowed	-9.6753
▁score	-9.67568
glacial	-9.67684
▁course	-9.67765
▁frequently	-9.67793
▁classes	-9.67793
▁typical	-9.67825
▁taken	-9.67916
▁represented	-9.67931
▁elegans	-9.67971
Co	-9.68013
▁layer	-9.68025
▁1997)	-9.68054
▁simulate	-9.68054
▁copies	-9.68057
×	-9.6818
▁vir	-9.68333
▁reconstruct	-9.68336
▁complement	-9.68347
▁copy	-9.68446
▁trend	-9.68565
▁existing	-9.68668
▁proliferation	-9.68682
▁commonly	-9.68713
▁fixed	-9.68851
ago	-9.68967
▁blue	-9.69027
▁vitro	-9.69143
▁coefficient	-9.69229
▁intensity	-9.69271
▁store	-9.69355
▁branches	-9.695
▁gland	-9.69523
▁maternal	-9.69524
▁organization	-9.69766
▁(2)	-9.69841
▁significance	-9.69991
▁depth	-9.70037
▁niche	-9.70079
trans	-9.70084
▁40	-9.70114
rom	-9.70166
▁breeding	-9.70363
functional	-9.70375
▁Hence	-9.70789
▁vector	-9.70802
▁accuracy	-9.70845
▁extended	-9.70903
▁motor	-9.71127
▁downstream	-9.71188
▁gap	-9.7126
▁tetra	-9.71282
▁connection	-9.71306
▁surprising	-9.7136
▁[24]	-9.71502
▁anterior	-9.71565
pper	-9.71681
▁locomotor	-9.71749
▁mathematical	-9.71792
▁trigger	-9.71879
▁acquire	-9.71922
▁East	-9.71928
meric	-9.7198
▁fungi	-9.71999
▁risk	-9.7206
▁assume	-9.72108
▁1998;	-9.72139
▁providing	-9.72183
▁Many	-9.72326
▁thereby	-9.72349
▁chemo	-9.72443
▁representative	-9.72451
▁favor	-9.72576
▁indirect	-9.72596
lateral	-9.72679
worm	-9.72699
▁status	-9.72703
▁mediated	-9.72723
▁juvenile	-9.72793
ozoa	-9.72809
▁fold	-9.72839
ctive	-9.72907
▁pool	-9.72936
ux	-9.73076
lay	-9.73212
▁root	-9.7327
▁macro	-9.73308
▁nematode	-9.73363
▁bind	-9.73438
▁lung	-9.73444
▁activated	-9.73553
▁allele	-9.73584
▁agreement	-9.73625
▁indeed	-9.73783
van	-9.73907
▁colon	-9.73919
▁polar	-9.74074
mber	-9.74234
▁likelihood	-9.74246
▁half	-9.74298
▁node	-9.74463
▁variance	-9.74469
▁classification	-9.74587
▁occurrence	-9.74735
▁More	-9.74756
▁adjust	-9.74824
▁emerge	-9.74854
▁apply	-9.74933
▁relation	-9.74934
▁clustering	-9.75012
binding	-9.75048
logical	-9.75058
▁authors	-9.75182
▁conflict	-9.75226
▁[27]	-9.75391
atter	-9.75396
neu	-9.755
▁encode	-9.75568
▁[28]	-9.75602
ophil	-9.75638
▁UV	-9.75643
▁tools	-9.7587
lea	-9.75919
▁influenced	-9.75992
▁characteristic	-9.76037
▁theoretical	-9.76262
▁manner	-9.76374
▁disrupt	-9.76443
▁comm	-9.76475
▁[26]	-9.76527
▁monophyletic	-9.76534
▁hence	-9.76623
▁acclimation	-9.7667
▁fundamental	-9.7667
▁review	-9.7685
▁final	-9.76872
▁delay	-9.76921
▁domestic	-9.77034
species	-9.77147
odon	-9.77209
▁project	-9.77218
▁interpretation	-9.77327
expression	-9.77375
▁moment	-9.77377
▁comparable	-9.77446
▁slightly	-9.77492
▁comprise	-9.77575
▁young	-9.77583
▁curve	-9.77635
▁involving	-9.77675
▁aquatic	-9.77677
▁capable	-9.77698
ibility	-9.77722
▁specificity	-9.77722
▁encoding	-9.77746
▁decline	-9.77769
▁precise	-9.77905
▁1997;	-9.77951
▁million	-9.77952
▁mis	-9.77968
ever	-9.78016
▁2005)	-9.78022
▁%	-9.78134
▁PPI	-9.78344
▁allowing	-9.78461
▁circuit	-9.78597
▁mitochondria	-9.78759
▁ventral	-9.78829
optera	-9.78861
▁2010)	-9.78878
▁cardiac	-9.78922
static	-9.78939
▁skin	-9.78971
▁extract	-9.79059
▁1996)	-9.79295
▁spread	-9.79342
aging	-9.79345
▁insulin	-9.7939
▁hypothesized	-9.79431
▁parental	-9.79437
▁Among	-9.79485
▁genetically	-9.79505
▁European	-9.79625
▁occurring	-9.7991
▁gas	-9.80044
▁controlled	-9.801
▁discussed	-9.80221
▁documented	-9.80232
▁chain	-9.80386
▁constrain	-9.80386
▁remaining	-9.80471
▁phylogenies	-9.80562
ecto	-9.80671
▁discuss	-9.80679
▁enhanced	-9.80851
▁integrated	-9.80897
▁living	-9.8099
*	-9.81131
▁memory	-9.81131
flex	-9.81166
▁[29]	-9.81207
▁select	-9.81242
▁nearly	-9.81244
▁hind	-9.81327
▁sampled	-9.81382
▁America	-9.81438
▁until	-9.81503
▁widespread	-9.81512
▁extra	-9.81525
▁feed	-9.81547
▁experienced	-9.81587
▁net	-9.81606
▁oscillation	-9.81703
▁1:	-9.81745
▁jump	-9.81895
▁considerable	-9.81909
▁itself	-9.81944
▁perhaps	-9.82086
▁Under	-9.8223
escent	-9.82283
▁rotation	-9.82284
▁insertion	-9.82376
uck	-9.82417
▁Tri	-9.82554
▁extracellular	-9.82625
rum	-9.82647
▁[31]	-9.82671
▁seven	-9.82735
▁image	-9.8277
trophic	-9.82773
▁driven	-9.8278
ridge	-9.82802
▁receive	-9.8281
▁concern	-9.83004
blast	-9.83064
prote	-9.83092
▁<	-9.83146
▁making	-9.83443
▁behavioural	-9.83464
▁infect	-9.83562
▁comparing	-9.83591
▁1996;	-9.83633
▁extension	-9.83633
▁Other	-9.83638
▁[30]	-9.83641
arrow	-9.83644
▁believe	-9.83682
cephal	-9.83778
time	-9.83797
▁achieved	-9.83934
▁basic	-9.83988
unc	-9.84046
Δ	-9.84072
AMP	-9.84326
▁exact	-9.84364
▁consumption	-9.84366
▁enough	-9.84416
▁maximal	-9.84612
▁repress	-9.84655
▁filter	-9.84663
▁build	-9.84809
well	-9.85039
▁Even	-9.85065
▁axis	-9.85188
{	-9.85204
}	-9.85303
▁skeletal	-9.85303
print	-9.85388
▁depending	-9.85428
▁easily	-9.85452
▁retina	-9.8559
▁historical	-9.8575
▁distant	-9.85752
▁modulate	-9.859
▁profile	-9.85957
▁Two	-9.86002
▁connected	-9.86103
▁conversion	-9.86164
state	-9.86191
▁seasonal	-9.86196
▁quite	-9.86234
▁nerve	-9.86407
▁subset	-9.86428
▁outcome	-9.86502
▁pulse	-9.86506
breeding	-9.86563
▁[33]	-9.86658
▁spider	-9.86659
flagell	-9.86758
troph	-9.8684
▁[32]	-9.87163
▁calcium	-9.87204
▁procedure	-9.87204
▁robustness	-9.8755
▁introduced	-9.8764
▁architecture	-9.87659
▁viral	-9.87916
▁clone	-9.8797
▁understood	-9.88525
phosphate	-9.88576
▁dominant	-9.88628
sexual	-9.88819
▁list	-9.88829
light	-9.88912
▁run	-9.88959
▁jaw	-9.89039
▁left	-9.89092
▁odor	-9.89155
▁enter	-9.89202
▁object	-9.89218
▁hypo	-9.89386
▁white	-9.89399
▁traditional	-9.8945
▁regarding	-9.89572
ski	-9.89704
▁From	-9.89781
▁diverged	-9.89813
▁escape	-9.89917
▁aerobic	-9.89968
▁recognized	-9.9002
▁express	-9.90034
▁colleagues	-9.90176
▁empirical	-9.90332
▁fibre	-9.90593
=0	-9.90641
▁composed	-9.90805
▁embryonic	-9.90908
ostom	-9.91011
▁argue	-9.91125
point	-9.91185
▁constitute	-9.91274
0.05	-9.91289
▁1994;	-9.91432
γ	-9.91485
▁utilize	-9.91538
▁Also	-9.91542
typic	-9.91584
▁plastid	-9.91643
▁stimulate	-9.91696
▁recruit	-9.91749
▁tropical	-9.91749
▁collected	-9.91785
▁extremely	-9.91983
▁respiratory	-9.92066
▁regime	-9.92122
▁live	-9.92248
▁Arabidopsis	-9.92279
▁advance	-9.92385
\	-9.92491
▁right	-9.927
▁raise	-9.92719
dimensional	-9.92722
▁particle	-9.92817
▁drop	-9.93
oidea	-9.93016
▁annotation	-9.93025
▁phenomenon	-9.93025
assi	-9.93033
▁drift	-9.93079
▁array	-9.93139
▁lizard	-9.93186
▁extinction	-9.93309
▁conducted	-9.93348
▁goal	-9.93375
▁absent	-9.93456
▁death	-9.93537
generation	-9.9354
▁warm	-9.9362
▁north	-9.93689
▁fall	-9.93745
▁correlate	-9.93804
▁physiology	-9.93831
▁subfamily	-9.93831
cyst	-9.93852
▁outside	-9.93869
▁largest	-9.93907
grade	-9.94108
▁Europe	-9.9426
▁opposite	-9.94264
▁never	-9.94282
▁return	-9.94321
▁mosquito	-9.94372
▁duplicated	-9.94423
▁magn	-9.94594
▁encoded	-9.94666
▁drag	-9.9471
▁hard	-9.94756
sensitive	-9.94793
▁1995)	-9.94807
ocyte	-9.94813
▁crab	-9.94934
▁homologous	-9.94951
▁fungal	-9.94971
somal	-9.94995
ography	-9.95024
▁suitable	-9.9508
▁thermo	-9.95092
▁colony	-9.95197
▁simultaneously	-9.9527
▁Pleistocene	-9.95299
▁Atlantic	-9.95408
▁simply	-9.95408
▁[34]	-9.95528
▁minimal	-9.95631
▁compartment	-9.95738
▁encounter	-9.95903
▁cave	-9.9593
▁south	-9.9602
▁[35]	-9.96024
▁route	-9.96114
▁[1]	-9.96216
▁upper	-9.96232
▁exclude	-9.96344
▁optimization	-9.96344
▁acceleration	-9.964
▁identity	-9.964
▁affinity	-9.96677
▁incorporate	-9.96677
▁[3,	-9.96719
▁face	-9.96721
▁partition	-9.97017
▁constraint	-9.97149
▁ammonia	-9.97178
▁next	-9.97179
▁marked	-9.97247
▁accumulate	-9.97289
▁achieve	-9.97392
▁1995;	-9.97457
▁module	-9.97462
▁cerevisiae	-9.97569
▁semi	-9.97625
▁intrinsic	-9.97681
▁screen	-9.97683
▁salmon	-9.97684
▁presumably	-9.97962
▁poorly	-9.98011
▁Consequently	-9.98018
▁spectral	-9.98075
▁black	-9.98132
rach	-9.98134
▁season	-9.98183
▁fluxes	-9.98346
▁acoustic	-9.98413
▁description	-9.98413
▁immediate	-9.98469
▁dark	-9.98536
▁rhythm	-9.98582
equilibrium	-9.98695
▁1994)	-9.98752
▁demographic	-9.98752
▁define	-9.98755
▁introgression	-9.98865
ogenic	-9.98907
▁changing	-9.98924
▁eight	-9.99028
▁incomplete	-9.99036
flu	-9.9908
▁label	-9.99101
▁severe	-9.99162
▁continue	-9.99207
▁emergence	-9.99264
▁sense	-9.99276
▁phylogeographic	-9.9932
▁illustrate	-9.99321
▁abundant	-9.99377
▁frequent	-9.99394
▁sustain	-9.99434
▁communication	-9.99491
▁principle	-9.99492
▁plate	-9.99552
▁epithelia	-9.99606
▁remove	-9.99608
▁portion	-9.99727
ö	-9.99777
▁obvious	-9.99835
methyl	-9.99845
metric	-9.9989
▁duplicate	-9.99895
▁who	-9.99926
▁double	-9.99951
▁vocal	-10.0001
▁marker	-10.0022
▁New	-10.0023
▁American	-10.0027
▁Australia	-10.0029
▁dramatic	-10.0029
▁nervous	-10.0029
▁reducing	-10.0029
▁objective	-10.0038
associated	-10.0039
▁carry	-10.0055
▁replication	-10.0064
▁except	-10.008
▁microsatellite	-10.0093
▁metazoan	-10.0093
▁[36]	-10.0094
sky	-10.0106
▁antioxidant	-10.0116
▁patch	-10.0118
▁climatic	-10.0122
rgic	-10.0128
▁microarray	-10.0134
▁wind	-10.0152
▁fruit	-10.0157
▁2002)	-10.0163
▁world	-10.0163
▁division	-10.018
▁winter	-10.0186
▁modern	-10.0186
▁neo	-10.0187
▁observe	-10.0205
▁lake	-10.0239
▁phospho	-10.0244
▁regression	-10.0251
▁determining	-10.0262
▁discovery	-10.0292
▁favour	-10.0304
▁minimum	-10.0304
▁metabolite	-10.0335
0.00	-10.0337
▁splicing	-10.0339
▁2011)	-10.0356
▁biosynthesis	-10.0357
▁snail	-10.0363
▁colonization	-10.0368
▁Similar	-10.0373
▁recovery	-10.038
▁2010;	-10.0387
▁intake	-10.0388
▁beyond	-10.0399
▁1993)	-10.0399
▁apoptosis	-10.0405
▁home	-10.0414
▁apical	-10.0418
▁circadian	-10.0435
▁foot	-10.0454
▁mito	-10.0455
▁narrow	-10.0477
range	-10.0481
▁necessarily	-10.0501
▁carried	-10.0501
▁Alternatively	-10.0513
▁song	-10.0514
ATPase	-10.0516
▁exploit	-10.0537
▁analyze	-10.054
▁1993;	-10.0561
▁2013)	-10.0574
script	-10.0576
é	-10.0598
▁bird	-10.0603
▁upstream	-10.061
▁eastern	-10.0628
▁implies	-10.0628
▁HGT	-10.0641
▁center	-10.0648
▁[7,	-10.0649
▁trace	-10.0651
▁equivalent	-10.0653
▁intestinal	-10.0653
▁purpose	-10.069
▁discrimina	-10.0693
▁stiffness	-10.0696
`	-10.072
▁regulating	-10.072
▁[37]	-10.0721
▁implications	-10.0733
▁germ	-10.0738
▁western	-10.0758
▁activate	-10.0774
organ	-10.079
▁onset	-10.0791
▁distal	-10.081
▁track	-10.082
▁photoreceptor	-10.0826
▁[38]	-10.0827
▁cytoplasm	-10.0838
▁rDNA	-10.0843
ophore	-10.0843
clusive	-10.0845
▁heterogeneity	-10.0851
▁mutual	-10.087
▁surrounding	-10.0876
∼	-10.0882
▁chloroplast	-10.0882
▁reverse	-10.0883
uff	-10.0895
▁characterize	-10.0897
continent	-10.091
biased	-10.0913
▁defense	-10.092
▁swim	-10.092
ü	-10.0926
▁modified	-10.0926
▁salt	-10.0944
▁beneficial	-10.0951
▁driving	-10.0964
▁diffusion	-10.0964
▁attention	-10.097
standing	-10.0981
▁melan	-10.1004
▁elicit	-10.1015
water	-10.1015
▁draw	-10.1027
▁[8,	-10.104
▁angiosperm	-10.1059
▁elucidate	-10.1065
dependence	-10.107
ogram	-10.1073
responsive	-10.1085
▁rearrangement	-10.1085
▁reliable	-10.1085
▁acquisition	-10.1091
▁poor	-10.1095
á	-10.1117
branch	-10.1123
▁[39]	-10.1124
▁[9,	-10.1136
▁evident	-10.1142
▁diploid	-10.1146
▁iron	-10.1185
▁plot	-10.1196
▁burst	-10.1214
▁survive	-10.1226
▁immunity	-10.1233
▁kind	-10.1248
▁decision	-10.1252
▁leave	-10.1253
▁parent	-10.1253
▁transient	-10.1259
▁whale	-10.1259
rist	-10.1277
▁enriched	-10.1285
▁predation	-10.1286
▁community	-10.1291
▁chromosomal	-10.1311
▁exercise	-10.1337
▁inhabit	-10.1344
▁ROS	-10.1344
peak	-10.1362
▁virulence	-10.1363
▁public	-10.1377
▁exclusively	-10.1383
▁neighbor	-10.139
▁moderate	-10.1393
population	-10.1395
▁gait	-10.1405
▁artificial	-10.1436
▁synthetic	-10.1456
▁every	-10.1457
▁percentage	-10.1463
▁training	-10.147
▁mouth	-10.1489
▁Phy	-10.1492
▁medium	-10.1496
▁avian	-10.1512
▁excess	-10.1516
▁striking	-10.1523
▁tight	-10.1556
▁1990;	-10.1569
▁acute	-10.157
otropic	-10.1574
▁precursor	-10.1576
▁subfamilies	-10.1576
▁wavelength	-10.1604
▁After	-10.1604
▁elongat	-10.1617
toxin	-10.1624
▁considerably	-10.1635
▁elevation	-10.1637
▁explicit	-10.1637
▁coincid	-10.1637
▁colonies	-10.1643
▁peripheral	-10.1657
▁missing	-10.166
▁separation	-10.1664
▁initiate	-10.1666
glyco	-10.1673
throughput	-10.1674
▁rank	-10.1676
▁absolute	-10.1711
▁cilia	-10.1718
▁consensus	-10.1718
▁elastic	-10.1725
▁transduction	-10.1725
▁frame	-10.1747
2%	-10.1748
▁qualitative	-10.1752
▁shallow	-10.1752
directional	-10.1772
▁false	-10.178
value	-10.178
ifera	-10.1785
globin	-10.1787
▁perspective	-10.1807
▁clinical	-10.1814
▁moving	-10.1815
▁1992)	-10.1828
▁connect	-10.1837
▁storage	-10.1842
▁specialized	-10.1848
▁connectivity	-10.185
▁deleterious	-10.1855
▁spring	-10.1862
▁Wolbachia	-10.1869
▁modulation	-10.189
▁assembly	-10.1897
▁feather	-10.1918
▁monophyly	-10.1918
▁1991)	-10.1925
▁invertebrates	-10.1932
▁fixation	-10.1932
▁again	-10.1933
▁arrangement	-10.1946
▁fatty	-10.196
▁[41]	-10.1969
▁induction	-10.1988
▁queen	-10.1999
▁member	-10.2008
▁Overall	-10.2009
▁subspecies	-10.2009
▁adjacent	-10.2016
▁quantify	-10.203
▁cichlid	-10.2037
▁proximal	-10.2037
▁mixture	-10.2044
▁unpublished	-10.2072
▁generating	-10.2074
▁passive	-10.2079
▁China	-10.2086
▁[13,	-10.2101
▁survey	-10.2122
▁algae	-10.2123
▁salinity	-10.2129
aaa	-10.214
▁[40]	-10.2143
▁mortality	-10.2143
▁1992;	-10.2157
▁respiration	-10.2157
▁software	-10.2157
▁discovered	-10.2157
▁mapping	-10.2157
▁ITS	-10.2158
▁coordinate	-10.2164
▁[42]	-10.2167
▁stroke	-10.2179
▁leaf	-10.2179
▁seawater	-10.218
▁temperate	-10.2186
▁[11,	-10.2187
▁year	-10.2197
▁discrete	-10.22
▁odour	-10.22
▁scaling	-10.2201
scribed	-10.2205
▁decreasing	-10.2229
▁transcriptome	-10.2231
cross	-10.2233
▁cascade	-10.2243
▁[12,	-10.2244
▁Specifically	-10.225
network	-10.2278
—	-10.2279
▁implicated	-10.2279
▁landscape	-10.2293
▁beetle	-10.2299
▁vision	-10.2318
▁biomass	-10.2351
▁endemic	-10.2351
▁depression	-10.2358
▁accelerate	-10.2366
▁confidence	-10.2373
▁river	-10.2382
infected	-10.2398
▁exceed	-10.241
▁nitrogen	-10.2424
▁discrimination	-10.2427
▁tandem	-10.2453
▁silk	-10.2454
κ	-10.2468
▁pectoral	-10.2475
▁initiation	-10.2483
▁miR	-10.2485
▁ocean	-10.249
▁High	-10.2492
▁0.1	-10.2495
▁definition	-10.2505
▁mature	-10.2505
▁know	-10.2534
▁intact	-10.2538
▁[43]	-10.2542
▁margin	-10.2549
4%	-10.2566
▁absorption	-10.2571
▁endogenous	-10.2579
▁attack	-10.2587
▁ecology	-10.2601
▁repair	-10.2601
▁mechanistic	-10.2623
▁zero	-10.2624
regulatory	-10.2626
gluco	-10.2627
▁Micro	-10.2633
8%	-10.2636
▁Mediterranean	-10.2646
▁sugar	-10.2646
▁adopt	-10.2669
▁preparation	-10.2683
▁dimension	-10.2688
bacterium	-10.2691
▁1991;	-10.2706
▁neuronal	-10.2706
▁electric	-10.2721
▁2011;	-10.2721
▁unusual	-10.2721
▁Central	-10.2721
▁topological	-10.2722
▁chicken	-10.2729
▁modular	-10.2729
▁ambient	-10.2736
▁diameter	-10.2736
▁homeostasis	-10.2736
▁microbial	-10.2736
3%	-10.2737
▁bootstrap	-10.2744
▁deviation	-10.2752
▁1990)	-10.2752
ophora	-10.2763
▁Instead	-10.2781
▁aphid	-10.2785
▁trials	-10.2795
phyll	-10.2799
hydro	-10.28
▁sympatric	-10.2804
▁reject	-10.2805
▁biogeographic	-10.2812
▁varies	-10.282
λ	-10.2827
6%	-10.2837
▁solve	-10.2842
▁silico	-10.2842
▁health	-10.285
▁summary	-10.2857
▁tube	-10.2869
▁opportunity	-10.2873
▁1989;	-10.288
▁classified	-10.2894
▁mixed	-10.2904
▁rainbow	-10.2919
▁enrichment	-10.2942
▁osmo	-10.2973
▁house	-10.2976
▁River	-10.2983
~	-10.2987
▁middle	-10.2988
▁isolates	-10.2989
▁hearing	-10.2989
▁supply	-10.2996
▁intestine	-10.3019
▁powerful	-10.3039
▁purifying	-10.3042
▁splice	-10.3044
▁spectrum	-10.3058
▁interface	-10.3066
▁learn	-10.3083
▁look	-10.3086
▁assigned	-10.3098
▁ranging	-10.3105
▁slope	-10.3113
▁compensate	-10.3122
▁[44]	-10.3129
▁plausible	-10.3144
▁urea	-10.3145
▁adhesion	-10.3176
▁auditory	-10.3199
▁themselves	-10.3207
▁regular	-10.3215
▁chronic	-10.3223
factor	-10.3233
▁mentioned	-10.3239
▁asymmetric	-10.3263
trained	-10.327
▁catalytic	-10.3287
▁varied	-10.3288
▁kidney	-10.3294
&	-10.331
▁[14,	-10.3311
▁[16,	-10.3335
activation	-10.3385
://	-10.3391
▁sometimes	-10.3391
▁excretion	-10.3399
▁sleep	-10.3399
▁[15,	-10.34
▁principal	-10.3407
▁gradual	-10.3415
product	-10.3438
▁neither	-10.3455
free	-10.3489
sphere	-10.3509
▁manipulation	-10.3529
▁stretch	-10.3553
▁flexibility	-10.3569
▁carotenoid	-10.3578
derived	-10.3584
▁heterogeneous	-10.3586
▁antagonist	-10.3594
▁overlapping	-10.3611
▁speculate	-10.3612
domain	-10.3618
▁bottleneck	-10.3627
▁uncertainty	-10.3645
▁participat	-10.366
▁column	-10.3685
▁invasion	-10.3693
▁referred	-10.3727
▁ultra	-10.3728
▁repertoire	-10.3735
▁valuable	-10.3752
▁refugia	-10.376
compatible	-10.3778
▁1989)	-10.3785
Type	-10.3808
▁removal	-10.3835
ω	-10.3844
▁carbohydrate	-10.3852
▁orient	-10.3876
▁integrate	-10.3877
▁decade	-10.3878
▁informative	-10.3878
synaptic	-10.3878
graph	-10.3879
▁dolphin	-10.3886
▁pronounced	-10.3886
chordate	-10.3887
clade	-10.3895
▁hindlimb	-10.3911
▁lift	-10.3963
▁ensure	-10.3964
▁communities	-10.3971
current	-10.398
receptor	-10.3987
▁predominantly	-10.3988
▁prolonged	-10.3988
▁unexpected	-10.3988
▁sponge	-10.3997
▁elephant	-10.4005
▁causing	-10.4006
δ	-10.4014
▁attachment	-10.4048
▁quickly	-10.4048
▁grass	-10.4048
length	-10.405
▁remarkable	-10.4057
▁1988;	-10.4065
▁ribosomal	-10.4065
▁competitive	-10.4074
▁criteria	-10.4074
▁methylation	-10.4074
▁divided	-10.41
▁progenitor	-10.4117
▁[17,	-10.4118
▁hypothesize	-10.4118
▁[18,	-10.4135
▁Island	-10.4162
▁game	-10.4175
▁thrust	-10.4196
▁determination	-10.4222
▁agree	-10.4234
▁residue	-10.4245
▁aspect	-10.4246
ographic	-10.4247
▁oscillator	-10.4248
▁IGF	-10.4248
▁burrow	-10.4257
▁brood	-10.4257
▁cricket	-10.4266
which	-10.4277
▁uncover	-10.4292
▁calculation	-10.4327
▁pollen	-10.4327
▁displacement	-10.4336
▁Model	-10.4346
▁operon	-10.4355
terior	-10.4356
ophytes	-10.4356
▁keep	-10.4363
▁causal	-10.4382
▁chromatin	-10.4389
chemical	-10.4392
▁Pacific	-10.4398
▁vortex	-10.4398
▁archaea	-10.4398
▁breast	-10.4407
▁Methods	-10.4443
▁digit	-10.4453
▁calibration	-10.4461
▁relevance	-10.447
▁attractive	-10.447
▁[46]	-10.4472
▁forelimb	-10.4479
▁became	-10.4479
▁protocol	-10.4488
▁enzymatic	-10.4497
▁replicate	-10.4497
▁preferential	-10.4506
▁scheme	-10.4506
▁parasitic	-10.4515
▁investment	-10.4524
containing	-10.4529
▁bodies	-10.4533
▁readily	-10.4542
▁defect	-10.457
▁epithelium	-10.4578
▁segregat	-10.4587
▁reproduce	-10.4596
including	-10.4602
▁anaerobic	-10.4624
▁Phylogenetic	-10.4706
▁1985;	-10.4715
linked	-10.4732
▁anatomical	-10.4733
▁mimic	-10.4746
′	-10.4761
▁diving	-10.4771
▁proteome	-10.478
▁deliver	-10.4789
▁overcome	-10.4789
▁haplogroup	-10.4807
→	-10.4817
▁prominent	-10.4817
▁[19,	-10.4836
▁yellow	-10.4845
▁smooth	-10.4845
▁[47]	-10.4853
▁challenging	-10.4863
▁cyanobacteria	-10.491
▁Future	-10.491
dactyl	-10.4914
▁1988)	-10.4919
▁numerical	-10.4938
osmotic	-10.4954
▁hypoxic	-10.4957
▁flexible	-10.4957
▁preserve	-10.4957
▁Results	-10.4966
▁migratory	-10.4976
▁coupling	-10.4976
▁consume	-10.4982
▁somewhat	-10.4995
▁accompanied	-10.5014
▁operate	-10.5015
▁expenditure	-10.5033
▁lethal	-10.5033
▁annotated	-10.5042
▁investigating	-10.5042
▁resemble	-10.5052
▁shark	-10.5061
▁bending	-10.5062
▁sorting	-10.5071
▁retention	-10.508
▁amphibian	-10.509
▁stickleback	-10.509
translational	-10.5095
▁preferred	-10.5109
▁defence	-10.5119
characterization	-10.5143
▁endosymbiont	-10.5176
▁daily	-10.5195
▁cuticle	-10.5215
▁guide	-10.5215
inflammatory	-10.5224
▁hydrodynamic	-10.5234
ivorous	-10.5237
tolerant	-10.5242
▁variant	-10.5245
▁1987)	-10.5253
▁combine	-10.526
▁hundred	-10.5283
▁inherent	-10.5303
▁categories	-10.5322
▁thaliana	-10.5322
▁analyzing	-10.5331
▁cytokine	-10.5331
▁engineering	-10.5351
▁introduction	-10.5351
▁Studies	-10.5371
▁1984;	-10.539
▁simultaneous	-10.5395
▁examining	-10.54
▁superfamily	-10.541
▁vascular	-10.541
▁lymph	-10.542
▁caudal	-10.543
▁courtship	-10.544
▁dehydrogenase	-10.544
▁trajectories	-10.5449
▁zebra	-10.5458
▁topologies	-10.5459
▁eliminate	-10.5479
▁birth	-10.5479
expressed	-10.5495
▁therapeutic	-10.5509
phosphorylate	-10.5519
▁minimize	-10.5529
▁dominate	-10.5534
▁Boolean	-10.5539
▁injection	-10.5569
▁latitude	-10.5569
▁lactate	-10.5569
▁1987;	-10.5629
▁1983;	-10.5639
function	-10.5645
▁1985)	-10.5649
field	-10.5658
▁ecosystem	-10.5659
▁solely	-10.5661
▁replacement	-10.57
▁evolutionarily	-10.571
▁histories	-10.572
▁boundaries	-10.5761
▁shortening	-10.5762
▁contributing	-10.5781
▁behind	-10.5781
▁torpor	-10.5782
▁decay	-10.5802
▁VEGF	-10.5812
Biewener	-10.5833
▁combining	-10.5843
▁evaluation	-10.5843
▁measuring	-10.5853
▁2009	-10.5878
▁Experiment	-10.5884
▁cyclin	-10.5914
▁oxidation	-10.5946
▁monitor	-10.5967
▁vesicle	-10.5967
▁brown	-10.5968
▁honeybee	-10.5978
▁descend	-10.5988
▁Different	-10.5999
▁platform	-10.6009
▁absorb	-10.602
▁amplification	-10.603
▁inclusion	-10.603
▁contradict	-10.6041
▁desiccation	-10.6041
▁honey	-10.6051
target	-10.6062
▁appendage	-10.6083
▁weeks	-10.6104
▁[50]	-10.6108
▁convergent	-10.6146
▁pharmaco	-10.6157
▁stream	-10.6157
▁World	-10.6167
▁capabilities	-10.6178
▁convergence	-10.6178
▁lactation	-10.6189
▁Analysis	-10.621
Williams	-10.6221
▁disperse	-10.6243
▁fecundity	-10.6285
▁accepted	-10.6296
▁allopatric	-10.635
▁Miocene	-10.6361
▁trunk	-10.6361
▁govern	-10.6361
▁maturation	-10.6371
▁indication	-10.6382
▁uncertain	-10.6391
▁Conversely	-10.6404
▁indicator	-10.6404
▁comprising	-10.6404
▁ubiquitin	-10.6415
▁1982;	-10.6415
▁emphasize	-10.6437
▁approximate	-10.6469
▁cavity	-10.647
ó	-10.6481
▁crustaceans	-10.6502
▁picture	-10.6502
▁thread	-10.6503
▁velocities	-10.6513
▁junction	-10.6524
▁happen	-10.6536
▁modify	-10.6536
▁demonstrating	-10.6569
▁synthesize	-10.6569
▁introduce	-10.6584
▁relaxed	-10.6602
▁Taken	-10.6602
▁1981;	-10.6613
▁1986;	-10.6624
▁Importantly	-10.6658
▁cleavage	-10.6669
▁describing	-10.6669
▁tubule	-10.6669
▁analytical	-10.668
▁Nonetheless	-10.6691
▁Current	-10.6691
▁glycogen	-10.6706
▁suffer	-10.6736
Clark	-10.678
▁benthic	-10.6781
▁kHz	-10.6781
history	-10.6789
▁proximity	-10.6793
centric	-10.6797
▁cortisol	-10.6804
defined	-10.6812
▁constitutive	-10.6827
▁Protein	-10.6827
▁Third	-10.6827
ococcus	-10.6829
▁worth	-10.6838
structure	-10.6846
▁phenomena	-10.6849
▁harbor	-10.6849
θ	-10.6883
direct	-10.689
▁asymmetry	-10.6895
▁marsupial	-10.6895
▁configuration	-10.6906
▁promising	-10.6906
▁approximation	-10.6941
▁yolk	-10.6964
▁Clade	-10.6964
▁1983)	-10.6975
transferase	-10.698
▁protease	-10.6999
▁congruent	-10.7021
▁histone	-10.7022
▁longitudinal	-10.7033
▁proteomic	-10.7033
▁click	-10.7046
▁hemolymph	-10.7056
▁words	-10.7068
▁extinct	-10.7076
▁Unlike	-10.708
▁motivat	-10.708
▁conformation	-10.708
▁reciprocal	-10.7091
known	-10.7096
▁abdominal	-10.7103
▁eventually	-10.7115
▁penguin	-10.7126
positive	-10.7138
▁examination	-10.7138
▁mountain	-10.7138
▁erythro	-10.715
▁hierarchical	-10.7161
Taylor	-10.7162
▁wake	-10.7174
▁balancing	-10.7185
▁clonal	-10.7185
▁editing	-10.7185
▁motility	-10.7232
▁Whether	-10.7244
▁lifespan	-10.7244
driven	-10.7245
▁determinant	-10.7256
▁1984)	-10.7256
▁intriguing	-10.728
▁Group	-10.728
▁adequate	-10.7291
▁spontaneous	-10.7291
ä	-10.8174
̇	-10.8464
τ	-10.8464
σ	-10.8653
í	-10.9142
|	-10.9885
ø	-11.0214
≤	-11.101
≥	-11.2356
ρ	-11.2455
φ	-11.2925
μ	-11.2978
π	-11.3115
ε	-11.3265
≈	-11.3662
ï	-11.4855
^	-11.551
‘	-11.6262
η	-11.6445
#	-11.6901
·	-11.7847
‰	-11.8301
Ṁ	-11.8891
è	-11.9082
Γ	-11.9317
ν	-11.9437
χ	-11.9517
ñ	-11.968
Φ	-11.968
∈	-11.9763
†	-11.9763
“	-12.0761
∝	-12.1475
ú	-12.1623
ζ	-12.1825
∞	-12.3186
ψ	-12.3602
̄	-12.3848
Å	-12.4426
å	-12.5179
ã	-12.5841
∗	-12.5841
Ψ	-12.5995
Ω	-12.6072
•	-12.6388
®	-12.7581
ß	-12.7581
õ	-12.7581
!	-12.7672
∂	-12.8236
∆	-12.8431
ξ	-12.853
ę	-12.904
à	-12.9689
ç	-13.003
♂	-13.0146
š	-13.0264
∑	-13.0503
æ	-13.0625
ô	-13.1
$	-13.1523
♀	-13.1795
≠	-13.3772
〈	-13.4113
〉	-13.4649
≡	-13.4834
↔	-13.4834
ë	-13.5023
Ö	-13.5023
Σ	-13.5816
к	-13.6237
̂	-13.6904
ć	-13.7374
⇔	-13.7374
≪	-13.7868
ż	-13.8388
≫	-13.8936
Ø	-13.9221
Ṗ	-13.9516
∕	-13.9516
Θ	-14.0131
ł	-14.0131
∪	-14.0454
Š	-14.0787
̃	-14.1132
ò	-14.2244
Π	-14.2244
⋅	-14.2644
∙	-14.3061
≃	-14.3061
Λ	-14.395
⋯	-14.5453
ý	-14.6008
↓	-14.6008
©	-14.6596
‡	-14.6596
⊂	-14.6596
û	-14.6596
∇	-14.7221
υ	-14.7221
‐	-14.7221
ê	-14.7221
⇒	-14.7221
∥	-14.7888
▵	-14.7888
∧	-14.8602
⟨	-14.8602
Ž	-14.8602
∅	-14.9371
⟩	-14.9371
ě	-15.0205
ι	-15.0205
∨	-15.1114
¿	-15.1114
―	-15.1114
←	-15.1114
↦	-15.1114
ā	-15.1114
√	-15.1114
∫	-15.1114
∩	-15.2114
↑	-15.2114
ň	-15.2114
ž	-15.3225
ı	-15.3225
Ṙ	-15.3225
∀	-15.3225
○	-15.3225
ř	-15.4475
ś	-15.4475
Ф	-15.4475
«	-15.5904
»	-15.5904
ů	-15.5904
∖	-15.5904
●	-15.5904
̧	-15.5904
□	-15.757
⩽	-15.757
ì	-15.957
Ū	-15.957
Ŷ	-15.957
ƒ	-15.957
Υ	-15.957
≲	-15.957
Ξ	-15.957
⊗	-15.957
œ	-15.957
∣	-16.207
⊥	-16.207
¬	-16.207
ő	-16.207
ş	-16.207
̈	-16.207
ẋ	-16.207
‒	-16.207
↘	-16.207
≅	-16.207
♦	-16.207
⩾	-16.207
─	-16.207
ς	-16.207
Ô	-16.5404
ă	-16.5404
ğ	-16.5404
Ä	-16.5404
÷	-16.5404
Ė	-16.5404
ė	-16.5404
ū	-16.5404
ɣ	-16.5404
Τ	-16.5404
С	-16.5404
∉	-16.5404
∊	-16.5404
⊣	-16.5404
⋆	-16.5404
⏞	-16.5404
ŭ	-17.0404
Ẇ	-17.0404
Ɑ	-17.0404
Ō	-17.0404
É	-17.0404
Ĥ	-17.0404
ŝ	-17.0404
Ż	-17.0404
ɸ	-17.0404
̶	-17.0404
͡	-17.0404
Α	-17.0404
а	-17.0404
Ẏ	-17.0404
⇄	-17.0404
∏	-17.0404
∘	-17.0404
≍	-17.0404
≐	-17.0404
⊕	-17.0404
║	-17.0404
╨	-17.0404
⪢	-17.0404
Μ	-17.0404
Е	-17.0404
♯	-17.0404
∽	-18.0373
∃	-18.0374
ḡ	-18.0375
ù	-18.0376
Î	-18.0377
∠	-18.0378
ˆ	-18.0379
Ŝ	-18.038
ĭ	-18.0381
▴	-18.0382
Ι	-18.0383
Č	-18.0384
➔	-18.0385
⇌	-18.0386
Ś	-18.0387
§	-18.0388
£	-18.0389
Ř	-18.039
„	-18.0391
⊆	-18.0392
Â	-18.0393
▪	-18.0394
☓	-18.0395
■	-18.0396
â	-18.0397
́	-18.0398
ą	-18.0399
⁄	-18.04
ń	-18.0401
Á	-18.0402
ɑ	-18.0403
с	-18.0404
≧	-18.0404
¶	-18.0404
Ó	-18.0404
Û	-18.0404
î	-18.0404
ē	-18.0404
ĕ	-18.0404
ō	-18.0404
Ş	-18.0404
Ɛ	-18.0404
Ʊ	-18.0404
ʹ	-18.0404
̊	-18.0404
̸	-18.0404
Ά	-18.0404
Κ	-18.0404
Χ	-18.0404
ΰ	-18.0404
ϋ	-18.0404
ό	-18.0404
и	-18.0404
ӧ	-18.0404
א	-18.0404
ṁ	-18.0404
ẅ	-18.0404
ỳ	-18.0404
⁠	-18.0404
⇆	-18.0404
≊	-18.0404
≜	-18.0404
≦	-18.0404
≳	-18.0404
≾	-18.0404
≿	-18.0404
⊤	-18.0404
⊨	-18.0404
⋂	-18.0404
⌋	-18.0404
▯	-18.0404
Ŵ	-18.0404
ǧ	-18.0404
⇋	-18.0404
Ć	-18.0404
ź	-18.0404
ο	-18.0404
⌊	-18.0404
­	-18.0404
č	-18.0404
