<unk>	0
<s>	0
</s>	0
▁the	-3.13787
,	-3.27862
.	-3.43167
▁of	-3.44273
▁and	-3.74069
▁in	-3.91366
▁to	-4.10267
▁a	-4.3729
▁(	-4.37884
-	-4.41653
▁that	-4.65459
▁is	-4.7477
s	-4.88988
▁for	-5.06549
▁with	-5.18474
▁are	-5.21358
)	-5.31879
▁as	-5.35203
▁by	-5.37267
▁be	-5.40748
▁The	-5.48463
▁on	-5.57421
▁from	-5.57543
▁al	-5.62338
▁et	-5.63006
▁have	-5.70577
▁this	-5.72321
▁	-5.76558
▁not	-5.87419
▁or	-5.9037
▁species	-5.91331
▁an	-5.956
▁In	-5.95988
▁we	-5.96194
▁which	-5.96436
▁at	-6.03462
▁was	-6.05966
▁between	-6.07548
.,	-6.0876
▁been	-6.16708
▁these	-6.17313
▁were	-6.22829
e	-6.23384
▁genes	-6.24532
▁also	-6.24534
▁may	-6.24597
▁can	-6.25451
▁has	-6.25837
▁gene	-6.27408
▁it	-6.35531
▁their	-6.36478
▁other	-6.3803
▁more	-6.42861
▁This	-6.454
▁than	-6.46726
▁two	-6.4881
2	-6.49214
▁data	-6.49446
1	-6.49658
▁A	-6.50201
▁different	-6.52238
).	-6.54398
▁but	-6.54474
▁study	-6.56918
▁our	-6.58293
▁We	-6.61437
▁model	-6.63916
▁such	-6.65156
▁during	-6.67934
;	-6.69959
▁both	-6.73226
g	-6.76989
ing	-6.77411
▁only	-6.77714
▁found	-6.79012
/	-6.79411
▁all	-6.81616
a	-6.82951
▁However	-6.83231
▁studies	-6.83851
),	-6.84102
▁one	-6.8441
▁results	-6.85223
▁expression	-6.88195
▁high	-6.90056
▁protein	-6.90783
▁within	-6.94857
▁could	-6.95076
▁most	-6.97157
▁S	-6.98743
▁C	-7.00474
▁time	-7.00476
▁genetic	-7.0069
▁its	-7.01408
▁used	-7.02706
▁analysis	-7.02708
▁P	-7.03072
C	-7.03192
:	-7.03882
A	-7.04725
▁cell	-7.05457
▁when	-7.0698
▁number	-7.07127
▁into	-7.07376
i	-7.07591
▁some	-7.0868
▁evolution	-7.09542
▁cells	-7.09735
ed	-7.09853
▁proteins	-7.12538
▁selection	-7.12609
▁would	-7.12826
▁they	-7.13628
▁well	-7.14089
▁populations	-7.16093
▁observed	-7.17573
▁present	-7.20412
▁rate	-7.20952
B	-7.22549
▁network	-7.23646
b	-7.24527
▁changes	-7.25287
▁using	-7.25427
▁similar	-7.26528
▁system	-7.27149
▁response	-7.2715
▁among	-7.28222
'	-7.29036
▁important	-7.29911
d	-7.29935
▁non	-7.30251
▁evolutionary	-7.31918
▁each	-7.32393
▁levels	-7.33067
▁It	-7.34018
▁population	-7.34081
▁large	-7.3423
▁These	-7.37032
▁there	-7.37191
▁size	-7.37864
▁For	-7.38146
▁no	-7.38292
▁function	-7.38309
▁genome	-7.38551
▁body	-7.39547
▁higher	-7.3974
▁based	-7.40186
▁same	-7.40229
▁three	-7.40329
▁Our	-7.41
▁D	-7.41013
▁differences	-7.4102
▁because	-7.41544
▁shown	-7.41891
▁low	-7.42462
▁many	-7.42568
ly	-7.43545
3	-7.44183
▁under	-7.44224
▁likely	-7.44483
▁role	-7.45049
▁might	-7.4525
▁will	-7.46072
▁activity	-7.46153
▁through	-7.46852
▁phylogenetic	-7.4703
▁increase	-7.48027
▁first	-7.48858
▁metabolic	-7.48982
▁variation	-7.49161
▁models	-7.4936
▁several	-7.49852
▁B	-7.50803
▁effects	-7.51037
▁sequence	-7.51236
▁where	-7.51657
▁1	-7.52113
▁conditions	-7.52378
▁show	-7.54011
▁level	-7.54019
▁over	-7.54228
▁sequences	-7.54325
▁those	-7.5466
▁known	-7.54974
▁single	-7.55781
▁due	-7.57156
▁M	-7.57774
▁associated	-7.58044
▁complex	-7.58265
▁example	-7.58303
or	-7.5853
▁muscle	-7.59016
▁H	-7.59282
▁2	-7.5942
▁T	-7.60022
▁effect	-7.60574
▁evidence	-7.60805
▁molecular	-7.60992
▁increased	-7.6139
Fig	-7.61619
S	-7.62268
▁possible	-7.62378
▁significant	-7.62564
▁group	-7.62799
▁E	-7.63017
▁result	-7.63128
▁related	-7.63203
D	-7.63945
▁fish	-7.64557
▁patterns	-7.64841
▁rates	-7.65065
▁use	-7.65392
▁while	-7.65705
▁functional	-7.6643
▁host	-7.66595
▁suggest	-7.66683
▁structure	-7.66874
▁small	-7.67058
▁after	-7.67092
▁including	-7.67405
▁if	-7.67471
▁growth	-7.67988
▁range	-7.68366
’	-7.69009
▁new	-7.70128
▁information	-7.70263
▁identified	-7.70542
▁further	-7.71121
–	-7.71891
▁across	-7.72734
▁N	-7.73527
▁compared	-7.74044
▁very	-7.74173
▁specific	-7.74816
P	-7.75057
▁human	-7.75911
▁analyses	-7.76371
▁development	-7.76744
▁thus	-7.76929
▁mechanisms	-7.76952
▁do	-7.77025
R	-7.77188
▁approach	-7.77381
▁potential	-7.77577
▁should	-7.77894
4	-7.77937
▁control	-7.78202
▁R	-7.78346
▁pattern	-7.78671
in	-7.78938
▁L	-7.79088
▁As	-7.79349
▁any	-7.79406
▁interactions	-7.79523
▁long	-7.79937
▁networks	-7.80171
▁provide	-7.80221
▁lineages	-7.80783
n	-7.81069
c	-7.82136
▁methods	-7.8239
▁even	-7.82447
▁multiple	-7.82455
▁systems	-7.82665
▁lower	-7.82686
▁addition	-7.82842
p	-7.82843
▁Although	-7.83376
▁common	-7.83501
▁divergence	-7.83642
▁groups	-7.83693
▁reported	-7.83903
▁hypothesis	-7.84148
▁Thus	-7.84197
▁showed	-7.84445
▁suggests	-7.84595
▁involved	-7.84733
▁distribution	-7.84828
▁diversity	-7.84918
▁whether	-7.8538
▁regions	-7.85814
▁work	-7.85911
▁region	-7.85935
m	-7.85962
▁biological	-7.86214
▁pathway	-7.86356
▁G	-7.86796
▁how	-7.86892
▁[	-7.87571
▁3	-7.87741
▁method	-7.87792
al	-7.88153
▁factors	-7.88625
▁highly	-7.88678
▁set	-7.88683
▁DNA	-7.89114
specific	-7.8929
▁case	-7.89588
▁animals	-7.89599
▁support	-7.89962
▁less	-7.90121
▁change	-7.90138
▁O	-7.90291
t	-7.90388
▁about	-7.90592
▁experimental	-7.90727
▁recent	-7.9126
▁temperature	-7.91324
▁water	-7.91356
▁values	-7.91479
▁contrast	-7.91758
▁To	-7.91836
▁family	-7.91918
▁previous	-7.91939
▁processes	-7.9219
E	-7.92684
9	-7.92965
▁process	-7.93442
▁energy	-7.93588
▁relative	-7.936
▁I	-7.9463
K	-7.94664
▁so	-7.95196
▁pathways	-7.95231
y	-7.95278
▁however	-7.95758
▁sites	-7.95886
▁had	-7.95985
▁therefore	-7.96106
▁did	-7.96418
▁presence	-7.96999
Figure	-7.98269
▁production	-7.98851
▁major	-7.99357
▁flow	-7.99395
▁previously	-7.99584
▁F	-8.0033
▁significantly	-8.01079
0	-8.01148
▁either	-8.01296
▁individual	-8.01776
▁p	-8.02154
▁order	-8.03319
es	-8.03583
▁does	-8.03957
▁s	-8.04676
▁individuals	-8.04844
▁mechanism	-8.0531
▁stress	-8.05498
▁frequency	-8.05631
▁here	-8.05838
▁mass	-8.05866
▁experiments	-8.0588
▁i	-8.05925
N	-8.05971
▁mitochondrial	-8.06013
▁consistent	-8.07027
5	-8.07075
▁males	-8.07285
see	-8.07986
▁events	-8.08012
▁particular	-8.08506
▁co	-8.08515
▁taxa	-8.08544
▁lineage	-8.0912
▁suggested	-8.0921
▁male	-8.09272
▁available	-8.09643
▁females	-8.09717
▁regulation	-8.10277
▁functions	-8.10342
M	-8.1052
▁file	-8.10841
▁regulatory	-8.10985
▁genomes	-8.11151
▁proposed	-8.11169
▁relatively	-8.11298
▁then	-8.11586
o	-8.11736
▁early	-8.11764
er	-8.12163
▁=	-8.12395
▁tree	-8.12658
G	-8.12917
▁positive	-8.12942
▁least	-8.13222
▁often	-8.13294
▁much	-8.14142
6	-8.14511
▁acid	-8.14512
▁reduced	-8.14535
▁light	-8.1456
▁domain	-8.14625
8	-8.1463
▁length	-8.14728
▁environmental	-8.14918
▁conserved	-8.15874
▁state	-8.16026
▁K	-8.16271
r	-8.1628
l	-8.16369
▁form	-8.1652
▁performance	-8.16658
▁relationship	-8.17463
▁type	-8.1763
H	-8.17664
▁described	-8.17721
▁given	-8.17911
▁parameters	-8.1806
▁binding	-8.182
▁four	-8.18434
▁Therefore	-8.18619
▁indicate	-8.18629
based	-8.1871
▁test	-8.18881
▁expected	-8.19318
▁relationships	-8.19446
▁although	-8.19449
▁strong	-8.19509
F	-8.19551
▁out	-8.19653
▁responses	-8.19706
▁signal	-8.19921
like	-8.19939
▁loss	-8.20018
▁amino	-8.20134
▁m	-8.20248
▁being	-8.20265
▁natural	-8.20728
▁4	-8.21699
T	-8.219
▁clade	-8.21982
▁environment	-8.22032
▁interaction	-8.22304
▁types	-8.22932
▁greater	-8.23293
▁suggesting	-8.23306
▁expressed	-8.23426
▁whereas	-8.23466
▁organisms	-8.23594
▁female	-8.23631
▁5	-8.24275
▁ability	-8.24313
▁larger	-8.24566
L	-8.24575
▁force	-8.24637
▁traits	-8.24643
▁behavior	-8.24883
▁additional	-8.24952
ic	-8.25246
▁signaling	-8.25516
▁transcription	-8.27049
▁distinct	-8.27138
▁Furthermore	-8.27172
▁mammals	-8.27449
O	-8.27489
us	-8.27777
▁cellular	-8.27934
▁fact	-8.28473
▁tissue	-8.28737
▁considered	-8.28769
▁them	-8.28831
▁general	-8.2931
▁morphological	-8.29364
▁rather	-8.29614
▁difference	-8.29785
▁food	-8.29789
▁metabolism	-8.30158
▁few	-8.30195
▁Figure	-8.30479
▁properties	-8.31189
▁various	-8.31856
▁predicted	-8.32168
▁cycle	-8.32484
▁birds	-8.32794
▁demonstrated	-8.32861
▁still	-8.32939
▁surface	-8.32981
▁limited	-8.33025
▁origin	-8.33127
▁mutations	-8.33578
▁activation	-8.34102
▁up	-8.34105
▁factor	-8.34172
▁plant	-8.34243
▁history	-8.34409
▁understanding	-8.34489
▁via	-8.34817
▁h	-8.34974
▁novel	-8.35127
▁life	-8.35166
▁occur	-8.35724
▁nuclear	-8.35755
▁able	-8.35784
▁dynamics	-8.36499
▁lack	-8.36628
(	-8.37123
▁ancestral	-8.37304
▁e	-8.37387
▁part	-8.37416
▁‘	-8.37642
▁short	-8.37661
▁V	-8.38146
▁fitness	-8.38165
▁"	-8.38253
to	-8.38378
▁reproductive	-8.39066
▁re	-8.39072
I	-8.39149
▁physiological	-8.39163
▁–	-8.39208
▁since	-8.39582
▁required	-8.4014
▁current	-8.40204
▁respectively	-8.4041
▁revealed	-8.40581
"	-8.40723
▁differentiation	-8.41198
▁identify	-8.4175
▁target	-8.41886
▁studied	-8.41906
▁above	-8.41976
▁plants	-8.42179
▁phase	-8.4225
▁without	-8.42422
▁components	-8.42813
h	-8.43035
+	-8.43318
▁increases	-8.43464
▁features	-8.43649
▁Here	-8.43986
▁recently	-8.44272
▁site	-8.4458
▁prey	-8.44853
▁formation	-8.44954
▁animal	-8.4508
▁total	-8.4526
▁obtained	-8.45487
▁along	-8.45635
▁membrane	-8.45676
▁receptor	-8.45783
▁represent	-8.46248
▁measured	-8.46305
▁adaptive	-8.46766
▁second	-8.46795
▁provides	-8.47087
▁position	-8.47318
V	-8.4773
▁increasing	-8.4773
▁loci	-8.47884
▁Moreover	-8.48097
▁genomic	-8.48188
▁influence	-8.48657
▁active	-8.48708
▁While	-8.48771
▁insects	-8.4913
▁detected	-8.49218
▁period	-8.49223
▁probably	-8.49254
x	-8.49412
f	-8.49716
▁feeding	-8.49835
▁findings	-8.49978
ation	-8.50258
▁key	-8.50406
▁cases	-8.50744
▁following	-8.51176
▁against	-8.51358
▁per	-8.51417
▁immune	-8.5173
▁explain	-8.51823
▁distance	-8.51856
-1	-8.52323
▁occurred	-8.52494
▁flight	-8.52515
▁2007)	-8.52529
▁If	-8.52709
▁resulting	-8.52944
▁speed	-8.53257
▁cannot	-8.53449
▁appears	-8.53608
▁evolved	-8.53784
▁Additional	-8.53806
▁oxygen	-8.53928
▁muscles	-8.53942
▁visual	-8.54074
▁duplication	-8.54165
▁An	-8.54242
▁families	-8.54258
▁cancer	-8.54609
▁area	-8.54617
▁closely	-8.5474
▁shows	-8.54774
▁negative	-8.54868
▁independent	-8.54869
▁genus	-8.54927
▁10	-8.55144
▁point	-8.55287
▁parameter	-8.55417
▁adaptation	-8.55732
▁before	-8.55997
▁disease	-8.56036
▁direct	-8.56076
▁elements	-8.56554
▁directly	-8.5657
▁times	-8.56635
▁determine	-8.56777
▁decrease	-8.56796
▁affect	-8.56933
▁sub	-8.5699
▁structures	-8.57152
▁sexual	-8.57671
▁supported	-8.57886
▁better	-8.57891
▁years	-8.57896
▁One	-8.57978
▁diversification	-8.58275
▁whole	-8.5914
k	-8.59633
▁resistance	-8.59655
▁correlation	-8.59722
▁must	-8.59739
▁sensitivity	-8.59771
7	-8.59959
▁see	-8.60003
▁value	-8.6025
▁sex	-8.60364
▁derived	-8.60426
▁generally	-8.60466
▁members	-8.60558
▁appear	-8.60596
▁remains	-8.60662
▁phylogeny	-8.60724
▁local	-8.60917
▁lead	-8.6092
▁main	-8.60998
▁produce	-8.61056
▁power	-8.61067
▁reactions	-8.61155
▁behaviour	-8.61405
▁maximum	-8.61439
▁another	-8.61502
▁swimming	-8.6182
▁mutation	-8.61872
▁find	-8.62017
▁signals	-8.62106
▁reaction	-8.6217
▁absence	-8.62213
▁sperm	-8.62466
dependent	-8.6253
▁RNA	-8.62745
▁mating	-8.62756
▁alternative	-8.62887
▁context	-8.62941
▁particularly	-8.62955
▁post	-8.63005
▁pressure	-8.63101
▁approaches	-8.63105
–1	-8.63134
▁clear	-8.63173
▁produced	-8.63321
▁strongly	-8.63412
▁pre	-8.63414
▁c	-8.63459
▁concentration	-8.63829
▁tissues	-8.63894
▁comparison	-8.63944
▁include	-8.63991
▁There	-8.64469
▁reduction	-8.64494
▁knowledge	-8.65096
▁domains	-8.65215
▁2006)	-8.65418
▁wild	-8.65458
▁play	-8.65681
▁ecological	-8.6573
▁developed	-8.65768
▁adult	-8.66135
▁mean	-8.66184
▁importance	-8.66229
▁line	-8.66313
▁complete	-8.66344
▁together	-8.66566
▁capacity	-8.6712
▁6	-8.67266
▁clades	-8.6746
▁source	-8.67544
▁strains	-8.67603
▁brain	-8.67608
▁central	-8.67733
▁“	-8.68055
▁essential	-8.68224
▁tested	-8.68269
▁enzymes	-8.68424
▁mammalian	-8.68532
▁l	-8.68565
▁rapid	-8.68722
▁applied	-8.68728
is	-8.69049
and	-8.69114
▁close	-8.69158
▁blood	-8.69193
▁Drosophila	-8.69328
▁selective	-8.69406
▁indicates	-8.69521
▁X	-8.69646
▁receptors	-8.69887
on	-8.7002
ally	-8.70299
▁initial	-8.70821
▁2)	-8.7083
▁average	-8.71234
▁need	-8.71455
▁investigated	-8.71515
▁estimated	-8.71538
▁trees	-8.71561
▁concentrations	-8.71573
▁especially	-8.71574
▁exposure	-8.71645
▁morphology	-8.72146
▁environments	-8.72219
▁seems	-8.72269
▁mRNA	-8.72288
▁overall	-8.72428
the	-8.72519
▁allow	-8.72755
▁vertebrates	-8.72902
▁forces	-8.73236
▁field	-8.73408
▁degree	-8.73803
▁treatment	-8.7386
▁research	-8.73965
▁smaller	-8.73975
▁phenotypic	-8.74023
▁performed	-8.74036
▁estimates	-8.74047
▁sets	-8.74135
▁presented	-8.74272
▁At	-8.7441
▁generated	-8.75021
▁dispersal	-8.75368
▁temperatures	-8.75467
▁larvae	-8.75543
▁markers	-8.75614
▁yet	-8.75819
▁way	-8.75932
▁underlying	-8.76056
W	-8.76134
▁far	-8.76164
▁occurs	-8.76169
▁leading	-8.76235
▁examined	-8.7627
▁amount	-8.76302
▁Such	-8.76394
▁transport	-8.76397
▁age	-8.76515
Table	-8.7653
▁towards	-8.76557
▁g	-8.76684
▁ratio	-8.76838
▁like	-8.76869
▁neurons	-8.77179
▁little	-8.77696
▁future	-8.77917
▁biology	-8.78102
▁us	-8.78109
re	-8.78348
▁flux	-8.78358
▁unique	-8.78388
▁terms	-8.78388
▁expansion	-8.78424
1,	-8.786
▁sister	-8.78723
▁potentially	-8.79011
▁2008).	-8.79041
▁possibility	-8.79098
▁By	-8.7922
▁survival	-8.79236
▁sampling	-8.79393
▁direction	-8.79532
▁necessary	-8.79656
▁structural	-8.79719
▁mice	-8.79727
▁similarity	-8.79757
▁speciation	-8.80228
▁developmental	-8.80385
▁insect	-8.80627
▁substrate	-8.80739
▁samples	-8.80759
▁contribute	-8.80935
▁ancestor	-8.8098
▁shape	-8.81177
▁enzyme	-8.81342
▁difficult	-8.81387
▁Finally	-8.8177
▁vertebrate	-8.81805
”	-8.81822
▁observations	-8.81835
▁cluster	-8.81911
▁glucose	-8.81941
▁characterized	-8.82253
an	-8.82401
en	-8.8254
▁provided	-8.82579
▁correlated	-8.8265
▁un	-8.82796
▁determined	-8.82907
▁transfer	-8.83002
▁longer	-8.83171
▁spatial	-8.83175
▁effective	-8.83965
▁wing	-8.84204
=	-8.8421
▁five	-8.84292
▁U	-8.84759
▁stage	-8.84896
▁caused	-8.84912
▁impact	-8.84976
▁habitat	-8.8519
▁diverse	-8.85267
▁Fig	-8.85301
▁bacteria	-8.85308
▁certain	-8.85883
▁When	-8.85945
▁exhibit	-8.85989
▁inter	-8.85989
▁corresponding	-8.86106
▁2004)	-8.86181
▁Table	-8.86273
▁differ	-8.86343
▁content	-8.86523
▁Ca	-8.8674
▁7	-8.86771
▁allows	-8.86916
▁variable	-8.87006
▁hand	-8.87185
▁finding	-8.87189
▁combination	-8.87405
▁bacterial	-8.8758
▁primary	-8.87663
▁phenotype	-8.87769
▁seen	-8.87838
▁drug	-8.87854
▁account	-8.87968
Additional	-8.88155
▁mtDNA	-8.88167
▁included	-8.88182
▁Because	-8.8827
▁On	-8.88463
X	-8.88509
▁best	-8.88644
as	-8.88662
▁chromosome	-8.88699
▁lines	-8.88803
▁sea	-8.88864
▁contain	-8.88909
▁around	-8.89252
▁recombination	-8.89334
▁Indeed	-8.89479
α	-8.89515
▁prior	-8.89515
U	-8.89819
▁investigate	-8.89834
▁indicating	-8.89876
▁approximately	-8.89979
▁wide	-8.90073
▁humans	-8.90251
▁stages	-8.90334
▁end	-8.90464
▁cause	-8.9052
▁de	-8.90674
▁transcriptional	-8.90714
▁β	-8.90958
v	-8.91015
▁multi	-8.9107
▁demonstrate	-8.91153
▁indicated	-8.91225
▁nature	-8.91332
▁simple	-8.91407
▁located	-8.91474
▁alleles	-8.91546
▁unknown	-8.91592
▁mouse	-8.9162
▁constant	-8.91681
▁cost	-8.91685
▁strain	-8.91884
▁areas	-8.91968
▁molecules	-8.91969
▁make	-8.91992
▁habitats	-8.92022
scale	-8.92047
▁affected	-8.92236
▁what	-8.92399
▁become	-8.9246
▁targets	-8.92812
▁pairs	-8.92979
▁Y	-8.93069
▁strategy	-8.93194
▁global	-8.93223
▁experiment	-8.93311
▁frequencies	-8.93323
▁measurements	-8.93422
▁2009).	-8.93491
▁scale	-8.93498
▁problem	-8.93588
▁selected	-8.93855
▁predictions	-8.93882
▁clusters	-8.94088
▁differential	-8.94106
▁Interestingly	-8.94412
▁estimate	-8.94467
▁throughout	-8.94536
▁basis	-8.94652
▁normal	-8.94672
▁isolation	-8.94886
▁upon	-8.94939
th	-8.95088
▁lateral	-8.95113
▁component	-8.95132
▁infection	-8.95264
▁relevant	-8.95311
▁density	-8.95526
▁contact	-8.95537
▁responsible	-8.95565
▁reproduction	-8.95592
▁conservation	-8.95593
Y	-8.95627
▁free	-8.95651
▁identification	-8.95671
▁condition	-8.95892
▁generation	-8.95946
▁II	-8.95955
▁means	-8.95971
▁reflect	-8.96331
▁α	-8.96347
▁association	-8.96506
▁characteristics	-8.96547
▁marine	-8.96556
▁class	-8.96568
▁step	-8.96644
▁n	-8.96799
▁variability	-8.96812
▁combined	-8.97261
▁computational	-8.97295
▁defined	-8.97297
▁clearly	-8.97323
▁synthesis	-8.97358
▁red	-8.97397
▁prediction	-8.97562
▁yeast	-8.97691
▁cold	-8.97707
▁μ	-8.97737
▁made	-8.97952
▁nodes	-8.9796
▁d	-8.98217
▁cross	-8.98273
▁t	-8.98289
related	-8.98575
▁movement	-8.98615
▁isolated	-8.98629
▁2006;	-8.98861
type	-8.98939
▁head	-8.98963
▁composition	-8.99061
▁basal	-8.99174
▁critical	-8.99226
▁interesting	-8.99317
▁induced	-8.99356
▁duration	-8.99366
▁last	-8.99417
▁predict	-8.99461
▁decreased	-8.99677
▁algorithm	-8.99686
▁detect	-8.99709
▁understand	-8.99789
at	-8.99852
▁secondary	-8.99913
▁2010).	-8.99957
▁useful	-9.00302
▁though	-9.00458
▁2003)	-9.0046
▁hypotheses	-9.00483
▁thermal	-9.00628
▁needed	-9.00927
▁constraints	-9.01012
▁genera	-9.01257
▁mainly	-9.01279
▁thought	-9.0144
▁linked	-9.0147
▁2005;	-9.0148
▁latter	-9.01514
▁8	-9.01567
▁event	-9.01765
▁despite	-9.01797
▁acids	-9.01857
▁reduce	-9.01883
▁modeling	-9.01992
▁noise	-9.02023
▁oxidative	-9.02198
▁dynamic	-9.02288
▁f	-9.02502
man	-9.02539
▁hypoxia	-9.02642
?	-9.02752
um	-9.0277
le	-9.0302
▁migration	-9.03046
▁-	-9.03111
▁space	-9.03157
▁paper	-9.03294
▁Na	-9.03411
▁roles	-9.0345
▁1).	-9.03451
▁variety	-9.03606
▁putative	-9.03639
▁larval	-9.03675
▁remain	-9.03954
▁largely	-9.04069
▁observation	-9.04088
▁transition	-9.04159
▁heat	-9.04359
▁sample	-9.04422
▁Since	-9.04438
▁analyzed	-9.04527
▁sensory	-9.04742
idae	-9.04838
▁stimuli	-9.049
▁cues	-9.05253
▁usually	-9.0532
▁intron	-9.05336
▁question	-9.05375
▁They	-9.05532
ia	-9.05535
▁represents	-9.0557
▁fast	-9.05595
▁hosts	-9.05599
▁extent	-9.05831
▁locomotion	-9.05889
▁20	-9.0589
▁12	-9.05895
▁W	-9.05962
▁'	-9.06016
▁offspring	-9.06163
ta	-9.06267
▁mechanical	-9.06283
▁geographic	-9.06373
▁social	-9.06402
▁costs	-9.06572
▁shared	-9.06592
▁efficiency	-9.06829
▁now	-9.07113
▁framework	-9.07187
▁residues	-9.07191
▁phenotypes	-9.07434
▁organism	-9.07549
▁substitution	-9.07635
▁days	-9.0768
▁simulation	-9.07751
▁All	-9.07798
ity	-9.07877
▁explanation	-9.07932
▁exposed	-9.07941
▁maintain	-9.08068
▁fishes	-9.08298
▁below	-9.0834
induced	-9.08756
▁explained	-9.08761
term	-9.08846
▁2003;	-9.08975
▁temporal	-9.09041
▁interest	-9.09089
2,	-9.09159
▁detailed	-9.09289
▁+	-9.0938
▁already	-9.094
▁generate	-9.09423
▁respect	-9.09516
▁velocity	-9.0969
▁foraging	-9.09756
▁hybrid	-9.0976
▁dataset	-9.09816
▁complexes	-9.09827
▁contains	-9.1004
▁typically	-9.10063
▁numbers	-9.10121
▁damage	-9.10223
β	-9.10243
▁Ma	-9.10256
▁majority	-9.10469
▁2005).	-9.10472
▁resulted	-9.10581
▁lost	-9.10622
10	-9.10694
▁help	-9.10763
▁vivo	-9.10869
]	-9.10922
▁forms	-9.1093
▁chemical	-9.11014
▁strategies	-9.11048
▁2007;	-9.11083
▁true	-9.11157
▁nucleotide	-9.11168
off	-9.11382
▁bees	-9.11434
▁Z	-9.11525
▁advantage	-9.12035
▁almost	-9.12092
▁restricted	-9.12104
▁intracellular	-9.12195
▁instance	-9.12238
▁2004;	-9.12277
▁require	-9.12345
▁elevated	-9.12355
▁currently	-9.12377
▁b	-9.12559
▁near	-9.12686
▁states	-9.12727
id	-9.12761
▁uptake	-9.12955
▁output	-9.13009
▁2008;	-9.13197
▁detection	-9.13214
▁Further	-9.13257
▁measure	-9.13304
▁fully	-9.13587
▁inferred	-9.13705
de	-9.13747
▁stable	-9.13763
▁heart	-9.13983
▁2001;	-9.14071
ion	-9.141
▁input	-9.14258
▁view	-9.14483
▁subsequent	-9.14502
▁literature	-9.14716
▁rapidly	-9.14937
▁points	-9.15214
▁full	-9.15239
▁showing	-9.15384
▁possibly	-9.15529
▁earlier	-9.15582
▁competition	-9.15749
▁datasets	-9.15766
▁simulations	-9.15773
▁requires	-9.15834
▁sufficient	-9.15946
▁design	-9.16011
▁J	-9.16253
▁followed	-9.16297
▁2012)	-9.16308
▁widely	-9.16338
▁success	-9.16366
▁probability	-9.16423
▁peak	-9.16735
▁parasite	-9.16741
▁feature	-9.16933
▁release	-9.17101
▁six	-9.17134
▁flies	-9.1714
▁established	-9.17144
▁behavioral	-9.17209
▁Despite	-9.17239
▁robust	-9.174
▁2001)	-9.17585
▁divergent	-9.17834
▁biochemical	-9.17838
▁stimulus	-9.1784
▁First	-9.18035
▁open	-9.18065
▁branch	-9.18128
ii	-9.18291
▁Based	-9.18398
▁Given	-9.18425
▁k	-9.18531
z	-9.18588
Z	-9.18624
▁limb	-9.18767
▁hybridization	-9.18866
co	-9.18908
▁2002;	-9.18913
▁tolerance	-9.18968
▁abundance	-9.1909
▁take	-9.19105
▁act	-9.19144
▁Using	-9.19526
▁feedback	-9.19763
▁having	-9.19808
▁containing	-9.19963
▁periods	-9.20019
▁Both	-9.20367
▁volume	-9.20382
for	-9.20594
▁later	-9.20609
▁core	-9.20829
▁laboratory	-9.2118
▁regulated	-9.2122
▁ATP	-9.21296
protein	-9.21497
▁quality	-9.21597
▁day	-9.21651
▁motion	-9.21714
▁extensive	-9.21908
▁vary	-9.21934
▁dependent	-9.22054
▁complexity	-9.22128
▁versus	-9.22178
▁optimal	-9.22312
▁tend	-9.22331
▁signalling	-9.22402
▁[1].	-9.22443
▁profiles	-9.22535
▁random	-9.22558
▁sources	-9.2301
▁proportion	-9.23047
▁taxonomic	-9.23157
▁led	-9.23175
▁scenario	-9.23341
▁side	-9.23353
▁egg	-9.23397
J	-9.23435
▁sound	-9.23544
▁according	-9.23652
▁bats	-9.23802
▁diet	-9.24009
▁external	-9.24031
▁movements	-9.24094
▁[1,	-9.24238
▁plasma	-9.24286
▁steady	-9.24523
].	-9.24554
▁variables	-9.24599
▁Additionally	-9.24625
▁With	-9.24629
▁ancient	-9.2472
▁exist	-9.24847
▁seem	-9.24861
▁gain	-9.24871
▁2011).	-9.25064
▁modules	-9.25174
▁linear	-9.25241
▁codon	-9.25281
▁CO	-9.25442
▁coli	-9.25577
▁entire	-9.25686
▁eukaryotic	-9.2575
▁internal	-9.25821
▁good	-9.25932
▁learning	-9.25959
▁coding	-9.26031
▁North	-9.26035
▁statistical	-9.26083
2+	-9.26122
▁sensitive	-9.26429
▁primarily	-9.26502
▁trout	-9.26533
▁characters	-9.26576
▁search	-9.26675
▁distributions	-9.26678
▁deep	-9.26737
▁melanogaster	-9.26893
▁accumulation	-9.26899
▁trait	-9.26918
▁fin	-9.26944
▁motifs	-9.27022
▁1999;	-9.27051
▁distributed	-9.27133
▁African	-9.2714
▁metabolites	-9.27225
▁action	-9.27297
▁slow	-9.27318
▁zebrafish	-9.27368
▁independently	-9.27522
▁2000;	-9.27569
▁sizes	-9.27574
▁standard	-9.27574
ate	-9.27592
▁others	-9.27775
▁threshold	-9.27911
▁comparative	-9.28031
▁activities	-9.28237
▁inhibition	-9.28479
▁air	-9.28505
▁down	-9.28552
▁apparent	-9.28624
▁posterior	-9.28649
▁sequencing	-9.28656
▁consequence	-9.28742
▁plasticity	-9.28826
▁stem	-9.28847
▁[12]	-9.29039
▁horizontal	-9.29139
▁min	-9.29165
▁locus	-9.29219
▁Nevertheless	-9.29228
▁location	-9.2928
▁positions	-9.29397
▁r	-9.29479
▁propose	-9.29532
▁includes	-9.29545
▁material	-9.29606
▁Most	-9.29723
▁[3]	-9.29727
▁[8]	-9.29756
▁running	-9.29912
▁alone	-9.29918
▁neural	-9.2999
▁leads	-9.3011
▁stability	-9.30172
▁freshwater	-9.30238
▁unlikely	-9.30248
▁crucial	-9.30395
▁choice	-9.30406
▁southern	-9.30539
▁broad	-9.30546
▁phosphorylation	-9.30608
▁terrestrial	-9.30618
▁eukaryotes	-9.30713
▁maintenance	-9.30874
▁carbon	-9.31015
▁highest	-9.31268
▁theory	-9.31417
▁share	-9.31529
▁date	-9.31605
▁availability	-9.31607
▁Several	-9.31695
▁reveal	-9.31741
▁magnitude	-9.31792
▁motif	-9.31845
▁bias	-9.31861
▁[6]	-9.31893
▁diseases	-9.31952
▁introns	-9.31981
▁separate	-9.32046
▁During	-9.32237
▁maintained	-9.32255
▁original	-9.32383
▁exchange	-9.32384
▁matrix	-9.32504
▁consider	-9.32572
▁1)	-9.32658
▁intermediate	-9.32915
▁aspects	-9.32923
ul	-9.32989
▁Africa	-9.33018
ization	-9.33207
▁9	-9.33225
▁substantial	-9.33316
▁confirmed	-9.33354
▁variants	-9.33508
▁pair	-9.33606
▁Similarly	-9.33681
▁tests	-9.33716
▁efficient	-9.3375
▁whose	-9.33801
▁shift	-9.33932
▁late	-9.33941
▁16	-9.3404
▁Some	-9.34074
▁[11]	-9.34157
▁why	-9.34225
▁existence	-9.34315
▁joint	-9.34493
▁base	-9.34586
w	-9.34627
▁olfactory	-9.34697
▁reconstruction	-9.34852
▁place	-9.34953
▁virus	-9.34975
▁orientation	-9.34983
▁identical	-9.35011
▁instead	-9.35166
▁faster	-9.35281
▁15	-9.35373
terminal	-9.35399
▁inference	-9.35482
▁radiation	-9.35559
▁turn	-9.35672
▁numerous	-9.3571
▁2009;	-9.35836
▁assumed	-9.35875
▁2002).	-9.36007
▁Re	-9.36094
▁stochastic	-9.36136
▁quantitative	-9.36216
▁integration	-9.36391
▁capture	-9.36392
▁topology	-9.36462
▁specifically	-9.36519
▁experimentally	-9.36541
▁ants	-9.36808
▁unclear	-9.36819
▁taxon	-9.36963
▁Another	-9.36981
▁focus	-9.37067
▁series	-9.373
▁describe	-9.37614
▁recognition	-9.3763
▁walking	-9.3765
▁timing	-9.377
able	-9.3777
▁examine	-9.37794
▁assess	-9.37899
▁1999)	-9.3806
▁published	-9.38065
▁called	-9.38103
▁stimulation	-9.38195
▁neutral	-9.38262
▁contribution	-9.38372
▁secretion	-9.38582
▁focused	-9.38677
ers	-9.38712
−1	-9.38788
▁rise	-9.3883
▁calculated	-9.38867
▁evolve	-9.3889
▁Previous	-9.39017
▁self	-9.39033
▁represented	-9.39057
▁candidate	-9.39108
▁green	-9.39144
▁possess	-9.39216
▁always	-9.39321
▁amplitude	-9.39368
▁resources	-9.39541
▁great	-9.39635
▁parallel	-9.39695
▁lipid	-9.39804
▁allowed	-9.39891
▁completely	-9.39893
▁13	-9.40171
▁commonly	-9.40174
▁liver	-9.40223
▁transmission	-9.40306
▁mate	-9.40459
▁regulate	-9.40518
mediated	-9.40592
▁extant	-9.40595
▁viruses	-9.40628
▁third	-9.40642
▁classes	-9.40647
▁3).	-9.40674
▁MHC	-9.40751
▁resolution	-9.40754
▁Bayesian	-9.40809
▁frequently	-9.40844
▁degradation	-9.40848
▁background	-9.40856
▁taken	-9.40893
▁fossil	-9.40899
▁existing	-9.40938
▁depends	-9.41085
▁northern	-9.411
▁just	-9.41126
▁11	-9.41206
▁(1)	-9.41291
▁physical	-9.41292
▁elegans	-9.413
▁copies	-9.41383
level	-9.41398
ous	-9.41478
▁typical	-9.41553
▁chromosomes	-9.41654
▁haplotypes	-9.41704
▁copy	-9.41824
ol	-9.4185
▁distances	-9.41867
▁angle	-9.41974
▁proliferation	-9.42014
▁investigation	-9.4207
▁balance	-9.42087
▁fixed	-9.42203
2)	-9.42246
▁report	-9.42256
▁rare	-9.4229
u	-9.42293
▁compounds	-9.42367
▁vitro	-9.42398
▁insights	-9.42421
▁branches	-9.42474
▁intensity	-9.42612
▁estimation	-9.42671
▁compare	-9.42743
▁respond	-9.42761
▁[14]	-9.4285
▁(2)	-9.42872
▁breeding	-9.42961
up	-9.43054
▁vertical	-9.4306
▁techniques	-9.43151
▁mutant	-9.43237
▁significance	-9.43322
▁Hence	-9.43505
▁extended	-9.4367
▁perform	-9.43791
▁strength	-9.44105
▁section	-9.44109
▁comprehensive	-9.44116
▁ground	-9.44153
▁accuracy	-9.44184
cell	-9.44343
▁motor	-9.4443
▁pro	-9.44516
▁downstream	-9.44518
▁eggs	-9.44587
▁1,	-9.45032
▁address	-9.45141
▁extreme	-9.45236
▁fungi	-9.45327
▁mediated	-9.45345
▁1998;	-9.45484
▁pH	-9.45504
▁providing	-9.45512
▁past	-9.45581
▁thereby	-9.45644
▁Many	-9.45655
▁kinase	-9.45758
il	-9.45775
▁embryos	-9.45835
▁status	-9.45948
▁supports	-9.46023
▁[19]	-9.46085
fold	-9.46206
ad	-9.46231
▁comparisons	-9.46279
▁activated	-9.46319
▁leg	-9.46459
▁error	-9.46487
▁[22]	-9.46497
-2	-9.46515
▁real	-9.466
▁mode	-9.46723
▁fluid	-9.46742
▁course	-9.46787
▁agreement	-9.46913
no	-9.47009
▁indeed	-9.47046
▁clustering	-9.47096
▁organization	-9.47162
ian	-9.47237
▁nest	-9.47245
▁parasites	-9.47317
▁assumption	-9.47319
▁develop	-9.47472
▁likelihood	-9.47605
▁half	-9.4763
▁influenced	-9.478
▁translation	-9.47812
▁subject	-9.47816
▁infer	-9.47826
▁More	-9.47873
▁database	-9.48104
▁parts	-9.4839
▁causes	-9.48403
▁expect	-9.48495
▁authors	-9.48592
▁pathogen	-9.48687
ch	-9.48767
▁limit	-9.48853
binding	-9.49008
▁tools	-9.49089
▁1998)	-9.49203
rich	-9.49213
▁allele	-9.49256
▁gill	-9.49311
▁clock	-9.49317
▁noted	-9.49374
▁processing	-9.49448
▁manner	-9.49638
▁behaviors	-9.49681
▁monophyletic	-9.49876
▁display	-9.49883
▁node	-9.49903
▁substrates	-9.49937
▁acclimation	-9.5001
▁appropriate	-9.50125
▁100	-9.50231
▁30	-9.50254
▁consequences	-9.50418
▁plays	-9.50634
▁specificity	-9.50684
▁allowing	-9.50687
▁comparable	-9.50784
▁duplications	-9.508
▁slightly	-9.50839
▁capable	-9.50914
▁formed	-9.50944
▁involving	-9.51007
▁aquatic	-9.51028
▁intra	-9.51029
▁encoding	-9.51099
▁hence	-9.51111
el	-9.5119
▁experience	-9.51254
▁1997;	-9.51295
vi	-9.5159
▁micro	-9.51604
70	-9.51607
▁tail	-9.51662
▁anterior	-9.51796
▁characteristic	-9.51838
▁improve	-9.51899
▁Second	-9.51957
▁application	-9.52209
▁mitochondria	-9.52222
▁anti	-9.52237
▁cardiac	-9.52262
▁South	-9.5234
▁genetically	-9.52365
ating	-9.52375
▁promoter	-9.52418
▁remaining	-9.52437
wide	-9.52458
▁hypothesized	-9.52521
▁parental	-9.52551
▁trade	-9.52572
▁explore	-9.52603
▁insulin	-9.5273
▁examples	-9.5275
ra	-9.52808
▁European	-9.52851
▁mathematical	-9.52892
▁sp	-9.53049
▁discussed	-9.53058
▁depend	-9.53126
▁substitutions	-9.53135
▁preference	-9.53196
▁occurring	-9.53221
▁controlled	-9.53361
1)	-9.5337
▁enhanced	-9.5343
ca	-9.53445
▁eye	-9.53557
▁climate	-9.53586
▁documented	-9.53597
ata	-9.53645
▁interact	-9.53726
reviewed	-9.53772
▁nearly	-9.5384
▁net	-9.53891
▁phylogenies	-9.53891
▁mostly	-9.53916
▁sampled	-9.53973
▁integrated	-9.5406
▁dorsal	-9.54118
▁experienced	-9.54391
▁living	-9.54457
▁memory	-9.54464
▁organs	-9.54493
▁risk	-9.54496
▁functionally	-9.54562
▁questions	-9.54674
▁until	-9.54702
▁polymorphism	-9.54764
▁cycles	-9.54785
▁obtain	-9.54787
▁18	-9.54796
▁widespread	-9.54842
▁tool	-9.54885
ton	-9.54933
▁America	-9.54974
▁makes	-9.54992
▁acting	-9.55059
▁alignment	-9.55067
▁considerable	-9.5509
▁decreases	-9.55244
▁itself	-9.55293
▁deg	-9.55355
▁sequenced	-9.55371
▁perhaps	-9.55426
20	-9.55492
▁driven	-9.55568
▁14	-9.55703
▁predators	-9.55731
▁measures	-9.55827
▁0	-9.55888
_	-9.55948
▁extracellular	-9.55951
▁variations	-9.55955
▁[23]	-9.55962
▁seven	-9.55998
▁occurrence	-9.5606
▁continuous	-9.56137
▁Among	-9.5647
▁genotypes	-9.56474
▁accurate	-9.56514
▁24	-9.56573
ur	-9.5678
▁making	-9.56795
me	-9.56836
▁conclusion	-9.56852
▁achieved	-9.56872
▁variance	-9.56876
▁comparing	-9.56913
▁1996;	-9.56974
▁kinetic	-9.57268
▁depending	-9.57333
▁shifts	-9.5741
▁scales	-9.57491
▁facilitate	-9.57572
▁maternal	-9.57686
▁enough	-9.57695
▁consumption	-9.57701
▁note	-9.57759
▁bone	-9.57863
▁reason	-9.57976
▁1997)	-9.58179
▁induce	-9.58222
gene	-9.58261
▁blue	-9.58305
it	-9.5842
▁skeletal	-9.58651
▁genotype	-9.58724
▁testing	-9.58748
▁easily	-9.58781
ma	-9.58819
ar	-9.58824
▁exhibited	-9.58952
▁land	-9.58968
▁Cl	-9.58978
coding	-9.59032
▁connected	-9.59068
▁axis	-9.59124
▁link	-9.59209
▁challenge	-9.5922
▁zone	-9.59305
▁Two	-9.59332
▁conversion	-9.59395
▁speeds	-9.59425
▁quite	-9.59478
▁teleost	-9.59499
▁behavioural	-9.59569
ent	-9.59602
▁locomotor	-9.59649
▁colour	-9.59783
▁<	-9.59813
▁back	-9.59839
▁insight	-9.60092
▁overlap	-9.60095
▁classification	-9.60308
ter	-9.60333
▁gradient	-9.60355
▁pathogens	-9.60409
▁4).	-9.60461
▁calcium	-9.60537
▁partial	-9.60552
yl	-9.60612
▁ventral	-9.60674
▁introduced	-9.60765
▁viral	-9.60787
▁robustness	-9.60846
▁fraction	-9.61038
ner	-9.61204
▁skin	-9.6129
▁predator	-9.61372
▁Even	-9.61432
▁organ	-9.61506
▁idea	-9.61518
ir	-9.61683
▁profile	-9.61782
▁2000).	-9.61814
▁understood	-9.61862
▁regarding	-9.61974
▁color	-9.61985
▁dominant	-9.61987
▁[24]	-9.62001
▁algorithms	-9.62059
ized	-9.62313
▁1:	-9.6232
un	-9.62378
▁weight	-9.62434
▁left	-9.62478
▁Other	-9.62571
▁own	-9.62702
▁mutants	-9.62856
▁From	-9.62991
ness	-9.63098
▁diverged	-9.63164
▁escape	-9.63247
▁recognized	-9.63381
▁colleagues	-9.63505
▁reference	-9.63509
▁adults	-9.63544
▁altered	-9.63705
▁fundamental	-9.63707
▁character	-9.63861
▁recorded	-9.63926
▁million	-9.64023
▁Asia	-9.64093
▁composed	-9.64134
▁embryonic	-9.64268
▁Also	-9.64295
▁serve	-9.64357
▁collected	-9.64363
11	-9.64716
▁pressures	-9.64757
▁1994;	-9.64773
▁extremely	-9.6478
▁equal	-9.64824
▁%	-9.64839
▁ion	-9.64901
▁element	-9.6493
▁weak	-9.65069
▁ago	-9.65077
▁ranges	-9.65242
▁basic	-9.65345
▁respiratory	-9.65415
▁UV	-9.65435
et	-9.65479
▁products	-9.65594
▁Arabidopsis	-9.65615
50	-9.65719
▁[2,	-9.65771
▁associations	-9.65867
▁right	-9.65916
na	-9.66198
▁[27]	-9.66241
▁exon	-9.66296
▁phenomenon	-9.66354
▁drift	-9.66425
▁evaluate	-9.66509
▁vs	-9.6651
▁largest	-9.66528
▁pheromone	-9.66529
▁eyes	-9.66553
▁solution	-9.66691
▁conducted	-9.66691
▁contraction	-9.66777
▁absent	-9.66789
1-	-9.66945
▁[2].	-9.66964
▁peptide	-9.66965
os	-9.66971
▁aerobic	-9.66993
▁combinations	-9.67027
ling	-9.67029
▁identifying	-9.67076
▁outside	-9.67118
▁depth	-9.67164
▁subfamily	-9.67165
▁physiology	-9.67174
lo	-9.67303
▁duplicated	-9.67313
▁50	-9.67462
▁encoded	-9.67507
▁opposite	-9.67593
▁v	-9.67597
ba	-9.67609
▁transcripts	-9.67698
▁Europe	-9.67729
▁separated	-9.67797
▁adaptations	-9.67859
▁steps	-9.68002
▁[4,	-9.68044
▁split	-9.68059
ro	-9.68101
▁employed	-9.68116
▁homologous	-9.6817
▁colony	-9.68205
▁fungal	-9.68307
▁deletion	-9.68354
Q	-9.68373
▁simultaneously	-9.68387
▁suitable	-9.68409
▁segments	-9.68414
▁interpretation	-9.68441
▁problems	-9.68447
▁situation	-9.68497
▁Recent	-9.68569
▁kinematics	-9.68589
q	-9.68615
▁Pleistocene	-9.68661
▁avoid	-9.68711
▁simply	-9.68737
▁spread	-9.68754
▁Atlantic	-9.68757
▁fly	-9.68797
▁maximal	-9.68865
st	-9.68901
▁shorter	-9.68903
▁coupled	-9.68913
▁tumor	-9.69057
ive	-9.6917
▁units	-9.69254
▁upper	-9.69431
▁miRNA	-9.69531
▁optimization	-9.69676
▁give	-9.69681
▁improved	-9.69698
▁forward	-9.69705
▁resource	-9.69709
▁identity	-9.69729
53	-9.6974
▁adapted	-9.69848
ids	-9.69994
▁affinity	-9.70033
▁specimens	-9.70096
▁term	-9.70202
-3	-9.70234
▁positively	-9.70288
▁[3,	-9.7034
▁wall	-9.70428
▁supporting	-9.70477
▁ammonia	-9.70507
▁next	-9.70508
▁1995;	-9.70801
▁Q	-9.70819
▁treatments	-9.70839
▁cerevisiae	-9.70903
▁poorly	-9.71001
2-	-9.71024
▁final	-9.71066
▁paralogs	-9.71141
regulated	-9.7125
▁fluxes	-9.71264
▁presumably	-9.71302
▁Consequently	-9.71347
son	-9.71399
▁fibers	-9.71413
la	-9.71519
▁yield	-9.71553
▁theoretical	-9.71582
mer	-9.71637
▁too	-9.71674
ine	-9.71682
am	-9.71718
▁>	-9.71919
▁demographic	-9.72081
▁eight	-9.72103
▁isoforms	-9.72104
▁repeated	-9.72139
▁introgression	-9.72201
ated	-9.7224
▁changing	-9.72265
▁fluctuations	-9.723
ri	-9.72364
li	-9.72401
▁involves	-9.72433
▁[31]	-9.72456
of	-9.72589
▁emergence	-9.72604
▁considering	-9.72649
▁phylogeographic	-9.72656
▁constraint	-9.72714
▁evolving	-9.7283
▁communication	-9.72831
▁death	-9.72834
▁extension	-9.7295
▁rule	-9.73011
▁databases	-9.73086
▁frequent	-9.73108
▁module	-9.73316
▁American	-9.73357
ase	-9.73465
▁historical	-9.73515
▁assume	-9.73562
▁nervous	-9.73623
▁reducing	-9.73639
▁affects	-9.73644
▁replication	-9.73978
▁x	-9.74067
▁correlations	-9.74156
▁2,	-9.74179
▁seed	-9.74218
▁achieve	-9.74241
one	-9.74331
associated	-9.74358
▁except	-9.74362
▁[4].	-9.74381
▁developing	-9.74416
▁white	-9.74779
▁edge	-9.74848
▁drugs	-9.74871
▁hybrids	-9.7498
▁successful	-9.7502
▁channels	-9.75077
▁reach	-9.75147
▁modern	-9.75191
▁legs	-9.75419
▁growing	-9.75427
▁greatly	-9.75625
▁islands	-9.75637
▁subunits	-9.75755
▁relation	-9.75757
▁acquired	-9.75808
▁East	-9.75869
);	-9.75884
▁spectral	-9.75913
▁extinction	-9.7593
▁determining	-9.75971
▁marker	-9.76056
▁minimal	-9.76141
▁geographical	-9.76157
▁newly	-9.76176
te	-9.76185
▁consists	-9.76204
▁discovery	-9.76256
▁tropical	-9.76321
▁New	-9.76334
▁minimum	-9.76375
▁miRNAs	-9.76432
est	-9.76514
▁benefit	-9.76593
▁appeared	-9.76688
▁distinguish	-9.76693
▁becomes	-9.76722
▁recovery	-9.76738
▁splicing	-9.76743
▁alter	-9.76745
▁biosynthesis	-9.76899
▁colonization	-9.76978
▁once	-9.77075
▁[5].	-9.7717
▁surprising	-9.77198
▁rest	-9.77199
▁varying	-9.7724
▁2010;	-9.77254
▁beyond	-9.77316
▁representing	-9.77335
▁apoptosis	-9.77384
▁partially	-9.77386
▁intake	-9.77392
▁opsin	-9.77462
▁[33]	-9.77519
▁TF	-9.77641
▁[6,	-9.77675
▁circadian	-9.77675
▁loop	-9.77859
▁unit	-9.77897
▁confirm	-9.77975
▁acoustic	-9.77982
tic	-9.77987
▁poly	-9.78138
▁climatic	-9.78155
▁lengths	-9.78157
▁[7].	-9.78224
13	-9.78285
▁carried	-9.78337
▁necessarily	-9.78337
▁Alternatively	-9.78464
▁seasonal	-9.78843
▁product	-9.78912
state	-9.78926
▁1993;	-9.78953
▁conclude	-9.78996
▁systematic	-9.79105
▁analyze	-9.79187
▁metabolite	-9.79189
▁double	-9.79191
▁[9].	-9.79213
▁nor	-9.79376
▁switch	-9.794
▁upstream	-9.79441
▁task	-9.7948
▁Co	-9.79491
▁abundant	-9.79553
▁locations	-9.79556
▁implies	-9.79612
▁eastern	-9.79663
3,	-9.79707
▁producing	-9.79712
▁[7,	-9.79765
▁HGT	-9.79781
▁successfully	-9.79857
▁fit	-9.79863
ini	-9.79893
▁ones	-9.79948
▁edges	-9.80025
▁remained	-9.80217
▁layer	-9.80237
▁channel	-9.8024
▁simulated	-9.80257
▁stiffness	-9.80287
▁hormone	-9.80426
▁nutrient	-9.80542
▁benefits	-9.80565
▁regulating	-9.80576
by	-9.80625
▁empirical	-9.80721
▁implications	-9.80782
▁black	-9.80859
▁placed	-9.80886
ment	-9.80921
▁western	-9.80937
15	-9.8102
▁recovered	-9.81061
▁Similar	-9.81081
▁PPI	-9.81123
▁onset	-9.81244
▁originated	-9.81262
▁turtles	-9.81419
▁substantially	-9.81432
▁bat	-9.81499
▁energetic	-9.8158
[	-9.81582
▁niche	-9.81602
▁rDNA	-9.81671
▁aim	-9.8171
▁correspond	-9.81769
▁heterogeneity	-9.81836
▁bird	-9.81878
▁chain	-9.81879
▁contained	-9.81925
▁19	-9.81947
▁mid	-9.81981
▁ligand	-9.82189
▁apical	-9.82294
▁limits	-9.82307
▁winter	-9.82307
▁reasons	-9.82405
▁calls	-9.82429
▁wings	-9.82495
▁[10].	-9.82504
▁[5,	-9.8253
▁modified	-9.82607
▁intrinsic	-9.82706
▁characterize	-9.82715
▁beneficial	-9.82845
▁driving	-9.82967
ry	-9.82987
▁diffusion	-9.83003
▁attention	-9.8303
▁root	-9.83064
▁enhance	-9.83281
▁Gene	-9.8336
▁exception	-9.83387
▁apparently	-9.83449
▁who	-9.83612
▁haplotype	-9.8364
▁[8,	-9.83704
▁cm	-9.83711
▁subunit	-9.83837
▁trans	-9.83874
▁regulators	-9.83879
▁architecture	-9.83949
ci	-9.84099
▁maintaining	-9.84101
▁oscillations	-9.84106
▁reliable	-9.84175
▁gut	-9.84177
▁move	-9.84196
▁acquisition	-9.84247
▁details	-9.84338
▁sense	-9.84427
▁rat	-9.84556
▁[9,	-9.84633
im	-9.84663
▁peptides	-9.84675
▁correct	-9.84685
▁orthologs	-9.84687
▁generations	-9.84693
▁detail	-9.84702
▁observe	-9.84809
▁iron	-9.84984
▁plastid	-9.84992
▁differentially	-9.85027
▁nerve	-9.85042
▁Recently	-9.85079
▁1995)	-9.85166
▁issue	-9.85179
▁[10,	-9.85183
▁graph	-9.85202
▁goal	-9.85257
▁`	-9.85283
land	-9.85318
▁III	-9.85319
▁call	-9.85509
ne	-9.85557
▁concept	-9.85588
▁drag	-9.8565
▁GO	-9.85662
▁immunity	-9.85662
▁origins	-9.85682
▁load	-9.85858
▁incomplete	-9.85911
▁vector	-9.85944
▁stronger	-9.86074
▁regression	-9.86095
II	-9.86106
▁±	-9.8618
▁predation	-9.86192
▁prevent	-9.86209
▁enriched	-9.86218
▁community	-9.86249
▁barriers	-9.86262
▁chromosomal	-9.86482
▁attributed	-9.86517
▁conclusions	-9.86586
▁start	-9.86634
▁similarities	-9.86672
less	-9.86709
▁exercise	-9.86722
▁map	-9.8674
▁actually	-9.86759
▁ROS	-9.86821
▁De	-9.86822
▁virulence	-9.86978
▁exclusively	-9.87192
▁3)	-9.87212
▁actual	-9.87237
da	-9.87329
▁[13].	-9.87332
ha	-9.87405
▁exons	-9.87485
dimensional	-9.87584
▁limitation	-9.87591
▁No	-9.87592
▁involve	-9.87803
▁juvenile	-9.87815
▁acceleration	-9.87882
▁ways	-9.87906
▁synthetic	-9.87908
▁training	-9.88058
▁[35]	-9.88135
▁review	-9.88213
▁bp	-9.88248
▁medium	-9.88288
▁amounts	-9.88295
▁fat	-9.88321
▁modifications	-9.88327
▁resolve	-9.88421
▁molecule	-9.88456
▁avian	-9.88456
▁According	-9.88496
▁path	-9.8852
▁reflects	-9.88616
25	-9.88654
▁di	-9.88698
▁segment	-9.88733
line	-9.88767
ae	-9.8877
▁exists	-9.88823
ant	-9.88893
▁distal	-9.88916
▁define	-9.8902
▁j	-9.89028
▁1990;	-9.89044
▁subfamilies	-9.89092
▁subsequently	-9.89147
▁1994)	-9.89187
▁5).	-9.8925
▁constructed	-9.89287
▁So	-9.8942
▁transitions	-9.8955
19	-9.89632
▁considerably	-9.89632
▁toward	-9.8964
▁colonies	-9.89699
em	-9.89763
▁indirect	-9.89884
▁procedure	-9.89905
▁peripheral	-9.89906
▁missing	-9.89923
▁separation	-9.89969
▁transcript	-9.90018
▁equivalent	-9.90061
▁perturbations	-9.90093
▁designed	-9.90141
],	-9.90158
▁TFs	-9.90176
▁limitations	-9.90189
▁Within	-9.90251
▁×	-9.9035
▁studying	-9.90384
▁interpreted	-9.9049
▁consensus	-9.90525
▁transduction	-9.90588
ac	-9.90599
▁GC	-9.90621
▁analysed	-9.90671
▁decline	-9.90796
▁Of	-9.91008
▁subset	-9.9108
▁directional	-9.91119
▁bind	-9.9112
▁false	-9.91137
▁modelling	-9.91293
▁ER	-9.91319
▁glacial	-9.91333
▁CD	-9.91334
species	-9.91386
▁moving	-9.91497
12	-9.91619
▁apply	-9.91632
▁trend	-9.91695
▁storage	-9.91757
▁specialized	-9.91765
▁representation	-9.91768
▁patients	-9.9178
▁requirements	-9.91819
▁connectivity	-9.91829
▁After	-9.91884
▁deleterious	-9.91884
▁localization	-9.91893
▁2]	-9.91923
▁needs	-9.91938
▁[18].	-9.91979
▁Wolbachia	-9.92031
▁precise	-9.92033
▁Under	-9.92039
▁kinetics	-9.92105
▁coral	-9.9229
▁assembly	-9.92311
▁drive	-9.92317
▁microarray	-9.92461
▁lung	-9.92528
▁monophyly	-9.9253
ak	-9.92574
▁fixation	-9.92661
▁traditional	-9.92669
ty	-9.92756
▁again	-9.92788
▁[15].	-9.92861
▁evident	-9.92867
▁fatty	-9.92931
▁ratios	-9.9299
▁invertebrates	-9.93149
j	-9.93186
▁induction	-9.93214
di	-9.93223
14	-9.9323
▁Sea	-9.93293
▁primates	-9.93301
▁subspecies	-9.93365
▁Overall	-9.93417
▁division	-9.9346
▁adjacent	-9.93486
▁poor	-9.93673
▁proximal	-9.93707
▁jaw	-9.93734
▁every	-9.93781
▁1993)	-9.93853
▁[17].	-9.93879
▁mmol	-9.93895
▁teleosts	-9.93897
▁season	-9.93905
▁native	-9.93954
▁generating	-9.94041
be	-9.94077
▁unpublished	-9.94084
▁China	-9.9413
▁affecting	-9.94146
▁phases	-9.94254
▁former	-9.94278
▁[16].	-9.94308
▁[13,	-9.94333
▁lacking	-9.94338
▁rely	-9.94424
▁young	-9.94447
▁St	-9.94498
▁algae	-9.94585
▁off	-9.94603
▁salinity	-9.94615
▁objective	-9.94624
▁added	-9.94657
▁controls	-9.94662
▁promote	-9.94697
▁effort	-9.94726
▁mortality	-9.94758
▁representative	-9.94815
▁respiration	-9.94901
▁mapping	-9.94902
▁software	-9.94907
▁1992;	-9.94915
▁orthologous	-9.94916
▁discovered	-9.94933
▁ITS	-9.94958
▁fewer	-9.95054
▁seawater	-9.95122
▁synonymous	-9.95126
▁[11,	-9.95193
▁temperate	-9.95211
▁statistically	-9.95234
▁discrete	-9.95328
▁homologs	-9.95329
▁scaling	-9.95342
▁kg	-9.95362
▁equations	-9.95364
▁2008)	-9.95456
▁respective	-9.95498
▁explored	-9.95574
▁17	-9.95597
▁insertion	-9.95601
▁decreasing	-9.95619
▁semi	-9.95673
▁2013)	-9.95784
▁Specifically	-9.95832
max	-9.95835
▁infected	-9.95854
▁PO	-9.95923
▁member	-9.96039
▁acute	-9.96059
▁scenarios	-9.96068
▁implicated	-9.96126
fi	-9.96187
▁establish	-9.96433
▁vision	-9.96495
▁severe	-9.96565
▁[12,	-9.96647
▁uses	-9.96731
▁(3)	-9.96734
▁biomass	-9.96842
▁depression	-9.96915
▁surrounding	-9.96984
▁confidence	-9.97075
les	-9.97098
▁[20].	-9.97141
▁interacting	-9.97206
mol	-9.97217
30	-9.97242
▁Wnt	-9.97288
▁nucleus	-9.973
▁fusion	-9.97373
▁demonstrates	-9.97452
▁resting	-9.97491
▁older	-9.97524
▁discrimination	-9.9757
▁nitrogen	-9.97578
▁25	-9.97593
▁obvious	-9.97803
▁year	-9.97892
ina	-9.97925
▁released	-9.9794
▁surfaces	-9.97974
▁expanded	-9.97975
▁signature	-9.98087
▁initiation	-9.98167
▁absolute	-9.98178
▁ML	-9.98188
▁miR	-9.98193
▁percentage	-9.9823
out	-9.98284
26	-9.98337
con	-9.98357
▁mature	-9.98391
▁bi	-9.98404
▁constrained	-9.98493
▁reveals	-9.98642
▁corresponds	-9.98664
▁description	-9.9867
▁intact	-9.9869
▁technique	-9.98744
▁arise	-9.98854
▁rRNA	-9.98857
ev	-9.98862
ler	-9.98882
▁forest	-9.98915
▁inbreeding	-9.98927
▁[21].	-9.98941
▁modes	-9.98951
tt	-9.98982
but	-9.99001
▁rats	-9.99011
▁progression	-9.99049
▁absorption	-9.99099
▁narrow	-9.99107
▁3,	-9.99117
▁bio	-9.99197
▁inside	-9.99208
min	-9.9925
▁exact	-9.99284
▁ecology	-9.99342
▁repair	-9.99468
▁initially	-9.99478
▁never	-9.99497
▁40	-9.99521
▁away	-9.99556
▁belong	-9.99557
40	-9.99576
▁effectively	-9.99601
▁zero	-9.99626
▁equilibrium	-9.99668
ensis	-9.99681
▁investigations	-9.99763
▁arm	-9.99802
▁Mediterranean	-9.99803
▁retained	-9.99845
inae	-9.99867
▁enable	-9.99879
▁influences	-9.99931
▁moment	-9.99947
▁coefficient	-9.99964
▁chloroplast	-10.001
▁intervals	-10.0013
▁repeats	-10.002
▁follow	-10.0024
▁wave	-10.0025
ke	-10.0028
▁errors	-10.0031
▁contributed	-10.0031
▁resolved	-10.0036
▁reasonable	-10.004
▁1991;	-10.004
▁homology	-10.0041
▁interspecific	-10.0044
▁predicts	-10.0047
▁neuronal	-10.0048
▁extra	-10.0053
▁live	-10.0053
▁Central	-10.0056
▁2011;	-10.0061
▁ambient	-10.0069
▁homeostasis	-10.0069
▁microbial	-10.007
▁culture	-10.0084
▁measurement	-10.0087
expression	-10.0097
sensitive	-10.0101
▁transient	-10.0101
▁belonging	-10.0103
▁extend	-10.0111
▁Instead	-10.0114
ting	-10.0121
▁modulation	-10.0131
all	-10.0133
▁reports	-10.0134
▁classical	-10.0143
▁reflected	-10.0146
▁transporters	-10.0147
▁varies	-10.0152
▁trials	-10.0157
▁pool	-10.016
▁portion	-10.0162
▁hyper	-10.0164
▁silico	-10.0177
▁rotation	-10.0183
ard	-10.0184
▁namely	-10.0187
▁controlling	-10.0189
▁summary	-10.0191
▁mm	-10.0196
▁opportunity	-10.0206
▁1989;	-10.0215
▁gas	-10.0216
▁closer	-10.0217
▁classified	-10.0223
▁changed	-10.0231
▁array	-10.0234
▁mixed	-10.0242
▁similarly	-10.0244
▁elastic	-10.0245
▁rainbow	-10.0252
▁signatures	-10.0252
▁mono	-10.0253
4,	-10.0264
▁enrichment	-10.0275
▁reached	-10.0278
▁assumptions	-10.0281
▁record	-10.0283
▁0.5	-10.0313
▁River	-10.0315
▁terminal	-10.0315
▁hearing	-10.0322
▁middle	-10.0323
ins	-10.0323
▁modification	-10.0325
age	-10.0326
▁top	-10.0326
▁targeted	-10.0329
▁supply	-10.0329
▁shallow	-10.0334
▁isolates	-10.0346
▁intestine	-10.0352
▁consistently	-10.0363
▁intraspecific	-10.0363
▁powerful	-10.0369
▁acts	-10.037
ox	-10.0372
▁island	-10.0375
▁purifying	-10.0375
▁Li	-10.0378
▁dark	-10.0379
▁encode	-10.0388
▁done	-10.039
▁spectrum	-10.0393
▁epithelial	-10.0402
▁slower	-10.0406
▁equation	-10.0411
nt	-10.0424
▁clinical	-10.0426
▁Hz	-10.0426
ub	-10.0433
▁assigned	-10.0434
▁intestinal	-10.0437
ph	-10.0438
▁repeat	-10.0439
▁accurately	-10.0447
▁ranging	-10.0447
▁nm	-10.0449
17	-10.046
▁urea	-10.0467
▁plausible	-10.0477
▁challenges	-10.0492
▁snakes	-10.0502
▁perspective	-10.0505
▁embryo	-10.0505
▁sounds	-10.0508
▁endogenous	-10.0518
▁lizards	-10.052
red	-10.052
▁dive	-10.0529
▁auditory	-10.0532
▁themselves	-10.054
▁polymorphisms	-10.0545
▁orders	-10.0548
▁efforts	-10.0552
▁gland	-10.0555
▁Ta	-10.056
▁access	-10.0578
▁mentioned	-10.0578
▁Note	-10.0584
▁Each	-10.0591
90	-10.0598
▁unable	-10.0598
▁old	-10.0601
▁ms	-10.0605
▁varied	-10.0619
▁feed	-10.062
▁conflict	-10.0622
27	-10.0622
▁salmon	-10.0634
▁ant	-10.0635
▁barrier	-10.0641
▁transferred	-10.0645
▁[41]	-10.0653
▁vocal	-10.066
▁dietary	-10.066
iv	-10.067
+/	-10.067
▁5-	-10.0674
▁sympatric	-10.0674
per	-10.068
om	-10.0681
▁outcome	-10.0698
▁diploid	-10.0699
▁[14,	-10.0701
▁endemic	-10.0708
▁[16,	-10.0715
regulation	-10.0717
ATPase	-10.0717
38	-10.072
▁MR	-10.0722
://	-10.0724
▁sometimes	-10.0726
▁NO	-10.0726
▁evaluated	-10.0727
▁w	-10.073
▁excretion	-10.0732
▁sleep	-10.0733
▁1992)	-10.0739
▁inhibitor	-10.0741
▁workers	-10.0743
▁run	-10.0745
▁reduces	-10.0759
▁list	-10.0776
mann	-10.0777
▁follows	-10.0779
▁spring	-10.0781
▁neither	-10.0788
ley	-10.0792
▁differs	-10.0795
if	-10.0796
▁Mb	-10.0802
▁NF	-10.0804
▁bound	-10.0809
▁antioxidant	-10.0812
▁Asian	-10.0814
▁shell	-10.0822
▁tandem	-10.0831
ut	-10.0842
pa	-10.0848
▁cryptic	-10.0856
16	-10.0857
▁preferences	-10.086
▁microsatellite	-10.0869
▁[15,	-10.0876
▁nematodes	-10.0876
▁regulator	-10.0892
▁mouth	-10.0896
▁frogs	-10.0902
▁flexibility	-10.0903
▁foot	-10.0907
▁ca	-10.0908
▁fed	-10.0909
▁connections	-10.0912
▁heterogeneous	-10.092
▁1996).	-10.0933
▁topological	-10.0946
▁overlapping	-10.0948
▁[25].	-10.0953
▁Δ	-10.0956
▁mechanistic	-10.0959
▁1991)	-10.0961
▁limiting	-10.0963
▁negatively	-10.0971
▁differentiated	-10.0974
▁2009)	-10.0975
▁applications	-10.0976
▁uncertainty	-10.0977
derived	-10.0978
▁stroke	-10.0983
▁gap	-10.0984
▁treated	-10.0991
▁usage	-10.0995
▁[42]	-10.1008
▁artificial	-10.1012
▁rodents	-10.1019
▁fibres	-10.102
▁loading	-10.1027
▁cone	-10.1033
▁2008),	-10.1041
group	-10.1043
▁reverse	-10.1048
▁starting	-10.1049
▁But	-10.1049
▁fins	-10.1057
▁[40]	-10.1059
▁assessed	-10.106
▁referred	-10.1063
▁CA	-10.1068
▁[43]	-10.1076
▁valuable	-10.1084
▁create	-10.1087
–2	-10.1088
▁refugia	-10.1095
ho	-10.1104
▁addressed	-10.1109
▁curve	-10.1121
▁Only	-10.1121
▁pigment	-10.1127
▁minor	-10.1129
▁perturbation	-10.1136
▁survive	-10.1145
▁extensively	-10.1149
Figs	-10.1158
▁inner	-10.1159
ot	-10.116
▁removal	-10.1169
▁score	-10.1179
▁striking	-10.1179
▁constitute	-10.1189
HT	-10.1195
▁passive	-10.1198
▁pronounced	-10.1219
▁know	-10.1229
ct	-10.1234
▁researchers	-10.1255
▁integrate	-10.1255
throughput	-10.1256
ve	-10.1262
▁leaf	-10.1266
▁center	-10.1266
▁validation	-10.1271
▁moderate	-10.1273
▁dry	-10.1274
▁actin	-10.1274
▁boundary	-10.1279
data	-10.1281
▁image	-10.129
▁catalytic	-10.1304
▁communities	-10.1304
▁infections	-10.1306
▁membranes	-10.1306
▁prolonged	-10.1322
▁predominantly	-10.1324
▁fine	-10.134
▁causing	-10.1341
PC	-10.1346
lin	-10.1349
▁discuss	-10.1354
▁regard	-10.1355
▁bootstrap	-10.1357
▁fruit	-10.1364
▁demands	-10.1371
▁defense	-10.1377
▁quickly	-10.1382
▁remarkable	-10.139
▁marked	-10.1396
▁complement	-10.1399
▁1988;	-10.1399
▁ribosomal	-10.14
▁displayed	-10.1405
▁criteria	-10.1407
▁match	-10.141
▁methylation	-10.141
▁pulse	-10.1426
▁divided	-10.1435
▁interval	-10.1437
▁produces	-10.1439
▁salt	-10.1445
pt	-10.1447
▁adapt	-10.1463
oidea	-10.1464
▁[18,	-10.1468
▁biologically	-10.1473
▁face	-10.1475
▁Mya	-10.1478
▁[17,	-10.1489
chi	-10.1493
▁hypothesize	-10.1496
▁innate	-10.1501
mo	-10.1507
▁[28].	-10.1508
▁world	-10.1515
▁chosen	-10.1522
▁distant	-10.1523
▁excess	-10.1528
▁thrust	-10.1528
▁inhibitors	-10.153
▁[26].	-10.154
▁compound	-10.155
▁transcriptome	-10.1551
▁determination	-10.1556
▁&	-10.1558
▁nine	-10.156
▁placement	-10.1576
▁takes	-10.1583
AR	-10.1597
day	-10.1607
free	-10.1612
▁adhesion	-10.1613
▁appearance	-10.1618
▁favor	-10.1622
▁ten	-10.1631
▁created	-10.1632
▁linkage	-10.1633
1/	-10.1633
ist	-10.1633
▁song	-10.1634
▁tendon	-10.1635
ig	-10.1645
▁isoform	-10.1648
▁4,	-10.165
▁contributes	-10.1656
▁turnover	-10.1661
▁pollen	-10.1662
which	-10.1673
characterization	-10.1679
▁super	-10.168
▁elucidate	-10.168
▁y	-10.1681
▁spiders	-10.1681
▁tri	-10.1686
rs	-10.1693
▁codons	-10.1704
▁consisting	-10.1704
▁ultimately	-10.1706
MS	-10.1713
ts	-10.1717
▁chromatin	-10.1722
ang	-10.1727
▁vortex	-10.1731
3–	-10.1736
▁Pacific	-10.1738
%	-10.1738
▁breast	-10.1741
▁bars	-10.1742
▁inhibit	-10.1746
▁undergo	-10.1747
▁assays	-10.175
ap	-10.1753
▁delay	-10.1763
▁imply	-10.1766
▁diameter	-10.1784
▁Methods	-10.1784
sh	-10.1787
▁relevance	-10.1803
▁22	-10.1808
▁construct	-10.181
▁became	-10.1812
3)	-10.1815
▁aspect	-10.1827
▁residue	-10.1831
▁enzymatic	-10.1833
▁arrangement	-10.1838
▁informative	-10.184
▁express	-10.1844
▁kidney	-10.1846
▁machinery	-10.1848
▁parasitic	-10.1854
▁investment	-10.1857
ary	-10.1858
▁connection	-10.1865
▁bodies	-10.1866
▁Yet	-10.1869
▁60	-10.1871
ie	-10.1872
▁fold	-10.1872
▁Their	-10.1873
▁chronic	-10.1874
time	-10.1874
▁readily	-10.1875
▁7)	-10.1877
▁reconstructed	-10.1882
@	-10.1888
▁tip	-10.1892
▁annotation	-10.1892
▁2010)	-10.1897
▁landscape	-10.1909
way	-10.191
▁epithelium	-10.1911
*	-10.1918
▁predictive	-10.1922
containing	-10.1925
▁failure	-10.1929
▁zones	-10.1937
▁1990)	-10.1938
▁spp	-10.194
▁arthropods	-10.1946
▁anaerobic	-10.1958
▁seals	-10.1963
PP	-10.1966
▁property	-10.1966
▁removed	-10.197
rus	-10.1974
▁partly	-10.1974
▁rearrangements	-10.1979
▁directed	-10.198
▁chicken	-10.1983
den	-10.1985
▁Sp	-10.1987
▁elevation	-10.1996
including	-10.1998
▁Hox	-10.2002
▁swim	-10.2003
—	-10.2008
▁principle	-10.2011
ill	-10.2013
▁issues	-10.2016
▁route	-10.202
oid	-10.2022
▁played	-10.2022
▁silk	-10.203
▁methodology	-10.2031
▁Phylogenetic	-10.2039
▁definition	-10.2039
▁flying	-10.2045
▁1985;	-10.205
▁nutritional	-10.2056
▁exhibits	-10.2057
ou	-10.2059
▁assay	-10.2062
18	-10.2077
▁gills	-10.208
▁failed	-10.208
▁branching	-10.2085
▁mixture	-10.2095
▁o	-10.2098
▁diving	-10.2106
io	-10.2108
▁La	-10.2113
▁overcome	-10.2122
op	-10.2123
ov	-10.2125
▁differed	-10.2126
▁2009),	-10.2127
▁gradients	-10.2128
▁dependence	-10.2136
▁relatives	-10.2147
▁collection	-10.2159
▁fate	-10.2161
▁[19,	-10.2168
▁validated	-10.2175
▁links	-10.218
▁modulate	-10.218
▁That	-10.2181
▁crabs	-10.2184
ted	-10.2189
▁challenging	-10.2196
▁entirely	-10.2202
ella	-10.2206
▁candidates	-10.2207
ies	-10.2211
▁losses	-10.2212
▁none	-10.2214
▁solutions	-10.2214
▁recruitment	-10.2215
▁predicting	-10.2216
▁SNPs	-10.2219
▁leaves	-10.2219
▁rich	-10.2219
▁11]	-10.2229
▁partners	-10.223
▁select	-10.2237
▁transporter	-10.224
bi	-10.2241
▁Future	-10.2243
ize	-10.2252
▁equally	-10.2253
▁stance	-10.2257
▁emerged	-10.2275
▁hypoxic	-10.229
art	-10.2291
▁flexible	-10.2291
▁Results	-10.2302
▁symbionts	-10.2305
▁coupling	-10.231
▁migratory	-10.2313
▁PI	-10.2314
▁[20,	-10.2319
▁sustained	-10.2323
▁somewhat	-10.2328
▁Hsp	-10.2338
▁quantify	-10.2345
▁Con	-10.2345
▁accompanied	-10.2347
▁correlate	-10.2351
▁fall	-10.2352
gen	-10.2355
60	-10.2358
▁advantages	-10.2364
CA	-10.2365
BP	-10.2365
▁expenditure	-10.2366
▁object	-10.2368
▁demand	-10.2377
▁annotated	-10.238
▁nematode	-10.2387
▁investigating	-10.2388
ens	-10.2389
▁1),	-10.239
▁increasingly	-10.239
▁bending	-10.2398
▁lift	-10.2403
23	-10.2407
▁loops	-10.2407
▁sorting	-10.2408
▁retention	-10.2413
▁rice	-10.2423
▁invasion	-10.2426
▁retina	-10.2426
▁sexes	-10.244
▁Lake	-10.2445
▁preferred	-10.2445
▁[29].	-10.2449
ga	-10.2452
▁metazoan	-10.2456
▁actively	-10.2457
▁clones	-10.2457
▁Pro	-10.246
va	-10.246
▁care	-10.2463
▁believe	-10.2464
ex	-10.2469
▁otherwise	-10.247
▁IL	-10.2474
▁implemented	-10.2475
▁inhibitory	-10.2481
▁attachment	-10.2484
▁principal	-10.2484
▁involvement	-10.2491
▁alterations	-10.2493
▁fields	-10.251
▁taking	-10.2512
▁purpose	-10.2523
▁asexual	-10.2526
▁snails	-10.2526
▁daily	-10.2528
ell	-10.253
–1)	-10.2545
▁scores	-10.2546
▁coefficients	-10.2547
▁cuticle	-10.2548
24	-10.2549
▁1989)	-10.2563
▁PCR	-10.2567
▁12]	-10.257
ni	-10.2577
▁dives	-10.2581
80	-10.259
▁protection	-10.259
▁meta	-10.2597
▁6).	-10.2605
ge	-10.2609
κ	-10.2614
▁dose	-10.2622
▁night	-10.2629
▁rarely	-10.2629
sen	-10.2631
▁[30].	-10.2635
▁return	-10.2639
▁combine	-10.264
ome	-10.264
▁highlight	-10.2643
▁2005)	-10.2644
▁Le	-10.2644
28	-10.2648
▁odour	-10.2649
▁thaliana	-10.2654
▁tract	-10.2655
▁categories	-10.2655
▁immediately	-10.2659
▁hard	-10.2663
4)	-10.2666
▁analyzing	-10.2672
▁competitive	-10.2675
▁lowest	-10.2684
▁regardless	-10.2685
▁engineering	-10.2689
▁build	-10.2696
▁interface	-10.2698
▁Studies	-10.2703
▁attempt	-10.2708
▁21	-10.2715
▁km	-10.2722
▁epigenetic	-10.2723
ability	-10.2724
▁1984;	-10.2724
▁forming	-10.2733
▁examining	-10.2733
▁con	-10.2738
▁superfamily	-10.2744
▁vascular	-10.2748
▁particle	-10.2749
▁opening	-10.2752
▁17]	-10.2754
▁10]	-10.2758
▁activate	-10.2761
▁enables	-10.2762
▁avoidance	-10.2767
▁simultaneous	-10.2767
▁courtship	-10.2772
▁dehydrogenase	-10.2773
▁outer	-10.2776
▁14]	-10.2781
▁trajectories	-10.2782
ow	-10.2785
ns	-10.2785
ier	-10.2789
▁zebra	-10.2792
▁topologies	-10.2792
▁λ	-10.2802
▁believed	-10.2809
▁PC	-10.2813
▁consequently	-10.2814
▁birth	-10.2814
▁15]	-10.2816
ula	-10.2816
ce	-10.2817
▁variant	-10.2829
▁burst	-10.2839
▁cave	-10.2841
▁scope	-10.2844
tion	-10.2845
▁unusual	-10.2856
▁prominent	-10.2856
CO	-10.2865
▁gait	-10.2866
EC	-10.2871
▁Boolean	-10.2872
▁auto	-10.2889
▁beginning	-10.2902
▁suppression	-10.2902
▁lactate	-10.2904
▁received	-10.2905
▁localized	-10.2923
22	-10.294
se	-10.2949
±	-10.2961
▁arms	-10.2962
▁smooth	-10.2962
▁1987;	-10.2964
▁4)	-10.2964
▁pairwise	-10.2973
▁1983;	-10.2974
▁pigments	-10.2981
▁tRNA	-10.2988
+-	-10.2988
▁28	-10.2991
▁hours	-10.2993
▁8]	-10.2994
▁solely	-10.2995
▁morphologically	-10.2996
po	-10.2998
▁Australia	-10.2999
▁user	-10.3002
ER	-10.302
▁construction	-10.3024
▁[46]	-10.3033
▁[22,	-10.3034
▁unexpected	-10.3037
▁behaviours	-10.3038
ida	-10.3043
▁16]	-10.3043
▁evolutionarily	-10.3043
▁regulates	-10.3053
AT	-10.3053
▁histories	-10.3053
▁somatic	-10.3056
▁flowers	-10.3059
▁naturally	-10.306
▁Di	-10.307
▁filter	-10.3073
▁biased	-10.3074
▁macro	-10.3074
such	-10.308
▁index	-10.3086
fr	-10.3088
▁biogeographic	-10.3089
▁boundaries	-10.3094
▁cascade	-10.3095
▁shortening	-10.3098
▁[1]	-10.3109
▁circuits	-10.3114
▁contributing	-10.3114
▁torpor	-10.3114
▁behind	-10.3118
▁directions	-10.3125
▁yellow	-10.3129
▁γ	-10.3132
ber	-10.3137
tus	-10.3152
▁fragments	-10.3153
ose	-10.3157
▁etc	-10.3165
▁combining	-10.3176
▁evaluation	-10.3178
▁normally	-10.3179
▁measuring	-10.3186
aceae	-10.3191
▁thresholds	-10.32
ica	-10.3204
end	-10.3206
▁warm	-10.3206
▁special	-10.3208
▁shed	-10.3211
▁shock	-10.3212
−	-10.3214
▁complicated	-10.322
▁Due	-10.322
▁gives	-10.3221
▁dis	-10.3231
▁Ne	-10.3232
▁coastal	-10.3233
▁fiber	-10.3238
ab	-10.3239
▁Accordingly	-10.3247
▁invertebrate	-10.3249
▁glands	-10.3252
▁targeting	-10.3253
▁18]	-10.3253
▁alpha	-10.3254
▁~	-10.3255
▁subjected	-10.3257
▁Rh	-10.3259
1).	-10.3262
▁discriminate	-10.3283
▁oxidation	-10.3286
▁neuro	-10.3286
35	-10.3291
▁[48]	-10.3301
▁brown	-10.3304
ran	-10.3307
ten	-10.3308
▁hormones	-10.3311
▁lipids	-10.3312
▁Rab	-10.3313
▁50%	-10.3322
▁grow	-10.3325
▁2009	-10.3326
▁TLR	-10.3327
ales	-10.3328
lic	-10.3329
▁repertoire	-10.333
▁13]	-10.3332
▁tasks	-10.3333
▁qualitative	-10.3336
5,	-10.3336
▁[34].	-10.3337
▁notion	-10.3347
▁displacement	-10.3352
▁carry	-10.3352
▁code	-10.3361
▁amplification	-10.3364
▁corals	-10.337
▁desiccation	-10.3373
with	-10.3381
▁[32].	-10.3384
▁Sch	-10.3388
▁inclusion	-10.339
ML	-10.34
▁contractions	-10.3414
▁pectoral	-10.3415
do	-10.3432
▁Lo	-10.3432
▁ring	-10.3437
▁mosquito	-10.3444
▁summer	-10.3448
▁ancestors	-10.3453
▁dynamical	-10.3455
▁broader	-10.3456
living	-10.3458
▁weeks	-10.3468
▁IV	-10.3479
▁excluded	-10.3485
rin	-10.3488
▁[21,	-10.3491
▁stored	-10.3493
▁World	-10.35
▁translational	-10.3508
▁capabilities	-10.3511
▁convergence	-10.3511
▁clustered	-10.3517
▁lactation	-10.3522
▁anatomical	-10.3527
▁tension	-10.3527
ich	-10.3529
▁duplicates	-10.3532
▁offer	-10.3532
▁rules	-10.3532
▁arose	-10.3532
▁contributions	-10.3536
▁trends	-10.354
bo	-10.3542
▁Analysis	-10.3543
▁circuit	-10.3546
▁north	-10.3555
▁se	-10.3557
▁Al	-10.3558
▁mt	-10.3558
biased	-10.3564
▁hind	-10.3573
▁decision	-10.3576
▁program	-10.3583
▁2007),	-10.3588
▁retain	-10.3594
▁concluded	-10.3598
atus	-10.3598
▁caudal	-10.3606
▁resistant	-10.3608
▁mutational	-10.3613
▁encodes	-10.3613
▁fecundity	-10.3619
▁toxic	-10.3625
▁accepted	-10.3631
▁assessment	-10.3631
ea	-10.3643
ach	-10.3645
▁whales	-10.3645
▁lakes	-10.3648
▁counter	-10.365
▁regional	-10.365
▁explicitly	-10.3654
▁compensate	-10.3654
▁[47]	-10.3664
▁ex	-10.3671
tin	-10.3678
▁allopatric	-10.3683
▁nutrients	-10.3683
▁trunk	-10.3695
genome	-10.3696
▁Miocene	-10.3697
▁facilitated	-10.3698
▁concerning	-10.3699
▁onto	-10.3703
▁maturation	-10.3704
▁reconstruct	-10.3705
▁bee	-10.3714
▁height	-10.3715
–3	-10.3722
▁front	-10.3726
▁3-	-10.3726
▁Conversely	-10.3737
▁comprising	-10.3738
▁specialization	-10.374
▁1982;	-10.3749
▁stresses	-10.375
▁23]	-10.3751
▁hair	-10.3759
▁IGF	-10.3763
▁paired	-10.3764
▁proportional	-10.3774
▁angiosperms	-10.3779
▁[10]	-10.3785
▁[18]	-10.3793
au	-10.3793
▁cavity	-10.3802
▁argued	-10.3809
order	-10.3811
non	-10.3818
▁kinases	-10.3825
▁photoreceptors	-10.3826
▁south	-10.3828
▁cytoplasmic	-10.3829
▁picture	-10.3835
▁sugar	-10.3838
▁advantageous	-10.3838
▁plane	-10.3839
▁utilized	-10.3841
▁velocities	-10.3846
▁2010),	-10.3853
value	-10.3863
▁ligands	-10.3867
▁Data	-10.3868
▁promoters	-10.3868
▁stores	-10.3869
▁[49]	-10.3869
▁ice	-10.3876
▁crustaceans	-10.3878
▁suction	-10.388
▁CORT	-10.388
▁photo	-10.388
linked	-10.3881
▁inputs	-10.3883
▁stride	-10.3885
▁2005),	-10.3885
tri	-10.3888
▁closed	-10.3889
▁situ	-10.3889
▁9]	-10.389
▁angles	-10.3898
ana	-10.39
▁demonstrating	-10.3902
▁wind	-10.391
▁2007	-10.3911
oma	-10.3922
▁reconstructions	-10.3924
▁taxonomy	-10.3924
not	-10.3927
▁detecting	-10.3927
▁ongoing	-10.3928
32	-10.3929
▁deeper	-10.3933
▁Taken	-10.3936
▁baseline	-10.3937
▁magnetic	-10.3937
▁relaxed	-10.3938
▁1981;	-10.3947
▁images	-10.3954
ium	-10.3954
CR	-10.3956
▁fasting	-10.3956
▁RH	-10.3958
▁1986;	-10.3958
▁decay	-10.3959
▁restriction	-10.3961
▁1988)	-10.3967
▁establishment	-10.3969
▁mosquitoes	-10.3972
over	-10.3974
▁come	-10.3983
▁slowly	-10.3986
▁Importantly	-10.3991
▁regime	-10.3999
▁describing	-10.4002
▁cleavage	-10.4003
▁kind	-10.401
pro	-10.4017
▁22]	-10.4018
ial	-10.4023
car	-10.4024
▁Nonetheless	-10.4024
▁therapeutic	-10.4029
▁representatives	-10.4029
▁block	-10.4035
▁http	-10.4036
▁aimed	-10.4039
▁mediate	-10.4045
▁ankle	-10.4047
▁soft	-10.4052
▁SW	-10.4052
▁calibration	-10.4062
▁his	-10.4064
▁version	-10.407
pp	-10.4072
tor	-10.4075
▁building	-10.4077
▁symbiont	-10.4081
sch	-10.4082
▁2006),	-10.4085
▁circles	-10.4091
▁limbs	-10.4095
▁speculate	-10.4096
é	-10.41
▁objects	-10.4101
▁transformation	-10.4108
▁efficiently	-10.4109
▁kHz	-10.4114
▁dramatically	-10.4116
▁AP	-10.4116
▁benthic	-10.4116
6,	-10.4121
▁SR	-10.4123
▁proximity	-10.4125
▁CYP	-10.4129
▁numerical	-10.4131
▁electron	-10.4133
▁house	-10.4136
▁stimulated	-10.4137
▁cortisol	-10.4138
▁7]	-10.4138
▁odor	-10.4155
called	-10.4155
▁jump	-10.4156
▁phenomena	-10.4182
history	-10.4185
go	-10.4188
▁frame	-10.4193
▁realistic	-10.4194
▁5,	-10.4195
▁morphs	-10.4199
▁geographically	-10.42
▁shaped	-10.4207
▁precursor	-10.4222
ong	-10.4223
▁asymmetry	-10.4228
▁persistence	-10.4228
▁West	-10.423
qui	-10.423
▁hydrodynamic	-10.4234
▁attack	-10.4237
▁promising	-10.4239
▁maps	-10.4243
▁flowering	-10.4249
▁compatible	-10.4254
▁broadly	-10.4257
▁[9]	-10.4259
92	-10.4261
▁[23,	-10.4263
acclimated	-10.4266
▁brood	-10.4271
▁slope	-10.4274
γ	-10.4276
▁[54]	-10.4277
functional	-10.4283
▁neuron	-10.4286
▁TGF	-10.429
▁yolk	-10.4297
▁induces	-10.4297
▁pathogenic	-10.4298
▁How	-10.4302
▁moths	-10.4304
▁blocks	-10.4304
▁complementary	-10.4309
▁soil	-10.4313
▁causal	-10.4313
ti	-10.4314
▁27]	-10.4315
▁FA	-10.4319
ob	-10.4324
osa	-10.4329
ax	-10.4334
▁exclude	-10.4336
▁sufficiently	-10.4341
▁named	-10.4342
▁[24,	-10.4343
▁st	-10.435
▁column	-10.4351
▁congruent	-10.4354
▁switching	-10.4355
▁High	-10.436
▁spider	-10.4361
▁distantly	-10.4362
▁web	-10.4363
und	-10.4363
▁longitudinal	-10.4366
▁coverage	-10.4368
▁squid	-10.4378
▁undergone	-10.4378
▁coloration	-10.4383
▁chance	-10.4385
▁hemolymph	-10.4389
▁Wood	-10.4402
▁2002)	-10.4404
▁words	-10.4412
▁Unlike	-10.4414
▁HIV	-10.4416
▁particles	-10.4419
▁extinct	-10.4423
▁primate	-10.4424
cy	-10.4427
▁sum	-10.4434
▁abdominal	-10.4437
Ma	-10.4439
gi	-10.4445
▁polymorphic	-10.4448
▁eventually	-10.4448
▁took	-10.4456
feeding	-10.4464
▁manipulation	-10.4467
▁[16]	-10.4469
▁examination	-10.4472
▁separately	-10.4477
▁File	-10.4479
2).	-10.448
▁dramatic	-10.4481
ris	-10.4482
▁beta	-10.4484
▁1987)	-10.4491
▁48	-10.4492
▁Hb	-10.4493
▁[13]	-10.4495
▁turtle	-10.4502
oc	-10.4504
▁ω	-10.4507
▁wake	-10.451
▁comes	-10.4516
▁2008	-10.4516
▁balancing	-10.4519
▁clonal	-10.452
▁editing	-10.452
▁phosphate	-10.4523
▁kinematic	-10.4526
positive	-10.4534
aa	-10.4541
▁plastic	-10.4545
▁differing	-10.455
isation	-10.4554
▁alignments	-10.4559
GI	-10.4565
▁honey	-10.4565
▁motility	-10.4565
▁Whether	-10.4577
▁lifespan	-10.4577
▁1985)	-10.4577
×	-10.4581
▁Bo	-10.4586
ron	-10.4588
▁CR	-10.4592
ino	-10.4597
▁originally	-10.4597
▁offers	-10.4604
▁intriguing	-10.4612
▁ensure	-10.4615
ip	-10.4616
▁crown	-10.4622
▁jumping	-10.4624
▁Ba	-10.4625
▁tendency	-10.4625
▁cis	-10.4625
▁indicative	-10.4636
driven	-10.4641
▁situations	-10.4643
▁Mo	-10.4647
▁VEGF	-10.4647
▁roughly	-10.4651
▁convergent	-10.4654
▁circulating	-10.466
▁ideal	-10.4661
xfr	-10.4662
hr	-10.4669
▁discussion	-10.4671
▁reptiles	-10.4672
▁saturation	-10.4675
▁median	-10.4682
▁introduction	-10.4684
▁synthase	-10.4684
▁hypo	-10.4696
water	-10.4704
▁unlike	-10.4704
▁susceptibility	-10.4709
▁break	-10.4709
domain	-10.471
▁consideration	-10.4712
Fr	-10.4712
▁coast	-10.4714
▁van	-10.4719
▁uniform	-10.4728
▁35	-10.4728
▁randomly	-10.4728
▁earliest	-10.4732
▁depletion	-10.4732
▁[26,	-10.4732
▁Unfortunately	-10.4744
ism	-10.4746
Δ	-10.4749
▁greatest	-10.4758
▁PS	-10.4766
▁26]	-10.4767
▁perception	-10.4768
▁quantified	-10.4769
lan	-10.477
▁detectable	-10.4772
▁log	-10.4772
▁imposed	-10.4773
▁beetles	-10.4782
Ca	-10.4791
▁zinc	-10.4792
▁wavelength	-10.4794
▁2011	-10.4794
▁photosynthetic	-10.4795
▁allocation	-10.4799
▁conspecific	-10.4801
▁fossils	-10.4803
▁setting	-10.4809
▁curves	-10.4815
▁glycogen	-10.4818
▁multicellular	-10.4821
izing	-10.4821
▁indirectly	-10.4827
▁assuming	-10.4831
▁[36].	-10.4832
▁opsins	-10.4834
que	-10.4836
▁23	-10.4837
▁paralogous	-10.4841
frequency	-10.4846
▁peaks	-10.485
▁utilization	-10.4853
▁interpret	-10.4854
▁swing	-10.4855
▁cue	-10.4855
▁[57]	-10.4855
side	-10.4858
▁4]	-10.486
BI	-10.4861
▁sections	-10.4861
tr	-10.4864
▁trigger	-10.4869
▁fertilization	-10.4872
▁instances	-10.4875
▁rodent	-10.4877
▁2011)	-10.4877
▁sexually	-10.4893
▁Per	-10.4898
▁performing	-10.4899
rum	-10.4901
▁ecologically	-10.4902
▁digestive	-10.4902
100	-10.4906
▁insufficient	-10.4909
her	-10.491
▁neo	-10.4916
▁regimes	-10.4922
▁worms	-10.4926
▁jet	-10.4927
ka	-10.4929
▁health	-10.4935
▁Together	-10.4939
▁6]	-10.4946
▁comprises	-10.4948
▁months	-10.4949
▁organic	-10.4957
yn	-10.4958
▁ST	-10.496
▁asymmetric	-10.4964
▁[5]	-10.4966
▁abilities	-10.4968
▁favour	-10.4968
mi	-10.4973
▁coordination	-10.4976
▁requirement	-10.4977
▁[37].	-10.4981
▁viable	-10.4982
▁grouped	-10.4986
ja	-10.4987
▁feasible	-10.4988
▁25]	-10.4989
▁carbohydrate	-10.499
▁injection	-10.4992
distance	-10.4994
low	-10.4995
▁functionality	-10.4995
uc	-10.4998
▁frog	-10.5
▁NH	-10.5003
▁dating	-10.5004
▁inherited	-10.5016
▁null	-10.5017
▁reflecting	-10.5018
▁explanations	-10.5023
▁He	-10.5031
▁[53]	-10.5034
75	-10.5039
▁waters	-10.5042
▁illustrate	-10.5049
▁viability	-10.505
▁accumulate	-10.5056
▁Pa	-10.5057
▁antennal	-10.5058
ities	-10.5059
▁[15]	-10.5065
ever	-10.5069
▁[50]	-10.5072
▁26	-10.5074
▁patterning	-10.5074
▁feather	-10.5077
▁proper	-10.5082
▁prevalence	-10.5087
▁wider	-10.5089
▁tracheal	-10.5089
known	-10.5091
▁static	-10.5094
▁go	-10.5095
▁binds	-10.5097
34	-10.5099
▁mechanics	-10.5099
▁accordance	-10.51
▁emerging	-10.51
▁[7]	-10.5103
▁costly	-10.5103
▁secreted	-10.5104
Ps	-10.5118
ano	-10.5123
▁degrees	-10.5123
▁joints	-10.5125
▁deletions	-10.5132
▁waves	-10.5135
▁shaping	-10.5137
▁width	-10.5139
▁retinal	-10.5143
▁duplicate	-10.5145
ring	-10.5146
-5	-10.5148
▁essentially	-10.5149
▁incorporated	-10.5156
▁JH	-10.5156
▁closest	-10.5166
cer	-10.5167
▁apparatus	-10.5175
Re	-10.5176
▁circular	-10.5176
▁systematically	-10.5178
kin	-10.5183
▁Daphnia	-10.5187
▁Three	-10.5187
▁accelerated	-10.5196
▁transmembrane	-10.52
▁immuno	-10.5201
▁posture	-10.5203
▁accumulated	-10.5207
▁integrating	-10.5207
PS	-10.5209
▁recordings	-10.5209
▁refer	-10.521
▁exclusive	-10.521
▁sharing	-10.5212
▁conservative	-10.5215
3-	-10.5217
ud	-10.5217
▁tuning	-10.5219
▁vast	-10.522
▁hatching	-10.5221
test	-10.5226
▁SNP	-10.5227
36	-10.5228
▁nonlinear	-10.523
▁compartments	-10.5236
▁[25,	-10.5238
▁gained	-10.5242
ver	-10.5244
▁correlates	-10.5248
▁trajectory	-10.525
▁contrary	-10.525
offs	-10.5256
▁impacts	-10.5266
▁conditioning	-10.5267
▁displays	-10.5267
▁media	-10.5272
▁precision	-10.5278
▁replacement	-10.5278
▁allelic	-10.5281
late	-10.5286
▁agents	-10.5293
phosphate	-10.5294
▁applying	-10.5296
▁matching	-10.5298
▁dB	-10.5299
▁densities	-10.5301
▁inhibited	-10.5302
▁compartment	-10.5308
▁utility	-10.5314
▁pyruvate	-10.5316
▁expansions	-10.5318
he	-10.5324
▁crayfish	-10.5327
▁2006	-10.5327
▁Sa	-10.5329
▁deterministic	-10.5329
▁hindlimb	-10.5329
▁teeth	-10.5339
▁diets	-10.5342
SC	-10.5344
▁carrying	-10.5345
ps	-10.5346
▁2012;	-10.5346
▁Th	-10.535
▁[38].	-10.5352
▁built	-10.5354
▁Ho	-10.5355
▁cAMP	-10.5358
▁comprise	-10.5361
phy	-10.5374
▁juveniles	-10.538
pi	-10.5386
▁Ka	-10.5391
▁GA	-10.5395
▁CI	-10.5399
▁tooth	-10.5401
▁termed	-10.5402
▁decades	-10.5404
▁regeneration	-10.5405
mat	-10.5408
▁yielded	-10.5409
▁lake	-10.541
▁adhesive	-10.5418
▁utilize	-10.5426
▁30]	-10.5431
▁Do	-10.5432
▁δ	-10.5432
▁Then	-10.5432
treated	-10.5434
Cl	-10.5436
▁inherent	-10.5436
▁[2]	-10.5441
lu	-10.5441
▁Ocean	-10.5442
▁2010	-10.5445
za	-10.5452
45	-10.5455
▁serotonin	-10.5455
▁compensatory	-10.5455
▁RNAs	-10.5458
▁estimating	-10.5458
▁diapause	-10.546
▁certainly	-10.5461
▁fragment	-10.5462
CoA	-10.5472
▁differently	-10.5472
▁simulate	-10.5474
▁analytical	-10.5476
▁foragers	-10.5476
▁Notably	-10.5481
▁freezing	-10.5482
evolutionary	-10.5487
▁progress	-10.5493
▁interference	-10.5495
▁Bar	-10.5497
field	-10.5503
der	-10.5505
▁compass	-10.5507
▁permeability	-10.5507
▁echolocation	-10.5507
▁What	-10.5507
▁injury	-10.5508
▁toxicity	-10.5511
▁hydrogen	-10.5528
▁[4]	-10.553
body	-10.5531
▁2003	-10.5532
fish	-10.5534
▁seal	-10.5535
▁Western	-10.5535
▁electro	-10.5536
▁river	-10.5538
▁lethal	-10.554
▁employ	-10.5543
▁applicable	-10.5546
▁argue	-10.5546
tra	-10.5547
▁200	-10.5547
▁elephant	-10.5551
▁reproduce	-10.5556
▁musculature	-10.5559
▁exogenous	-10.5559
▁flower	-10.5559
▁GR	-10.5562
1),	-10.5564
ck	-10.5565
▁calculate	-10.5565
▁mRNAs	-10.5566
▁knockout	-10.5566
▁subjects	-10.5568
pod	-10.5573
▁tightly	-10.5577
▁wet	-10.5579
▁layers	-10.5586
▁annotations	-10.5588
▁attraction	-10.56
▁crab	-10.5604
▁hierarchical	-10.5606
▁susceptible	-10.5614
▁carp	-10.5614
▁HCO	-10.5618
7)	-10.562
▁solid	-10.5622
▁attractive	-10.5626
▁protocol	-10.5629
▁hip	-10.5632
▁band	-10.5638
▁pseudo	-10.5642
▁proportions	-10.5642
▁[17]	-10.5647
▁Ar	-10.5647
tis	-10.5648
▁[59]	-10.5653
▁sucrose	-10.5664
▁biodiversity	-10.5664
▁disruption	-10.567
▁6,	-10.5673
▁stationary	-10.5682
▁regular	-10.5686
▁parsimony	-10.5691
ei	-10.5691
▁Considering	-10.5693
▁raised	-10.5695
-4	-10.5696
ren	-10.5699
▁EST	-10.5699
▁[52]	-10.57
▁moth	-10.571
▁conventional	-10.5716
▁29]	-10.5718
sc	-10.5731
▁pure	-10.5733
▁patches	-10.5733
▁subtypes	-10.5737
▁osmotic	-10.5737
▁dominance	-10.574
▁triggered	-10.5742
▁coevolution	-10.5742
▁Notch	-10.5747
▁cytochrome	-10.5747
▁operon	-10.5751
▁Clade	-10.5755
▁presents	-10.5769
▁aerodynamic	-10.577
▁outcomes	-10.5773
▁32]	-10.5777
set	-10.5778
▁preferentially	-10.5786
▁muscular	-10.5787
▁coordinated	-10.5788
▁Australian	-10.579
ans	-10.579
▁mates	-10.5794
ser	-10.5795
̇	-10.5797
▁probable	-10.5797
▁visible	-10.58
▁kb	-10.58
▁plus	-10.5802
▁histone	-10.5805
▁stop	-10.5806
▁2),	-10.5807
▁ions	-10.5816
De	-10.5817
▁immediate	-10.5818
ero	-10.5819
▁GH	-10.5821
▁niches	-10.5823
act	-10.5833
independent	-10.5835
▁[20]	-10.5837
target	-10.5838
van	-10.5841
▁vectors	-10.5843
down	-10.5847
▁canonical	-10.5848
▁prokaryotes	-10.585
▁[27,	-10.5851
ure	-10.5855
▁splice	-10.5861
ey	-10.5863
▁regarded	-10.5864
▁homing	-10.5864
▁[39].	-10.5867
ert	-10.5868
loop	-10.5878
▁forests	-10.5879
▁paths	-10.5879
expressed	-10.5879
▁1982)	-10.5883
▁attempts	-10.5885
▁highlights	-10.5886
▁nucleotides	-10.5892
▁meaning	-10.59
▁silencing	-10.5905
▁relies	-10.5905
▁eIF	-10.5906
▁intense	-10.5912
ura	-10.5915
▁reared	-10.5916
▁2011),	-10.5917
▁operating	-10.5918
▁twice	-10.5918
▁wasps	-10.5921
rd	-10.5926
▁improvement	-10.5927
▁influenza	-10.5932
▁scheme	-10.5939
▁Ro	-10.5945
▁EC	-10.595
▁upregulated	-10.5953
▁Third	-10.5953
▁My	-10.5959
▁statistics	-10.5962
▁hibernation	-10.5972
CT	-10.5974
AP	-10.5978
cal	-10.5985
▁tracking	-10.5985
▁Different	-10.5986
▁ontogeny	-10.5986
▁algal	-10.599
67	-10.5994
▁2002),	-10.5997
▁ontogenetic	-10.6
▁gave	-10.6
▁anoxia	-10.6001
▁aging	-10.6003
▁glutamate	-10.6006
▁DA	-10.6007
−1)	-10.6009
▁CS	-10.6009
▁ovarian	-10.6013
▁axial	-10.6018
▁MC	-10.6019
shaped	-10.6025
▁excellent	-10.6027
linear	-10.6036
ari	-10.6037
▁myosin	-10.6038
▁Hill	-10.6039
▁nectar	-10.6041
▁genetics	-10.6041
▁phage	-10.6044
▁Mar	-10.6052
▁opportunities	-10.6054
ise	-10.6055
▁urine	-10.6055
▁computer	-10.606
▁mis	-10.6063
▁survey	-10.6065
▁precisely	-10.6066
▁enabled	-10.6068
▁transmitted	-10.607
▁folding	-10.6072
cin	-10.6075
▁−	-10.6076
host	-10.6078
▁antennae	-10.6078
ide	-10.6081
▁2000)	-10.6082
▁partitioning	-10.6089
▁defence	-10.609
aria	-10.6092
▁1983)	-10.6092
▁radiations	-10.6094
▁fashion	-10.6096
▁difficulty	-10.6103
▁captured	-10.6105
▁electric	-10.6106
www	-10.611
▁homogeneous	-10.6116
▁modeled	-10.612
▁bring	-10.6125
▁worth	-10.6131
che	-10.6131
▁screening	-10.6132
▁differentiate	-10.6132
▁thin	-10.6132
sp	-10.6136
▁platform	-10.6147
▁seeds	-10.615
▁trace	-10.615
▁routes	-10.6152
▁giving	-10.6152
▁thousands	-10.616
▁tube	-10.6161
▁COM	-10.6162
▁capability	-10.6165
▁introduce	-10.6167
▁incorporate	-10.6167
▁continue	-10.6167
ria	-10.617
▁Consistent	-10.6173
▁TE	-10.6177
▁knockdown	-10.6179
▁span	-10.618
▁Early	-10.6181
▁repression	-10.6183
ates	-10.6189
▁recognize	-10.6191
ru	-10.6196
▁acetate	-10.6197
▁Indian	-10.6201
odon	-10.6203
▁probabilities	-10.6207
iii	-10.6208
▁meaningful	-10.6209
▁pulses	-10.6215
ised	-10.6218
▁contexts	-10.6219
▁preliminary	-10.6221
▁cover	-10.6222
site	-10.6223
▁Ko	-10.6245
▁Group	-10.6249
▁Southern	-10.6249
▁conspecifics	-10.625
▁parents	-10.6252
ek	-10.6252
tes	-10.6254
▁dogs	-10.6261
▁exploration	-10.6262
DNA	-10.6263
▁home	-10.6263
▁1979;	-10.6264
▁cichlid	-10.6272
7,	-10.6273
sis	-10.6274
▁highlighted	-10.6276
▁sand	-10.6277
▁advanced	-10.6281
▁Besides	-10.6281
ko	-10.6288
▁knee	-10.6292
▁crickets	-10.6293
▁clarify	-10.6293
▁consist	-10.6294
▁optic	-10.6294
▁relate	-10.6296
▁bottom	-10.6298
▁nocturnal	-10.6305
▁plate	-10.6308
▁sensing	-10.6315
▁Biewener	-10.6316
▁ml	-10.6317
ay	-10.6326
▁MP	-10.6328
▁fibre	-10.6329
▁covered	-10.633
adapted	-10.6331
▁compensation	-10.6333
from	-10.6336
oph	-10.6336
▁cichlids	-10.6337
dy	-10.6339
length	-10.6343
▁2004),	-10.6345
▁searching	-10.6349
▁characterised	-10.6352
sa	-10.6358
▁extrinsic	-10.6362
▁AT	-10.6362
▁pigeons	-10.6369
▁3]	-10.637
▁parent	-10.6371
▁endo	-10.6375
ham	-10.6376
▁visualization	-10.6382
▁synaptic	-10.6384
range	-10.6385
don	-10.6386
▁forelimb	-10.6388
▁Bi	-10.6389
▁competing	-10.6389
physiological	-10.6392
▁hold	-10.6393
▁[55]	-10.6399
▁progenitor	-10.6404
▁digestion	-10.6404
▁add	-10.6406
▁contrasting	-10.6407
▁fluorescence	-10.6409
▁generates	-10.6412
▁longevity	-10.6418
▁obligate	-10.6421
ance	-10.6421
regulatory	-10.6426
▁90	-10.6426
▁(3	-10.6428
▁discrepancy	-10.6432
▁upregulation	-10.6436
▁enter	-10.6442
▁proteome	-10.6444
▁Wang	-10.6447
▁1980;	-10.645
my	-10.6451
▁learn	-10.6452
Figures	-10.6455
▁biases	-10.6459
▁antibody	-10.6461
▁RNAi	-10.6462
▁initiated	-10.6466
▁novo	-10.6466
▁[21]	-10.6475
▁Northern	-10.6476
▁adding	-10.6487
▁diagnostic	-10.6489
▁[45].	-10.6495
▁31]	-10.6495
▁computed	-10.6496
▁incorporation	-10.6497
▁spatially	-10.6497
▁pitch	-10.65
▁MAPK	-10.6504
▁[29,	-10.6504
▁Xenopus	-10.6505
▁KEGG	-10.6506
▁27	-10.6507
GA	-10.6507
par	-10.6507
▁valid	-10.651
cul	-10.6512
ger	-10.6513
▁exactly	-10.6515
▁deviation	-10.6516
▁entities	-10.6518
▁suffer	-10.6519
▁adjust	-10.6526
▁illustrated	-10.6529
▁{	-10.6532
▁[28,	-10.6533
▁PP	-10.6533
▁floral	-10.6534
old	-10.6545
▁photoreceptor	-10.6545
▁kept	-10.6547
▁[30,	-10.6547
▁Or	-10.655
we	-10.6551
▁[44].	-10.6557
▁deal	-10.6558
▁modulated	-10.6561
▁repetitive	-10.6562
▁spectra	-10.6572
▁nests	-10.6573
inus	-10.6573
▁cytoplasm	-10.6574
▁[1–3]	-10.6576
▁easy	-10.6576
▁IS	-10.6577
oides	-10.6592
▁promoting	-10.6594
AU	-10.6596
uk	-10.6596
▁3),	-10.6596
▁Caenorhabditis	-10.6605
synonymous	-10.6614
▁nested	-10.6617
▁skull	-10.6619
▁elongation	-10.6619
eg	-10.662
▁amphibians	-10.6629
▁starvation	-10.6634
▁spent	-10.6636
step	-10.6638
▁0.2	-10.6642
▁SWS	-10.6645
▁Likewise	-10.6648
dS	-10.665
▁ocean	-10.665
▁1984)	-10.6651
▁LWS	-10.6654
▁hundreds	-10.6656
▁stretch	-10.6656
▁box	-10.6658
▁Wilson	-10.6664
ative	-10.6665
▁AR	-10.6673
▁Peninsula	-10.6677
▁butterflies	-10.6677
▁redundancy	-10.6677
▁prokaryotic	-10.6678
IP	-10.6683
▁Po	-10.6686
▁[9],	-10.6693
▁queens	-10.6693
▁continuously	-10.6695
oli	-10.6695
▁insertions	-10.6697
branch	-10.67
defined	-10.6701
▁[25]	-10.6702
▁extends	-10.6704
▁hetero	-10.6704
▁locusts	-10.6704
▁criterion	-10.6707
▁contractile	-10.6707
▁carotenoid	-10.6707
▁homologues	-10.6712
▁operate	-10.6714
000	-10.6714
▁34]	-10.6716
▁metazoans	-10.6718
▁inferences	-10.6719
-6	-10.6728
▁correctly	-10.6735
▁inflammatory	-10.6737
ep	-10.6742
▁cultures	-10.6748
Gi	-10.6751
▁bottleneck	-10.6752
▁describes	-10.6758
▁1.5	-10.6758
▁elicit	-10.676
▁wingbeat	-10.6766
▁oil	-10.6772
▁actions	-10.6774
▁selfing	-10.6777
Na	-10.6779
▁approximate	-10.6782
3].	-10.6783
▁becoming	-10.6795
▁secretory	-10.6795
▁mapped	-10.6795
▁bite	-10.6798
▁Mc	-10.6801
▁homolog	-10.6802
▁unrelated	-10.6803
▁patch	-10.6805
▁slight	-10.6806
ec	-10.6806
▁strict	-10.6808
▁repeatedly	-10.681
▁opposed	-10.6811
▁centre	-10.682
▁counterparts	-10.682
▁collagen	-10.6824
48	-10.6824
▁gambiae	-10.6825
▁dimensions	-10.6826
▁NKA	-10.6845
▁annual	-10.6852
▁Whereas	-10.6855
▁serves	-10.6856
▁95%	-10.6861
▁70	-10.6863
▁assessing	-10.6865
▁reciprocal	-10.6865
ster	-10.6866
▁inactive	-10.6869
most	-10.687
▁[60]	-10.6872
▁cranial	-10.6875
▁distinguished	-10.6875
▁cones	-10.6876
▁Model	-10.6877
47	-10.6881
▁impossible	-10.6884
▁2:	-10.6885
°	-10.6886
MT	-10.6886
▁Tri	-10.6886
▁ortholog	-10.6887
so	-10.6889
ence	-10.6897
▁normalized	-10.6903
▁grey	-10.6906
▁2005	-10.6907
▁activating	-10.6907
▁rank	-10.691
TA	-10.691
▁Late	-10.6911
com	-10.6913
3%	-10.6915
▁RT	-10.6917
▁searches	-10.6928
▁unicellular	-10.6929
▁drop	-10.693
▁preparation	-10.693
▁pseudogenes	-10.693
▁shear	-10.6931
▁BMP	-10.6937
▁preventing	-10.694
▁1979)	-10.6942
▁put	-10.6943
▁aggressive	-10.6943
▁[56]	-10.6945
▁replaced	-10.6947
St	-10.6949
▁Ga	-10.6949
aaa	-10.695
▁BLAST	-10.6951
▁relatedness	-10.6958
▁yields	-10.6961
▁ERK	-10.6962
oni	-10.6968
AD	-10.697
▁epi	-10.6973
▁preparations	-10.6973
▁32	-10.6977
▁younger	-10.698
▁explains	-10.698
▁minimize	-10.6983
▁practical	-10.6983
▁And	-10.6983
▁morph	-10.6983
let	-10.6984
1%	-10.6986
▁subtle	-10.699
▁computationally	-10.6993
▁apart	-10.7001
MA	-10.7003
▁arises	-10.7004
▁verified	-10.7005
ick	-10.7016
▁propulsive	-10.7019
CS	-10.7023
▁cut	-10.7033
▁modularity	-10.7035
▁notable	-10.7036
▁works	-10.7042
5)	-10.7047
2),	-10.7047
▁100%	-10.7047
▁matrices	-10.705
▁approximation	-10.7051
▁principles	-10.7051
▁facilitates	-10.7051
▁implying	-10.7054
▁redox	-10.7055
▁explaining	-10.706
9%	-10.7064
▁indication	-10.7066
▁primitive	-10.7067
▁[61]	-10.7068
▁serine	-10.7073
▁remodeling	-10.7082
▁window	-10.7082
▁relaxation	-10.7083
mon	-10.7086
rate	-10.7094
sea	-10.7094
▁glycolytic	-10.7095
▁wavelengths	-10.7097
▁reversible	-10.7098
▁mammal	-10.7102
▁tight	-10.7102
▁cDNA	-10.7104
ble	-10.7106
▁z	-10.7106
▁name	-10.7109
▁malaria	-10.7111
▁[32]	-10.7111
▁reaching	-10.7112
LS	-10.7118
▁possesses	-10.7123
▁article	-10.7128
eri	-10.7134
▁preserved	-10.7148
▁exert	-10.7149
▁[10],	-10.7149
start	-10.7149
▁remove	-10.7149
res	-10.715
▁gradual	-10.715
▁derive	-10.7152
▁domestic	-10.7155
▁testosterone	-10.7156
▁phyla	-10.7157
▁Once	-10.7159
▁angiosperm	-10.716
▁recover	-10.7166
▁ages	-10.7169
▁programs	-10.7171
▁larva	-10.7183
fer	-10.7184
▁2003),	-10.7191
ik	-10.7199
▁mya	-10.7199
▁domestication	-10.7205
▁started	-10.7207
▁generic	-10.7207
▁extracted	-10.721
▁biologists	-10.721
▁invasive	-10.721
▁inheritance	-10.7212
▁dual	-10.722
▁arthropod	-10.7224
▁emerge	-10.7229
▁(~	-10.7232
negative	-10.7233
▁category	-10.7233
▁dimorphism	-10.7233
▁fungus	-10.7234
▁underlie	-10.7236
▁→	-10.7238
▁39]	-10.7239
▁public	-10.7241
2].	-10.7244
▁functioning	-10.7247
▁dolphins	-10.7248
▁arising	-10.7249
▁translocation	-10.7252
▁Island	-10.7252
cho	-10.7258
▁exhibiting	-10.7261
PR	-10.7262
▁sensu	-10.7262
▁encounter	-10.7263
57	-10.7266
base	-10.7276
▁expand	-10.7279
▁exploit	-10.7279
▁desert	-10.728
5%	-10.7282
▁kinds	-10.729
▁[1],	-10.7294
▁surprisingly	-10.7295
▁matter	-10.7296
▁localities	-10.7297
▁snail	-10.7299
▁transcribed	-10.73
berg	-10.7301
29	-10.7306
pho	-10.7306
▁fH	-10.7311
▁ancestry	-10.7311
▁cooperation	-10.7311
▁1978;	-10.7312
▁phospho	-10.7312
▁Mus	-10.7314
▁dN	-10.7323
▁Genetic	-10.7328
▁para	-10.7329
▁amongst	-10.7331
▁mol	-10.7333
RP	-10.7333
▁QTL	-10.7336
2/	-10.7338
▁Compared	-10.7342
▁Following	-10.7342
▁goldfish	-10.7342
iform	-10.7342
▁nuclei	-10.7343
▁polarization	-10.7343
▁weakly	-10.7344
▁importantly	-10.7352
▁look	-10.7354
▁project	-10.7361
▁7,	-10.7365
▁antagonistic	-10.7366
▁driver	-10.7368
▁Species	-10.7373
▁problematic	-10.7374
▁lab	-10.7374
▁(5	-10.7375
▁locally	-10.7375
▁glycerol	-10.7378
▁whereby	-10.7387
▁MA	-10.74
▁rhythms	-10.7404
▁lifestyle	-10.7409
▁raises	-10.7414
6%	-10.7415
▁0.8	-10.7417
▁validate	-10.7417
▁glycolysis	-10.742
▁cardiovascular	-10.742
▁1977;	-10.7422
▁Like	-10.7423
▁reserves	-10.7424
▁chamber	-10.7425
▁appendages	-10.7425
seq	-10.7425
▁conflicting	-10.7427
▁lag	-10.7429
▁sequential	-10.7433
▁feathers	-10.7435
▁tyrosine	-10.7439
▁meal	-10.7442
▁caution	-10.7452
▁turning	-10.7454
▁sponge	-10.7458
▁contemporary	-10.7468
▁management	-10.7468
▁geological	-10.7468
▁genomics	-10.7468
▁analogous	-10.7468
▁Me	-10.7471
▁AD	-10.7474
▁1980)	-10.7482
▁rays	-10.7483
our	-10.7483
▁20].	-10.7484
ors	-10.7486
▁grouping	-10.7492
mb	-10.7494
▁participate	-10.7498
AG	-10.7498
▁angular	-10.7499
III	-10.7506
▁divergences	-10.7506
▁trained	-10.7508
▁markedly	-10.751
cha	-10.7514
▁flapping	-10.7515
▁Lee	-10.7516
▁ubiquitin	-10.7517
▁FBA	-10.7517
▁strictly	-10.7521
▁2-	-10.7524
▁aid	-10.7525
▁10%	-10.7526
▁[26]	-10.7526
37	-10.7527
si	-10.7532
▁fertility	-10.7536
▁encountered	-10.7539
<0.05)	-10.754
▁strand	-10.7544
rid	-10.7547
▁focal	-10.7547
▁[31,	-10.7548
▁deviations	-10.755
▁persist	-10.7551
▁matched	-10.7552
▁ethanol	-10.7554
▁structured	-10.7555
▁aphids	-10.7555
▁additive	-10.7555
▁effector	-10.7558
▁uncertain	-10.7562
▁cyanobacteria	-10.7563
▁controversial	-10.7563
ius	-10.7569
▁ear	-10.757
▁redundant	-10.757
▁spontaneous	-10.7573
▁dense	-10.7577
▁attached	-10.7583
▁priori	-10.7589
▁cysteine	-10.759
▁pools	-10.7591
▁θ	-10.7591
▁partner	-10.7592
MR	-10.7593
▁oral	-10.7594
net	-10.7595
▁Understanding	-10.7595
▁germ	-10.7605
▁heavy	-10.7611
▁entry	-10.7611
▁tubules	-10.7611
▁Rho	-10.7615
▁organismal	-10.7615
▁massive	-10.762
Pa	-10.7622
▁ecosystems	-10.7622
▁flat	-10.7624
▁milk	-10.7627
▁inflammation	-10.7628
▁uncover	-10.7632
▁Lauder	-10.7633
can	-10.7634
▁Saccharomyces	-10.7644
▁trial	-10.7647
Type	-10.7648
▁NA	-10.7648
▁proved	-10.7649
▁Ha	-10.7655
▁focusing	-10.7657
▁meet	-10.7664
well	-10.7669
▁donor	-10.7682
▁implementation	-10.7683
▁defining	-10.7693
▁Class	-10.7693
▁Cretaceous	-10.7694
▁responsiveness	-10.7694
▁Micro	-10.7696
ward	-10.7698
▁continued	-10.7699
La	-10.7705
▁unresolved	-10.7708
▁spite	-10.7708
▁richness	-10.7709
▁get	-10.7714
▁worker	-10.772
▁45	-10.772
rP	-10.7723
▁endocrine	-10.7724
▁0.4	-10.7728
nes	-10.7738
▁mg	-10.7738
▁FW	-10.7742
▁36]	-10.7743
head	-10.7753
▁admixture	-10.7756
▁stimulate	-10.7757
▁hydrophobic	-10.7757
▁drawn	-10.7759
▁distinctive	-10.7763
AM	-10.7766
▁[5],	-10.7768
▁38]	-10.778
▁precursors	-10.7781
▁inferring	-10.7787
▁interplay	-10.7789
tro	-10.779
▁queen	-10.7791
▁occupy	-10.7794
▁modular	-10.7794
▁confer	-10.7796
▁19].	-10.7796
▁SO	-10.7798
▁Van	-10.7799
ix	-10.7801
▁plot	-10.7805
▁Rather	-10.7805
▁auxin	-10.7805
▁[13],	-10.7808
Le	-10.7823
▁proton	-10.7826
=1	-10.7833
▁canal	-10.7834
▁answer	-10.7837
▁affinities	-10.7838
▁shrimp	-10.7838
▁guide	-10.7839
ile	-10.784
▁fail	-10.7841
▁Eastern	-10.7842
▁neighboring	-10.7843
▁systemic	-10.7845
▁whale	-10.7846
▁WGD	-10.7849
top	-10.785
▁aphid	-10.7851
▁modify	-10.7859
▁u	-10.7861
▁promotes	-10.7862
▁lacks	-10.7863
▁1000	-10.7863
▁car	-10.7864
▁profiling	-10.7871
▁archaeal	-10.7874
▁acquire	-10.7881
▁fatigue	-10.7882
▁[28]	-10.7888
▁aerial	-10.7889
▁simplified	-10.7889
▁stickleback	-10.7895
▁sac	-10.7903
▁captive	-10.7904
▁circulation	-10.7904
▁choose	-10.7904
▁metamorphosis	-10.7904
▁coalescent	-10.7905
▁east	-10.7909
31	-10.7916
▁haplogroup	-10.7917
▁cuticular	-10.792
▁thoracic	-10.7923
▁prefer	-10.7925
▁8)	-10.7927
▁TNF	-10.7933
▁keep	-10.7934
▁decisions	-10.7936
▁influencing	-10.7937
▁symbiotic	-10.7937
▁segregation	-10.7937
▁mediating	-10.7937
▁5].	-10.7938
locus	-10.7939
▁confirms	-10.7943
▁phylogenomic	-10.7945
▁chose	-10.795
}	-10.7953
▁gaps	-10.7953
▁progeny	-10.7953
▁meiotic	-10.7957
▁Protein	-10.7958
▁inhibits	-10.7959
21	-10.7967
▁notably	-10.7969
▁diurnal	-10.797
▁imaging	-10.7971
▁Over	-10.7972
▁attributes	-10.7972
▁adopted	-10.7977
▁bear	-10.7977
▁Para	-10.798
▁dates	-10.7982
▁working	-10.7986
▁lamprey	-10.7987
▁consistency	-10.7987
org	-10.7995
ai	-10.7996
▁viewed	-10.7997
▁envelope	-10.7997
ö	-10.7999
chemical	-10.8
▁2000),	-10.8
▁calculations	-10.8002
▁Molecular	-10.8003
▁efficacy	-10.8003
▁incubation	-10.8004
▁advances	-10.8009
ys	-10.8009
iidae	-10.8018
▁sun	-10.802
▁Though	-10.802
▁[7],	-10.8025
▁σ	-10.8027
function	-10.8027
▁lizard	-10.8031
▁ubiquitous	-10.8031
▁assign	-10.8032
▁PIN	-10.8034
SA	-10.8035
3).	-10.8037
▁abiotic	-10.8041
Rs	-10.8047
▁debate	-10.8047
▁LPS	-10.8049
▁reductions	-10.8058
▁[2],	-10.8059
▁finally	-10.8062
▁(>	-10.8068
wi	-10.8069
▁figure	-10.8069
▁quantity	-10.807
▁vegetation	-10.807
▁[32,	-10.8071
▁pelagic	-10.8074
tan	-10.8078
▁pups	-10.808
phase	-10.8081
rr	-10.8083
▁desired	-10.8087
▁bacterium	-10.8092
4].	-10.8098
▁begin	-10.8099
▁geometry	-10.8104
▁continental	-10.8106
500	-10.8112
▁aligned	-10.8112
population	-10.8114
▁exponential	-10.8115
▁efflux	-10.8121
▁kDa	-10.8123
▁proto	-10.8124
39	-10.8124
▁activates	-10.813
od	-10.8133
▁0.1	-10.8136
▁specification	-10.8137
▁personal	-10.8143
BS	-10.8145
▁Red	-10.8145
tal	-10.8153
▁durations	-10.8155
▁[64]	-10.8158
ish	-10.816
MI	-10.8163
PO	-10.8163
dis	-10.8165
▁paradigm	-10.8165
▁40]	-10.8166
▁penguins	-10.8171
▁midgut	-10.8172
▁DR	-10.8172
▁[18],	-10.8174
gal	-10.8176
▁oriented	-10.8183
▁purposes	-10.8183
mp	-10.8184
transcriptional	-10.8185
▁enabling	-10.8189
▁delayed	-10.8192
▁agent	-10.8192
▁concerted	-10.8195
genetic	-10.8196
▁Math	-10.8201
▁straight	-10.8205
▁fairly	-10.8206
▁Car	-10.8209
▁he	-10.8209
▁[15],	-10.8212
▁[17],	-10.8217
▁universal	-10.8218
GC	-10.8219
▁21].	-10.8221
▁agree	-10.8226
MC	-10.8227
su	-10.8228
▁myo	-10.8231
▁comprised	-10.8232
SM	-10.8232
▁structurally	-10.8233
▁interacts	-10.8235
▁indels	-10.8236
evolution	-10.8238
▁Markov	-10.8242
▁Middle	-10.8243
▁gradually	-10.8246
wise	-10.8246
CP	-10.8248
activated	-10.8249
Bo	-10.8253
▁extract	-10.8253
▁aegypti	-10.8257
▁wheat	-10.8257
▁kPa	-10.8258
▁[4],	-10.8258
▁Smith	-10.826
▁antibodies	-10.8262
▁paralog	-10.8263
▁MT	-10.8267
nn	-10.827
▁transfers	-10.827
▁reporter	-10.8273
2%	-10.8274
▁difficulties	-10.8277
)]	-10.8278
▁cancers	-10.8278
▁determines	-10.8279
▁Ra	-10.8285
▁sharp	-10.8285
▁track	-10.8286
MP	-10.8289
▁straightforward	-10.8291
▁saline	-10.8294
▁MYA	-10.8295
▁8,	-10.8297
▁1978)	-10.8301
▁cooperative	-10.8303
AC	-10.8304
▁oxidase	-10.8312
▁effectiveness	-10.8313
▁[8],	-10.8321
▁moments	-10.8324
▁belongs	-10.8325
▁estrogen	-10.8327
individual	-10.8329
▁indicator	-10.8337
▁Tb	-10.8339
▁responsive	-10.8339
CL	-10.834
▁Eu	-10.8342
▁amplified	-10.8343
▁Iberian	-10.8344
▁medial	-10.8346
▁files	-10.8346
vo	-10.8349
▁loads	-10.835
▁testis	-10.835
▁resemble	-10.8355
▁panel	-10.8356
7%	-10.8356
▁today	-10.8357
▁selectively	-10.8358
▁5)	-10.836
▁propulsion	-10.8361
▁[29]	-10.8362
▁fragmentation	-10.8363
▁0.6	-10.8363
▁cope	-10.8366
▁suite	-10.8368
eng	-10.837
▁responded	-10.8376
▁El	-10.8378
▁2001	-10.8378
▁SBML	-10.8382
6)	-10.8385
▁expressing	-10.8387
ebb	-10.839
och	-10.8393
▁dosage	-10.8395
▁confined	-10.8396
▁logic	-10.8397
▁postulated	-10.8397
oh	-10.8397
Clark	-10.8398
▁prove	-10.84
▁41]	-10.84
han	-10.8402
MDH	-10.8402
pre	-10.8408
▁cod	-10.8411
▁ventilation	-10.8412
phi	-10.8412
▁[16],	-10.8416
▁37]	-10.8425
cellular	-10.8427
▁perceived	-10.8433
genes	-10.8442
▁distinction	-10.8443
ST	-10.8444
▁harbor	-10.8457
▁geometric	-10.8459
▁fig	-10.8461
▁optimum	-10.8464
▁revealing	-10.8465
mar	-10.8465
▁cytosolic	-10.8466
▁polar	-10.8467
tolerant	-10.8468
▁bar	-10.8469
translational	-10.847
▁initiate	-10.8471
▁inconsistent	-10.8472
▁elicited	-10.8474
▁shifted	-10.8475
▁constitutive	-10.8477
▁acclimated	-10.8478
ene	-10.8478
PI	-10.848
yr	-10.8481
▁technologies	-10.8482
▁creating	-10.8482
▁AQP	-10.8484
▁Col	-10.8487
ME	-10.849
▁computation	-10.849
▁EMG	-10.8492
▁dominated	-10.8492
Ba	-10.8496
▁BMR	-10.8497
▁Type	-10.8498
▁incorporating	-10.85
ros	-10.8503
mit	-10.851
▁ends	-10.851
5@	-10.8515
▁synteny	-10.8517
bound	-10.8518
hn	-10.8518
▁EF	-10.8528
▁chicks	-10.853
▁descent	-10.8535
NP	-10.8535
ost	-10.8537
▁finches	-10.8537
gu	-10.8541
▁polymerase	-10.8548
▁deprivation	-10.8552
pr	-10.8552
long	-10.8553
▁logical	-10.8558
▁extending	-10.8561
▁plan	-10.8562
▁shark	-10.8566
ped	-10.8569
▁moved	-10.857
▁worldwide	-10.8571
▁therapy	-10.8573
▁LD	-10.8574
33	-10.8576
▁reactive	-10.8577
right	-10.8579
▁τ	-10.858
▁∼	-10.8582
▁landmarks	-10.8585
▁California	-10.8588
▁1975;	-10.8589
▁placental	-10.859
▁[14],	-10.8592
▁impaired	-10.8592
cr	-10.8593
ker	-10.86
▁inactivation	-10.8605
▁possibilities	-10.8605
▁photosynthesis	-10.8605
terminus	-10.8611
▁quantitatively	-10.8613
▁smallest	-10.8619
ogenic	-10.862
cl	-10.862
▁adipose	-10.8623
model	-10.8623
▁freeze	-10.8624
▁bones	-10.8624
▁cholesterol	-10.8624
▁fluorescent	-10.8625
▁TR	-10.8625
▁crosses	-10.8627
▁Not	-10.8639
▁honeybees	-10.8639
▁metal	-10.8646
▁[21],	-10.8647
▁IC	-10.865
▁arrays	-10.8653
RT	-10.8661
ks	-10.8665
4-	-10.8666
▁inducing	-10.8668
▁mutual	-10.867
men	-10.867
alis	-10.8671
▁fuel	-10.8672
▁skeleton	-10.8673
▁pheromones	-10.8673
▁snake	-10.8675
▁biosynthetic	-10.8676
▁Secondly	-10.8681
▁proven	-10.8681
▁LGT	-10.8682
▁24].	-10.8687
ok	-10.8689
▁remarkably	-10.8694
▁[34,	-10.8694
▁accounts	-10.8699
▁graphs	-10.8703
▁TM	-10.8711
▁integrity	-10.8712
▁gravity	-10.8715
4+	-10.872
▁beetle	-10.8729
▁tadpoles	-10.873
▁basolateral	-10.873
▁[30]	-10.8738
▁my	-10.874
▁29	-10.8747
▁held	-10.875
1/2	-10.8751
▁COI	-10.8751
▁accounted	-10.8754
▁Pi	-10.8758
▁sparse	-10.876
▁ND	-10.876
acid	-10.8761
▁navigation	-10.8763
▁configuration	-10.8763
▁protect	-10.8765
▁harbour	-10.8766
▁propagation	-10.8766
AL	-10.8776
CD	-10.8778
wa	-10.8779
PCR	-10.8781
▁Taylor	-10.8782
str	-10.8784
▁transgenic	-10.8787
▁denote	-10.8795
▁currents	-10.8797
▁9,	-10.8799
▁venom	-10.8799
▁assumes	-10.88
▁chemicals	-10.8803
PA	-10.8806
▁matches	-10.8809
▁tumors	-10.881
▁[12],	-10.8812
aw	-10.8813
▁explicit	-10.8814
▁constitutes	-10.8816
NT	-10.8823
▁SA	-10.8828
▁SC	-10.8829
Lear	-10.8832
▁overexpression	-10.8832
▁predominant	-10.8833
▁aggregation	-10.8836
▁Williams	-10.8837
▁century	-10.8838
▁weaker	-10.8839
▁assembled	-10.8841
▁cooling	-10.8842
ski	-10.8847
▁Ch	-10.8848
▁36	-10.8851
active	-10.8852
iformes	-10.8853
▁lumen	-10.8856
▁vesicles	-10.8857
▁implement	-10.8865
▁associate	-10.8871
ack	-10.8872
sub	-10.8873
cycle	-10.8876
▁organized	-10.8881
▁tends	-10.8884
▁EGFR	-10.8884
ld	-10.8886
▁pointed	-10.8887
▁pan	-10.8891
ray	-10.8893
▁requiring	-10.8894
▁0.3	-10.8895
▁compute	-10.8897
lived	-10.8898
cus	-10.8899
▁solve	-10.89
db	-10.8904
shi	-10.8905
pg	-10.8908
▁1977)	-10.8914
▁mainland	-10.8916
▁NADH	-10.8917
▁crossing	-10.8919
8%	-10.892
▁records	-10.8922
▁DE	-10.8923
▁adequate	-10.8923
46	-10.8924
RE	-10.8928
▁tribe	-10.8929
▁Madagascar	-10.893
▁ganglion	-10.8931
▁[67]	-10.8932
green	-10.8935
▁landing	-10.8935
Lx	-10.8937
▁2002	-10.8938
▁grown	-10.8941
▁0.7	-10.8942
▁2000	-10.8943
▁microscopy	-10.8947
▁deposition	-10.8949
▁occupied	-10.895
▁NP	-10.8951
▁periodic	-10.8951
▁circumstances	-10.8954
▁assignment	-10.8955
▁store	-10.8964
▁materials	-10.8966
▁tuberculosis	-10.8966
▁latency	-10.8968
▁outgroup	-10.8971
▁disorders	-10.8972
▁*	-10.8973
▁stressors	-10.8974
mic	-10.8975
5].	-10.8978
▁Go	-10.8981
▁en	-10.8981
studied	-10.8984
▁diversified	-10.8984
▁corticosterone	-10.8985
▁cr	-10.8987
4%	-10.8987
▁references	-10.8989
▁synthesized	-10.899
▁phylum	-10.899
▁inhabit	-10.9001
amp	-10.9001
zi	-10.9001
▁cilia	-10.9003
▁toadfish	-10.9003
▁freely	-10.9007
ez	-10.9008
▁[11],	-10.901
▁arisen	-10.9013
▁suited	-10.9016
▁altering	-10.902
▁1996)	-10.9021
▁persistent	-10.9022
▁reef	-10.9023
▁Su	-10.9039
▁500	-10.904
▁owing	-10.904
▁[33,	-10.904
▁Differences	-10.9043
genic	-10.9044
axis	-10.9049
▁albeit	-10.905
▁cyclic	-10.9051
▁exceptions	-10.9053
▁favored	-10.9057
▁[36]	-10.9058
▁exploring	-10.9058
▁facilitating	-10.9058
cut	-10.9059
bp	-10.906
▁tetrapods	-10.906
▁TCA	-10.9061
▁parasitism	-10.9062
▁80	-10.9062
▁Pliocene	-10.9062
▁energetically	-10.9063
pha	-10.9067
▁42]	-10.9068
▁vi	-10.907
▁20%	-10.908
▁relations	-10.9082
97	-10.9082
▁latitude	-10.9083
▁Cas	-10.9085
EF	-10.9085
▁homo	-10.9089
ya	-10.9089
▁recombinant	-10.9097
EN	-10.9097
▁pigmentation	-10.91
uW	-10.9101
44	-10.9102
Fj	-10.9106
▁White	-10.9106
▁Inter	-10.9108
▁influx	-10.9109
▁attempted	-10.9111
▁subsets	-10.9111
▁video	-10.9114
▁plumage	-10.9114
▁Pol	-10.9115
▁2004	-10.9115
LP	-10.9118
▁suppressed	-10.9121
▁rhythm	-10.9126
Co	-10.9126
▁detrimental	-10.9132
▁carotenoids	-10.9134
fin	-10.9134
mean	-10.9136
also	-10.9136
xb	-10.9138
▁shapes	-10.9139
▁sponges	-10.9145
del	-10.9151
▁heavily	-10.9151
▁dolphin	-10.9152
pe	-10.9156
▁linking	-10.9165
▁ever	-10.9173
▁NR	-10.9178
▁contrasts	-10.9183
▁ray	-10.9185
▁symbols	-10.9186
▁vital	-10.9189
▁bottlenecks	-10.9189
▁worm	-10.9189
▁1974;	-10.919
▁accounting	-10.9193
▁originate	-10.9195
ef	-10.9197
▁mantle	-10.9202
▁5'	-10.9205
gn	-10.9206
▁heterozygosity	-10.9207
▁SLC	-10.921
▁India	-10.9213
▁3'	-10.9224
▁prone	-10.9224
▁pharmacological	-10.9227
▁calculation	-10.9227
▁downregulation	-10.9228
▁HSP	-10.9232
▁integrative	-10.9237
cu	-10.9237
▁[6],	-10.9238
▁microorganisms	-10.9241
▁adjustments	-10.9241
▁physiologically	-10.9243
ful	-10.9245
▁elimination	-10.9245
▁prevalent	-10.9246
▁conspicuous	-10.9247
▁Old	-10.9249
▁Sox	-10.9254
Aae	-10.9254
▁Speakman	-10.9256
▁calling	-10.926
▁supplementary	-10.9262
▁mobility	-10.9264
▁antibiotic	-10.9266
box	-10.9266
Ro	-10.9266
▁runs	-10.9268
producing	-10.9268
▁sole	-10.9271
til	-10.9273
▁OR	-10.9274
tidae	-10.9275
200	-10.9277
pG	-10.9277
▁turns	-10.9277
▁labeled	-10.9278
Cv	-10.9279
▁44]	-10.9282
▁capacities	-10.9283
▁defects	-10.9283
▁thickness	-10.9283
▁pathogenesis	-10.9284
▁Che	-10.9285
▁oscillation	-10.9286
iss	-10.9292
▁intergenic	-10.9292
▁individually	-10.9296
▁manual	-10.9296
air	-10.9296
▁maximize	-10.9297
▁[3],	-10.9298
▁cartilage	-10.9302
TM	-10.9303
▁filament	-10.9308
▁Experimental	-10.9311
▁2001),	-10.9314
▁filaments	-10.9319
▁superior	-10.932
▁butterfly	-10.932
▁sensitivities	-10.9321
ret	-10.9322
MBP	-10.9322
▁bile	-10.9323
rt	-10.9327
Sch	-10.9328
▁concepts	-10.9329
▁ODE	-10.9334
cf	-10.9336
▁GFP	-10.9339
▁Escherichia	-10.934
▁Surprisingly	-10.934
▁anatomy	-10.934
▁Hu	-10.9341
▁protease	-10.9342
▁helps	-10.9342
▁4),	-10.9348
▁phosphorylated	-10.9349
▁PE	-10.9349
genomic	-10.9351
▁45]	-10.9352
4).	-10.9353
icus	-10.9354
▁reads	-10.9356
▁travel	-10.9358
▁autosomal	-10.9359
▁mountain	-10.936
▁TH	-10.936
▁screen	-10.936
▁mismatch	-10.9361
▁[20],	-10.9361
bI	-10.9367
▁spore	-10.9369
▁Mean	-10.937
eno	-10.9372
▁expectations	-10.9375
▁successive	-10.9376
▁electrical	-10.9377
▁[35,	-10.9379
FA	-10.9379
▁delivery	-10.938
hi	-10.938
hl	-10.9381
▁reviews	-10.9381
▁staining	-10.9381
lum	-10.9382
▁reward	-10.9387
eeu	-10.9396
ite	-10.9399
▁endosymbiont	-10.94
Es	-10.9409
▁toxin	-10.9411
▁accessions	-10.9413
▁CC	-10.9415
▁[51].	-10.9415
▁meiosis	-10.9416
▁rigid	-10.9418
▁incongruence	-10.9419
bl	-10.9422
IS	-10.9424
▁founder	-10.9427
▁generalized	-10.9428
▁Antarctic	-10.9429
>	-10.9431
▁curvature	-10.9436
▁constants	-10.9439
▁colonized	-10.9441
▁Bur	-10.9442
SR	-10.9445
chromosome	-10.9446
▁IR	-10.9452
▁chains	-10.9453
▁bass	-10.9454
▁aggression	-10.9455
log	-10.9463
▁steroid	-10.9465
receptor	-10.9465
▁reaches	-10.9466
▁helix	-10.9471
▁technology	-10.9474
▁segmental	-10.9477
▁enhancement	-10.9478
▁weights	-10.9482
▁endosymbionts	-10.9491
▁probabilistic	-10.9494
▁oldest	-10.9495
fK	-10.9501
Net	-10.9503
▁arrest	-10.9504
Li	-10.9505
bio	-10.9506
▁altitude	-10.9512
▁marginal	-10.9514
▁walk	-10.9516
▁enhances	-10.9517
▁crustacean	-10.9518
▁antigen	-10.9527
▁noteworthy	-10.9532
▁binary	-10.9533
vqai	-10.9533
ves	-10.9534
nrfifHhDYfgasaac	-10.9535
feaa	-10.9536
@5@	-10.9536
▁43]	-10.9537
gBa	-10.9539
▁archaea	-10.9539
+=	-10.954
qV	-10.9542
▁sides	-10.9543
▁her	-10.9544
Xat	-10.9545
▁11,	-10.955
▁intertidal	-10.955
▁Evidence	-10.9552
▁signs	-10.9561
ani	-10.9561
▁expectation	-10.9564
▁lies	-10.957
▁Through	-10.9571
▁underwent	-10.9571
ale	-10.9572
ug	-10.9573
▁nearby	-10.9575
sum	-10.958
▁potentials	-10.9587
Xdb	-10.9588
len	-10.9588
▁dog	-10.9589
▁paraphyletic	-10.9591
▁Bio	-10.9591
▁Changes	-10.9592
▁prevents	-10.9598
▁mutually	-10.96
▁toxins	-10.9614
▁rearing	-10.9619
▁flanking	-10.9619
▁uncovered	-10.9621
▁thick	-10.9627
▁scientific	-10.963
▁swimbladder	-10.963
▁elsewhere	-10.963
▁fourth	-10.9631
▁bouts	-10.9633
▁allometric	-10.9636
speed	-10.9638
RNA	-10.9638
▁HP	-10.9638
ms	-10.964
▁herein	-10.9646
▁lens	-10.965
▁covering	-10.965
▁hypothetical	-10.9651
▁aims	-10.9651
▁delimitation	-10.9651
▁tilapia	-10.9651
▁LGM	-10.9651
▁47]	-10.9652
▁rotational	-10.9655
▁inhabiting	-10.9662
▁formal	-10.9662
TF	-10.9664
▁analyse	-10.9667
▁biotic	-10.9667
omy	-10.9669
▁hot	-10.9672
▁0.9	-10.9677
▁~1	-10.9679
▁flows	-10.9685
▁recurrent	-10.969
▁oscillatory	-10.9691
▁0.01	-10.9694
▁transcriptomic	-10.9697
▁qualitatively	-10.97
▁1972;	-10.9709
▁nevertheless	-10.9709
▁1976)	-10.9711
▁kin	-10.9712
▁Its	-10.9717
ological	-10.9717
▁HR	-10.9721
▁orthologues	-10.9723
▁mussels	-10.9728
▁Japan	-10.9729
▁lose	-10.9736
supported	-10.9737
▁CP	-10.9737
▁hubs	-10.9738
▁connecting	-10.9738
▁responding	-10.9744
fl	-10.9745
▁procedures	-10.9748
▁exclusion	-10.9749
▁converted	-10.9753
SP	-10.9755
gon	-10.9757
▁recording	-10.9763
▁Islands	-10.9764
▁evidenced	-10.9765
row	-10.9766
▁conjunction	-10.9768
▁optical	-10.9769
▁1976;	-10.977
▁microsatellites	-10.977
▁stabilizing	-10.9771
▁Comparison	-10.9774
▁accessory	-10.9774
09	-10.9775
ena	-10.9778
▁west	-10.9783
▁bo	-10.9784
▁trophic	-10.9785
▁inversion	-10.9786
▁Maximum	-10.9788
▁locust	-10.9794
▁interactome	-10.9796
encoded	-10.9797
▁comparatively	-10.98
▁Vi	-10.9801
65	-10.9803
▁mobile	-10.981
ons	-10.981
▁spend	-10.9812
▁1986).	-10.982
▁modest	-10.9821
▁bands	-10.9821
▁profound	-10.9823
▁Firstly	-10.9824
▁traditionally	-10.9825
▁gape	-10.9827
▁filtering	-10.9831
cap	-10.9831
▁mal	-10.9837
PT	-10.9838
▁RNase	-10.9843
6].	-10.9843
ES	-10.9847
▁warming	-10.985
▁eutherian	-10.9851
▁virtually	-10.9851
▁holds	-10.9853
Ha	-10.9854
▁existed	-10.9855
▁probe	-10.9857
▁bearing	-10.9867
▁MI	-10.9871
0)	-10.9876
▁optimized	-10.9877
-1,	-10.9877
▁GABA	-10.9883
▁depths	-10.9883
parasite	-10.9884
val	-10.9886
▁cultured	-10.9886
RS	-10.9886
▁biomechanical	-10.9889
▁combinatorial	-10.9889
▁AS	-10.989
▁parsimonious	-10.9891
▁AFLP	-10.9893
▁neck	-10.9898
▁Genes	-10.9906
▁cortex	-10.9909
▁practice	-10.9909
▁resolving	-10.9909
▁flexion	-10.9909
▁Japanese	-10.991
▁hearts	-10.9911
rat	-10.9913
▁lesser	-10.9914
▁healthy	-10.9916
mus	-10.9918
▁strike	-10.9918
▁neuromasts	-10.9919
▁Mi	-10.992
▁amphioxus	-10.9929
▁[37,	-10.9929
SD	-10.993
ane	-10.9939
▁iso	-10.9941
▁Un	-10.9943
▁paternal	-10.9943
plant	-10.9944
flow	-10.9944
▁reject	-10.9947
▁haemolymph	-10.9949
CC	-10.9956
▁suppress	-10.9961
▁Pre	-10.9961
qq	-10.9961
66	-10.9964
▁alternate	-10.9967
lia	-10.9968
▁Chinese	-10.9969
▁concentrated	-10.9972
9].	-10.9973
▁Currently	-10.9974
GP	-10.9974
0–	-10.9974
▁proteomic	-10.9976
family	-10.9977
▁fitting	-10.9978
mel	-10.9981
▁Ap	-10.9984
▁bridge	-10.9989
▁antioxidants	-10.9992
▁retrotransposon	-10.9993
▁Lepidoptera	-10.9994
99	-10.9995
▁GRN	-10.9998
▁dispersed	-10.9999
TEF	-11.0003
▁reviewed	-11.0007
▁automated	-11.0008
▁promoted	-11.0009
▁weighted	-11.001
▁morphologies	-11.001
▁stomach	-11.001
▁taste	-11.001
▁humidity	-11.0011
▁alternatively	-11.0012
▁GATA	-11.0014
ric	-11.0016
TP	-11.0016
▁substances	-11.002
▁Network	-11.0022
▁gains	-11.0022
▁mother	-11.0024
▁inverse	-11.0025
▁Plasmodium	-11.003
▁quantities	-11.003
▁enhancing	-11.0034
male	-11.0035
▁clone	-11.0036
▁spawning	-11.0038
▁specimen	-11.0038
▁inversions	-11.0046
ral	-11.0047
▁arboreal	-11.0051
▁axes	-11.0051
▁protective	-11.0052
▁programming	-11.0054
nus	-11.0061
▁parasitoid	-11.0064
▁brief	-11.0066
▁interested	-11.0066
Ch	-11.0068
▁10,	-11.0071
▁presumed	-11.0072
▁Cu	-11.0074
▁cap	-11.0076
▁learned	-11.0083
▁resist	-11.0085
▁(10	-11.0088
▁spores	-11.009
▁propensity	-11.0092
▁maize	-11.0092
ech	-11.0094
ny	-11.0102
ear	-11.0104
ki	-11.0105
▁vicariance	-11.0113
cc	-11.0115
▁structuring	-11.0115
▁ribosome	-11.0121
83	-11.013
▁disc	-11.0132
42	-11.0133
▁mosaic	-11.0133
▁sodium	-11.0134
▁raise	-11.0135
▁verify	-11.0139
▁replicate	-11.014
▁48]	-11.0143
▁chimpanzee	-11.0144
▁rivers	-11.0149
▁[25],	-11.0149
▁gall	-11.015
anus	-11.0152
▁1972)	-11.0154
▁infectious	-11.0154
▁(4)	-11.0156
▁sharks	-11.0158
▁strongest	-11.0163
▁1974)	-11.0173
▁modulating	-11.0176
▁oviposition	-11.0177
▁10-	-11.0177
▁concern	-11.0184
▁balanced	-11.0187
▁hormonal	-11.0195
▁defensive	-11.0195
▁concatenated	-11.0196
▁validity	-11.0197
ines	-11.0204
lis	-11.0209
▁voltage	-11.0216
uch	-11.022
sky	-11.0223
▁urchin	-11.0225
▁odorant	-11.0226
▁stream	-11.023
▁stressful	-11.0231
▁row	-11.0235
▁leaving	-11.0237
▁pancreatic	-11.0237
▁users	-11.0243
▁accessible	-11.0245
▁AL	-11.0245
▁33	-11.0246
▁Genome	-11.0246
▁cycling	-11.0246
8)	-11.025
DE	-11.0258
▁killifish	-11.0258
tur	-11.0266
tz	-11.027
▁Alu	-11.0273
ele	-11.0275
ator	-11.0276
▁threads	-11.0283
▁glutamine	-11.0283
▁handling	-11.0284
▁dead	-11.0286
▁projection	-11.029
▁microbes	-11.0293
▁minutes	-11.0298
450	-11.0298
▁Perhaps	-11.03
▁selecting	-11.0304
ung	-11.0306
limited	-11.0308
▁[19],	-11.0309
▁Cell	-11.0312
hE	-11.0312
hu	-11.0315
▁tongue	-11.0321
ole	-11.0324
led	-11.0324
▁compete	-11.0325
▁additionally	-11.033
▁OA	-11.0336
▁pelvic	-11.0342
▁improving	-11.0342
trans	-11.0349
hand	-11.035
▁rejected	-11.035
▁biomarkers	-11.0351
▁obstacle	-11.0352
▁determinant	-11.0352
▁FST	-11.0353
▁conditional	-11.0355
▁Lu	-11.0358
▁vice	-11.0364
▁potent	-11.0366
clade	-11.0366
copy	-11.037
molecular	-11.0373
ple	-11.0373
μ	-11.0374
amine	-11.0376
▁CNS	-11.0378
▁progressive	-11.0379
▁opossum	-11.0384
▁removing	-11.0385
▁forced	-11.0389
▁resembles	-11.039
▁predictor	-11.0391
sson	-11.0392
▁query	-11.0394
▁haplogroups	-11.0394
lid	-11.0398
49	-11.0401
▁feet	-11.0405
▁contacts	-11.0407
▁outcrossing	-11.0407
▁settings	-11.0408
▁prevented	-11.0411
▁patient	-11.0416
Vg	-11.0424
▁paralogues	-11.0425
▁wood	-11.0425
▁reliably	-11.0426
GO	-11.0427
ases	-11.0427
▁conductance	-11.0428
▁ATPase	-11.043
▁stabilize	-11.043
▁9)	-11.0433
human	-11.0434
▁accommodate	-11.0441
stein	-11.0441
▁evaluating	-11.0448
▁ovary	-11.0448
▁Clearly	-11.0448
▁[36,	-11.0448
▁adopt	-11.0448
56	-11.0449
▁negligible	-11.045
chain	-11.0451
▁classic	-11.0453
wing	-11.0454
▁plots	-11.0459
▁Sub	-11.0462
▁positives	-11.0464
▁Johnson	-11.0466
▁Sc	-11.0466
forming	-11.0469
▁identifies	-11.0469
pal	-11.0471
▁masses	-11.0472
▁consumed	-11.0474
▁LTM	-11.0475
▁rearrangement	-11.048
response	-11.0481
ock	-11.0489
▁places	-11.0489
▁bladder	-11.049
[1	-11.0491
▁rhythmic	-11.0498
▁leave	-11.0501
glucose	-11.0502
▁sensor	-11.0503
▁AM	-11.0503
ceae	-11.0506
8].	-11.0506
▁Ser	-11.0508
▁epithelia	-11.0509
▁compact	-11.0511
▁sparrows	-11.0513
▁300	-11.0515
pl	-11.0516
▁hub	-11.0517
▁versa	-11.0517
▁49]	-11.0518
1;	-11.0519
nic	-11.0522
sia	-11.0527
▁bioinformatics	-11.0529
ocytes	-11.053
lab	-11.0533
▁Expression	-11.0533
▁integral	-11.0533
▁whilst	-11.0533
▁biogenesis	-11.0534
zo	-11.0535
▁scarce	-11.0535
DA	-11.0537
▁offset	-11.0538
aspe	-11.0544
PD	-11.0552
Gs	-11.0553
▁endothelial	-11.0555
▁plotted	-11.0555
Mo	-11.0557
▁hepatic	-11.0557
▁cal	-11.0558
▁LRR	-11.0558
BA	-11.0559
▁Storey	-11.0563
▁subtype	-11.0563
▁law	-11.0566
▁sign	-11.0568
▁sympatry	-11.0576
▁[38,	-11.0577
▁burrow	-11.0577
▁illustrates	-11.0577
xi	-11.0578
▁starch	-11.0583
▁ANOVA	-11.0583
ATP	-11.0583
05	-11.0585
▁RA	-11.0585
▁exerted	-11.0588
▁basin	-11.059
▁corroborate	-11.0595
▁PPIs	-11.0597
bol	-11.0599
▁bases	-11.0601
▁Chi	-11.0602
▁hsp	-11.0602
▁SM	-11.0611
mm	-11.0613
var	-11.0617
▁Ru	-11.0618
▁library	-11.0619
▁interfere	-11.062
▁suggestion	-11.062
▁ID	-11.0629
▁syndrome	-11.0632
▁exceed	-11.0634
▁diverge	-11.0634
era	-11.0638
▁37	-11.0639
▁confirming	-11.0639
▁lymph	-11.0639
ew	-11.064
▁unchanged	-11.0641
▁Assuming	-11.0641
▁infect	-11.0643
▁12,	-11.0645
▁eliminated	-11.0647
▁scoring	-11.0649
In	-11.0652
0,000	-11.0653
▁5%	-11.0653
▁Low	-11.0657
▁charge	-11.0657
9)	-11.0662
▁latitudes	-11.0663
▁trafficking	-11.0663
▁Gu	-11.0664
▁16,	-11.0667
tailed	-11.067
▁anthropogenic	-11.0672
ä	-11.0674
eau	-11.0677
▁90%	-11.0678
ott	-11.068
more	-11.0681
AF	-11.0682
bar	-11.0682
▁(4	-11.0682
▁2.5	-11.0683
ming	-11.0685
▁export	-11.0699
▁doses	-11.0699
▁34	-11.0702
▁dopamine	-11.0706
▁disparity	-11.0707
▁droplets	-11.0708
▁deer	-11.0711
▁Young	-11.0715
▁metric	-11.0719
7].	-11.0725
▁giant	-11.0728
▁retraction	-11.0729
▁hidden	-11.0729
▁unstable	-11.0729
▁mere	-11.073
▁1973;	-11.0731
▁extraction	-11.0731
▁38	-11.0732
▁beat	-11.0733
ita	-11.0734
▁expensive	-11.0735
▁CG	-11.0736
ern	-11.0739
blue	-11.0741
▁spike	-11.0745
▁tolerant	-11.0746
64	-11.0746
▁acetyl	-11.0749
▁popular	-11.0749
ace	-11.0749
▁reliability	-11.075
▁arousal	-11.0752
▁perfect	-11.0752
▁pump	-11.0755
represented	-11.0758
▁processed	-11.0766
▁Green	-11.0767
▁Wehner	-11.0781
▁physically	-11.0781
▁topic	-11.0783
open	-11.0784
▁oocytes	-11.0785
▁tunnel	-11.0786
▁abnormal	-11.0793
01	-11.0793
fu	-11.0796
▁28].	-11.0798
loss	-11.0802
▁BP	-11.0808
▁Ste	-11.0809
▁fluctuating	-11.0816
▁stoichiometric	-11.0817
▁subnetworks	-11.0818
▁subcellular	-11.0819
▁formulation	-11.0819
▁caspase	-11.082
▁[68]	-11.082
▁subgroups	-11.0825
▁burrowing	-11.0828
GL	-11.0837
▁melatonin	-11.0839
▁[69]	-11.0842
▁soon	-11.0852
▁backward	-11.0854
▁macrophages	-11.0855
SL	-11.0858
88	-11.0859
▁deficiency	-11.0861
▁Mal	-11.0862
▁mutated	-11.0862
▁1971;	-11.0862
▁positioned	-11.0862
▁closure	-11.0863
▁eel	-11.0864
▁progenitors	-11.0866
▁cetaceans	-11.0872
▁frontal	-11.0876
▁declines	-11.088
▁japonica	-11.0883
▁WT	-11.0886
▁q	-11.0886
high	-11.0888
▁Poly	-11.0888
IN	-11.089
▁arginine	-11.0897
3/	-11.0899
tel	-11.0899
▁[34]	-11.09
▁primers	-11.0901
▁Se	-11.0905
▁incidence	-11.0905
▁emission	-11.0906
▁receive	-11.091
95	-11.0912
▁inhibiting	-11.0915
▁outputs	-11.0918
58	-11.0919
▁migrate	-11.0921
▁names	-11.0925
▁subgroup	-11.0925
▁Quaternary	-11.0928
▁[39,	-11.0928
ides	-11.0928
▁sustain	-11.0929
54	-11.093
▁advance	-11.0932
▁expanding	-11.0944
GS	-11.0946
PK	-11.0946
-10	-11.0948
▁Regardless	-11.095
▁arranged	-11.095
▁indices	-11.095
▁cognitive	-11.0951
DR	-11.0952
▁2014)	-11.0959
▁gray	-11.096
▁nerves	-11.0961
▁routine	-11.0966
▁1.0	-11.0967
catenin	-11.0972
▁crest	-11.0975
SS	-11.0975
▁master	-11.0975
▁marsupials	-11.0976
▁SL	-11.0979
▁emphasize	-11.0981
▁80%	-11.0984
tu	-11.0984
illa	-11.0985
▁forage	-11.0986
▁template	-11.0988
▁EOD	-11.0988
▁72	-11.099
Me	-11.0993
▁applies	-11.0995
▁congruence	-11.0995
▁Ciona	-11.0995
▁restrict	-11.0997
▁climbing	-11.1002
xc	-11.1002
▁bonds	-11.1004
▁mining	-11.1004
av	-11.1005
▁horizontally	-11.1008
▁solitary	-11.1017
xH	-11.1019
▁fauna	-11.1019
▁13,	-11.102
ible	-11.1021
▁mated	-11.1034
▁Human	-11.1035
▁isolate	-11.1038
sized	-11.1046
▁metrics	-11.1049
▁moves	-11.1054
ili	-11.1055
▁Du	-11.1057
▁projects	-11.1057
ean	-11.1058
▁PD	-11.1058
▁1971)	-11.1061
cells	-11.1062
▁sophisticated	-11.1063
71	-11.1069
NO	-11.1074
▁sticklebacks	-11.1074
▁17,	-11.1081
▁150	-11.1081
▁BC	-11.1083
utilizing	-11.1085
▁irrespective	-11.1085
▁morphogenesis	-11.1085
▁cultivated	-11.1086
▁yaw	-11.1086
▁lie	-11.1086
▁alteration	-11.1087
▁plateau	-11.1088
ops	-11.1095
▁15,	-11.1096
▁2012	-11.11
eus	-11.1105
▁hierarchy	-11.1108
▁familiar	-11.1108
▁sought	-11.1109
▁characterizing	-11.1109
▁triggers	-11.111
▁cyanobacterial	-11.1112
▁GS	-11.1113
▁accelerate	-11.1118
ogenesis	-11.1123
▁cytokine	-11.1129
▁normoxic	-11.1131
▁unless	-11.1136
▁UCP	-11.1139
inger	-11.114
▁mothers	-11.1147
▁language	-11.1148
▁elucidated	-11.1148
▁50]	-11.1148
▁PR	-11.1149
▁drivers	-11.1149
OR	-11.1149
▁cox	-11.115
▁MG	-11.1151
▁peri	-11.1152
▁VS	-11.1153
▁[41,	-11.1155
▁Archaea	-11.1169
▁text	-11.1171
▁computing	-11.1176
▁quantification	-11.1176
▁Ag	-11.1177
▁settlement	-11.1179
▁activator	-11.1179
Ho	-11.118
▁14,	-11.1183
ade	-11.1185
▁inability	-11.1195
▁radial	-11.1197
rh	-11.1198
▁falciparum	-11.1199
▁grass	-11.1201
▁theoretically	-11.1201
▁ambiguous	-11.1201
bu	-11.1203
▁cytokines	-11.1204
▁attracted	-11.1206
dr	-11.1207
por	-11.1211
osis	-11.1213
ü	-11.1213
▁discover	-11.1222
▁safety	-11.1222
dent	-11.1227
▁obtaining	-11.1232
▁gaits	-11.1232
▁tendons	-11.1233
▁establishing	-11.1236
light	-11.1237
exposed	-11.1237
▁portions	-11.124
▁Southeast	-11.1247
▁fits	-11.1249
SE	-11.1252
▁MS	-11.1253
ory	-11.1257
▁met	-11.1261
▁intervention	-11.1264
▁argument	-11.1264
73	-11.1267
▁big	-11.1268
▁clearance	-11.1271
IR	-11.1272
▁epidermal	-11.1272
▁reading	-11.1279
▁Martin	-11.128
▁optimize	-11.1281
▁thread	-11.1287
▁Ex	-11.1288
bin	-11.1291
▁Effect	-11.1291
▁abdomen	-11.1292
▁people	-11.1292
▁1999),	-11.1292
▁[38]	-11.1298
ney	-11.1298
▁walls	-11.1299
▁cloned	-11.1299
▁compromise	-11.13
ice	-11.1307
▁gamma	-11.1312
▁brought	-11.1315
68	-11.1325
▁essentiality	-11.1328
ull	-11.1329
▁sediment	-11.1332
dh	-11.1333
ds	-11.1333
▁[29],	-11.1335
▁residual	-11.1335
▁desirable	-11.1338
▁immunological	-11.1338
▁assimilation	-11.134
78	-11.1342
▁pharyngeal	-11.1345
▁[23],	-11.1346
▁intermediates	-11.1346
▁mediates	-11.1353
→	-11.1354
subunit	-11.1354
▁organelles	-11.1354
generation	-11.1354
▁instability	-11.1355
▁marsupial	-11.1359
▁composite	-11.1361
▁dehydration	-11.1361
▁diabetes	-11.1361
▁intensities	-11.1361
vr	-11.1362
itz	-11.1377
▁translated	-11.1377
▁sugars	-11.1379
85	-11.138
▁30%	-11.1382
An	-11.1383
▁6)	-11.1385
matic	-11.1386
▁react	-11.1388
1].	-11.1391
▁Pe	-11.1397
▁bifurcation	-11.1404
GR	-11.1405
▁cord	-11.1408
▁knock	-11.1411
▁nonsynonymous	-11.1419
omys	-11.1422
▁partition	-11.1423
▁defenses	-11.1423
▁junction	-11.1424
▁therein	-11.1424
▁mole	-11.1425
▁HT	-11.1425
▁photoperiod	-11.1429
▁cricket	-11.143
▁discrepancies	-11.1432
▁Biology	-11.1432
▁haploid	-11.1433
▁junctions	-11.1436
▁avoiding	-11.1437
▁ORF	-11.144
▁bears	-11.1443
▁sexta	-11.1446
that	-11.1449
tid	-11.1449
▁Non	-11.1454
▁senescence	-11.1455
▁reductase	-11.1459
▁tuned	-11.1466
node	-11.1468
▁assist	-11.1476
epae	-11.1478
▁effectors	-11.1479
▁compression	-11.148
pec	-11.1482
▁diverging	-11.1484
▁En	-11.1484
1–	-11.1485
rab	-11.1486
mid	-11.149
▁(<	-11.149
IV	-11.1492
▁19,	-11.1494
▁wasp	-11.1498
omorph	-11.1501
▁radius	-11.1502
▁stabilization	-11.1503
▁multivariate	-11.1503
▁subgenus	-11.1503
▁lysine	-11.1503
▁flights	-11.1503
▁protists	-11.1503
qGq	-11.1504
▁ABC	-11.1509
▁manually	-11.151
bit	-11.1511
iz	-11.1513
▁33].	-11.1517
▁cat	-11.1518
▁Cor	-11.1523
▁tetrapod	-11.1523
▁Par	-11.1524
cre	-11.1526
▁consecutive	-11.1526
Gaai	-11.1527
sk	-11.1533
▁traces	-11.1535
▁draw	-11.1535
▁(∼	-11.1537
IC	-11.1541
▁coordinate	-11.1541
▁ectotherms	-11.1542
black	-11.1544
eck	-11.1548
▁Comparative	-11.155
▁polarity	-11.1551
▁tethered	-11.1554
lli	-11.1554
▁bursts	-11.1561
aabeqaa	-11.1563
ven	-11.1564
▁averaged	-11.1565
▁EM	-11.1568
▁beam	-11.1574
▁domesticated	-11.1575
mal	-11.158
values	-11.1581
▁thermodynamic	-11.1584
▁21,	-11.1586
▁mites	-11.1587
IL	-11.159
▁began	-11.159
▁Monte	-11.159
43	-11.1592
expressing	-11.1593
thy	-11.1594
▁cytosol	-11.1595
adbaqaaeGac	-11.1597
▁pregnancy	-11.1598
▁embedded	-11.1598
fsY	-11.1598
xNi	-11.16
▁keeping	-11.16
mRNA	-11.1602
▁spanning	-11.1603
▁starts	-11.1606
▁scaffold	-11.1609
dXdb	-11.1609
▁acted	-11.1609
char	-11.1611
▁concerns	-11.1611
▁blocked	-11.1616
▁Gal	-11.1619
▁[28],	-11.1619
▁administration	-11.1621
▁vortices	-11.1621
▁paracellular	-11.1622
▁descriptions	-11.1622
▁[22],	-11.1624
▁approaching	-11.1625
▁continues	-11.163
▁Previously	-11.1632
ink	-11.1637
▁murine	-11.1646
rk	-11.1649
5-	-11.1655
lk	-11.1655
▁displaying	-11.1658
▁switches	-11.1659
app	-11.166
oper	-11.1661
adi	-11.1662
▁Myr	-11.1664
▁employing	-11.1667
▁star	-11.1667
▁litter	-11.1668
▁noisy	-11.167
▁seemingly	-11.167
▁improves	-11.167
▁Multiple	-11.167
▁package	-11.167
▁putatively	-11.1671
▁dated	-11.1677
▁18,	-11.168
ivity	-11.1686
▁clicks	-11.1688
▁elementary	-11.1696
▁liquid	-11.1697
▁meso	-11.17
▁shortest	-11.1703
▁EGF	-11.1706
▁CpG	-11.1707
AB	-11.1707
▁Cha	-11.1711
▁[24],	-11.1711
96	-11.1713
▁steep	-11.1714
▁machine	-11.1715
▁constrain	-11.1716
▁threat	-11.1716
▁dimension	-11.1718
08	-11.1718
▁[40,	-11.1718
▁serum	-11.1719
▁reversal	-11.1719
▁connect	-11.172
▁allometry	-11.1725
▁Qu	-11.173
▁lo	-11.1731
▁arrows	-11.1738
din	-11.1738
▁plasmid	-11.1741
▁libraries	-11.1742
▁subdivision	-11.1742
▁gastric	-11.1742
▁facultative	-11.1744
IM	-11.1745
▁subfunctionaliz	-11.1746
▁IP	-11.1751
▁motions	-11.1757
▁eliminate	-11.1758
ID	-11.1764
ah	-11.1764
▁NHE	-11.1766
▁pseudogene	-11.1766
▁subterranean	-11.1766
▁permit	-11.1767
gna	-11.1768
▁1998),	-11.177
▁pectoralis	-11.177
stage	-11.1775
NR	-11.1777
▁locate	-11.1784
▁synergistic	-11.1789
▁Figures	-11.1789
▁Systems	-11.179
this	-11.1792
▁cortical	-11.1793
▁molt	-11.1793
▁cascades	-11.1798
▁1981).	-11.1798
▁pathological	-11.1798
▁acidic	-11.18
▁pads	-11.1801
ami	-11.1803
▁centrality	-11.1805
▁shares	-11.1805
▁injected	-11.181
▁termination	-11.1815
▁rings	-11.1816
▁performs	-11.1824
▁vertebral	-11.1827
analysis	-11.1833
▁[39]	-11.1837
▁vesicle	-11.1839
▁coherent	-11.1839
▁latitudinal	-11.1839
▁transverse	-11.1839
tree	-11.1841
TE	-11.1844
▁forelimbs	-11.1845
▁soluble	-11.1854
▁mimic	-11.186
▁ciliary	-11.1865
▁automatically	-11.1865
▁[71]	-11.1866
only	-11.1869
▁pore	-11.187
▁3:	-11.187
▁Long	-11.1876
gl	-11.1877
▁Fe	-11.1877
▁import	-11.188
▁40%	-11.1881
▁/	-11.1881
▁Da	-11.1883
▁disturbance	-11.1888
▁catabolism	-11.1888
▁gastrocnemius	-11.1889
▁recruited	-11.1892
▁Hymenoptera	-11.1893
▁DM	-11.1899
▁subordinate	-11.1899
▁properly	-11.19
▁challenged	-11.1902
▁render	-11.1902
▁Mac	-11.1902
▁conformation	-11.1905
▁anal	-11.1906
ular	-11.1907
▁pleiotropic	-11.1913
▁heritable	-11.1916
▁Sh	-11.1917
▁confounding	-11.1918
▁monkeys	-11.1923
▁PM	-11.1924
▁slopes	-11.1925
▁breeds	-11.1927
▁methyl	-11.1928
▁finite	-11.1929
▁par	-11.193
▁favoured	-11.193
point	-11.193
ations	-11.1932
▁possessing	-11.1933
▁decade	-11.1938
94	-11.1939
▁54	-11.1944
▁52]	-11.1944
▁isometric	-11.1946
▁Pax	-11.1947
▁purely	-11.1949
▁HA	-11.1953
elli	-11.1953
▁spiral	-11.1953
▁architectures	-11.1953
▁collapse	-11.1956
rp	-11.1959
▁foreign	-11.1963
▁20,	-11.1967
59	-11.1973
qua	-11.1976
random	-11.1981
▁nestlings	-11.1987
▁ganglia	-11.1987
▁tick	-11.1988
▁retractor	-11.199
pel	-11.199
63	-11.1991
▁mind	-11.1993
▁55	-11.1998
▁falls	-11.2008
▁creates	-11.2009
▁spacing	-11.2012
▁symbiosis	-11.2013
▁innovation	-11.2013
ola	-11.2013
▁crosstalk	-11.2013
▁Next	-11.2014
▁inbred	-11.2015
▁PPAR	-11.2015
▁incorrect	-11.2016
▁seemed	-11.2022
▁dashed	-11.2022
▁manipulated	-11.2023
▁elephants	-11.2029
activation	-11.203
▁separating	-11.2037
69	-11.204
▁AMPK	-11.204
07	-11.2042
Mb	-11.2043
▁GI	-11.2045
▁delays	-11.2045
▁coincides	-11.2048
▁suppressor	-11.205
▁lifetime	-11.2052
▁digit	-11.2055
|	-11.2056
ranging	-11.2056
▁Current	-11.2056
▁Brown	-11.2059
enberg	-11.206
▁Nox	-11.2061
oids	-11.2062
▁mucus	-11.2062
▁correspondence	-11.2063
sectional	-11.2064
▁occasionally	-11.2066
▁colonisation	-11.2067
<	-11.2068
▁HIF	-11.2073
ode	-11.2076
▁[27],	-11.2079
int	-11.208
▁PL	-11.208
dwelling	-11.2081
He	-11.2081
istic	-11.2085
▁preservation	-11.2087
vin	-11.2089
▁[42,	-11.2089
▁fitted	-11.2089
▁Generally	-11.2089
optera	-11.2104
▁arena	-11.2111
▁intensive	-11.2112
▁blubber	-11.2112
▁buccal	-11.2112
▁selectivity	-11.2113
▁Eocene	-11.2115
▁gliding	-11.2115
▁tips	-11.2118
▁120	-11.2119
▁week	-11.212
cher	-11.2121
55	-11.2121
pair	-11.2123
back	-11.2125
▁65	-11.2125
NS	-11.2128
▁Gram	-11.2134
Lee	-11.2135
▁lowland	-11.2136
=2	-11.2137
▁medaka	-11.2138
▁graphical	-11.2139
▁glutathione	-11.214
▁think	-11.2143
▁la	-11.2148
▁came	-11.2158
▁Pan	-11.2162
▁genital	-11.2162
5–	-11.2162
▁Increased	-11.2163
▁homoplasy	-11.2164
▁honeybee	-11.2164
▁Gly	-11.2169
▁lobe	-11.2171
▁probes	-11.2172
′	-11.2172
▁branchial	-11.2173
▁feeder	-11.2174
▁stimulates	-11.2177
AS	-11.2178
omic	-11.218
▁tolerate	-11.2182
nuclear	-11.2182
▁Ge	-11.2183
▁hindlimbs	-11.2183
▁letters	-11.2185
▁Anopheles	-11.2188
▁premature	-11.2188
▁Ig	-11.219
▁reflectance	-11.219
▁elongated	-11.2194
▁TEs	-11.2205
▁US	-11.2205
lus	-11.2206
▁laterally	-11.2207
▁neighbors	-11.221
▁SH	-11.2211
▁normoxia	-11.2214
▁bulk	-11.2214
▁cattle	-11.2214
▁listed	-11.2214
▁NADPH	-11.2214
▁swarm	-11.2216
▁prostate	-11.2217
▁accomplished	-11.2218
▁Gl	-11.222
0.5	-11.2222
▁eukaryote	-11.2222
ll	-11.2224
uck	-11.2232
wavelength	-11.2233
▁reversed	-11.2235
hy	-11.2237
180	-11.2237
▁experiencing	-11.2239
▁transposition	-11.2239
odes	-11.2246
▁friction	-11.2247
2+-	-11.225
▁[44]	-11.2258
CG	-11.2259
ota	-11.2261
▁attributable	-11.2264
▁embryogenesis	-11.2265
▁stay	-11.2265
▁DS	-11.2267
▁hovering	-11.2268
▁plates	-11.2272
▁symmetrical	-11.2272
▁jaws	-11.2278
▁Be	-11.2282
▁adjusted	-11.2283
Smith	-11.2284
δ	-11.2284
pen	-11.2286
▁temporally	-11.2289
▁unaffected	-11.229
▁Amazon	-11.2295
▁warmer	-11.2297
▁disrupted	-11.23
quality	-11.2305
form	-11.2306
▁looking	-11.2309
▁sudden	-11.231
▁transported	-11.2311
ery	-11.2312
tho	-11.2314
▁pipeline	-11.2316
▁sensilla	-11.2316
▁opposing	-11.2316
▁Ku	-11.2319
▁landmark	-11.232
▁men	-11.2325
mating	-11.2334
▁Mexico	-11.2341
▁compliance	-11.2341
▁arterial	-11.2341
▁contamination	-11.2342
▁identifiability	-11.2345
▁deformation	-11.2346
gui	-11.2349
bel	-11.2351
▁vertically	-11.2351
TC	-11.2354
▁Cd	-11.2354
▁ro	-11.2358
▁hits	-11.2359
▁(6	-11.2361
▁fresh	-11.2361
rea	-11.2362
ulation	-11.2366
comp	-11.2366
▁maturity	-11.2367
▁symmetry	-11.2367
▁Significant	-11.2369
▁nesting	-11.2369
▁kernel	-11.237
▁standing	-11.2371
ara	-11.2372
▁ChIP	-11.2372
Ga	-11.2378
▁eu	-11.239
▁Symbiodinium	-11.2394
▁cockroaches	-11.2396
▁Tc	-11.2396
▁35].	-11.2397
ona	-11.2402
pos	-11.2406
▁hy	-11.2408
▁pine	-11.2413
▁Miller	-11.2414
network	-11.2416
bearing	-11.2416
▁ad	-11.2417
▁proxy	-11.2419
▁[43,	-11.242
▁SMR	-11.2422
▁karyotype	-11.2423
▁orthology	-11.2425
▁venous	-11.2426
▁5),	-11.2426
vis	-11.2427
mass	-11.2432
rn	-11.2434
itt	-11.2435
▁CRF	-11.2435
▁maintains	-11.2439
▁Eurasia	-11.244
▁Jones	-11.2441
▁positioning	-11.2446
cle	-11.2448
▁Har	-11.245
▁mixing	-11.2454
▁read	-11.2457
86	-11.2458
▁[37]	-11.2461
king	-11.2461
▁repressor	-11.2462
▁roots	-11.2464
▁[26],	-11.2465
MD	-11.2465
▁race	-11.2469
▁[58].	-11.247
▁detoxification	-11.2471
▁pocket	-11.2471
▁fermentation	-11.2472
▁symmetric	-11.2473
▁perturbed	-11.2475
▁Reynolds	-11.2476
▁inserted	-11.2476
▁curated	-11.2477
▁border	-11.2477
▁globally	-11.2479
nd	-11.2481
tric	-11.2483
lon	-11.2484
▁replicates	-11.2487
▁splits	-11.2487
▁inertial	-11.2488
02	-11.2491
ogen	-11.2491
▁clutch	-11.2496
▁EO	-11.2498
NA	-11.2499
▁cyclin	-11.2499
▁CEACAM	-11.2499
▁methodological	-11.2502
port	-11.2504
bil	-11.2505
ze	-11.2508
TG	-11.2508
▁undergoing	-11.251
▁1996),	-11.251
NF	-11.2524
CI	-11.2526
▁vitamin	-11.2526
▁damaged	-11.2529
use	-11.2532
FL	-11.2537
▁drives	-11.2541
▁lemurs	-11.2542
▁concomitant	-11.2544
▁obviously	-11.2544
03	-11.2544
▁Indo	-11.2548
Ra	-11.2548
PE	-11.2548
▁mellifera	-11.2549
▁viscous	-11.2549
▁ovaries	-11.2549
06	-11.2551
▁plasmids	-11.2551
▁breaks	-11.2554
▁glycine	-11.2555
ocyte	-11.2556
uri	-11.2558
SI	-11.2558
▁specified	-11.256
rv	-11.2562
▁underwater	-11.2562
▁improvements	-11.2563
Ar	-11.2563
▁exploited	-11.2563
centric	-11.2564
▁converge	-11.2569
▁webs	-11.2569
uff	-11.257
col	-11.2571
▁finch	-11.2578
▁autumn	-11.2578
▁pulmonary	-11.2579
two	-11.2579
▁Man	-11.258
▁hyoid	-11.258
▁neofunctionaliz	-11.2581
▁proteomes	-11.2581
▁Dickinson	-11.2585
▁lungs	-11.2594
▁round	-11.2594
77	-11.2595
▁thorough	-11.2596
▁antenna	-11.2597
▁cytoskeleton	-11.2602
▁diffuse	-11.2602
▁dsRNA	-11.2608
▁2013;	-11.2609
▁correction	-11.2611
ction	-11.2612
peptide	-11.2614
rm	-11.2615
▁digital	-11.2621
▁uni	-11.2621
▁fur	-11.2628
▁generalist	-11.2628
▁Contrary	-11.2629
emia	-11.2629
▁possessed	-11.2629
▁crack	-11.2629
▁Ci	-11.263
▁[30],	-11.263
▁proteasome	-11.2633
▁melanin	-11.2635
▁[73]	-11.2635
▁buffer	-11.2636
▁polyploid	-11.2639
▁begins	-11.264
▁tetra	-11.264
▁thorax	-11.264
▁colors	-11.2641
▁See	-11.2646
evolving	-11.2648
ala	-11.2649
▁refers	-11.2652
rac	-11.2653
▁demonstration	-11.2655
ath	-11.2655
▁paternity	-11.2655
▁covariance	-11.2656
▁fire	-11.2657
▁tetraploid	-11.2663
▁56]	-11.2668
▁75	-11.2668
▁operons	-11.267
62	-11.2671
▁uniquely	-11.2672
▁surveys	-11.2672
dd	-11.2674
▁severely	-11.2677
gan	-11.2679
ries	-11.2679
▁addressing	-11.2682
▁archipelago	-11.2682
▁easier	-11.2682
SO	-11.2682
▁RP	-11.2683
▁simpler	-11.2685
▁items	-11.2689
▁PG	-11.269
fly	-11.269
▁colouration	-11.2694
▁CL	-11.2697
leg	-11.2698
micro	-11.2701
▁Eqn	-11.2702
▁encounters	-11.2703
ning	-11.2706
▁Os	-11.2708
▁flagellum	-11.2708
▁chemotaxis	-11.2709
▁carbohydrates	-11.2709
aka	-11.2709
urus	-11.2712
RA	-11.2714
▁sweep	-11.2714
run	-11.2714
▁simplest	-11.2715
▁adjustment	-11.2718
▁odours	-11.2724
▁400	-11.2725
5).	-11.2728
▁enhancer	-11.2729
▁genotypic	-11.2735
▁FL	-11.2737
▁diversifying	-11.2741
du	-11.2741
tail	-11.2744
nate	-11.2745
▁[32],	-11.2746
▁schemes	-11.2748
SF	-11.2748
ifera	-11.2748
79	-11.2753
tre	-11.2757
▁click	-11.2758
▁ingestion	-11.2763
▁besides	-11.2763
▁acidification	-11.2765
▁imprinting	-11.2765
▁Oligocene	-11.2766
rot	-11.2767
RD	-11.2768
▁mandible	-11.2768
breeding	-11.2769
▁orange	-11.277
talk	-11.277
▁alarm	-11.2772
▁regularly	-11.2774
▁Marshall	-11.2778
although	-11.2786
▁fleas	-11.2786
▁193	-11.2788
etz	-11.2788
▁innervation	-11.2789
▁cpDNA	-11.2789
-3-	-11.2791
▁format	-11.2794
▁copulation	-11.2795
ophora	-11.2796
▁19]	-11.2796
gr	-11.2798
▁Am	-11.2799
ute	-11.2799
eh	-11.2804
LC	-11.2808
left	-11.2811
▁CDK	-11.2812
death	-11.2813
▁Fish	-11.2815
amino	-11.2815
▁54]	-11.2815
▁lepidopteran	-11.2816
▁upstroke	-11.2817
▁downregulated	-11.2822
▁manipulations	-11.2825
▁GenBank	-11.2832
key	-11.2832
oll	-11.2832
▁fragmented	-11.2833
▁proteomics	-11.2834
▁anion	-11.2834
pper	-11.2836
▁focuses	-11.2839
▁51	-11.2842
▁Numerous	-11.2843
▁femur	-11.2843
▁vicinity	-11.2843
▁anoxic	-11.2843
▁hemisphere	-11.2843
▁ordinary	-11.2843
▁antimicrobial	-11.2843
▁trotting	-11.2843
actin	-11.2846
▁partitions	-11.2847
▁squirrels	-11.2847
▁Four	-11.2848
▁spacer	-11.285
▁extracts	-11.2852
▁39	-11.2852
▁agrees	-11.2852
▁heterospecific	-11.2854
▁exceeds	-11.2854
▁determinants	-11.2857
▁conform	-11.286
▁linearly	-11.2861
▁contents	-11.2861
▁31	-11.2862
life	-11.2864
some	-11.2868
je	-11.2869
▁squares	-11.2872
▁filled	-11.2879
]).	-11.2882
▁evoked	-11.2884
▁Ac	-11.2886
▁SD	-11.2887
▁190	-11.2888
\	-11.2894
▁TS	-11.2897
▁hydrolysis	-11.2897
borne	-11.2898
▁highlighting	-11.2902
▁chick	-11.2903
▁considerations	-11.2903
▁hermaphrodites	-11.2904
▁constructing	-11.2905
▁Eurasian	-11.2905
▁phages	-11.2909
▁lions	-11.2909
▁frames	-11.2911
ua	-11.2912
DM	-11.2913
▁rock	-11.2916
ual	-11.2916
BC	-11.2919
72	-11.292
filled	-11.292
BR	-11.2923
ges	-11.2924
▁biomedical	-11.2924
▁budding	-11.2924
Al	-11.2928
Mar	-11.2929
▁180	-11.2929
▁quantifying	-11.293
▁ecosystem	-11.2932
Ka	-11.2933
▁44	-11.2935
▁Müller	-11.2935
▁23,	-11.2938
▁jumps	-11.2939
▁shunt	-11.294
tum	-11.2941
▁modelled	-11.2942
rb	-11.2947
▁amplitudes	-11.2955
methyl	-11.2955
▁trn	-11.2957
▁carrier	-11.2959
▁Cre	-11.2962
300	-11.2966
▁FM	-11.2973
iana	-11.2974
▁leak	-11.2979
▁raising	-11.2979
▁Variation	-11.2979
▁repeatability	-11.298
▁endurance	-11.2982
▁ingested	-11.2982
▁progressively	-11.2987
▁op	-11.2988
Seq	-11.2992
▁Ve	-11.2998
▁[75]	-11.3007
▁scent	-11.3007
▁breakdown	-11.3007
▁vertebrae	-11.3009
▁crop	-11.3009
▁fructose	-11.3011
▁NC	-11.3011
▁≥	-11.3011
▁renal	-11.3015
▁torque	-11.3015
▁segmentation	-11.3017
band	-11.302
▁labeling	-11.3021
▁interpretations	-11.3022
▁ka	-11.3025
▁stated	-11.3026
▁episodes	-11.3029
▁Lymnaea	-11.3034
▁viscosity	-11.3034
▁[36],	-11.3036
▁0.05	-11.3036
position	-11.3037
dus	-11.3039
▁dependency	-11.3041
▁motivation	-11.3043
uro	-11.3043
▁42	-11.3045
Ko	-11.3052
▁resultant	-11.3056
▁permanent	-11.3056
▁preferential	-11.3057
ff	-11.306
▁relating	-11.3062
▁organisation	-11.3063
▁man	-11.3063
ions	-11.3064
▁1970;	-11.3066
▁mon	-11.3067
▁30°	-11.307
▁RF	-11.3075
▁horse	-11.3075
▁pollinator	-11.3075
▁crystal	-11.3075
▁Examples	-11.3077
▁presentation	-11.3078
hel	-11.3078
▁instantaneous	-11.3079
▁25%	-11.3087
▁Bacteria	-11.3087
rio	-11.3088
▁Malpighian	-11.3089
▁captivity	-11.3089
▁illumination	-11.3093
▁[10	-11.3093
▁identifiable	-11.3094
ploid	-11.3095
hybrid	-11.3096
▁ensemble	-11.3098
lateral	-11.3101
▁AB	-11.3103
▁1997),	-11.3104
▁unravel	-11.3106
significant	-11.3108
▁synthesize	-11.311
▁55]	-11.3114
Ta	-11.3115
▁Black	-11.3116
▁resonance	-11.3117
▁unequal	-11.3117
=3	-11.3118
▁claw	-11.312
▁margin	-11.312
▁53]	-11.3123
89	-11.3126
▁amphibian	-11.3126
▁morphometric	-11.3126
▁organelle	-11.3127
▁visually	-11.3128
aster	-11.3128
ema	-11.3132
itis	-11.3133
▁foundation	-11.3134
BL	-11.3135
▁inspection	-11.3138
▁stick	-11.3144
▁hummingbirds	-11.3146
▁rough	-11.3146
▁reconstructing	-11.3147
▁PA	-11.3148
▁paleo	-11.3148
aver	-11.315
▁vibration	-11.3151
▁Golgi	-11.3151
▁22,	-11.3151
▁Is	-11.3152
▁treat	-11.3152
▁Somero	-11.3154
CE	-11.3159
▁finger	-11.3159
▁spinal	-11.316
▁salamanders	-11.316
▁lowered	-11.3164
▁ii	-11.3166
▁therapies	-11.3173
▁epistatic	-11.3173
▁[44,	-11.3174
wood	-11.3177
▁counteract	-11.3178
ori	-11.3178
▁trailing	-11.318
▁responds	-11.3188
▁lobsters	-11.319
vol	-11.3194
▁(20	-11.3194
going	-11.3195
FT	-11.3195
▁CB	-11.3196
▁backgrounds	-11.3197
pol	-11.3198
▁aversive	-11.3201
▁Lastly	-11.3205
▁His	-11.3206
▁degraded	-11.3206
▁SP	-11.3206
93	-11.3209
ight	-11.3211
▁ρ	-11.3214
LE	-11.3215
br	-11.3216
▁ESTs	-11.3218
▁AA	-11.3223
▁definitive	-11.3223
mod	-11.3225
Wilson	-11.3226
▁1973)	-11.3229
▁arbitrary	-11.3229
▁epistasis	-11.3229
▁laevis	-11.3229
▁huge	-11.3229
▁helpful	-11.3231
▁Lin	-11.3233
▁protrusion	-11.3239
▁disrupt	-11.3246
▁IFN	-11.3246
▁53	-11.3248
▁concert	-11.3249
ified	-11.3254
▁scaled	-11.3254
Wood	-11.3256
des	-11.3256
hold	-11.3256
▁medicine	-11.3257
▁subtilis	-11.3257
▁firing	-11.3257
phox	-11.3258
IF	-11.3258
▁enlarged	-11.3259
▁recognised	-11.326
ology	-11.3261
▁carefully	-11.3263
▁laying	-11.3263
▁intestinalis	-11.3264
▁Large	-11.3264
both	-11.3266
▁silent	-11.3266
▁monitoring	-11.3268
▁70%	-11.3275
▁predatory	-11.3277
▁impair	-11.3277
▁Fu	-11.3279
41	-11.3281
▁Up	-11.3282
▁interpreting	-11.3284
▁phylogeography	-11.3285
▁ablation	-11.3286
▁attractiveness	-11.3287
▁push	-11.3291
▁relates	-11.3293
▁solved	-11.3296
▁lobster	-11.3296
▁Again	-11.3301
types	-11.3301
▁56	-11.3303
NC	-11.3307
amide	-11.3307
▁acyl	-11.3309
▁returned	-11.3309
inflammatory	-11.3311
▁distinguishing	-11.3312
▁mesenchymal	-11.3318
opsis	-11.3321
aud	-11.3327
▁Zn	-11.3328
▁counts	-11.333
ND	-11.333
polar	-11.3331
▁replace	-11.3337
gar	-11.3344
▁excessive	-11.3344
▁inverted	-11.3345
▁sa	-11.3346
▁Subsequently	-11.3347
▁antigenic	-11.3347
Sa	-11.3351
▁φ	-11.3353
▁inducible	-11.3357
2–	-11.3358
▁try	-11.336
▁[45]	-11.3361
▁protocols	-11.3361
▁horses	-11.3362
▁pollinators	-11.3362
PPI	-11.3364
▁survived	-11.3365
▁dealing	-11.3365
▁dimer	-11.3368
gy	-11.3371
▁1967;	-11.3371
▁mechanosensory	-11.3371
▁hypertrophy	-11.3371
▁views	-11.3377
▁panels	-11.3379
neurotransmitter	-11.338
▁nutrition	-11.3381
▁192	-11.3382
▁impulse	-11.3382
▁STAT	-11.3387
spi	-11.3388
▁apoptotic	-11.3391
▁breath	-11.3393
temporal	-11.3397
phosphorylation	-11.3397
▁blocking	-11.34
▁coat	-11.3401
rmoregulatory	-11.3406
▁DC	-11.3406
▁57	-11.341
GE	-11.3411
▁completed	-11.3411
▁attract	-11.3412
TT	-11.3415
▁che	-11.3419
ui	-11.3419
▁compensated	-11.342
▁Guinea	-11.3422
▁careful	-11.3423
▁hope	-11.3424
▁melan	-11.3424
4–	-11.3427
▁burden	-11.3428
▁musculus	-11.3428
▁methodologies	-11.3428
▁Neuro	-11.3429
▁favorable	-11.3431
▁GRF	-11.3432
▁Cry	-11.3433
▁pest	-11.3433
1.1	-11.3434
▁excluding	-11.3436
ants	-11.3437
▁antagonist	-11.3437
ela	-11.3438
▁rod	-11.3444
▁continent	-11.3445
▁CF	-11.3446
mers	-11.3447
proteobacteria	-11.3451
▁CT	-11.3452
▁angiogenesis	-11.3457
▁[1–4]	-11.3457
▁Lys	-11.3458
▁hybridisation	-11.3459
▁neighbouring	-11.346
▁deposited	-11.346
▁pup	-11.3461
▁consume	-11.3465
▁vein	-11.3469
RF	-11.3469
▁parasitoids	-11.3475
▁hepatocytes	-11.3477
▁molar	-11.3477
ford	-11.3478
genesis	-11.3478
EM	-11.348
▁catfish	-11.3482
▁downstroke	-11.3486
▁shelter	-11.3487
▁[74]	-11.3488
▁pig	-11.3489
▁Tr	-11.3495
mt	-11.3496
▁mirror	-11.3498
▁Materials	-11.3498
▁agricultural	-11.3498
▁oocyte	-11.3498
▁proline	-11.3501
0=	-11.3504
▁[2	-11.3506
▁setup	-11.3511
Hb	-11.3513
▁count	-11.3514
▁proboscis	-11.3514
▁surviving	-11.3514
87	-11.3516
pathogen	-11.3517
▁scattered	-11.3517
▁pass	-11.3518
med	-11.3519
▁57]	-11.3519
▁Nme	-11.3519
▁[58]	-11.352
bert	-11.3527
PG	-11.3529
▁alters	-11.353
fo	-11.3533
lac	-11.3537
▁eco	-11.354
▁tra	-11.3542
▁buoyancy	-11.3543
▁vegetative	-11.3543
▁productivity	-11.3544
iso	-11.3544
ense	-11.3548
▁style	-11.355
▁mini	-11.355
inter	-11.3559
▁CAT	-11.3561
core	-11.3563
▁Mountains	-11.3566
▁Arg	-11.3571
▁dissipation	-11.3572
▁introducing	-11.3572
▁contralateral	-11.3572
▁dimorphic	-11.3573
▁prerequisite	-11.3573
Po	-11.3575
▁retrieved	-11.3575
▁ranged	-11.3576
▁conduct	-11.358
▁reflection	-11.3585
▁extensor	-11.3585
▁plastids	-11.3587
ET	-11.3589
ification	-11.3589
▁kingdom	-11.3593
existing	-11.3599
▁fracture	-11.3602
▁Neotropical	-11.3602
ng	-11.3602
▁[46,	-11.3602
▁syn	-11.3602
▁breed	-11.3603
▁bony	-11.3603
▁[4–6]	-11.3604
▁happened	-11.3609
▁conflicts	-11.3611
▁exceptional	-11.3613
Burrows	-11.3629
resistant	-11.3629
http	-11.3629
cos	-11.363
▁irradiance	-11.3631
▁simplicity	-11.3631
▁fission	-11.3633
▁chemo	-11.3635
▁PCO	-11.3636
rad	-11.3638
▁served	-11.3639
▁RMR	-11.3641
ith	-11.3641
▁monitor	-11.3644
▁hundred	-11.3645
▁square	-11.3647
▁setae	-11.3648
ical	-11.3649
▁moderately	-11.3651
▁SI	-11.3652
▁pyr	-11.3652
▁proteases	-11.3657
▁Caribbean	-11.366
▁analysing	-11.366
▁bimodal	-11.366
As	-11.3666
▁translate	-11.3668
▁25,	-11.3669
▁ticks	-11.3669
▁oscillator	-11.3671
Sh	-11.3674
▁cnidarian	-11.3676
▁Dis	-11.3677
▁≤	-11.3677
▁Basin	-11.3681
▁elusive	-11.369
▁immature	-11.369
▁chemosensory	-11.369
▁MO	-11.3691
gel	-11.3691
▁emphasis	-11.3691
▁dissociation	-11.3691
DH	-11.3692
▁directionality	-11.3694
icular	-11.3696
▁[45,	-11.3697
▁CV	-11.3699
af	-11.3701
ians	-11.3702
▁HEA	-11.3703
▁salmonids	-11.3704
▁max	-11.3706
via	-11.3707
▁compositional	-11.371
▁crops	-11.3711
▁roll	-11.3711
▁Meta	-11.3711
▁ES	-11.3713
▁synchronous	-11.3714
▁supposed	-11.3716
▁quasi	-11.3719
▁aforementioned	-11.3719
▁benchmark	-11.3719
▁neuromuscular	-11.3719
▁mitosis	-11.3719
▁stringent	-11.3719
BD	-11.372
▁[76]	-11.3721
▁multilocus	-11.3722
▁diminished	-11.3723
▁Si	-11.3723
virus	-11.3725
▁depicted	-11.3727
▁indicators	-11.3728
▁radical	-11.3732
▁autosomes	-11.3734
Rh	-11.3735
▁versions	-11.3737
▁relying	-11.3737
▁tentacles	-11.374
▁colon	-11.3741
▁technical	-11.3743
▁exhaustive	-11.3743
▁papers	-11.3748
▁camouflage	-11.3749
▁drought	-11.3749
▁endosymbiotic	-11.3749
−2	-11.3749
▁mixtures	-11.375
ago	-11.375
▁deleted	-11.3752
birds	-11.3753
▁assortative	-11.3754
DD	-11.3754
▁charged	-11.3758
▁compromised	-11.3759
▁exceptionally	-11.3762
SH	-11.3763
▁multigene	-11.3767
▁fused	-11.3769
▁reinforce	-11.3771
▁APC	-11.3774
▁Pho	-11.3774
▁reflex	-11.3776
▁lobes	-11.3777
▁calculating	-11.3778
▁spectrometry	-11.3778
▁transposable	-11.3778
cor	-11.3779
▁58]	-11.3783
▁arrow	-11.3785
▁inertia	-11.3789
▁crypt	-11.379
fa	-11.3793
graph	-11.3794
▁Hol	-11.3795
US	-11.3798
▁screens	-11.3805
ω	-11.3807
▁polarized	-11.3809
▁permits	-11.381
▁turned	-11.3811
▁evolves	-11.3814
▁debated	-11.382
ably	-11.3821
▁cylinder	-11.3823
▁Males	-11.3824
▁biogeographical	-11.3824
▁transformed	-11.3827
▁spine	-11.383
fe	-11.3834
▁apo	-11.3837
▁curation	-11.384
chin	-11.3841
product	-11.3842
▁arc	-11.3843
▁searched	-11.3847
▁designated	-11.3847
▁[37],	-11.3853
▁60%	-11.3854
TR	-11.3855
▁250	-11.3855
▁28]	-11.3859
▁biogeography	-11.3868
▁reticulum	-11.3868
▁Database	-11.3868
▁NKCC	-11.3871
▁κ	-11.3874
SB	-11.3878
ists	-11.3879
2.5	-11.388
pers	-11.3881
elo	-11.3881
▁artifact	-11.3883
dia	-11.3886
▁ranking	-11.3891
▁sweeps	-11.3892
▁check	-11.3892
tendon	-11.3898
▁Jurassic	-11.3898
▁NECs	-11.3898
▁TRIM	-11.3898
DI	-11.39
▁asymmetrical	-11.3901
▁simplification	-11.3902
▁bHLH	-11.3904
▁Pla	-11.3905
▁PKA	-11.3912
▁Sequence	-11.3914
eff	-11.3914
ool	-11.3915
ast	-11.3915
▁classify	-11.3917
lip	-11.3918
present	-11.3921
▁commercial	-11.3922
▁serious	-11.3922
▁lay	-11.3923
▁drastic	-11.3926
▁[34],	-11.3927
▁vulnerable	-11.3928
▁polyphyletic	-11.3928
▁oceanic	-11.3931
ova	-11.3934
▁predictable	-11.3937
▁Smad	-11.3938
▁seasons	-11.3944
▁supertree	-11.3945
pul	-11.3945
DS	-11.3947
▁COX	-11.3948
▁touch	-11.3949
iaceae	-11.3949
▁manipulate	-11.3952
04	-11.3954
complex	-11.3957
▁potato	-11.3958
distinguishable	-11.3959
▁Bu	-11.396
▁migrating	-11.3962
▁GPCRs	-11.3964
▁exit	-11.3966
▁Bass	-11.3969
▁Johnston	-11.3971
▁corroborated	-11.3971
pla	-11.3971
▁hypothesised	-11.3975
3),	-11.398
ash	-11.3981
▁colours	-11.3982
▁ME	-11.3982
▁cockroach	-11.3985
MM	-11.3988
▁Pathway	-11.3989
▁countries	-11.3989
▁Evolutionary	-11.3989
encoding	-11.3997
▁59]	-11.4001
RI	-11.4003
▁afferents	-11.4004
ulin	-11.4007
met	-11.4008
▁arid	-11.4008
hen	-11.4013
▁phosphatase	-11.4016
▁arrival	-11.4019
▁concordant	-11.4019
▁spermatozoa	-11.4019
▁disturbances	-11.402
AA	-11.4021
▁rerio	-11.4021
▁deduced	-11.4024
lea	-11.4026
etti	-11.4028
▁mori	-11.4029
▁clues	-11.4031
▁objectives	-11.4033
HP	-11.4034
▁pairing	-11.4034
EL	-11.4036
▁consisted	-11.4037
▁speculated	-11.4037
▁[62]	-11.4041
odi	-11.4042
case	-11.4045
lot	-11.4048
▁succinate	-11.4049
▁salivary	-11.405
▁Taking	-11.405
▁filamentous	-11.4051
▁drastically	-11.4051
▁critically	-11.4054
▁heuristic	-11.4054
▁59	-11.4055
unt	-11.4058
▁update	-11.4061
▁sensors	-11.4064
oth	-11.4067
▁gametes	-11.4068
transferase	-11.4071
▁matings	-11.4075
▁mo	-11.4076
▁intronic	-11.4077
Pi	-11.4078
▁Metabolic	-11.408
▁periphery	-11.408
▁leptin	-11.408
▁Those	-11.4081
▁fidelity	-11.4082
▁[47,	-11.4082
51	-11.4084
▁rhodopsin	-11.4084
▁bugs	-11.4084
▁Figs	-11.4093
▁basins	-11.4094
iger	-11.4095
▁pumping	-11.4096
▁disadvantage	-11.4097
▁catch	-11.41
▁transit	-11.4107
optimal	-11.4108
ram	-11.4109
GG	-11.4109
▁expense	-11.4111
▁GP	-11.4111
worm	-11.4112
▁uninfected	-11.4112
jo	-11.4114
▁stems	-11.4114
OP	-11.4115
▁maternally	-11.4117
6).	-11.4117
▁Carlo	-11.4118
0.8	-11.4121
▁novelty	-11.4121
▁25°	-11.4122
▁[39],	-11.4124
▁43	-11.4125
▁transform	-11.4125
▁Kr	-11.4135
▁Anderson	-11.4137
glacial	-11.4138
prey	-11.4138
▁applicability	-11.4141
▁medical	-11.4141
▁pulex	-11.4141
▁5]	-11.4142
▁syntenic	-11.4142
▁theories	-11.4143
▁im	-11.4144
▁San	-11.4145
even	-11.4146
▁ruled	-11.4147
▁independence	-11.4147
▁garden	-11.4149
Lo	-11.415
aba	-11.4154
▁[12	-11.4157
anti	-11.4158
conserved	-11.4158
▁unusually	-11.416
▁plume	-11.4164
▁1.1	-11.4164
▁cur	-11.417
▁percent	-11.4172
▁territory	-11.4172
series	-11.4174
▁misleading	-11.4174
▁Her	-11.4175
▁reproducing	-11.4176
nell	-11.4178
▁58	-11.4178
▁arrangements	-11.418
Sp	-11.418
dic	-11.4181
rmoregulation	-11.4183
sin	-11.4188
▁pad	-11.4191
▁diagram	-11.4192
▁mild	-11.4194
▁disperse	-11.4196
▁ultimate	-11.4202
▁enormous	-11.4203
▁nitrite	-11.4203
▁simulans	-11.4203
adult	-11.4204
▁connective	-11.4204
cop	-11.4205
▁([	-11.4207
▁ur	-11.4208
omorpha	-11.4209
▁LTR	-11.4213
Pro	-11.4216
▁odors	-11.422
nu	-11.4224
10)	-11.4228
▁Ph	-11.4228
ada	-11.4231
coupled	-11.4231
▁conceivable	-11.4234
▁Values	-11.4234
▁IF	-11.4235
▁emitted	-11.4235
pass	-11.4235
{	-11.4242
▁engage	-11.4242
tens	-11.4246
▁plug	-11.4246
▁RBC	-11.4247
▁bond	-11.425
▁perceive	-11.4259
▁reside	-11.426
▁cultivation	-11.4265
LA	-11.4266
except	-11.4266
lam	-11.4268
▁chordates	-11.4268
ious	-11.4269
▁Arctic	-11.427
finned	-11.427
▁filters	-11.4274
▁Mu	-11.4278
▁buffering	-11.4279
▁yeasts	-11.4279
▁CES	-11.4286
▁coincide	-11.4286
▁ranked	-11.4288
▁AMP	-11.4292
▁doubt	-11.4297
▁continuum	-11.4297
▁pufferfish	-11.4297
▁disulfide	-11.4297
▁formalism	-11.4297
▁coincident	-11.4298
▁chi	-11.4298
ess	-11.4299
▁dynamically	-11.4301
▁[33],	-11.4301
▁stimulating	-11.4302
ding	-11.4305
▁resident	-11.4307
▁disorder	-11.4309
tine	-11.4313
▁persisted	-11.4313
▁Sand	-11.4315
▁raw	-11.4315
are	-11.432
76	-11.4323
sperm	-11.4323
▁Bay	-11.4325
▁vessels	-11.4327
▁minimizing	-11.4328
▁lengthening	-11.4328
▁loud	-11.4329
▁glass	-11.4329
▁coexistence	-11.4329
BM	-11.4332
▁discordance	-11.4332
▁granules	-11.4333
rist	-11.4337
▁defences	-11.434
rew	-11.4348
▁Fa	-11.4351
▁shifting	-11.4358
▁1969;	-11.436
▁crowding	-11.436
▁musculoskeletal	-11.436
▁simulating	-11.436
▁truly	-11.436
▁coalescence	-11.436
▁prompt	-11.436
sti	-11.436
▁Coast	-11.436
▁spreading	-11.4362
▁scanning	-11.4363
▁COG	-11.4363
▁conditioned	-11.4363
▁configurations	-11.4364
▁governed	-11.4367
▁let	-11.4369
▁governing	-11.4369
▁cavefish	-11.4374
▁mix	-11.4377
▁str	-11.4378
ttle	-11.4379
▁homologue	-11.438
▁telomere	-11.4382
-7	-11.4386
▁seminal	-11.4391
otic	-11.4392
▁ne	-11.4393
▁29,	-11.4395
▁hatchlings	-11.4397
▁adds	-11.44
▁1999	-11.4401
▁52	-11.4407
▁cnidarians	-11.4408
▁absorb	-11.4409
▁26,	-11.441
omi	-11.4415
▁Clark	-11.4417
▁adverse	-11.4417
ON	-11.442
▁bilaterian	-11.442
▁4:	-11.4422
▁trehalose	-11.4423
▁superoxide	-11.4423
▁atrophy	-11.4423
▁von	-11.4425
▁spiny	-11.4425
▁latent	-11.4427
eu	-11.4428
▁Still	-11.4428
▁folds	-11.4431
cluster	-11.4433
▁fertile	-11.4435
▁194	-11.4436
▁USA	-11.4436
▁goals	-11.4438
egg	-11.4442
▁deeply	-11.4443
▁vocalizations	-11.4447
▁rigorous	-11.4449
mis	-11.4451
▁PPP	-11.4451
kon	-11.4453
▁subpopulations	-11.4454
▁epidermis	-11.4454
▁entity	-11.4455
▁Gr	-11.4455
▁preceding	-11.4455
▁[77]	-11.4457
▁Male	-11.4457
▁descending	-11.4462
▁conformational	-11.4466
bodied	-11.4468
lay	-11.447
gger	-11.4473
▁corrected	-11.4478
▁MH	-11.4478
rine	-11.4479
▁drainage	-11.4479
ido	-11.4479
▁suggestive	-11.4481
▁restore	-11.4482
strain	-11.4483
▁irregular	-11.4486
aff	-11.4486
▁cumulative	-11.4486
1.5	-11.4486
▁pathogenicity	-11.4489
▁trachea	-11.4493
class	-11.4493
▁collectively	-11.4494
▁updated	-11.4494
▁ti	-11.4496
▁[31],	-11.45
▁preserve	-11.4501
▁vibrations	-11.4507
▁appendage	-11.4508
▁CE	-11.4509
▁locomotory	-11.4509
▁24]	-11.4509
▁Metazoa	-11.4518
▁reprogramming	-11.4519
Williams	-11.4519
essential	-11.4519
▁situated	-11.452
▁hemoglobin	-11.4521
oral	-11.4522
▁nM	-11.4523
▁rbcL	-11.4524
▁pole	-11.4526
▁[38],	-11.4528
uli	-11.4532
Hu	-11.4533
▁impose	-11.4534
▁estimations	-11.4535
▁gastropods	-11.4536
TH	-11.4541
▁assemblage	-11.4542
▁Er	-11.4543
▁representations	-11.4546
1.2	-11.455
▁dwarf	-11.455
▁plesiomorphic	-11.455
▁concordance	-11.455
▁breathing	-11.4551
growing	-11.4551
animal	-11.4552
▁tribes	-11.4552
intron	-11.4553
▁Time	-11.4556
▁sediments	-11.4557
▁perch	-11.4564
▁batch	-11.4564
3−	-11.4567
uma	-11.457
cro	-11.4571
where	-11.4572
4°	-11.4573
▁deuterostomes	-11.4573
▁marks	-11.4575
▁superficial	-11.4577
▁collective	-11.4577
▁27,	-11.4581
▁allosteric	-11.4582
▁implied	-11.4582
▁proposal	-11.4582
▁voluntary	-11.4583
▁uplift	-11.4583
▁pupae	-11.4583
strand	-11.4583
infected	-11.4584
established	-11.4585
▁formulated	-11.4586
▁Without	-11.4587
TI	-11.4588
▁spotted	-11.459
▁underestimated	-11.4591
mes	-11.4591
ending	-11.4592
ux	-11.4595
▁protected	-11.4597
0.7	-11.4598
▁refuge	-11.4605
ste	-11.4605
▁strikingly	-11.4605
▁annelid	-11.4605
zen	-11.4608
▁41	-11.4608
▁[35],	-11.4608
▁entering	-11.4608
▁antibiotics	-11.4612
▁RI	-11.4613
▁[48,	-11.4615
female	-11.4617
eae	-11.4619
ken	-11.4622
▁contradict	-11.4625
▁Glu	-11.4626
▁spikes	-11.4627
▁invest	-11.4627
▁happen	-11.4629
▁[4	-11.463
▁option	-11.4634
▁Sal	-11.4637
▁sprint	-11.4638
▁microRNA	-11.4639
▁Hy	-11.464
▁upward	-11.4642
▁rational	-11.4644
▁skew	-11.4644
▁Great	-11.4645
▁terrain	-11.4647
▁unidirectional	-11.4647
▁myoglobin	-11.4647
▁gross	-11.4648
▁truncated	-11.4648
course	-11.4648
▁ask	-11.4649
▁darkness	-11.465
▁clines	-11.4651
▁instar	-11.4658
▁constitutively	-11.4658
▁parametric	-11.4661
▁ADP	-11.4665
▁spot	-11.4665
ces	-11.4666
▁climates	-11.4671
▁Functional	-11.4674
PN	-11.4678
▁Aedes	-11.468
▁document	-11.468
1]	-11.4683
▁elevations	-11.4683
▁refined	-11.4685
stra	-11.4686
▁del	-11.4688
rick	-11.469
proteins	-11.4701
120	-11.4702
▁presently	-11.4705
0.9	-11.4705
▁Ontology	-11.4712
▁Regarding	-11.4712
▁[5–7]	-11.4712
▁reinhardtii	-11.4712
▁breadth	-11.4712
▁behave	-11.4714
▁flexor	-11.4715
▁%)	-11.4718
▁ascertain	-11.4718
▁realized	-11.4719
▁localize	-11.472
▁mat	-11.4721
▁summarized	-11.4723
▁saturated	-11.4724
▁1.2	-11.4726
viruses	-11.4726
▁manifest	-11.4727
▁lot	-11.4727
CH	-11.4728
▁aggregate	-11.4729
▁continents	-11.4731
ress	-11.4733
▁wound	-11.4734
metric	-11.4734
5%)	-11.4736
motor	-11.4738
▁briggsae	-11.4745
▁tactile	-11.4745
▁varieties	-11.4745
▁synchronization	-11.4745
ventral	-11.4747
▁TA	-11.4747
▁pi	-11.4748
▁pivotal	-11.4749
▁Dlx	-11.475
▁Met	-11.475
▁systematics	-11.4751
iro	-11.4758
eli	-11.4758
▁Han	-11.4763
▁Pörtner	-11.4764
▁surveyed	-11.4765
▁depict	-11.4765
ifer	-11.4766
▁accordingly	-11.4767
▁collision	-11.4769
▁recall	-11.4771
▁offered	-11.4771
▁Analyse	-11.4772
▁AG	-11.4773
98	-11.4774
▁simplify	-11.4778
λ	-11.4779
▁degeneration	-11.478
▁fifth	-11.478
▁flagellar	-11.478
▁pond	-11.4781
▁OS	-11.4781
▁Webb	-11.4782
▁kya	-11.4783
▁JA	-11.4783
CM	-11.4784
▁absorbed	-11.4786
omics	-11.4788
▁depleted	-11.479
▁ORFs	-11.4792
▁46].	-11.4793
pin	-11.4797
▁Bel	-11.4802
Bar	-11.4803
organ	-11.4803
lar	-11.4805
▁Full	-11.4805
▁66	-11.4806
▁dysfunction	-11.4807
▁dance	-11.4809
▁observable	-11.481
gastrointestinal	-11.4811
adaptive	-11.4812
muscle	-11.4813
enia	-11.4813
▁mimicry	-11.4814
▁lamellae	-11.4816
▁Jayne	-11.4818
▁publicly	-11.4823
placing	-11.4823
▁Muller	-11.4823
▁considers	-11.4823
▁UT	-11.4824
▁incipient	-11.4825
Mor	-11.4828
▁1%	-11.4829
▁projections	-11.4829
eni	-11.4833
▁artificially	-11.4834
TS	-11.4834
▁faced	-11.4836
81	-11.4838
ky	-11.4839
▁Ly	-11.4841
▁extensions	-11.4842
▁aberrant	-11.4844
▁ventilatory	-11.4844
▁serotonergic	-11.4844
▁reasonably	-11.4844
▁Arabian	-11.4845
▁favourable	-11.4846
▁grows	-11.4847
▁NI	-11.4851
▁interconnected	-11.4851
▁tone	-11.4851
▁qu	-11.4854
▁couple	-11.487
flies	-11.487
▁convert	-11.4872
▁game	-11.4875
▁Zealand	-11.4877
▁choosing	-11.4877
▁61]	-11.4878
▁TFBS	-11.4878
▁overview	-11.4879
▁naïve	-11.4879
▁facing	-11.4883
▁demanding	-11.4883
ote	-11.4884
UTR	-11.4885
▁comp	-11.4886
▁Lower	-11.4887
HCO	-11.4893
ites	-11.4893
▁calibrated	-11.4895
▁locality	-11.4897
idine	-11.49
▁stiff	-11.4901
▁attractor	-11.4908
▁empirically	-11.4908
▁parthenogenesis	-11.491
▁[3–5]	-11.491
▁tRNase	-11.4911
▁postglacial	-11.4912
▁NE	-11.4912
▁methionine	-11.4916
▁Any	-11.4918
yo	-11.4928
UV	-11.4928
▁sect	-11.4933
▁subclades	-11.4935
▁semantic	-11.4935
▁classifier	-11.4936
▁emerges	-11.4937
EX	-11.494
▁bumblebees	-11.4941
▁transmit	-11.4943
▁CRISPR	-11.4943
▁synchrony	-11.4944
▁1998	-11.4945
disease	-11.4945
▁proof	-11.4948
▁endemism	-11.4948
▁accelerations	-11.4949
▁Mon	-11.495
▁cats	-11.495
▁heme	-11.4951
nucleotide	-11.4953
▁herbivores	-11.4954
▁invariant	-11.4958
’)	-11.4961
▁TP	-11.4962
UC	-11.4965
▁gel	-11.497
▁lever	-11.4977
▁ommatidia	-11.4977
▁ecotypes	-11.4978
▁motivated	-11.4979
exon	-11.498
rian	-11.4981
▁Land	-11.4986
▁Gi	-11.499
▁modifying	-11.5
▁Tra	-11.5001
▁ventricle	-11.5003
Se	-11.5003
▁robustly	-11.5003
▁Hetero	-11.5005
▁volumes	-11.5006
▁disequilibrium	-11.501
▁Italy	-11.5011
▁28,	-11.5014
▁monocots	-11.5017
validation	-11.5017
▁suspected	-11.5018
▁flora	-11.5018
▁Much	-11.5019
▁closing	-11.5023
▁Information	-11.5024
▁Im	-11.5024
▁Pr	-11.5025
▁thermo	-11.5027
▁π	-11.5028
▁6-	-11.5031
▁GRNs	-11.5032
▁flank	-11.5032
▁metabolically	-11.5035
▁throughput	-11.5035
▁spliced	-11.5036
▁phenotypically	-11.5037
▁64	-11.504
cis	-11.5043
▁collections	-11.5043
▁sativa	-11.5044
▁relied	-11.5044
▁bend	-11.5044
▁disruptive	-11.5045
▁draft	-11.5045
▁subtropical	-11.5045
▁Can	-11.5045
▁creation	-11.5045
▁germline	-11.5045
▁stressed	-11.5046
Taylor	-11.5046
▁swimmers	-11.5047
1.0	-11.5047
EP	-11.5048
▁domesticus	-11.5049
▁shoulder	-11.5052
▁PT	-11.5053
gaart	-11.5058
▁PV	-11.5058
▁Farrell	-11.5061
▁ε	-11.5061
▁aestivation	-11.5067
▁rounds	-11.5072
EST	-11.5072
▁triggering	-11.5076
▁TB	-11.5076
▁bleaching	-11.5078
▁metastasis	-11.5078
▁temporary	-11.5078
▁octopamine	-11.5078
▁convey	-11.5078
▁statistic	-11.5078
▁Alps	-11.5079
▁intuitive	-11.5081
▁unambiguously	-11.5082
▁Amphi	-11.5082
▁outlined	-11.5083
▁ventricular	-11.5085
▁—	-11.5091
▁1970)	-11.5094
▁stressor	-11.5095
▁rps	-11.5097
troph	-11.5103
▁testes	-11.5104
▁Animals	-11.5104
bia	-11.5104
pan	-11.5105
▁mineral	-11.5109
▁heritability	-11.5112
▁secondarily	-11.5112
▁territories	-11.5112
▁allozyme	-11.5112
▁1967)	-11.5112
▁heterozygous	-11.5112
▁discern	-11.5112
▁disparate	-11.5112
▁[51,	-11.5114
▁ignored	-11.5115
▁SCN	-11.5118
▁derivatives	-11.5119
phyll	-11.5121
▁SE	-11.5121
=5	-11.5122
▁List	-11.5123
▁cp	-11.5125
▁31,	-11.5128
▁avoided	-11.5129
▁var	-11.5132
▁nt	-11.5132
▁Schmidt	-11.5133
RM	-11.5138
tia	-11.5141
▁Mor	-11.5142
▁virgin	-11.5145
▁bipedal	-11.5145
▁[7–9]	-11.5146
▁attenuation	-11.5146
▁cloning	-11.5146
▁histological	-11.5146
▁rainforest	-11.5146
▁dental	-11.5146
▁Mitochondrial	-11.5146
▁luminal	-11.5149
OM	-11.515
▁hibernating	-11.515
sta	-11.5151
RL	-11.5151
=4	-11.5154
Hill	-11.5155
▁adequately	-11.5156
▁collecting	-11.5157
▁ser	-11.5159
▁songs	-11.516
▁Tu	-11.5161
▁24,	-11.5162
▁col	-11.5162
▁[63].	-11.5164
part	-11.5164
▁sh	-11.5166
▁spines	-11.5166
▁62]	-11.5168
gated	-11.5169
▁1975).	-11.5172
void	-11.5173
▁elaborate	-11.5173
▁innovations	-11.5179
▁modulus	-11.518
▁necessity	-11.518
▁uncertainties	-11.518
current	-11.518
▁CH	-11.518
DP	-11.5182
▁bell	-11.5184
▁tryptophan	-11.5184
PL	-11.5186
▁stochasticity	-11.519
▁[62].	-11.5193
▁clocks	-11.5194
+]	-11.5197
▁oscillators	-11.5198
other	-11.5202
▁LL	-11.5208
lock	-11.5208
▁outperform	-11.5208
HE	-11.5209
▁unpredictable	-11.5214
▁Selection	-11.5214
carp	-11.5215
mber	-11.5216
▁Diamond	-11.5217
syn	-11.5218
▁leucine	-11.5219
▁[3	-11.5222
No	-11.5223
▁den	-11.5227
Per	-11.5227
▁fix	-11.5229
▁May	-11.5231
▁SS	-11.5235
▁Tyr	-11.5239
imp	-11.5243
▁Brazil	-11.5247
▁spaces	-11.5247
▁aware	-11.5248
▁mangrove	-11.5248
▁nitrate	-11.5248
▁recycling	-11.5248
▁0.02	-11.5248
▁contradictory	-11.5248
Cas	-11.5249
▁coarse	-11.5249
▁siRNA	-11.5251
supplementary	-11.5252
phenotype	-11.5252
▁copper	-11.5252
▁Epi	-11.5257
▁Comp	-11.5258
ima	-11.526
▁Mel	-11.5263
▁exposures	-11.5266
▁bivalves	-11.5266
ments	-11.5267
Mc	-11.5271
idi	-11.5272
▁hamsters	-11.5272
▁60]	-11.5273
▁warrant	-11.5274
▁GE	-11.5275
▁imbalance	-11.5276
Bur	-11.5278
▁Cys	-11.528
▁collect	-11.5282
▁Comparing	-11.5283
▁alternating	-11.5283
▁Hemisphere	-11.5283
▁Rhcg	-11.5283
▁sheath	-11.5283
▁backbone	-11.5283
▁pipiens	-11.5283
▁methanol	-11.5284
white	-11.5286
first	-11.5286
selective	-11.5286
-8	-11.5289
▁thoroughly	-11.529
▁lists	-11.529
1-2	-11.5291
▁neutrality	-11.5293
▁atmospheric	-11.5295
Ne	-11.5297
nia	-11.5303
▁handle	-11.5306
▁hemi	-11.5307
DC	-11.5308
edge	-11.5309
system	-11.5314
▁downward	-11.5314
▁1.3	-11.5315
NE	-11.5317
▁volatiles	-11.5317
▁sinensis	-11.5317
▁harmful	-11.5318
▁hint	-11.532
▁publication	-11.5321
▁°	-11.5322
▁Sto	-11.5324
▁MSV	-11.5324
ule	-11.5324
84	-11.5332
ising	-11.5336
=10	-11.5337
▁PDE	-11.534
control	-11.5341
▁Sta	-11.5342
bra	-11.5342
▁playing	-11.535
▁peculiar	-11.5352
▁sapiens	-11.5352
▁wheel	-11.5352
▁passage	-11.5357
▁cerebral	-11.5357
▁inversely	-11.5362
▁precipitation	-11.5364
▁undergoes	-11.5365
eller	-11.5369
▁33]	-11.5369
az	-11.537
▁(‘	-11.5375
▁suspect	-11.5379
ound	-11.538
stream	-11.5386
ecto	-11.5386
▁synonym	-11.5386
itch	-11.5386
▁industrial	-11.5387
▁solving	-11.5387
umb	-11.5389
▁streams	-11.5394
vari	-11.5395
▁operation	-11.5395
DV	-11.5398
▁ECM	-11.5401
▁th	-11.5403
▁divisions	-11.5407
▁bout	-11.5407
▁PRR	-11.5408
▁63]	-11.5411
▁consuming	-11.5413
OX	-11.5416
▁enhancers	-11.5416
▁hemocytes	-11.5416
▁tumour	-11.5417
Car	-11.542
▁coexist	-11.5422
▁[50,	-11.5423
▁[78]	-11.5424
▁Prior	-11.5425
▁lethality	-11.5425
Alexander	-11.5426
▁seek	-11.5426
▁exploitation	-11.5427
▁doing	-11.5428
▁95	-11.5429
▁leader	-11.5435
lm	-11.5444
▁captures	-11.5445
NG	-11.5446
▁GL	-11.5451
▁adulthood	-11.5457
▁excitatory	-11.5457
▁CHH	-11.5457
▁sonar	-11.546
deficient	-11.5461
degree	-11.5461
Brown	-11.5461
Van	-11.5463
▁ver	-11.5467
▁Moore	-11.5469
olytic	-11.5469
▁BA	-11.547
▁zoo	-11.5475
ned	-11.5475
▁attribute	-11.5482
▁ease	-11.5487
▁3.5	-11.5487
▁breaking	-11.5491
▁Iso	-11.5492
▁Taiwan	-11.5492
▁1966;	-11.5492
▁ammonium	-11.5492
▁bream	-11.5492
▁severity	-11.5492
▁Italian	-11.5492
▁excitation	-11.5492
▁echo	-11.5494
▁homogeneity	-11.5495
▁Upon	-11.5495
vector	-11.5496
▁alga	-11.5499
▁thyroid	-11.55
zy	-11.5501
▁secretions	-11.5501
directed	-11.5502
▁spots	-11.5503
▁annelids	-11.5503
▁attain	-11.5504
▁incorporates	-11.5505
lipid	-11.5508
▁pea	-11.5508
DB	-11.5511
▁Cdc	-11.5516
▁migrants	-11.5518
▁propagate	-11.5521
ati	-11.5521
▁iterative	-11.5522
▁hopping	-11.5528
▁[79]	-11.5528
▁Various	-11.5528
▁housekeeping	-11.5528
▁[49,	-11.5528
▁reefs	-11.5528
7–	-11.5528
▁du	-11.5528
▁\	-11.553
standing	-11.5533
▁abundances	-11.5533
▁landscapes	-11.5534
tRNA	-11.5535
▁corresponded	-11.5539
ometric	-11.554
▁orient	-11.5541
▁AOX	-11.5543
▁impacted	-11.5545
▁obscure	-11.5549
▁align	-11.555
▁designs	-11.5557
▁biofilm	-11.556
▁Sec	-11.5561
▁shortly	-11.5562
▁obesity	-11.5563
▁capillary	-11.5563
▁remodelling	-11.5563
▁bistable	-11.5563
▁compliant	-11.5567
▁neglected	-11.5567
▁fundamentally	-11.5568
▁Wainwright	-11.5574
▁hour	-11.5575
eth	-11.5577
▁Zhang	-11.5577
ood	-11.5578
▁MF	-11.5581
CF	-11.5584
sensu	-11.5584
▁chimpanzees	-11.5584
▁claws	-11.5587
▁daughter	-11.5595
▁Models	-11.5598
▁mutagenesis	-11.5599
▁Nematostella	-11.56
▁label	-11.5604
MAPK	-11.5606
▁(7	-11.5607
▁oxide	-11.5608
▁helices	-11.5608
▁EL	-11.5612
▁PER	-11.5619
bach	-11.5619
▁microarrays	-11.5623
▁Females	-11.5623
▁glaciations	-11.5625
▁incline	-11.5625
▁PTH	-11.5626
cula	-11.5627
HA	-11.5628
▁recipient	-11.5631
nan	-11.5634
▁Ver	-11.5634
▁migrations	-11.5634
▁mammary	-11.5634
▁reminiscent	-11.5634
▁ErbB	-11.5634
▁Until	-11.5635
▁barcoding	-11.5636
▁uneven	-11.5636
agu	-11.5637
▁fusions	-11.564
▁chordate	-11.5641
▁lac	-11.5644
phe	-11.5645
▁tubes	-11.5648
▁isotopic	-11.5649
blast	-11.5654
▁bill	-11.5655
year	-11.5658
rib	-11.5658
▁1995),	-11.5661
Con	-11.5663
▁flagella	-11.5664
▁deviate	-11.5668
▁brains	-11.5669
▁Depending	-11.567
▁frozen	-11.567
▁guppies	-11.567
Ls	-11.567
▁axons	-11.5672
▁extremes	-11.5673
▁pupal	-11.5675
▁publications	-11.5676
▁Nan	-11.5678
dark	-11.5678
GT	-11.5681
▁Pf	-11.5683
▁Apart	-11.5687
▁artifacts	-11.5687
yne	-11.5688
SW	-11.5688
▁68	-11.5689
▁Macro	-11.5697
ED	-11.5699
▁PIP	-11.5699
▁droplet	-11.5704
▁sparrow	-11.5704
▁pen	-11.5705
▁capturing	-11.5706
▁irreversible	-11.5706
▁quail	-11.5706
▁alkaline	-11.5706
▁Baltic	-11.5706
▁cofactor	-11.5706
▁neurogenesis	-11.5707
cephal	-11.5708
▁playback	-11.5709
▁Strait	-11.571
▁~2	-11.571
through	-11.5711
size	-11.5712
zon	-11.5712
▁outward	-11.5712
adaptation	-11.5712
▁mandibular	-11.5713
▁cline	-11.5714
±0.0	-11.5716
▁tag	-11.5718
▁pollination	-11.572
▁AEP	-11.5722
▁table	-11.5722
▁Proteins	-11.5724
LR	-11.5727
har	-11.5729
gf	-11.573
▁competitors	-11.5731
▁vent	-11.5732
▁centers	-11.5733
▁summarize	-11.5735
hydroxy	-11.5737
▁races	-11.5737
opt	-11.574
▁pHi	-11.5741
▁SOD	-11.5742
▁compelling	-11.5742
▁elbow	-11.5742
▁ectothermic	-11.5743
▁Section	-11.5743
▁lives	-11.5745
▁por	-11.5745
Saharan	-11.5745
0.00	-11.5746
▁rocky	-11.5747
Anderson	-11.5747
▁axon	-11.5748
▁Holocene	-11.5748
▁heading	-11.5749
▁cyto	-11.575
olo	-11.5751
▁Ter	-11.5752
▁virulent	-11.5754
▁atp	-11.5755
▁Eq	-11.5756
▁Te	-11.5756
▁Tables	-11.5757
▁codes	-11.5759
sexual	-11.5763
arc	-11.5763
▁habit	-11.5767
fast	-11.5769
▁choices	-11.5771
▁[51]	-11.5774
▁exponent	-11.5776
▁gibbon	-11.5777
▁hummingbird	-11.5777
▁revision	-11.5777
▁proximate	-11.5778
▁bidirectional	-11.5779
▁splitting	-11.5781
▁positional	-11.5783
fed	-11.5783
opsin	-11.5783
posterior	-11.5784
chus	-11.5787
PM	-11.5787
▁govern	-11.5788
▁ponds	-11.5788
▁Wa	-11.579
▁Syn	-11.5798
▁glide	-11.5798
Har	-11.5803
▁MLC	-11.5806
▁dominate	-11.5806
▁bright	-11.5808
▁alanine	-11.5808
poor	-11.5811
▁serial	-11.5811
▁isotope	-11.5813
▁protist	-11.5813
▁implication	-11.5813
ulus	-11.5814
▁Remarkably	-11.5815
▁elucidating	-11.5815
▁intermittent	-11.5815
▁remote	-11.5815
▁1968;	-11.5818
miRNA	-11.5819
▁momentum	-11.5821
▁sterile	-11.5822
▁mitotic	-11.5822
▁mega	-11.5824
▁hydro	-11.5825
horn	-11.5825
▁appropriately	-11.5825
GD	-11.5826
▁densely	-11.5828
▁timescale	-11.5833
llar	-11.5834
▁SSD	-11.5836
lidae	-11.5837
▁Em	-11.5841
▁overlaps	-11.5842
▁conceptual	-11.5846
stone	-11.5846
MV	-11.5846
▁35]	-11.5847
▁energetics	-11.5848
▁autophagy	-11.5851
▁[8–10]	-11.5852
▁undertaken	-11.5853
▁habits	-11.5853
Johnson	-11.5857
▁chloride	-11.5857
▁96	-11.5858
▁falling	-11.5859
▁Higher	-11.5861
▁constantly	-11.5863
▁partitioned	-11.5864
PF	-11.5867
▁lamina	-11.5868
mu	-11.587
▁fails	-11.5873
▁Sy	-11.588
emi	-11.5882
▁ter	-11.5885
▁digits	-11.5887
tch	-11.5888
▁Members	-11.5888
▁cytoskeletal	-11.5888
▁lysozyme	-11.5889
▁canals	-11.589
uf	-11.5892
▁midline	-11.5893
▁furthermore	-11.5896
resolution	-11.5896
▁acceptor	-11.5897
▁symptoms	-11.5898
▁nmol	-11.5898
rog	-11.5899
▁su	-11.5901
▁RE	-11.5901
▁AU	-11.591
▁insensitive	-11.5912
▁tuna	-11.5913
▁accept	-11.5915
▁AF	-11.5916
▁Part	-11.5922
▁chlorophyll	-11.5925
▁epaxial	-11.5925
▁parthenogenetic	-11.5925
▁zooplankton	-11.5925
▁IM	-11.5926
▁surrounded	-11.593
▁fastest	-11.5932
▁6),	-11.5933
=0	-11.5934
▁fell	-11.5934
para	-11.5937
▁(±	-11.5937
Wang	-11.5937
▁AHR	-11.5938
▁ionic	-11.5946
▁sky	-11.5946
▁Test	-11.5946
onia	-11.5949
▁BI	-11.5953
▁Min	-11.5956
▁Roberts	-11.5956
▁tubule	-11.5961
▁demography	-11.5962
▁[6–8]	-11.5962
▁mitochondrion	-11.5962
▁breakage	-11.5963
▁subnetwork	-11.5964
▁adductor	-11.5965
▁experiences	-11.5965
52	-11.5966
▁46	-11.5967
Jones	-11.5968
▁defect	-11.5968
▁contigs	-11.5969
mate	-11.5973
rap	-11.5975
▁tens	-11.5976
▁RS	-11.5978
▁molting	-11.598
▁Ae	-11.5981
▁salts	-11.5983
▁ob	-11.5984
▁synapses	-11.5985
▁LH	-11.5985
▁Br	-11.599
▁degenerate	-11.5992
pri	-11.5994
lated	-11.5994
▁tibia	-11.5995
▁stepping	-11.5999
▁invade	-11.6
▁historically	-11.6001
▁Ja	-11.6001
▁1994),	-11.6001
number	-11.6002
▁transitional	-11.6002
▁Andean	-11.6003
-12	-11.6005
▁tubulin	-11.6008
▁encompassing	-11.6009
▁Asterisks	-11.6012
stranded	-11.6014
▁drawing	-11.6017
4),	-11.6017
▁alternatives	-11.6025
▁lncRNAs	-11.6027
FC	-11.6029
ue	-11.603
dactyl	-11.603
▁NMDA	-11.6031
▁SN	-11.6032
▁economic	-11.6034
prote	-11.6035
▁Tree	-11.6035
▁decomposition	-11.6036
▁heterodimer	-11.6036
▁bovine	-11.6036
▁shoot	-11.6037
▁visualize	-11.6037
▁carboxylase	-11.6038
▁grasses	-11.6041
▁chemistry	-11.6042
component	-11.6042
▁Król	-11.6042
▁striped	-11.6044
▁1997	-11.6049
▁Last	-11.6051
GFP	-11.6051
▁eels	-11.6051
▁lowering	-11.6051
▁PHA	-11.606
▁phylogenetics	-11.6063
▁Shi	-11.6067
sex	-11.6069
▁Ty	-11.607
▁(12	-11.6071
lag	-11.6072
▁dedicated	-11.6073
▁histidine	-11.6073
▁Direct	-11.6073
▁dissolved	-11.6074
▁planktonic	-11.6074
▁barley	-11.6074
▁nucleosome	-11.6074
▁Upper	-11.6076
▁definitions	-11.6076
laying	-11.6079
▁volatile	-11.6079
▁sulfide	-11.6079
▁broken	-11.608
▁waste	-11.6081
itu	-11.6082
▁69	-11.6082
▁MAT	-11.6083
▁ageing	-11.6083
▁caterpillars	-11.6086
▁Gen	-11.6086
ila	-11.6088
OD	-11.6091
▁MSP	-11.6092
▁predictors	-11.6096
▁Nu	-11.61
poly	-11.6108
400	-11.6108
networks	-11.611
▁Manduca	-11.6111
▁pombe	-11.6111
▁inorganic	-11.6111
▁Salmonella	-11.6111
▁germination	-11.6111
▁ejaculate	-11.6111
▁vessel	-11.6112
▁waveform	-11.6112
▁defines	-11.6112
▁Earth	-11.6114
▁blind	-11.6115
▁Pcrit	-11.6115
▁interactive	-11.6118
▁ha	-11.6121
▁dec	-11.6123
▁Ras	-11.6125
▁priority	-11.6129
▁LHC	-11.6129
FR	-11.613
chrom	-11.6136
▁laws	-11.6136
",	-11.6137
▁macaques	-11.6141
▁Relative	-11.6142
vertebrate	-11.6143
▁karyotypes	-11.6143
▁globin	-11.6147
AI	-11.6148
▁Relationship	-11.6148
▁refugium	-11.6148
▁territorial	-11.6148
▁aromatic	-11.6148
▁refinement	-11.6151
zero	-11.6152
responsive	-11.6153
plan	-11.6153
▁lesions	-11.6154
dynamic	-11.6155
depth	-11.6155
Di	-11.6155
▁sonic	-11.6157
▁GPCR	-11.6158
▁routinely	-11.6158
▁chromatic	-11.6158
▁asked	-11.6159
limiting	-11.616
▁1968)	-11.6161
▁tRNAs	-11.6165
3]	-11.6169
force	-11.6171
▁LP	-11.6173
▁say	-11.6175
▁spiracles	-11.6177
▁Trans	-11.618
-16	-11.6181
▁leech	-11.6183
▁carcinoma	-11.6186
▁hagfish	-11.6186
▁penguin	-11.6187
ony	-11.6188
lat	-11.6189
2+]	-11.6189
workers	-11.619
nat	-11.6191
▁nestling	-11.6193
stable	-11.6193
▁[5	-11.6194
▁MAP	-11.6194
▁[66].	-11.6195
flight	-11.6196
ency	-11.6198
á	-11.6199
▁RBCs	-11.6201
▁[65].	-11.6205
▁obstacles	-11.6206
normal	-11.6209
▁interneurons	-11.621
trophic	-11.6216
▁Neo	-11.6219
▁Hart	-11.6219
▁horn	-11.622
▁Dictyostelium	-11.6224
▁Bre	-11.6226
▁breakpoints	-11.6229
▁monitored	-11.6235
illi	-11.6235
nal	-11.6235
▁Andes	-11.6235
representation	-11.6236
▁SPL	-11.624
▁pointing	-11.6242
▁taxonomically	-11.6244
▁der	-11.6246
▁interfaces	-11.6248
):	-11.625
▁outliers	-11.6252
▁declined	-11.6261
▁genotyping	-11.6262
▁perpendicular	-11.6262
▁Biological	-11.6262
▁nominal	-11.6262
▁synthetase	-11.6264
▁mussel	-11.6264
▁consequent	-11.6264
▁impairment	-11.6264
▁likewise	-11.6265
enz	-11.6267
▁GSK	-11.6268
▁automatic	-11.6268
▁hunting	-11.6269
Biewener	-11.6269
alanine	-11.6269
helix	-11.6269
▁protostomes	-11.6271
▁grounds	-11.6271
lineage	-11.6272
▁emphasized	-11.6273
eastern	-11.6274
assi	-11.6276
▁anurans	-11.6277
▁arch	-11.6278
▁SVM	-11.6279
▁catalyze	-11.6279
▁inform	-11.6282
LM	-11.6284
▁alpine	-11.6285
▁[65]	-11.6286
▁ba	-11.6287
▁classifications	-11.6289
▁MK	-11.6289
▁AC	-11.6289
▁PCA	-11.6289
▁guarantee	-11.6293
▁chloroplasts	-11.6296
▁indications	-11.6296
▁reproductively	-11.6297
▁Small	-11.6297
▁achieving	-11.63
▁cloud	-11.63
▁reliance	-11.63
▁neighborhood	-11.63
0].	-11.6301
cyt	-11.6304
▁sarcomere	-11.6304
▁surge	-11.6304
▁cephalopods	-11.6305
▁Ang	-11.6305
▁passerine	-11.6306
▁subgraphs	-11.6307
▁tarsal	-11.6309
▁perfectly	-11.631
aga	-11.6312
emp	-11.6319
ground	-11.6321
oco	-11.6322
▁SV	-11.6322
▁rotations	-11.6328
Mi	-11.6328
–1.	-11.6331
▁conserve	-11.6332
biotic	-11.6337
▁Paramecium	-11.6338
▁Altogether	-11.6338
▁humoral	-11.6338
▁cited	-11.6339
▁(=	-11.6339
ado	-11.634
▁genitalia	-11.634
▁regulations	-11.634
▁pooled	-11.6342
▁4-	-11.6346
▁bundles	-11.6346
▁Ross	-11.6348
▁MIR	-11.6351
▁2.0	-11.6352
dt	-11.6353
▁retro	-11.6355
▁pl	-11.6355
▁Wright	-11.6358
▁beats	-11.6359
beta	-11.636
▁rows	-11.6361
Green	-11.6361
▁fractions	-11.6361
▁Cho	-11.6362
section	-11.6367
Tr	-11.6371
self	-11.6374
▁Positive	-11.6377
▁heterologous	-11.6377
▁Aqp	-11.6377
▁dorsoventral	-11.6377
▁ATF	-11.6377
▁unidentified	-11.6377
▁mutualism	-11.6377
place	-11.6377
▁dauer	-11.6378
▁timescales	-11.6379
▁millions	-11.6383
▁noting	-11.6383
sensitivity	-11.6383
ifying	-11.6387
hard	-11.6388
▁distributional	-11.6389
▁NAT	-11.6396
▁Fisher	-11.64
▁64]	-11.6403
▁VI	-11.6404
▁sort	-11.6404
OA	-11.6404
▁fasted	-11.6409
▁bilateral	-11.641
ratio	-11.641
▁TL	-11.6411
▁paradox	-11.6412
table	-11.6413
Br	-11.6414
▁dispersion	-11.6415
▁dormancy	-11.6415
▁ipsilateral	-11.6415
▁receiving	-11.6415
▁spermatogenesis	-11.6415
▁unisexual	-11.6416
▁superfamilies	-11.6416
▁cytogenetic	-11.6416
▁microscopic	-11.6416
▁MY	-11.6416
▁Yu	-11.6417
Cha	-11.6418
▁microtubule	-11.642
▁soleus	-11.6421
characterized	-11.6422
▁anticipated	-11.6422
membrane	-11.6422
▁minute	-11.6425
▁BS	-11.6426
cel	-11.6426
▁bilaterians	-11.6429
▁ABA	-11.6431
▁columns	-11.6431
61	-11.6435
▁die	-11.6438
▁odorants	-11.6438
▁Rep	-11.644
▁33,	-11.6442
▁chill	-11.6444
▁LG	-11.6444
▁branched	-11.6446
ese	-11.6446
▁me	-11.6447
▁Subsequent	-11.6448
NH	-11.6449
▁mountains	-11.645
▁presenting	-11.6452
▁disjunct	-11.6453
rach	-11.6454
▁catabolic	-11.6454
▁hypothalamus	-11.6454
▁messenger	-11.6454
aldehyde	-11.6454
▁Malawi	-11.6454
▁Weddell	-11.6454
▁dorso	-11.6454
▁shedding	-11.6455
▁Gulf	-11.6456
▁operates	-11.6457
▁invoked	-11.6458
▁specialised	-11.6458
▁rejection	-11.6458
▁shells	-11.6459
LI	-11.646
▁returning	-11.6461
▁scientists	-11.6462
rop	-11.6462
▁Net	-11.6462
▁Experiments	-11.6468
Met	-11.6469
local	-11.647
▁Perry	-11.6472
▁fates	-11.6477
▁dimensional	-11.6481
▁CoM	-11.6486
▁mollusks	-11.649
▁underestimate	-11.6491
ft	-11.6492
▁Jo	-11.6492
▁euryhaline	-11.6493
▁ovulation	-11.6493
▁schizophrenia	-11.6493
▁treadmill	-11.6493
▁speculation	-11.6493
▁eggshell	-11.6493
▁agonist	-11.6494
nc	-11.6497
▁copepod	-11.6497
▁OXPHOS	-11.6498
▁flea	-11.6499
▁radio	-11.6502
▁rain	-11.6502
py	-11.6503
▁Bayes	-11.6505
▁Grosell	-11.6507
▁exceeded	-11.6508
vent	-11.651
▁elasmobranchs	-11.6512
▁ideas	-11.6514
▁Ber	-11.6516
▁[6	-11.6516
▁Cer	-11.6518
▁molluscs	-11.6518
▁Evans	-11.6519
bs	-11.6521
▁DH	-11.6521
▁Ben	-11.6523
meric	-11.6524
▁anticipate	-11.6525
▁Alaska	-11.6528
▁da	-11.6528
▁voles	-11.6529
▁brackish	-11.6532
▁discharge	-11.6532
▁modalities	-11.6532
▁spheroid	-11.6532
▁manipulating	-11.6532
▁osmoregulatory	-11.6532
▁discriminating	-11.6532
▁reassortment	-11.6532
▁reinforcement	-11.6533
processing	-11.6533
50%	-11.6534
els	-11.6535
▁dinoflagellates	-11.6537
▁standardized	-11.654
parameter	-11.654
▁20°	-11.6542
▁reality	-11.6542
▁glycoprotein	-11.6542
82	-11.6547
EG	-11.6549
▁Leu	-11.655
▁MCMC	-11.6551
▁bud	-11.6552
east	-11.6555
▁pull	-11.6561
ometry	-11.6566
bro	-11.6568
aging	-11.6568
▁Petri	-11.6569
Au	-11.6569
▁bridges	-11.657
▁humid	-11.6571
▁calcification	-11.6571
▁homozygous	-11.6571
▁ectopic	-11.6571
▁Complex	-11.6571
▁France	-11.6572
▁Muscle	-11.6572
▁northward	-11.6572
Du	-11.6574
▁intended	-11.6574
▁67	-11.6579
▁happens	-11.6583
effect	-11.6584
ators	-11.6589
▁gram	-11.6589
▁GSH	-11.659
▁Thr	-11.6594
▁valves	-11.6595
▁Weber	-11.6595
sign	-11.6596
▁pin	-11.6597
oo	-11.66
nidae	-11.6602
▁colonize	-11.6604
▁interior	-11.6605
▁[66]	-11.6605
nid	-11.6607
▁fabp	-11.6611
▁Tetrahymena	-11.6611
▁assemblies	-11.6611
▁diagnosis	-11.6611
▁homeobox	-11.6611
▁optomotor	-11.6611
▁stonechats	-11.6611
kov	-11.6611
▁atypical	-11.6613
▁expressions	-11.6613
gue	-11.6614
▁Cape	-11.6614
▁swelling	-11.6615
▁pineal	-11.6617
coil	-11.6617
▁metapopulation	-11.6618
ras	-11.6621
▁Nilsson	-11.6623
opo	-11.6627
thio	-11.6629
▁accumulating	-11.6629
▁Op	-11.6635
Vi	-11.6637
▁fill	-11.6638
▁elevate	-11.6643
▁Pseudo	-11.6645
4/	-11.6647
ette	-11.6648
▁Myc	-11.6648
FBA	-11.665
▁americanus	-11.665
▁doubling	-11.665
▁soybean	-11.665
▁tempting	-11.665
▁sliding	-11.665
▁[80]	-11.665
lla	-11.6651
fit	-11.6652
▁stand	-11.6652
▁ontology	-11.6654
stroke	-11.6655
enzyme	-11.6656
occur	-11.6659
▁interventions	-11.6659
▁sibling	-11.6661
▁Hall	-11.6661
▁receiver	-11.6664
▁1.4	-11.6666
▁transcriptomes	-11.667
acc	-11.6671
tract	-11.6675
ostom	-11.6676
▁None	-11.6677
▁Oct	-11.6684
▁MRCs	-11.6684
▁sink	-11.6684
bat	-11.6687
kins	-11.6689
▁Gaussian	-11.669
▁luminescence	-11.669
▁NCBI	-11.669
wan	-11.6691
▁postprandial	-11.6691
▁agonistic	-11.6693
▁fluctuation	-11.6695
▁navigational	-11.6695
▁bow	-11.6699
pathway	-11.6699
▁strengths	-11.6701
uan	-11.6704
▁MDA	-11.6706
▁encompass	-11.6707
ough	-11.6708
▁stripes	-11.6709
limb	-11.6709
▁keratin	-11.6711
chy	-11.6711
▁LC	-11.6713
Go	-11.6715
amm	-11.6716
▁testable	-11.6717
▁Kar	-11.6723
▁questioned	-11.6723
udi	-11.6725
▁LT	-11.6727
▁neighbor	-11.6727
Gal	-11.673
▁lactating	-11.673
▁genealogical	-11.673
▁pinpoint	-11.673
▁incubated	-11.6732
vel	-11.6732
▁Triassic	-11.6733
▁intercellular	-11.6733
▁glyco	-11.6733
▁imprinted	-11.6733
▁CFTR	-11.6735
color	-11.6735
▁unbiased	-11.6735
▁SMAD	-11.6737
▁delivered	-11.6738
θ	-11.6739
predator	-11.6739
▁tide	-11.6743
▁month	-11.6746
cine	-11.6746
ope	-11.6747
▁inherently	-11.6748
▁attacks	-11.6749
nk	-11.675
▁looked	-11.6751
aya	-11.6751
PV	-11.6755
kar	-11.6756
▁adjusting	-11.6762
EA	-11.6762
▁asymptotic	-11.6768
▁enigmatic	-11.677
▁duty	-11.677
omes	-11.6771
text	-11.6771
▁enamel	-11.6773
▁tank	-11.6776
▁cha	-11.6778
inositol	-11.6779
canonical	-11.6779
▁harm	-11.6779
▁10)	-11.678
lines	-11.6781
▁specialist	-11.6782
▁exponentially	-11.6784
path	-11.6785
ardi	-11.6786
HD	-11.6787
tim	-11.6791
▁magnitudes	-11.6791
war	-11.6795
▁generalization	-11.6796
▁grade	-11.6798
ABC	-11.6799
▁cultivars	-11.6799
▁1993),	-11.6803
▁49	-11.6804
▁Val	-11.6806
ulo	-11.681
▁sterility	-11.681
▁synapomorphies	-11.681
▁slime	-11.681
▁quasispecies	-11.6811
FS	-11.6811
▁beating	-11.6813
▁NOS	-11.6813
▁overwintering	-11.6815
idium	-11.6816
▁asynchronous	-11.6817
▁Mtb	-11.6817
hydr	-11.6818
reproductive	-11.6819
▁|	-11.682
sym	-11.6821
▁interglacial	-11.6821
▁Wiltschko	-11.6823
▁Cheng	-11.6825
BF	-11.6828
▁traced	-11.6829
osome	-11.6833
▁Multi	-11.6837
▁GTP	-11.6837
▁helped	-11.6838
▁BN	-11.6842
▁Ni	-11.6843
74	-11.6844
▁tit	-11.6844
arm	-11.6849
▁cyclical	-11.685
▁empty	-11.685
▁microbiota	-11.685
▁stoichiometry	-11.685
▁Plateau	-11.685
▁departure	-11.685
▁peroxide	-11.6851
▁exemplified	-11.6852
▁[13–15]	-11.6852
elt	-11.6854
▁entropy	-11.6854
▁crawling	-11.6856
▁prevailing	-11.6857
▁blot	-11.6858
▁68]	-11.6858
▁arguments	-11.6859
between	-11.686
Ks	-11.686
▁ploidy	-11.6861
▁covers	-11.6863
▁satellite	-11.6868
▁denoted	-11.6872
▁Homo	-11.6873
▁stock	-11.6875
▁refine	-11.6883
▁47	-11.6883
▁descendants	-11.6884
▁generality	-11.6884
▁occasional	-11.6885
▁drops	-11.6889
dendritic	-11.6891
▁scene	-11.6891
▁tomato	-11.6891
▁supra	-11.6893
ridae	-11.6895
▁displaced	-11.6895
▁attenuated	-11.6895
▁shore	-11.6895
lit	-11.6896
▁Pal	-11.6897
alth	-11.6897
▁fascicle	-11.6897
▁constituent	-11.6898
copulatory	-11.6898
130	-11.69
▁usefulness	-11.69
▁ensures	-11.6901
cur	-11.6902
▁pace	-11.691
▁NT	-11.6911
▁adaptor	-11.6915
▁RD	-11.6925
OC	-11.6927
▁Leishmania	-11.6931
▁[10–12]	-11.6931
▁albicans	-11.6931
▁proteolytic	-11.6931
▁GLUT	-11.6931
▁thermogenesis	-11.6931
▁divide	-11.6932
▁63	-11.6932
▁subgenera	-11.6932
▁laid	-11.6933
▁digest	-11.6933
▁Why	-11.6933
sequence	-11.6934
▁cooler	-11.6934
▁noticed	-11.6936
▁bioinformatic	-11.6939
▁diploids	-11.6941
swimming	-11.6941
mammalian	-11.6941
mtDNA	-11.6941
variable	-11.6941
▁passed	-11.6943
▁mu	-11.6945
▁confirmation	-11.6947
cht	-11.6948
▁natal	-11.695
▁Baker	-11.6952
▁anchor	-11.6953
▁eyespots	-11.6954
▁Nor	-11.6955
FM	-11.6958
▁knockouts	-11.6959
rom	-11.6961
▁hairs	-11.6964
OH	-11.6966
▁coming	-11.6966
rest	-11.6966
▁PB	-11.6968
▁virtual	-11.697
▁UVS	-11.697
▁inducer	-11.6971
▁aeruginosa	-11.6972
▁auratus	-11.6972
▁capsule	-11.6972
▁spindle	-11.6972
▁homeostatic	-11.6972
▁spatiotemporal	-11.6972
▁primordial	-11.6973
▁depolarization	-11.6974
DF	-11.6974
▁Uni	-11.6975
▁synchronized	-11.6975
▁macaque	-11.698
▁decided	-11.698
lower	-11.6981
lets	-11.6985
▁heads	-11.6986
4;	-11.6987
morphic	-11.6988
▁191	-11.6991
▁confers	-11.6995
▁51].	-11.6996
▁scan	-11.6997
hot	-11.6998
▁longest	-11.7001
▁develops	-11.7001
acting	-11.7004
▁quick	-11.7005
structure	-11.7006
ffer	-11.7007
▁2013),	-11.7009
uring	-11.7011
meta	-11.7011
▁proposes	-11.7012
ail	-11.7012
▁Sha	-11.7012
▁gigas	-11.7013
▁patens	-11.7013
▁circuitry	-11.7015
▁5′	-11.7017
▁acidosis	-11.7018
ench	-11.7021
▁metabolomics	-11.7023
▁SSU	-11.7023
▁10,000	-11.7024
▁η	-11.7025
▁replicated	-11.7027
▁inward	-11.7028
At	-11.7028
▁gonad	-11.703
▁accession	-11.7031
▁gate	-11.704
▁toothed	-11.704
sim	-11.704
▁founding	-11.704
von	-11.7043
800	-11.705
▁Alexander	-11.705
▁morphotypes	-11.7052
▁Ucrit	-11.7055
▁[54,	-11.7055
▁unsteady	-11.7055
▁rising	-11.7056
▁Fi	-11.7057
uni	-11.7057
▁purine	-11.7058
fecting	-11.7058
▁NaCl	-11.7058
▁repertoires	-11.7058
utter	-11.7068
▁polyp	-11.707
▁concerned	-11.7071
vert	-11.7073
")	-11.7079
▁Apis	-11.7079
▁fruits	-11.7081
ened	-11.7082
▁secrete	-11.7083
icola	-11.7084
pu	-11.7085
2/3	-11.7086
vey	-11.7087
9).	-11.7088
▁antigens	-11.7089
▁confident	-11.709
hin	-11.7092
▁abbreviations	-11.7096
▁subdivided	-11.7097
directional	-11.7097
▁distortion	-11.7097
▁[11–13]	-11.7098
law	-11.7099
▁cognate	-11.7099
▁rose	-11.71
▁coiled	-11.71
▁spin	-11.71
▁compartmentaliz	-11.7102
▁ref	-11.7102
▁reservoir	-11.7104
▁1990	-11.7105
consuming	-11.7106
Pacific	-11.7106
surface	-11.7106
▁kJ	-11.7108
▁primer	-11.7109
▁Fr	-11.711
▁32,	-11.7111
UT	-11.7112
ROS	-11.7119
For	-11.7119
FP	-11.7123
▁amplify	-11.7126
▁specify	-11.7126
▁exploiting	-11.7126
▁Ple	-11.7127
cata	-11.7136
▁LA	-11.7136
▁notochord	-11.7137
▁fluctuate	-11.7137
▁nomenclature	-11.7137
▁osmolality	-11.7137
▁Cancer	-11.7137
▁incompatibility	-11.7138
▁gallop	-11.7139
▁61	-11.7139
▁tonic	-11.7142
▁Rattus	-11.7144
parasitic	-11.7148
try	-11.715
▁adapting	-11.7151
▁lysis	-11.7153
DL	-11.7155
▁EMT	-11.7156
▁ph	-11.7156
▁deliver	-11.7156
▁Bas	-11.7162
▁dimers	-11.7164
▁regards	-11.7164
▁caste	-11.7165
▁transcriptomics	-11.7169
▁fluids	-11.7172
faunal	-11.7174
▁modulates	-11.7177
▁inadequate	-11.7179
▁1964;	-11.7179
▁cuttlefish	-11.7179
▁submerged	-11.7179
▁gastrulation	-11.7179
▁tiger	-11.7181
▁1-	-11.7181
▁(18	-11.7185
▁sc	-11.7187
▁CCR	-11.7187
peak	-11.7189
ptera	-11.7191
▁seconds	-11.7192
▁Jackson	-11.7194
auer	-11.7198
factor	-11.7201
▁hardly	-11.7204
LO	-11.7207
–1,	-11.7208
▁triangles	-11.7208
▁palm	-11.721
asi	-11.7214
▁hoc	-11.7216
▁PN	-11.722
▁allopatry	-11.7221
▁declining	-11.7221
amylase	-11.7221
▁bottlenose	-11.7221
▁flutter	-11.7221
▁carries	-11.7221
▁NCX	-11.7223
▁damping	-11.7224
▁SERCA	-11.7225
▁GDF	-11.7225
▁Later	-11.7225
▁weighting	-11.723
▁masking	-11.7231
occurrence	-11.7231
dominance	-11.7231
restricted	-11.7231
HC	-11.7232
▁mesoderm	-11.7233
ophore	-11.7237
▁[40],	-11.7237
rod	-11.7238
▁Bennett	-11.7244
▁veins	-11.7245
▁era	-11.7245
▁Rap	-11.7245
▁loaded	-11.7246
▁15%	-11.7247
▁strikes	-11.7249
▁chitin	-11.725
▁30,	-11.7251
▁ran	-11.7251
FF	-11.7253
ku	-11.7254
▁insert	-11.7256
600	-11.7257
dc	-11.7257
▁moult	-11.7258
early	-11.7258
▁assayed	-11.7258
▁Increasing	-11.7263
▁adhere	-11.7263
▁discontinuous	-11.7263
▁optimisation	-11.7263
▁solvent	-11.7264
▁gaze	-11.7264
-1)	-11.7266
iff	-11.7267
▁science	-11.7272
▁Diptera	-11.7274
▁briefly	-11.7275
▁stabilized	-11.7276
Ser	-11.7276
▁tradeoffs	-11.7277
▁cow	-11.7279
ien	-11.728
▁lice	-11.728
ncRNA	-11.7285
NI	-11.7286
▁urchins	-11.7287
▁Cross	-11.7287
▁Post	-11.7287
▁donors	-11.7288
▁imp	-11.7294
arrow	-11.7294
mas	-11.7295
▁Gray	-11.7297
▁FGF	-11.7302
▁600	-11.7303
▁MM	-11.7305
í	-11.7305
▁sheep	-11.7305
used	-11.7305
▁[55,	-11.7306
▁Collectively	-11.7306
▁HPD	-11.7307
mur	-11.7309
▁titin	-11.731
▁solar	-11.7313
ond	-11.7313
infection	-11.7314
HR	-11.7316
approximately	-11.7316
▁toads	-11.7317
▁1/	-11.7321
▁SK	-11.7322
theria	-11.7326
▁sacs	-11.7326
▁DO	-11.7327
[14]	-11.7327
CV	-11.7327
Fe	-11.7328
▁chaperone	-11.733
▁nymphs	-11.733
2]	-11.7331
▁augment	-11.7336
yer	-11.7338
score	-11.7341
▁Morphological	-11.7341
▁EPO	-11.7343
▁65]	-11.7343
sl	-11.7346
▁completion	-11.7347
▁multitude	-11.7347
▁polynomial	-11.7347
▁compositions	-11.7348
▁Typically	-11.7349
▁NS	-11.735
▁perennial	-11.7352
▁[81]	-11.7353
Myc	-11.7355
generating	-11.7356
▁neuropeptide	-11.7358
▁players	-11.7359
▁outlier	-11.736
▁1975)	-11.736
▁specificities	-11.7362
▁distinctly	-11.7365
▁pose	-11.7365
iti	-11.7371
▁MN	-11.7372
arch	-11.7372
▁mark	-11.7373
▁[42],	-11.7374
▁Cy	-11.7375
▁Gra	-11.7376
▁NOX	-11.7377
NM	-11.7377
▁unambiguous	-11.7384
▁21]	-11.7385
RK	-11.7386
▁dissimilar	-11.7389
▁extraordinary	-11.739
▁respirometry	-11.739
▁logistic	-11.739
▁uphill	-11.7391
AMP	-11.7391
▁cf	-11.7391
▁fibroblasts	-11.7391
▁alveolar	-11.7393
▁PAH	-11.7394
source	-11.7399
▁ch	-11.74
▁rabbit	-11.7401
▁ligase	-11.7401
shore	-11.7402
▁nano	-11.7405
globin	-11.7405
AN	-11.7405
▁(19	-11.7405
rob	-11.7406
ju	-11.7406
▁coexpression	-11.7407
▁totally	-11.7421
▁pa	-11.7421
▁allopolyploid	-11.7431
▁default	-11.7432
▁pervasive	-11.7432
▁neuropil	-11.7433
▁mucin	-11.7433
▁submitted	-11.7433
▁silkworm	-11.7433
▁abnormalities	-11.7433
▁matK	-11.7437
▁defective	-11.7437
▁coordinates	-11.7438
▁Robinson	-11.7442
▁goes	-11.7444
▁elongate	-11.7448
▁platforms	-11.7448
turn	-11.7451
regulate	-11.7457
Ac	-11.7463
yan	-11.7464
▁altitudes	-11.7468
▁linker	-11.7472
angle	-11.7475
▁estimator	-11.7475
▁evolvability	-11.7475
▁shuffling	-11.7475
▁promise	-11.7475
▁bistability	-11.7476
▁Little	-11.7476
▁covariation	-11.7477
▁postnatal	-11.7477
▁grip	-11.7477
▁sedentary	-11.7478
shift	-11.7479
▁bounds	-11.7481
▁triploid	-11.7481
▁engineered	-11.7482
▁languages	-11.7486
▁glaciation	-11.7487
▁lemur	-11.7487
▁circle	-11.7487
injected	-11.7487
▁macrophage	-11.7488
▁participat	-11.7488
▁environmentally	-11.7488
▁10°	-11.7489
version	-11.749
▁bath	-11.7493
5/	-11.7493
▁favors	-11.7494
ocephalus	-11.751
nis	-11.7514
▁tried	-11.7516
▁unprecedented	-11.7519
▁1966)	-11.7519
▁uncommon	-11.7519
race	-11.7519
Th	-11.7519
▁emergent	-11.752
▁gender	-11.752
▁preceded	-11.7521
▁Kim	-11.7521
▁glue	-11.7522
▁claim	-11.7523
▁Mt	-11.7524
▁chickens	-11.7524
▁approached	-11.7528
owski	-11.7528
▁counterpart	-11.7531
▁haem	-11.7532
groups	-11.7532
2;	-11.7534
▁subclade	-11.7535
small	-11.7535
than	-11.7537
▁approximated	-11.7538
▁1.6	-11.7538
atory	-11.754
1°	-11.7541
7-	-11.7546
▁passively	-11.7549
▁Comparisons	-11.755
rel	-11.7552
10,	-11.7555
▁concurrent	-11.7556
▁chemically	-11.7558
zz	-11.7561
▁acquiring	-11.7562
▁manuscript	-11.7562
▁ultrasound	-11.7562
▁initiating	-11.7562
▁verification	-11.7562
▁ascent	-11.7562
▁southeastern	-11.7562
pon	-11.7563
▁perfusion	-11.7563
▁[53,	-11.7564
lc	-11.7564
▁echoes	-11.7566
▁magna	-11.7566
▁Wu	-11.757
▁activators	-11.7572
especially	-11.7574
▁transposon	-11.7574
▁tentacle	-11.7574
RNase	-11.7575
▁decide	-11.7576
▁labelled	-11.7577
▁narrower	-11.7579
▁SF	-11.758
▁repressed	-11.758
▁MMP	-11.7586
▁vir	-11.7587
nom	-11.7588
▁mV	-11.7592
▁transposons	-11.7593
▁poses	-11.7594
▁holding	-11.7597
▁2.2	-11.7604
▁Whilst	-11.7605
▁[14–16]	-11.7605
▁lyrata	-11.7605
▁Tet	-11.7607
▁feeders	-11.7607
▁[52,	-11.7607
▁encompasses	-11.7609
stress	-11.761
▁missed	-11.761
▁latest	-11.7613
FE	-11.7614
8–	-11.7615
▁orthologue	-11.7618
▁HI	-11.7619
▁HF	-11.7621
▁indel	-11.7621
▁uniformly	-11.7627
▁KO	-11.7627
▁rec	-11.7628
▁reproduced	-11.7629
HO	-11.7632
▁satisfy	-11.7637
cen	-11.7639
▁NAD	-11.764
▁[44],	-11.7641
▁filtered	-11.7641
▁incompatible	-11.7641
omo	-11.7643
▁Intriguingly	-11.7649
▁glioma	-11.7649
▁guidance	-11.7649
▁Meanwhile	-11.7649
▁tropics	-11.7649
▁pedal	-11.7649
▁specialisation	-11.765
▁drinking	-11.7652
▁36,	-11.7652
▁BL	-11.7654
▁accompanying	-11.7654
▁saw	-11.7659
moto	-11.7661
▁Female	-11.7663
[18]	-11.7665
▁deuterostome	-11.7666
ches	-11.7668
▁AMF	-11.7668
▁Sk	-11.7668
environment	-11.7668
▁rendering	-11.7669
▁antagonists	-11.7675
regulating	-11.7676
grade	-11.7678
▁lip	-11.768
▁accomplish	-11.7685
▁groupings	-11.7685
ITS	-11.7692
ophil	-11.7693
▁spatio	-11.7693
▁Support	-11.7693
▁girdle	-11.7693
▁Short	-11.7693
▁layout	-11.7693
CK	-11.7696
8).	-11.7696
▁melanoma	-11.7697
▁MCF	-11.7697
▁GWAS	-11.77
▁rep	-11.7702
iness	-11.7703
▁Spo	-11.7703
▁endoderm	-11.7704
viral	-11.7704
▁[45],	-11.7705
eva	-11.7708
pes	-11.7708
▁polyploidy	-11.7709
▁TJ	-11.7712
sensing	-11.7715
▁EFL	-11.7716
mata	-11.7716
▁pit	-11.7716
▁integrin	-11.7718
▁mar	-11.7724
▁recommend	-11.7728
▁cup	-11.7731
▁abrupt	-11.7731
▁conclusive	-11.7731
▁NW	-11.7731
▁abstract	-11.7733
mut	-11.7736
▁1965;	-11.7737
▁[9–11]	-11.7737
▁crater	-11.7737
▁geography	-11.7737
▁guppy	-11.7737
▁maximizing	-11.7737
▁midshipman	-11.7737
▁harsh	-11.7737
▁1969)	-11.7737
▁bipartite	-11.7737
▁Natural	-11.7737
▁Detailed	-11.7738
▁Chen	-11.7738
▁measurable	-11.7739
▁colder	-11.7742
▁proceed	-11.7743
▁postulate	-11.7744
now	-11.7744
5,000	-11.7745
PIN	-11.7747
▁attained	-11.7747
aki	-11.7749
▁interstitial	-11.775
▁hotspots	-11.7753
▁Ur	-11.7753
▁[70].	-11.7755
6%)	-11.7758
▁cyst	-11.7759
coming	-11.7762
▁calibrations	-11.7763
ifolia	-11.7765
▁≈	-11.7767
@2	-11.7767
▁dissect	-11.7768
▁62	-11.7773
▁guided	-11.7775
▁orientations	-11.7777
”,	-11.7779
▁Fox	-11.778
▁Cameroon	-11.7781
▁averaging	-11.7781
▁bioluminescence	-11.7781
▁quadrupedal	-11.7781
▁unexplored	-11.7781
▁pastoris	-11.7781
▁herbivorous	-11.7781
▁urinary	-11.7781
▁tensile	-11.7781
▁forewing	-11.7782
▁mutualistic	-11.7782
▁armigera	-11.7783
▁press	-11.7784
▁TRP	-11.7785
▁77	-11.7785
▁citrate	-11.7788
▁nearest	-11.7789
▁Ke	-11.779
generated	-11.7791
▁beak	-11.7791
neutral	-11.7794
rup	-11.7794
▁scallop	-11.7795
logy	-11.7797
▁subsp	-11.7798
▁expresses	-11.7798
erman	-11.78
▁TAG	-11.7801
cular	-11.7803
▁RPS	-11.7804
])	-11.7806
▁Six	-11.781
Bi	-11.7811
▁formula	-11.7812
▁argues	-11.7814
sm	-11.7814
▁85	-11.7816
▁apes	-11.7817
▁tits	-11.7819
▁Along	-11.782
▁Lam	-11.7823
Si	-11.7825
▁vitellogenin	-11.7826
▁Vibrio	-11.7826
▁bigger	-11.7827
▁assemble	-11.7829
▁Equation	-11.7831
▁TEP	-11.7832
▁SAM	-11.7833
▁Toll	-11.7833
▁ODEs	-11.7834
pur	-11.7835
▁stretches	-11.7836
▁hinder	-11.7836
▁attractors	-11.7836
▁Akt	-11.7838
apoptotic	-11.7839
[20]	-11.7839
▁microRNAs	-11.7839
▁erythrocyte	-11.784
att	-11.7841
▁sized	-11.7843
somal	-11.7847
▁Cal	-11.7847
esis	-11.7849
▁2013	-11.7856
hydro	-11.7858
▁deficient	-11.7865
▁gonadal	-11.7866
▁Alzheimer	-11.787
▁Computational	-11.787
▁capsid	-11.787
▁Runx	-11.7871
▁krill	-11.7871
tella	-11.7872
▁74	-11.7873
▁diatoms	-11.7875
OL	-11.7876
▁pores	-11.7876
▁steering	-11.7878
▁king	-11.788
▁boxes	-11.7881
▁disentangle	-11.7881
▁Population	-11.7885
▁thousand	-11.7886
▁Hoffmann	-11.7886
▁noncoding	-11.7886
▁coded	-11.7887
▁associative	-11.7887
▁holo	-11.7892
dx	-11.7896
▁Ran	-11.7896
▁degrade	-11.7897
Jun	-11.7901
▁rescue	-11.7908
ison	-11.7912
atum	-11.7913
space	-11.7913
▁discoideum	-11.7915
▁eleven	-11.7915
▁resembling	-11.7915
▁undoubtedly	-11.7915
▁Adult	-11.7915
▁epidemiological	-11.7915
▁benign	-11.7915
▁nothing	-11.7916
▁multimodal	-11.7916
▁overlooked	-11.7917
▁supplementation	-11.7917
▁introgressed	-11.7919
sco	-11.7922
▁Marsh	-11.7923
▁illustrat	-11.7924
▁fla	-11.7926
selected	-11.7927
tissue	-11.7929
loc	-11.7931
▁gecko	-11.7931
▁duck	-11.7933
8°	-11.7934
▁burrows	-11.7935
▁UTR	-11.7937
▁hit	-11.7939
allo	-11.7941
▁lean	-11.7941
ult	-11.7943
rag	-11.7946
▁CPG	-11.7948
Ku	-11.7953
▁specialists	-11.7954
▁duct	-11.7954
wer	-11.7956
zer	-11.7957
▁Few	-11.7959
▁Bacillus	-11.796
▁cartilaginous	-11.796
▁dilution	-11.796
▁funnel	-11.796
▁mobilization	-11.796
▁orthogonal	-11.796
▁phagocytosis	-11.796
▁nasal	-11.796
▁recessive	-11.796
▁Strong	-11.796
▁traffic	-11.7965
▁transgene	-11.7965
▁originates	-11.7966
▁0.000	-11.7969
▁fighting	-11.797
▁reinforced	-11.7973
due	-11.7974
▁TOR	-11.7977
▁ja	-11.7981
▁allocated	-11.7982
▁wa	-11.7985
▁bank	-11.7986
▁adrenergic	-11.7986
▁1981)	-11.7991
▁killing	-11.7991
erson	-11.7992
reg	-11.7993
▁helping	-11.7993
1.4	-11.7995
▁rhabdom	-11.8001
fic	-11.8002
▁Pyr	-11.8003
ylation	-11.8004
rini	-11.8005
▁chewing	-11.8008
▁retaining	-11.8009
▁remainder	-11.801
▁adenosine	-11.8013
▁attempting	-11.8013
▁surroundings	-11.8015
▁seasonally	-11.8015
▁Pearson	-11.8015
▁warranted	-11.8016
6°	-11.8018
–18	-11.8018
miRNAs	-11.8021
▁opens	-11.8023
▁Trk	-11.8025
▁killer	-11.8026
▁prime	-11.8028
163	-11.8037
▁reporting	-11.8038
▁Wi	-11.8039
▁5:	-11.8042
▁(*	-11.8043
▁bra	-11.8047
using	-11.8048
▁maxima	-11.8048
HL	-11.805
▁[15–17]	-11.8051
▁catalase	-11.8051
▁endangered	-11.8051
▁entrance	-11.8051
▁pentose	-11.8051
▁viviparous	-11.8051
▁0.03	-11.8051
▁cranio	-11.8051
▁ParaHox	-11.8051
▁brightness	-11.8052
▁dung	-11.8054
▁await	-11.8058
▁RNR	-11.8059
▁enters	-11.806
▁Ellington	-11.8062
culture	-11.8065
▁Chown	-11.8065
rc	-11.8069
1.3	-11.8069
▁spans	-11.8069
atic	-11.807
▁Ger	-11.8071
[15]	-11.8071
▁synapse	-11.8072
ár	-11.8078
▁operational	-11.8079
−1,	-11.8082
▁stalk	-11.8094
▁34,	-11.8095
lec	-11.8096
onic	-11.8096
▁[12–14]	-11.8096
▁dependencies	-11.8096
▁chimeric	-11.8097
▁[56,	-11.8097
▁1991),	-11.8098
▁GPx	-11.81
▁dye	-11.81
▁Fo	-11.8102
iae	-11.8104
▁metals	-11.8105
▁Very	-11.8106
▁Flux	-11.8106
▁patchy	-11.8107
▁69]	-11.8109
▁Gorb	-11.8109
▁HLA	-11.811
≈	-11.8111
likelihood	-11.8111
relative	-11.8112
▁exchanges	-11.8115
▁pr	-11.8117
▁Yang	-11.812
▁cool	-11.812
▁catalyzed	-11.812
▁mitigate	-11.8122
▁mask	-11.8123
dive	-11.8127
▁strands	-11.8127
ozoa	-11.8129
eta	-11.8129
press	-11.8132
kel	-11.8133
▁Sin	-11.8136
▁catalyzes	-11.8142
▁circumvent	-11.8142
▁impressive	-11.8142
▁marmoratus	-11.8142
▁observing	-11.8142
▁frameshift	-11.8145
▁cofactors	-11.8147
rill	-11.8149
▁oxidized	-11.8149
nar	-11.8151
▁PGC	-11.8151
▁preclude	-11.8153
iella	-11.8158
▁deflection	-11.816
1:	-11.8167
idia	-11.8168
rf	-11.8169
▁Tro	-11.8172
UP	-11.8173
▁VP	-11.8179
tag	-11.8181
gas	-11.8182
▁convincing	-11.8183
▁contract	-11.8184
▁Meso	-11.8186
Nielsen	-11.8188
▁isolating	-11.8188
▁paucity	-11.8188
▁advent	-11.8189
▁accessibility	-11.8189
▁uncoupling	-11.8189
▁JNK	-11.8189
▁suboptimal	-11.8191
▁Genomic	-11.8192
▁Cr	-11.8192
▁dividing	-11.8193
▁mounting	-11.8194
▁GluRS	-11.8195
▁chaperonin	-11.8196
ules	-11.8196
2.1	-11.82
▁[41],	-11.8202
selection	-11.8204
▁antisense	-11.8206
forward	-11.8206
▁glob	-11.8206
origin	-11.8207
▁gamete	-11.8207
▁phosphatases	-11.8209
[13]	-11.821
▁cation	-11.8211
LD	-11.8214
9]	-11.8216
▁NCC	-11.8217
▁ED	-11.8217
▁nad	-11.8222
▁complicate	-11.8223
▁Ec	-11.8223
▁placenta	-11.8225
▁Trp	-11.8226
▁(15	-11.8226
▁constituents	-11.8227
aph	-11.8232
▁concatenation	-11.8235
▁heterochromatin	-11.8235
▁repetition	-11.8235
▁tectonic	-11.8235
▁worse	-11.8235
▁disagreement	-11.8237
▁†	-11.8238
▁cultural	-11.8239
▁said	-11.8241
▁interspecies	-11.8244
lex	-11.8245
▁camera	-11.8246
▁Rio	-11.8247
▁Mer	-11.8247
▁Thomas	-11.8247
yama	-11.8248
▁Good	-11.825
▁3.2	-11.8251
enti	-11.8253
▁valve	-11.8253
Ph	-11.8254
measured	-11.8254
Webb	-11.8254
▁figures	-11.8255
▁Cells	-11.826
ography	-11.826
phil	-11.8261
▁defend	-11.8261
▁harmonic	-11.8262
▁entered	-11.8262
▁inconsistencies	-11.8264
transferases	-11.8266
▁slip	-11.8266
contraction	-11.8269
▁transiently	-11.8271
1-1	-11.828
▁Mesozoic	-11.8281
▁altitudinal	-11.8281
▁emperor	-11.8281
▁oviparous	-11.8281
▁pluripotency	-11.8281
▁weather	-11.8281
▁Sexual	-11.8281
▁absorbance	-11.8282
▁exchanger	-11.8288
▁ridges	-11.8288
▁TG	-11.8289
▁orb	-11.8289
▁pain	-11.829
▁relaxin	-11.8291
▁Close	-11.8293
▁67]	-11.8293
ln	-11.8295
absence	-11.8297
▁spontaneously	-11.8298
▁ste	-11.8301
▁pigeon	-11.8303
▁cyt	-11.8305
uy	-11.8305
▁1990),	-11.8306
3;	-11.8307
▁1995	-11.8309
▁RB	-11.8311
▁withstand	-11.8315
▁Research	-11.8328
▁ocelli	-11.8328
▁endoplasmic	-11.8328
▁bandwidth	-11.8328
▁opportunistic	-11.8328
▁hook	-11.833
▁Neither	-11.8332
▁wrong	-11.8332
▁delineate	-11.8333
▁gl	-11.8335
lau	-11.8335
▁1;	-11.8338
GH	-11.8341
▁assemblages	-11.8343
stoma	-11.8343
Evans	-11.8344
classical	-11.8344
Martin	-11.8344
▁hive	-11.8348
▁devices	-11.8349
▁montane	-11.8351
▁66]	-11.8352
▁mediators	-11.8354
▁75%	-11.8355
▁Water	-11.8359
▁SET	-11.8359
▁margins	-11.836
▁stands	-11.8365
taxon	-11.8367
▁Ire	-11.8372
▁optima	-11.8372
2%)	-11.8372
▁tobacco	-11.8375
▁vertices	-11.8375
▁vicariant	-11.8375
▁communicate	-11.8375
▁damaging	-11.8375
▁naive	-11.8375
▁golden	-11.8376
chel	-11.8377
6-	-11.8379
▁∈	-11.8379
▁ubiquitination	-11.8381
▁maneuvers	-11.8383
localization	-11.8389
▁Bor	-11.8389
Te	-11.839
fishes	-11.8392
▁exceeding	-11.8394
▁oyster	-11.8395
▁(0.1	-11.8396
En	-11.8396
ook	-11.84
▁transformations	-11.8402
zu	-11.8407
locked	-11.8407
▁Out	-11.841
▁tracer	-11.8412
direct	-11.8415
▁mir	-11.8418
Hox	-11.8418
Her	-11.842
▁odontocetes	-11.842
▁EP	-11.842
▁spleen	-11.8422
▁cholinergic	-11.8422
▁bulb	-11.8422
▁intricate	-11.8422
▁osmoregulation	-11.8422
▁[19–21]	-11.8423
▁retreat	-11.8426
▁PH	-11.843
▁masked	-11.8431
▁rationale	-11.8432
▁manifested	-11.8434
}}	-11.8436
▁aspartate	-11.8436
resolved	-11.8437
▁DI	-11.844
▁FB	-11.844
any	-11.8441
▁autonomous	-11.8442
▁cassette	-11.8442
ark	-11.8444
chromosomal	-11.8445
▁methylated	-11.8445
▁caves	-11.8445
MHC	-11.8445
[12]	-11.8446
▁grasshoppers	-11.8446
▁alligators	-11.8446
▁Var	-11.8447
▁~3	-11.8448
▁visualized	-11.8449
▁kill	-11.8449
▁pigs	-11.845
▁gastropod	-11.8451
▁forager	-11.8451
Ge	-11.8453
▁priors	-11.8454
▁utilizes	-11.8458
Ab	-11.8458
▁approximations	-11.8465
LL	-11.8465
valent	-11.8466
anthus	-11.8466
▁ARF	-11.8467
▁trip	-11.8468
▁Bl	-11.8468
▁[16–18]	-11.8469
▁eliminating	-11.8469
▁oscillating	-11.8469
▁prolactin	-11.8469
▁tertiary	-11.8469
▁vectensis	-11.8469
▁nitric	-11.847
▁Canada	-11.847
▁recolonization	-11.8471
▁malate	-11.8472
▁exo	-11.8474
6),	-11.8474
▁ferritin	-11.8475
▁SNARE	-11.8476
▁Vps	-11.8479
▁maximise	-11.8484
kinase	-11.8484
▁switched	-11.8486
dio	-11.8487
▁rolling	-11.8488
reared	-11.8489
▁decapod	-11.849
▁budget	-11.849
▁eyespot	-11.8491
[17]	-11.8491
▁Control	-11.8493
logic	-11.8493
▁labor	-11.8493
▁alcohol	-11.8494
gia	-11.8496
▁ng	-11.8496
▁2.4	-11.8499
cum	-11.8503
under	-11.8503
fig	-11.8508
▁MFA	-11.8514
▁ambiguity	-11.8517
▁celestial	-11.8517
▁eccentric	-11.8517
▁efficiencies	-11.8517
▁irradiation	-11.8517
▁trypsin	-11.8517
▁women	-11.8517
▁expert	-11.8517
▁Lbx	-11.8517
▁mechanically	-11.8517
▁plain	-11.8517
▁postural	-11.8519
ora	-11.8519
▁maximally	-11.8521
▁Cooper	-11.8522
▁compatibility	-11.8523
▁3’	-11.8523
▁interestingly	-11.8524
▁sagittal	-11.8526
▁trail	-11.8528
nose	-11.8529
growth	-11.8531
▁TT	-11.8534
Miller	-11.8535
▁diagrams	-11.8536
▁mediator	-11.854
▁Ops	-11.854
date	-11.8542
odo	-11.8548
hara	-11.8549
aker	-11.8551
scribed	-11.8556
▁DGC	-11.8559
▁MRP	-11.8565
▁galloprovincial	-11.8565
▁gluconeogenesis	-11.8565
▁heavier	-11.8565
▁helicase	-11.8565
▁ratchet	-11.8565
▁38,	-11.8566
▁hydration	-11.8567
▁Plant	-11.8567
▁androgen	-11.8567
▁insular	-11.8568
▁innervated	-11.8569
▁finer	-11.8573
▁proliferative	-11.8574
▁replicators	-11.8576
Cys	-11.8577
▁constructs	-11.8577
▁sulfur	-11.8577
▁disordered	-11.8578
▁diameters	-11.8579
▁HV	-11.858
▁PK	-11.8582
exposure	-11.8582
developed	-11.8582
▁passing	-11.8584
▁GTPase	-11.8587
▁70]	-11.8588
eter	-11.8589
▁1996	-11.8589
▁returns	-11.8594
Lu	-11.8596
▁Lep	-11.8597
MB	-11.8597
▁supplement	-11.8598
▁divers	-11.8599
▁neuropeptides	-11.8601
▁73	-11.8601
▁ROM	-11.8606
▁convenient	-11.8607
3%)	-11.8608
▁emersion	-11.8613
▁glomeruli	-11.8613
▁olfaction	-11.8613
▁Pseudomonas	-11.8613
▁biophysical	-11.8613
▁habituation	-11.8613
▁ADAM	-11.8614
Ja	-11.8615
▁ascending	-11.8615
iel	-11.862
▁Nv	-11.8621
▁FC	-11.8623
▁segregat	-11.8624
omonas	-11.8624
▁amphi	-11.8625
▁investigators	-11.8625
▁Wolf	-11.8626
▁emphasizes	-11.8628
▁rooted	-11.8628
@3	-11.8628
molecule	-11.863
formerly	-11.8635
▁artefact	-11.8635
▁ecdysteroid	-11.8635
aco	-11.8646
▁99	-11.8649
▁specializations	-11.8652
▁Chang	-11.8654
▁myco	-11.8654
▁arrive	-11.8655
compatibilities	-11.8661
▁Beyond	-11.8661
▁entries	-11.8661
▁hypercapnia	-11.8661
▁nonetheless	-11.8661
▁prolixus	-11.8661
▁quiescent	-11.8661
▁salinities	-11.8661
▁stagnalis	-11.8661
▁tremendous	-11.8661
▁vestibular	-11.8661
▁cyclase	-11.8661
▁[82]	-11.8661
▁losing	-11.8662
▁endocytosis	-11.8662
▁mantis	-11.8662
▁1.7	-11.8662
▁command	-11.8662
▁flicker	-11.8663
phage	-11.8666
MO	-11.8668
▁Rad	-11.8672
▁phy	-11.8672
acea	-11.8674
pathogenic	-11.8675
symbiont	-11.8675
here	-11.8676
▁PTS	-11.8677
toxic	-11.8678
·	-11.8679
▁soils	-11.8683
▁Individual	-11.8684
immunoreactivity	-11.8688
yt	-11.8688
about	-11.869
42–	-11.8693
▁Populations	-11.8693
▁5°	-11.8694
▁formally	-11.8696
cera	-11.8698
web	-11.8698
oy	-11.8704
etic	-11.8706
▁GK	-11.8706
▁0,	-11.8708
▁bacteriophage	-11.871
Oncorhynchus	-11.871
▁rostral	-11.871
▁spurious	-11.871
▁northeastern	-11.871
▁reorganization	-11.8711
ophyta	-11.8711
stimulated	-11.8713
▁Bradley	-11.8717
▁stricto	-11.872
▁programmed	-11.872
Glu	-11.8723
▁sl	-11.8724
11,	-11.8728
▁bivalve	-11.8733
▁hydrocarbon	-11.8733
▁salamander	-11.8733
▁exonic	-11.8734
▁outbreak	-11.8735
mia	-11.8735
lium	-11.8739
▁descend	-11.8746
▁pha	-11.8747
▁polyploids	-11.8749
tle	-11.8756
▁cooperativity	-11.8759
▁echolocating	-11.8759
▁execution	-11.8759
▁honest	-11.8759
▁purpuratus	-11.8759
▁supplied	-11.8759
▁pacemaker	-11.8759
▁purified	-11.8759
▁savannah	-11.876
▁LEV	-11.8761
▁EA	-11.8762
▁tractable	-11.8763
▁1992),	-11.8763
▁labels	-11.8763
_{	-11.8763
▁outgroups	-11.8764
feld	-11.8766
▁LI	-11.8767
▁triple	-11.8771
ston	-11.8771
▁[2–4].	-11.8773
Or	-11.8775
[10]	-11.878
▁MMR	-11.878
[11]	-11.8781
▁RAD	-11.8784
3.1	-11.8784
▁suppressing	-11.8786
▁tracts	-11.8788
exp	-11.8789
▁geckos	-11.8791
Land	-11.8792
uel	-11.8793
▁goats	-11.8795
▁cast	-11.8802
ars	-11.8807
∝	-11.8808
▁agriculture	-11.8808
▁destruction	-11.8808
▁necrosis	-11.8808
▁promiscuous	-11.8808
▁vaccine	-11.8808
▁vulgaris	-11.8808
▁BDIM	-11.8808
▁unfamiliar	-11.8808
▁laser	-11.8808
▁dimensionality	-11.8809
▁conduction	-11.881
olar	-11.881
▁2;	-11.8812
▁thermally	-11.8814
▁arrived	-11.8815
ij	-11.8815
arid	-11.8815
▁invaded	-11.8817
epi	-11.8819
▁initiates	-11.882
▁galloping	-11.8821
▁Bra	-11.8824
▁train	-11.8825
▁Harrison	-11.8827
-6-	-11.8828
▁Thompson	-11.883
▁cetacean	-11.8832
▁projected	-11.8834
Gr	-11.8834
▁wherein	-11.8836
▁traveling	-11.8837
▁colored	-11.8838
▁occupying	-11.8842
▁ears	-11.8843
▁Lind	-11.8843
▁outline	-11.8848
nae	-11.8854
cardi	-11.8857
▁loggerhead	-11.8857
▁Especially	-11.8857
▁hindgut	-11.8857
▁prognosis	-11.8857
▁protraction	-11.8857
▁quagga	-11.8857
▁cotton	-11.8857
▁otolith	-11.8857
▁Body	-11.8858
▁tympanal	-11.8858
▁ciliates	-11.886
▁commensal	-11.886
▁3′	-11.8864
8%)	-11.8866
▁workflow	-11.8866
cep	-11.8869
▁receptive	-11.887
oideae	-11.8872
▁1.9	-11.8872
arginine	-11.8875
cancer	-11.8875
▁conducting	-11.8876
▁room	-11.8879
▁glucocorticoid	-11.8881
▁blend	-11.8881
▁neuromast	-11.8882
▁restricting	-11.8882
▁20]	-11.8883
utt	-11.8883
▁designing	-11.8884
vic	-11.8894
▁hinge	-11.8895
[7]	-11.8896
▁experimentation	-11.8901
▁omics	-11.8904
▁saliva	-11.8906
1–4	-11.8906
▁guinea	-11.8906
▁cannibalism	-11.8906
▁oryzae	-11.8906
▁proteolysis	-11.8906
▁snout	-11.8907
▁pathology	-11.8907
▁goby	-11.8909
▁Au	-11.891
▁TetR	-11.8911
TFs	-11.8912
▁Siberian	-11.8914
▁cor	-11.8915
▁biting	-11.8915
Kr	-11.8916
▁Kelly	-11.8916
▁releasing	-11.8919
West	-11.892
4%)	-11.8921
mys	-11.8923
▁fear	-11.8925
nest	-11.8925
WGD	-11.8927
▁Hep	-11.8929
▁Ju	-11.893
pis	-11.8931
▁Liu	-11.8931
▁epidemic	-11.8931
print	-11.8932
▁comb	-11.8937
[8]	-11.8942
RN	-11.8942
LN	-11.8943
▁coma	-11.8952
▁Cyt	-11.8954
spine	-11.8955
▁Dscam	-11.8956
▁bubble	-11.8956
▁conservatism	-11.8956
▁devoted	-11.8956
▁ensuring	-11.8956
▁luminance	-11.8956
▁twelve	-11.8956
▁freedom	-11.8956
▁differentiating	-11.8956
▁Single	-11.8956
▁microbiome	-11.8956
▁United	-11.8957
▁renders	-11.8957
▁overlapped	-11.8958
▁farmed	-11.8959
▁reversion	-11.896
▁porpoises	-11.8961
▁Jan	-11.8962
▁fulfill	-11.8968
▁estradiol	-11.8969
▁want	-11.8971
▁tropicalis	-11.8971
zygotic	-11.8971
▁afferent	-11.8971
▁phasic	-11.8972
osine	-11.8974
mentioned	-11.8975
▁79	-11.8975
▁15°	-11.8976
▁Nelson	-11.8977
▁screened	-11.8978
▁inhabited	-11.8979
▁endonuclease	-11.8982
oxidation	-11.8982
▁Davis	-11.8982
▁Asp	-11.8983
▁substance	-11.8983
hine	-11.8984
▁risks	-11.8985
▁TC	-11.899
ipes	-11.8992
▁powered	-11.8994
▁demes	-11.8994
12)	-11.9
oxy	-11.9004
AX	-11.9005
targeted	-11.9006
▁pay	-11.9006
▁Representative	-11.9006
▁sporulation	-11.9006
▁floor	-11.9006
▁Fungi	-11.9006
▁shuttle	-11.9006
▁Birds	-11.9006
▁biomes	-11.9008
▁FOX	-11.9009
▁checkpoint	-11.9009
ali	-11.9009
los	-11.9012
▁lato	-11.9012
▁manage	-11.9014
▁biota	-11.9015
▁ORs	-11.9015
▁chromatophores	-11.9017
▁intensively	-11.9018
acetyl	-11.9021
▁inappropriate	-11.9022
▁USP	-11.9024
▁spaced	-11.9025
▁sequentially	-11.9025
▁treating	-11.9027
▁BAC	-11.9029
▁cutoff	-11.9031
▁Factor	-11.9032
▁contributor	-11.9032
▁elasmobranch	-11.9032
▁PTM	-11.9034
ryl	-11.9034
sol	-11.9035
its	-11.9035
polyploidization	-11.9045
▁termites	-11.9046
▁Sym	-11.9047
▁Siberia	-11.9049
[6]	-11.9053
7%)	-11.9055
Do	-11.9055
▁Earlier	-11.9056
▁gestation	-11.9056
▁identities	-11.9056
▁occupancy	-11.9056
▁reproducible	-11.9056
▁retrieval	-11.9056
▁biochemistry	-11.9057
▁midbrain	-11.9057
▁[57,	-11.9057
▁ample	-11.9058
▁uncharacterized	-11.9058
▁indigenous	-11.9059
▁51]	-11.9066
▁TFBSs	-11.9069
▁prion	-11.9069
▁EWL	-11.9069
▁CAC	-11.907
▁Blob	-11.907
▁echinoderms	-11.907
▁Age	-11.9072
▁templates	-11.9072
▁Ten	-11.9072
Pleistocene	-11.9076
OS	-11.9077
work	-11.9079
▁releases	-11.9085
▁principally	-11.9087
▁repress	-11.9088
▁ducks	-11.9089
My	-11.909
▁mite	-11.9091
GRN	-11.9091
▁[70]	-11.9091
reaction	-11.9094
IA	-11.9096
▁Mutations	-11.9099
▁replacements	-11.9099
▁glycoproteins	-11.9102
▁Chlamydomonas	-11.9107
▁mykiss	-11.9107
▁plastome	-11.9107
▁ribozyme	-11.9107
▁bull	-11.9111
▁Kiss	-11.9112
▁Oryza	-11.9112
▁cutaneous	-11.9112
▁PKC	-11.9117
▁restored	-11.9118
▁Blake	-11.912
amo	-11.912
▁tr	-11.9121
▁zea	-11.9123
▁converting	-11.9124
▁checking	-11.9126
▁OC	-11.9127
▁minimise	-11.9128
▁(~1	-11.9128
▁Garland	-11.9128
[19]	-11.9131
▁depress	-11.9133
▁130	-11.914
▁terminals	-11.914
▁erythrocytes	-11.9141
ococcus	-11.9147
aris	-11.9148
▁overestimate	-11.9152
▁PAR	-11.9154
ζ	-11.9158
▁accelerating	-11.9158
▁buried	-11.9158
▁endosymbiosis	-11.9158
▁hippocampus	-11.9158
▁transparent	-11.9158
▁fetal	-11.9158
▁rainfall	-11.9158
▁children	-11.9158
▁DV	-11.9158
▁associates	-11.9164
▁eclosion	-11.9164
▁recruit	-11.9165
▁...	-11.9165
round	-11.9166
▁outperforms	-11.9166
▁distinguishable	-11.9166
▁intrinsically	-11.9171
5),	-11.9172
▁105	-11.9177
▁76	-11.9177
output	-11.9178
iensis	-11.918
breathing	-11.9181
complete	-11.9182
▁device	-11.9185
▁biomarker	-11.9186
▁eudicots	-11.9188
▁Stage	-11.919
▁tails	-11.9193
▁Bon	-11.9194
▁LS	-11.9194
rey	-11.9194
▁inefficient	-11.9195
hol	-11.9195
‰	-11.9197
1.7	-11.92
phen	-11.9201
▁72]	-11.9203
▁characterise	-11.9205
▁shorten	-11.9209
▁aperture	-11.9209
▁chromophore	-11.9209
▁integument	-11.9209
▁modality	-11.9209
▁quartet	-11.9209
▁speculative	-11.9209
▁vacuole	-11.9209
2.2	-11.9209
▁metagenomic	-11.921
▁Local	-11.921
far	-11.9211
▁snapshot	-11.9211
▁glial	-11.9212
▁cervical	-11.9212
atter	-11.9213
▁gathered	-11.9213
▁litters	-11.9213
▁sinusoidal	-11.9218
▁Dec	-11.922
▁checked	-11.9223
▁nucleic	-11.9223
cp	-11.9224
▁coincided	-11.9225
capture	-11.9227
▁threonine	-11.9228
PB	-11.9228
▁35,	-11.9229
overlapping	-11.9229
Graham	-11.9229
means	-11.923
oct	-11.9231
▁2%	-11.9231
▁ta	-11.9233
solid	-11.9234
worth	-11.9236
▁pers	-11.9236
▁peninsula	-11.9237
▁phospholipid	-11.9237
SSR	-11.9238
aro	-11.9238
▁oysters	-11.9238
▁Are	-11.9241
otropic	-11.9243
▁pol	-11.9245
chl	-11.9246
▁accord	-11.9248
▁Hap	-11.9249
▁gonads	-11.925
paralog	-11.9253
▁Box	-11.9254
▁barb	-11.9255
ridge	-11.9257
▁Prote	-11.9257
▁States	-11.9257
ström	-11.926
▁Poisson	-11.926
▁hematopoietic	-11.926
▁pleiotropy	-11.926
▁resemblance	-11.926
▁serving	-11.926
▁singular	-11.926
▁synergy	-11.926
▁acuity	-11.926
▁Blue	-11.926
▁suitability	-11.926
▁visceral	-11.926
▁stone	-11.9261
▁recoil	-11.9263
Wi	-11.9264
mount	-11.9266
▁steeper	-11.9266
▁cleaved	-11.9267
▁altogether	-11.9269
▁PUFA	-11.9269
derma	-11.927
▁variances	-11.9271
▁MIP	-11.9271
energy	-11.928
treatment	-11.928
ostoma	-11.9282
▁mito	-11.9282
Ru	-11.9286
▁compares	-11.9286
KO	-11.9287
mont	-11.929
▁stripe	-11.9291
▁Mono	-11.9292
▁Mann	-11.9293
▁persists	-11.9293
▁combat	-11.9296
▁Lar	-11.9298
bridge	-11.9302
cyst	-11.9305
HS	-11.9305
▁bed	-11.9306
▁”	-11.9307
RNAs	-11.9308
▁NLR	-11.9311
▁Obviously	-11.9312
▁Statistical	-11.9312
▁economy	-11.9312
▁giraffe	-11.9312
▁parapatric	-11.9312
▁synapomorphy	-11.9312
▁condensation	-11.9312
▁penetration	-11.9312
▁Swiss	-11.9312
oro	-11.9314
▁assignments	-11.9315
▁Darwin	-11.9317
▁lamellar	-11.9317
▁productive	-11.9317
als	-11.9318
oviruses	-11.9321
▁rear	-11.9325
▁(“	-11.9326
either	-11.9327
▁comprehensively	-11.9331
eger	-11.9332
GenBank	-11.9332
Marshall	-11.9332
partition	-11.9332
altitude	-11.9333
Chen	-11.9335
Hart	-11.9335
▁caught	-11.9335
viridae	-11.9337
cm	-11.9338
▁CM	-11.9339
module	-11.9339
cyclic	-11.9339
ska	-11.934
elle	-11.9341
▁pests	-11.9342
▁erroneous	-11.9357
SG	-11.936
1%)	-11.9361
xa	-11.9363
▁pupil	-11.9363
▁bluegill	-11.9363
▁genuine	-11.9363
▁incongruent	-11.9363
▁pedigree	-11.9363
▁rupture	-11.9363
▁vorticity	-11.9363
▁1.8	-11.9364
▁wrist	-11.9364
▁histamine	-11.9364
▁healing	-11.9364
▁boost	-11.9366
▁vasopressin	-11.9368
▁fo	-11.9369
▁disappeared	-11.9371
synaptic	-11.9381
▁sprinting	-11.9382
differentiation	-11.9384
▁rotate	-11.9387
▁really	-11.9387
cost	-11.939
▁trivial	-11.939
▁plantar	-11.939
▁filling	-11.9392
▁valley	-11.9393
▁translocations	-11.9405
Mu	-11.9405
unc	-11.9407
▁accumulates	-11.9414
▁Divergence	-11.9415
▁Environmental	-11.9415
▁[21–23]	-11.9415
▁possum	-11.9415
▁prognostic	-11.9415
▁reticulate	-11.9415
▁braking	-11.9416
▁transepithelial	-11.9416
▁perturb	-11.9416
▁hatch	-11.9417
slow	-11.9417
▁palp	-11.9417
VI	-11.9419
hereafter	-11.9423
▁Phy	-11.9423
▁arches	-11.9423
▁ovipositor	-11.9425
▁permanently	-11.9427
MG	-11.9429
▁receives	-11.9433
ophytes	-11.9434
lethal	-11.9436
▁fight	-11.9436
soluble	-11.9437
▁Collett	-11.9439
0),	-11.9442
▁DEE	-11.9443
alpha	-11.9449
▁salmonid	-11.945
▁Mark	-11.9451
▁Sun	-11.9453
▁lifestyles	-11.9453
cord	-11.9454
▁cy	-11.9456
▁scored	-11.9457
▁ornaments	-11.946
ADP	-11.9461
▁spacers	-11.9462
arth	-11.9466
▁strokes	-11.9467
▁antarctica	-11.9468
▁puzzling	-11.9468
▁docking	-11.9468
▁admixed	-11.9468
▁reductive	-11.9469
▁dimerization	-11.9469
▁Differential	-11.947
▁Hydro	-11.9473
▁GnRH	-11.9474
2_	-11.9475
static	-11.9481
▁participants	-11.9483
ellus	-11.9483
▁speaking	-11.9485
▁[43],	-11.9486
▁dorsalis	-11.9487
dominant	-11.9487
▁Cap	-11.9488
central	-11.9489
Pörtner	-11.9489
▁Mg	-11.9491
▁station	-11.9493
▁Tetra	-11.9493
▁AN	-11.9493
lt	-11.9494
▁Individuals	-11.9496
gent	-11.9496
▁fl	-11.9497
▁Yeast	-11.9497
▁buds	-11.9498
▁carbonate	-11.9499
▁monomer	-11.95
▁jets	-11.9502
ava	-11.9502
map	-11.9509
▁1980	-11.9515
▁lys	-11.9516
▁biomechanics	-11.952
▁mushroom	-11.952
▁Panama	-11.952
▁americana	-11.952
▁pancreas	-11.952
Cavagna	-11.952
▁Calvin	-11.9521
▁metastatic	-11.9521
▁[59,	-11.9521
▁noticeable	-11.9521
▁slave	-11.9522
▁conferred	-11.9522
▁skyline	-11.9523
▁outbred	-11.9523
ml	-11.9524
▁motile	-11.9527
▁Simmons	-11.9534
cia	-11.9534
▁flap	-11.9535
▁HEG	-11.9538
▁PPO	-11.9538
▁Arc	-11.954
mag	-11.9541
velocity	-11.9542
▁Ham	-11.9543
uchi	-11.9544
The	-11.9545
▁emit	-11.9548
cross	-11.9548
2°	-11.9551
ASP	-11.9552
▁dS	-11.9553
▁tags	-11.9555
embryonic	-11.956
▁ORNs	-11.956
wind	-11.9565
▁afford	-11.9565
mir	-11.9566
▁1963;	-11.9573
▁erosion	-11.9573
▁feasibility	-11.9573
▁filtration	-11.9573
▁integron	-11.9573
▁Region	-11.9573
▁rectum	-11.9573
ichthys	-11.9574
Tables	-11.9575
▁Germany	-11.9575
▁compiled	-11.9575
▁gibbons	-11.9576
▁selfish	-11.9576
▁grew	-11.9576
illo	-11.9577
▁Burrows	-11.9577
▁stepwise	-11.9577
▁trpB	-11.9578
▁provisioning	-11.9584
teen	-11.9584
▁Morris	-11.9587
tional	-11.959
bill	-11.959
▁fruiting	-11.9591
nick	-11.9592
▁ram	-11.9593
–40	-11.9594
▁entail	-11.9596
▁[51],	-11.9596
▁minimized	-11.9597
[16]	-11.9602
▁Flo	-11.9602
▁War	-11.9604
1–3	-11.9607
▁protecting	-11.9607
8]	-11.9611
tids	-11.9616
▁SCD	-11.9616
▁[14	-11.9617
▁implicit	-11.9621
Bu	-11.9622
▁incur	-11.9622
▁circannual	-11.9627
▁potassium	-11.9627
▁sculpin	-11.9627
▁tackle	-11.9627
ected	-11.9627
▁Candida	-11.9627
▁Common	-11.9627
▁southeast	-11.9627
▁comment	-11.9627
▁bin	-11.9627
▁polymerization	-11.9627
▁injections	-11.9628
▁capensis	-11.9628
▁Mbn	-11.9629
▁Tre	-11.9629
▁trot	-11.963
▁Anti	-11.9631
▁dispersing	-11.9631
▁roost	-11.9633
mark	-11.9634
▁inspired	-11.9635
legged	-11.9639
▁Total	-11.9642
VA	-11.9642
▁ZP	-11.9642
▁Wal	-11.9644
▁tunicates	-11.9644
▁Sim	-11.9645
Bennet	-11.9645
[21]	-11.9649
localized	-11.9653
HGT	-11.9653
edu	-11.9657
▁anuran	-11.9659
▁chambers	-11.9665
dry	-11.9668
▁pitching	-11.9669
▁0.25	-11.967
▁implicate	-11.9673
▁copepods	-11.9675
▁[72].	-11.9676
▁microtubules	-11.9676
action	-11.9678
ave	-11.9678
▁Glacial	-11.968
▁Michaelis	-11.968
▁Structural	-11.968
▁[17–19]	-11.968
▁inaccurate	-11.968
▁interspersed	-11.968
▁oscillate	-11.968
▁paraphyly	-11.968
▁tumorigenesis	-11.968
▁versatile	-11.968
▁revised	-11.9681
▁reconcile	-11.9681
▁188	-11.9682
▁sequestration	-11.9682
▁striated	-11.9685
Pr	-11.9686
▁hampered	-11.9687
▁lion	-11.9689
▁2.7	-11.969
▁Pfam	-11.969
20,	-11.9691
▁gaining	-11.9693
weight	-11.9695
▁1994	-11.9696
▁mouthparts	-11.9697
▁sharply	-11.9698
mos	-11.9699
▁marginally	-11.9699
▁Host	-11.9701
rx	-11.9703
deletion	-11.9703
▁Walker	-11.9703
short	-11.9705
cili	-11.9707
▁Herein	-11.9713
▁chirp	-11.9713
▁monkey	-11.9713
▁1–2	-11.9714
▁Horn	-11.9714
amy	-11.9714
ji	-11.9718
▁arctic	-11.972
▁gar	-11.9721
▁mandibles	-11.9721
▁MU	-11.9722
[9]	-11.9723
▁frameworks	-11.9728
ophilus	-11.973
▁usual	-11.9731
osomes	-11.9733
▁clarified	-11.9734
▁homogenous	-11.9734
▁amenable	-11.9734
▁Spain	-11.9734
▁trapped	-11.9734
▁airborne	-11.9736
▁Mathematical	-11.9736
ural	-11.9736
▁lateralis	-11.9737
▁Specific	-11.9737
▁wax	-11.9738
▁billion	-11.9739
▁iii	-11.9739
▁transducer	-11.9743
▁graded	-11.9743
▁Srinivasan	-11.9744
house	-11.9745
modal	-11.9747
tter	-11.9749
▁options	-11.975
▁twitch	-11.9754
▁2.3	-11.9754
▁cre	-11.9755
▁reciprocally	-11.9755
▁trying	-11.9756
▁perspectives	-11.9756
adrenergic	-11.9757
inducing	-11.9757
▁HSA	-11.9757
:00	-11.9757
Schmidt	-11.9758
▁constraining	-11.9759
▁bypass	-11.9761
▁RAS	-11.9762
▁takeoff	-11.9767
▁orchid	-11.9768
▁protrusions	-11.9768
▁NCA	-11.977
▁chemoreceptors	-11.9771
7),	-11.9771
▁HPA	-11.9772
▁scans	-11.9778
burg	-11.9779
Wilk	-11.9787
▁lectin	-11.9787
▁Achilles	-11.9788
▁Growth	-11.9788
▁Heliconius	-11.9788
▁[18–20]	-11.9788
▁appetitive	-11.9788
▁dipteran	-11.9788
▁morning	-11.9788
▁morphospecies	-11.9788
▁Cnidaria	-11.9788
▁hyperosmotic	-11.9788
91	-11.9788
▁CTmax	-11.9789
Gu	-11.9789
▁elicits	-11.979
▁airflow	-11.979
rip	-11.9791
▁[61,	-11.9791
▁optimiz	-11.9792
▁offering	-11.9793
▁photoperiodic	-11.9794
▁Gold	-11.9795
▁ethylene	-11.9795
▁Mun	-11.9795
▁suppresses	-11.9797
▁polymer	-11.9798
▁χ	-11.9798
▁introductions	-11.9799
branching	-11.9799
▁BEAST	-11.9802
frame	-11.9802
▁(16	-11.9804
▁NK	-11.9805
beat	-11.9807
LH	-11.9807
5;	-11.9808
[...]
