<unk>	0
<s>	0
</s>	0
▁the	-3.20022
,	-3.30208
.	-3.44907
▁of	-3.50937
▁and	-3.79147
▁in	-3.95253
▁to	-4.15025
s	-4.3599
▁a	-4.40901
▁(	-4.46578
-	-4.46584
▁	-4.61108
▁that	-4.71259
▁is	-4.81254
▁for	-5.12907
▁with	-5.23486
▁are	-5.28579
)	-5.41741
▁as	-5.41769
▁by	-5.42393
▁be	-5.45363
▁al	-5.53896
▁The	-5.55252
▁et	-5.55577
▁on	-5.62389
▁from	-5.64949
▁have	-5.77943
▁this	-5.79314
.,	-5.89917
▁not	-5.91836
e	-5.94202
▁or	-5.95449
▁an	-5.9868
▁species	-5.98782
▁In	-5.99812
▁which	-6.02529
ing	-6.02586
▁we	-6.02781
▁at	-6.04937
▁was	-6.1092
▁between	-6.13845
▁been	-6.2404
▁these	-6.24339
▁may	-6.27561
▁were	-6.28864
▁also	-6.30113
▁can	-6.31171
▁has	-6.33196
ed	-6.38202
▁genes	-6.39891
▁their	-6.39969
▁it	-6.409
▁A	-6.41478
▁gene	-6.41954
▁other	-6.45032
▁more	-6.482
2	-6.48532
▁than	-6.50467
a	-6.50598
g	-6.50806
▁This	-6.51381
1	-6.52591
).	-6.52881
d	-6.57248
▁two	-6.57554
▁study	-6.59904
▁different	-6.60195
▁but	-6.60871
▁data	-6.6153
ly	-6.63127
▁our	-6.64502
▁during	-6.64785
;	-6.6544
▁We	-6.67661
▁such	-6.72124
▁S	-6.74593
▁model	-6.75052
C	-6.76773
▁C	-6.77811
▁both	-6.78409
i	-6.78865
▁P	-6.83588
),	-6.84188
▁found	-6.84548
▁only	-6.85441
/	-6.85995
A	-6.86364
▁However	-6.87989
▁studies	-6.88532
▁all	-6.90207
B	-6.91108
▁results	-6.91696
b	-6.92094
▁high	-6.925
▁one	-6.94143
▁expression	-6.97383
▁could	-6.99225
▁protein	-7.02021
▁within	-7.03755
▁time	-7.05535
▁most	-7.06224
al	-7.07064
▁when	-7.08436
:	-7.08742
(	-7.08882
▁used	-7.09615
▁its	-7.09853
▁would	-7.14156
▁into	-7.15165
▁some	-7.15247
▁genetic	-7.15489
▁analysis	-7.16174
▁cell	-7.16372
▁D	-7.16651
▁number	-7.17617
▁they	-7.19314
▁observed	-7.19824
▁cells	-7.19996
in	-7.20294
▁well	-7.21163
n	-7.21597
▁present	-7.23087
or	-7.23111
▁rate	-7.23118
▁evolution	-7.23616
S	-7.24592
▁H	-7.2486
▁proteins	-7.25242
▁changes	-7.25636
▁response	-7.26061
▁selection	-7.26647
▁B	-7.28471
▁similar	-7.29311
▁populations	-7.29831
t	-7.30573
y	-7.30638
'	-7.31269
▁M	-7.31414
▁system	-7.31895
p	-7.32515
▁body	-7.33165
▁T	-7.33457
▁using	-7.34246
▁levels	-7.35237
c	-7.35277
▁important	-7.35809
▁non	-7.36925
▁among	-7.38335
▁network	-7.38628
▁higher	-7.39081
D	-7.39295
▁size	-7.39447
▁It	-7.39503
▁E	-7.39922
er	-7.40315
▁large	-7.40844
▁no	-7.41093
m	-7.41616
▁For	-7.42597
▁differences	-7.42696
▁increase	-7.42719
▁These	-7.4273
▁each	-7.42776
▁function	-7.42986
▁because	-7.43179
R	-7.43233
▁under	-7.43796
▁F	-7.4405
▁there	-7.44202
▁low	-7.44722
3	-7.45052
▁activity	-7.4547
▁evolutionary	-7.4602
P	-7.46611
▁population	-7.46855
▁same	-7.46936
o	-7.47414
▁Our	-7.47972
▁shown	-7.48007
▁L	-7.48309
▁muscle	-7.48879
▁metabolic	-7.4894
▁likely	-7.49138
▁over	-7.49173
▁three	-7.49286
▁role	-7.49908
▁effects	-7.50799
▁might	-7.50894
▁many	-7.5132
▁based	-7.51516
▁through	-7.51999
▁will	-7.52038
es	-7.52235
▁R	-7.52359
▁G	-7.52914
▁conditions	-7.53569
▁N	-7.53584
▁genome	-7.53986
us	-7.54113
▁first	-7.55269
K	-7.55408
▁variation	-7.55571
▁O	-7.5614
l	-7.56741
▁fish	-7.56832
▁1	-7.57141
▁increased	-7.5745
F	-7.58684
▁where	-7.58781
▁several	-7.58886
H	-7.59235
▁those	-7.59819
▁2	-7.59974
▁level	-7.60136
▁show	-7.60505
▁effect	-7.61015
M	-7.61912
–	-7.6216
▁associated	-7.62316
▁models	-7.62604
G	-7.63029
▁known	-7.63184
T	-7.6377
▁single	-7.64205
▁example	-7.64408
▁phylogenetic	-7.64699
▁due	-7.65145
▁sequence	-7.65342
▁result	-7.65351
’	-7.66035
▁complex	-7.67636
▁evidence	-7.67745
▁use	-7.68202
▁significant	-7.68708
▁possible	-7.6887
N	-7.69084
▁after	-7.69114
r	-7.69226
▁s	-7.69893
▁range	-7.70168
▁rates	-7.70341
▁sequences	-7.70344
▁suggest	-7.70803
▁while	-7.70985
▁small	-7.71512
4	-7.71831
▁related	-7.72074
▁patterns	-7.72351
▁group	-7.72622
L	-7.72779
E	-7.73082
▁do	-7.73764
▁growth	-7.73954
▁molecular	-7.74333
▁including	-7.74394
▁if	-7.75211
▁p	-7.75314
▁control	-7.75756
▁compared	-7.7581
▁functional	-7.75872
▁host	-7.76202
▁3	-7.76924
▁across	-7.77189
▁information	-7.77282
▁[	-7.77352
▁structure	-7.77818
▁lower	-7.78079
▁K	-7.78108
▁further	-7.78193
Fig	-7.78259
▁water	-7.78509
▁mechanisms	-7.80064
▁development	-7.80238
5	-7.80328
▁relative	-7.80901
▁temperature	-7.81069
▁I	-7.81205
▁As	-7.81468
▁new	-7.81681
▁potential	-7.82028
▁very	-7.82148
▁energy	-7.82248
▁thus	-7.82831
▁should	-7.82858
▁identified	-7.83026
re	-7.83431
▁long	-7.83764
▁specific	-7.83921
▁pattern	-7.84101
ation	-7.84336
▁work	-7.84729
▁animals	-7.8485
O	-7.85158
▁any	-7.85825
▁approach	-7.85919
▁even	-7.86223
▁provide	-7.86652
▁whether	-7.86858
▁human	-7.87347
f	-7.87374
▁Although	-7.87598
▁hypothesis	-7.88618
▁Thus	-7.88631
▁reported	-7.88842
▁how	-7.89398
▁addition	-7.89491
▁change	-7.89678
ic	-7.90339
▁analyses	-7.90346
▁showed	-7.90534
▁suggests	-7.90985
▁interactions	-7.91097
▁co	-7.91121
▁To	-7.91822
▁contrast	-7.92199
▁common	-7.92447
▁involved	-7.92739
▁less	-7.92955
▁multiple	-7.92997
▁groups	-7.93071
▁distribution	-7.93174
6	-7.93362
▁systems	-7.93459
specific	-7.93483
▁re	-7.93817
9	-7.94014
▁support	-7.95363
▁so	-7.95463
an	-7.96023
▁methods	-7.96204
▁previous	-7.96259
▁region	-7.96316
▁lineages	-7.96351
▁networks	-7.96356
▁about	-7.9651
▁stress	-7.9688
V	-7.97031
▁factors	-7.97146
▁did	-7.97543
▁values	-7.97708
▁highly	-7.97875
▁mass	-7.98077
▁case	-7.98363
▁divergence	-7.98438
▁production	-7.98487
▁regions	-7.98536
▁pathway	-7.98655
▁flow	-7.98861
▁diversity	-7.98897
▁had	-7.98949
▁experimental	-7.99107
▁therefore	-7.9966
▁biological	-7.99967
▁however	-8.00069
▁method	-8.00339
to	-8.00515
▁set	-8.01151
▁processes	-8.01586
is	-8.0248
▁V	-8.0303
▁recent	-8.03271
▁DNA	-8.03366
▁process	-8.03435
k	-8.04023
▁presence	-8.04968
▁m	-8.04987
▁significantly	-8.05009
I	-8.0513
▁individual	-8.05302
▁mechanism	-8.05722
▁family	-8.06285
▁previously	-8.06519
x	-8.06784
▁frequency	-8.06941
▁pathways	-8.07034
▁performance	-8.07501
▁h	-8.08174
▁individuals	-8.08239
▁either	-8.08275
en	-8.08724
on	-8.08755
▁order	-8.08854
▁sites	-8.08979
▁does	-8.09805
▁experiments	-8.09959
8	-8.09959
▁major	-8.10148
▁males	-8.1033
▁force	-8.10405
▁consistent	-8.10916
▁light	-8.11625
▁here	-8.1233
▁reduced	-8.12637
h	-8.12977
▁females	-8.13068
▁mitochondrial	-8.1341
▁length	-8.13495
▁male	-8.13559
the	-8.1426
▁4	-8.14727
▁environmental	-8.15202
0	-8.15372
▁suggested	-8.15772
▁regulation	-8.1586
▁responses	-8.16049
and	-8.17344
▁out	-8.17682
▁early	-8.18155
▁particular	-8.18238
see	-8.18421
W	-8.18899
▁acid	-8.18963
▁greater	-8.19111
▁form	-8.19129
▁5	-8.19199
▁often	-8.19207
▁food	-8.19381
▁much	-8.19476
▁taxa	-8.19756
▁available	-8.19971
▁un	-8.20251
▁events	-8.20901
▁positive	-8.21168
▁environment	-8.21289
▁least	-8.21467
▁relationship	-8.21865
▁functions	-8.2201
▁proposed	-8.2245
▁behavior	-8.2289
▁birds	-8.22963
▁state	-8.23424
▁then	-8.23436
▁ability	-8.23746
▁expected	-8.23911
▁Therefore	-8.23984
▁lineage	-8.24085
▁indicate	-8.2411
▁test	-8.24307
▁larger	-8.24498
▁loss	-8.24913
▁given	-8.24949
▁natural	-8.25106
▁regulatory	-8.25375
▁tree	-8.25783
Figure	-8.26079
▁c	-8.26092
▁i	-8.26096
▁signal	-8.26225
▁described	-8.26367
▁although	-8.2643
id	-8.26972
▁type	-8.27024
▁four	-8.27251
▁amino	-8.27658
▁‘	-8.27983
▁genomes	-8.28021
▁parameters	-8.28046
like	-8.2807
▁female	-8.28112
▁strong	-8.28141
▁whereas	-8.28217
▁mammals	-8.28436
▁conserved	-8.28825
based	-8.28886
▁being	-8.29005
▁suggesting	-8.2914
▁surface	-8.29466
▁domain	-8.29632
ion	-8.30275
▁physiological	-8.30793
▁binding	-8.31043
▁tissue	-8.3155
▁difference	-8.31571
it	-8.31808
▁traits	-8.31808
▁Furthermore	-8.31953
▁relationships	-8.32118
▁organisms	-8.32224
relatively	-8.32246
▁metabolism	-8.32565
7	-8.32618
▁types	-8.32641
▁interaction	-8.32743
at	-8.32823
▁de	-8.32829
▁additional	-8.33097
▁sub	-8.33185
▁distinct	-8.33283
▁file	-8.33653
▁rather	-8.33844
▁expressed	-8.33879
le	-8.33899
▁general	-8.33998
▁up	-8.34444
+	-8.34633
▁properties	-8.3496
▁fact	-8.3518
▁predicted	-8.3612
▁cellular	-8.36273
th	-8.36503
▁prey	-8.36508
ity	-8.3658
▁short	-8.36698
▁clade	-8.36877
ia	-8.37068
um	-8.37513
▁considered	-8.37812
▁demonstrated	-8.37821
▁limited	-8.38037
▁increases	-8.38074
▁l	-8.38274
▁life	-8.38465
▁few	-8.38499
▁activation	-8.38755
▁morphological	-8.38799
▁signaling	-8.38841
▁via	-8.39114
▁visual	-8.39115
▁cycle	-8.39178
▁still	-8.39401
▁able	-8.3958
▁occur	-8.39603
ir	-8.39736
▁part	-8.39834
▁oxygen	-8.39953
▁them	-8.40363
▁various	-8.40532
▁per	-8.40582
▁factor	-8.40738
▁transcription	-8.40891
▁phase	-8.41026
▁reproductive	-8.41275
▁understanding	-8.41549
▁–	-8.41697
▁animal	-8.41778
as	-8.42042
▁flight	-8.42116
v	-8.42178
▁10	-8.42448
▁measured	-8.42597
▁6	-8.42712
▁speed	-8.43027
▁e	-8.43199
ur	-8.43355
▁lack	-8.4356
▁feeding	-8.43633
▁f	-8.4411
ta	-8.4412
U	-8.44436
▁above	-8.4454
▁origin	-8.44778
▁required	-8.44837
▁pre	-8.44886
▁history	-8.45021
▁current	-8.45037
▁insects	-8.45185
▁novel	-8.45598
▁dynamics	-8.45668
▁plant	-8.46198
▁An	-8.46236
▁fitness	-8.46286
▁total	-8.46383
▁increasing	-8.46536
▁active	-8.46564
ally	-8.46912
▁Figure	-8.46915
"	-8.47147
▁muscles	-8.47721
ol	-8.47817
▁without	-8.47835
el	-8.48645
co	-8.48734
▁studied	-8.48769
▁respectively	-8.48997
▁second	-8.4927
▁target	-8.49536
▁mutations	-8.49545
▁Here	-8.49596
–1	-8.49875
▁period	-8.50062
-1	-8.50133
▁membrane	-8.50179
▁influence	-8.50229
▁revealed	-8.50345
▁along	-8.50822
▁nuclear	-8.50917
▁components	-8.50958
▁U	-8.51408
▁g	-8.51943
▁findings	-8.52123
▁ancestral	-8.52285
▁While	-8.52443
▁probably	-8.52603
▁position	-8.52614
▁formation	-8.5263
▁features	-8.53018
▁distance	-8.53092
▁adaptive	-8.53169
▁decrease	-8.5328
ine	-8.5332
▁power	-8.5354
▁W	-8.53581
▁identify	-8.53628
▁since	-8.53974
▁site	-8.54294
u	-8.54327
▁immune	-8.54367
▁differentiation	-8.54404
▁receptor	-8.54716
▁exposure	-8.54912
▁area	-8.5518
▁recently	-8.55235
▁obtained	-8.5524
▁swimming	-8.55335
▁capacity	-8.55395
▁sensitivity	-8.55457
▁represent	-8.55506
▁explain	-8.55993
▁19	-8.56002
▁Moreover	-8.56074
▁following	-8.56165
▁"	-8.56213
▁provides	-8.56232
▁negative	-8.56273
ent	-8.56296
▁pressure	-8.56584
▁behaviour	-8.56615
▁inter	-8.56738
▁plants	-8.57018
▁2007)	-8.57076
▁point	-8.57317
▁affect	-8.57342
▁post	-8.57618
▁key	-8.57819
▁2009)	-8.57883
st	-8.58072
▁If	-8.58266
▁resulting	-8.58376
▁against	-8.58545
▁direct	-8.58636
ive	-8.58794
▁b	-8.59107
▁produce	-8.59291
▁detected	-8.59455
▁appears	-8.59476
▁cannot	-8.59556
X	-8.59609
▁determine	-8.59731
▁before	-8.5998
Y	-8.60024
▁directly	-8.60158
▁brain	-8.60414
▁blood	-8.60516
▁maximum	-8.60666
▁temperatures	-8.60996
▁adult	-8.61066
▁X	-8.61125
▁must	-8.61634
il	-8.61703
▁occurred	-8.62185
▁genomic	-8.62709
▁appear	-8.6281
ous	-8.62993
ar	-8.63105
▁adaptation	-8.63331
▁cases	-8.63486
▁evolved	-8.63706
▁independent	-8.63998
▁loci	-8.6403
▁whole	-8.64037
▁times	-8.6414
▁produced	-8.64253
▁signals	-8.64275
▁better	-8.64342
▁closely	-8.64624
▁7	-8.64955
dependent	-8.65084
▁concentration	-8.65108
▁reduction	-8.65435
▁8	-8.65598
▁=	-8.65661
ate	-8.65705
▁generally	-8.65778
▁One	-8.65854
ry	-8.66069
▁remains	-8.66097
▁wild	-8.66201
▁structures	-8.66225
▁sex	-8.66279
▁mating	-8.66347
▁Z	-8.66501
▁clear	-8.66535
▁shows	-8.66558
▁tissues	-8.66577
▁see	-8.66791
▁2006)	-8.67217
ter	-8.67227
▁lead	-8.67245
man	-8.67355
▁alternative	-8.67387
▁sperm	-8.67507
▁particularly	-8.67589
▁supported	-8.67605
▁play	-8.67613
▁correlation	-8.67619
▁transport	-8.6765
▁value	-8.67727
▁mean	-8.67922
▁resistance	-8.67952
▁t	-8.68169
▁elements	-8.68285
▁sexual	-8.68585
▁line	-8.68641
▁context	-8.68643
▁parameter	-8.68645
▁genus	-8.68661
idae	-8.68697
▁find	-8.68993
▁disease	-8.6907
▁wing	-8.69125
▁duplication	-8.69137
▁families	-8.69214
▁cancer	-8.69348
▁main	-8.69576
▁another	-8.69689
▁years	-8.69785
▁local	-8.69917
▁There	-8.70099
▁tested	-8.70225
▁larvae	-8.70341
▁absence	-8.70642
▁comparison	-8.70744
▁Ca	-8.70852
▁strongly	-8.70978
▁central	-8.70994
▁field	-8.71036
▁include	-8.71052
▁forces	-8.71114
▁rapid	-8.71495
▁source	-8.71583
de	-8.71905
▁importance	-8.72015
▁derived	-8.72107
▁reaction	-8.72171
▁At	-8.72295
w	-8.72855
et	-8.72866
▁need	-8.73293
▁multi	-8.73326
▁close	-8.73652
▁concentrations	-8.73687
▁smaller	-8.7372
▁diversification	-8.73735
10	-8.73817
▁environments	-8.73853
▁Additional	-8.74054
▁morphology	-8.74152
▁knowledge	-8.74187
▁ecological	-8.74257
▁members	-8.7455
▁RNA	-8.75154
▁together	-8.75393
▁thermal	-8.75488
▁complete	-8.75632
▁phylogeny	-8.7583
▁overall	-8.75926
▁average	-8.76013
▁approaches	-8.76143
▁investigated	-8.76197
▁Drosophila	-8.76201
▁reactions	-8.7651
▁treatment	-8.76585
▁especially	-8.76624
▁mutation	-8.76645
▁developed	-8.76693
▁allow	-8.76746
▁receptors	-8.77022
▁initial	-8.77043
”	-8.7721
able	-8.77289
▁end	-8.77372
▁indicates	-8.7757
▁vertebrates	-8.77751
▁mammalian	-8.77844
▁survival	-8.78018
▁direction	-8.78063
vi	-8.78263
▁neurons	-8.78523
▁essential	-8.78533
▁applied	-8.78794
▁insect	-8.78873
▁amount	-8.78922
▁research	-8.78989
▁examined	-8.79362
▁age	-8.79499
lo	-8.79627
▁seems	-8.79721
▁strains	-8.79833
▁ratio	-8.79873
▁cost	-8.80113
=	-8.80122
▁estimated	-8.80286
▁Re	-8.80311
z	-8.80389
▁selective	-8.804
ma	-8.80406
▁occurs	-8.80482
▁enzymes	-8.8063
▁longer	-8.8064
▁performed	-8.80745
▁sea	-8.80814
▁developmental	-8.80822
▁degree	-8.80831
▁Fig	-8.81058
▁far	-8.81129
▁heat	-8.81411
▁domains	-8.81455
▁little	-8.81589
▁generated	-8.81613
▁glucose	-8.81807
▁towards	-8.81961
▁prior	-8.82096
om	-8.82237
▁“	-8.82282
▁yet	-8.82299
▁estimates	-8.82313
▁Such	-8.8236
ers	-8.8237
ul	-8.82529
▁underlying	-8.82731
▁shape	-8.82791
▁head	-8.82808
▁mRNA	-8.82917
▁2008).	-8.83015
▁future	-8.83086
▁clades	-8.8332
ra	-8.83386
▁potentially	-8.83682
▁way	-8.83798
▁phenotypic	-8.83822
▁contribute	-8.84069
▁presented	-8.84326
▁Na	-8.84334
▁impact	-8.84387
1,	-8.84468
ating	-8.84655
▁content	-8.84733
ian	-8.84897
▁necessary	-8.84989
▁leading	-8.84994
▁like	-8.85166
▁mice	-8.85267
▁unique	-8.85348
▁2006;	-8.85602
▁By	-8.85804
▁Y	-8.86009
▁possibility	-8.86046
▁observations	-8.8611
▁substrate	-8.86146
▁Ma	-8.86298
os	-8.86671
ro	-8.86796
▁exhibit	-8.86908
▁spatial	-8.87006
▁terms	-8.87071
▁trees	-8.87571
off	-8.87636
▁lateral	-8.87655
ase	-8.87766
Table	-8.8782
▁stage	-8.87839
▁2004)	-8.87867
type	-8.88238
▁determined	-8.88335
▁us	-8.88425
▁correlated	-8.8846
▁difficult	-8.88519
▁differ	-8.88679
▁Because	-8.88739
▁dispersal	-8.88824
▁hypoxia	-8.88844
▁d	-8.88928
▁structural	-8.89064
▁When	-8.89079
J	-8.89139
▁caused	-8.89311
me	-8.89352
▁markers	-8.89607
▁movement	-8.89611
▁mechanical	-8.89986
▁enzyme	-8.90066
▁vertebrate	-8.90135
▁provided	-8.90176
ii	-8.90234
▁sets	-8.90325
▁Finally	-8.90348
▁habitat	-8.90445
▁constant	-8.90464
na	-8.90469
te	-8.90473
▁expansion	-8.90559
ant	-8.90601
▁cold	-8.90631
▁effective	-8.90824
▁oxidative	-8.9083
ling	-8.90847
▁certain	-8.91162
▁On	-8.91218
▁primary	-8.91314
▁cross	-8.91392
▁finding	-8.91442
ca	-8.91681
ization	-8.91734
▁seen	-8.91787
▁characterized	-8.91794
▁2007;	-8.91796
ata	-8.91812
▁variable	-8.92072
▁flux	-8.92105
▁approximately	-8.92372
▁sampling	-8.92393
▁affected	-8.92505
▁2010).	-8.92597
▁social	-8.92781
▁transfer	-8.92784
▁combination	-8.92946
▁duration	-8.92971
▁similarity	-8.92974
▁wide	-8.9298
▁contact	-8.93527
▁biology	-8.93549
▁locomotion	-8.93557
▁account	-8.93567
▁corresponding	-8.9357
▁Indeed	-8.93712
▁around	-8.93741
▁stages	-8.93764
▁normal	-8.93871
▁sister	-8.93894
▁experiment	-8.93989
▁measurements	-8.94196
▁humans	-8.94239
▁detect	-8.94255
▁Table	-8.94289
▁cause	-8.94464
ad	-8.94492
▁space	-8.94716
▁strain	-8.94719
▁allows	-8.94733
▁decreased	-8.94918
▁investigate	-8.94931
ch	-8.94948
ce	-8.95021
▁free	-8.95029
▁2005;	-8.9509
[	-8.95141
▁samples	-8.95279
▁2012)	-8.95286
▁simple	-8.95472
▁five	-8.95501
mo	-8.95518
up	-8.95553
ton	-8.95584
related	-8.95587
▁diverse	-8.95604
li	-8.95663
▁indicating	-8.9574
▁hand	-8.95777
ac	-8.9578
▁speciation	-8.95789
▁ancestor	-8.95853
am	-8.95901
▁strategy	-8.96124
▁throughout	-8.96134
▁reflect	-8.96278
▁heart	-8.96505
▁demonstrate	-8.96675
▁12	-8.96736
▁cluster	-8.96833
ness	-8.96839
▁make	-8.96989
▁marine	-8.97195
▁2008;	-8.97293
α	-8.97416
▁phenotype	-8.97431
▁habitats	-8.97453
▁velocity	-8.97508
▁composition	-8.97533
▁contain	-8.97553
▁become	-8.97575
▁frequencies	-8.97673
▁2)	-8.97738
▁reproduction	-8.97882
▁red	-8.97894
▁density	-8.97956
▁bacteria	-8.9796
−1	-8.97974
ill	-8.98009
▁nature	-8.98111
▁costs	-8.98157
▁pro	-8.9819
▁upon	-8.98285
▁lines	-8.98344
▁best	-8.98348
▁reduce	-8.98396
▁2004;	-8.98407
▁unknown	-8.98508
▁what	-8.98735
▁condition	-8.9876
Z	-8.98904
▁foraging	-8.99042
▁II	-8.99073
ae	-8.99076
scale	-8.99134
▁component	-8.99276
▁characteristics	-8.99336
▁larval	-8.99343
▁9	-8.9953
▁areas	-8.99831
▁step	-8.99943
▁2003;	-9.00071
▁included	-9.00247
▁sensory	-9.00286
▁bees	-9.00303
ated	-9.00312
▁2003)	-9.00342
▁located	-9.00505
▁indicated	-9.00546
▁critical	-9.00619
▁Interestingly	-9.00703
▁relevant	-9.0097
▁20	-9.01105
term	-9.01189
▁predict	-9.01285
▁responsible	-9.01415
▁interesting	-9.01619
▁bacterial	-9.0178
▁cues	-9.01783
▁induced	-9.02103
▁migration	-9.02192
▁estimate	-9.02337
▁stimuli	-9.02398
▁maintain	-9.02591
▁molecules	-9.02707
▁predictions	-9.02759
▁basis	-9.02763
son	-9.02829
▁differential	-9.02994
▁exposed	-9.03044
▁variability	-9.03244
▁made	-9.03374
▁J	-9.03407
]	-9.0344
▁transcriptional	-9.0351
for	-9.03536
▁synthesis	-9.03546
▁drug	-9.03666
induced	-9.03668
▁scale	-9.03738
▁clearly	-9.03894
▁generation	-9.03979
▁chromosome	-9.04468
▁noise	-9.04492
▁yeast	-9.04514
▁selected	-9.04544
▁despite	-9.04563
▁combined	-9.04574
▁elevated	-9.04702
▁2001;	-9.04708
▁global	-9.0481
▁mouse	-9.04834
▁though	-9.04993
▁2002;	-9.05028
▁mtDNA	-9.05071
▁needed	-9.05165
▁targets	-9.05281
tic	-9.05303
▁r	-9.05387
▁design	-9.05473
▁recombination	-9.05492
▁fast	-9.05715
▁days	-9.05747
▁problem	-9.0578
▁[1]	-9.05802
▁observation	-9.05823
ut	-9.05989
▁last	-9.06007
▁understand	-9.06283
▁tolerance	-9.06363
▁v	-9.06449
▁volume	-9.06542
ri	-9.06593
▁thought	-9.06688
▁pairs	-9.06727
▁basal	-9.06833
▁infection	-9.06876
▁below	-9.06903
▁isolated	-9.06995
▁β	-9.0701
▁efficiency	-9.07022
▁offspring	-9.07079
▁acids	-9.07083
no	-9.07164
▁help	-9.07297
ci	-9.07348
▁association	-9.07357
▁question	-9.07387
ler	-9.0741
▁conservation	-9.07584
▁alleles	-9.07633
▁2011).	-9.07746
▁fishes	-9.07767
ho	-9.07943
2,	-9.07993
ke	-9.07999
▁dynamic	-9.08072
▁transition	-9.08163
▁defined	-9.08185
▁damage	-9.08187
ized	-9.08257
▁paper	-9.08331
▁prediction	-9.08404
▁micro	-9.08472
▁remain	-9.08475
▁isolation	-9.0863
▁peak	-9.08659
▁day	-9.0881
▁linked	-9.08813
▁means	-9.08967
ment	-9.09134
▁hypotheses	-9.09169
▁variety	-9.09195
▁mainly	-9.09226
ids	-9.09297
▁class	-9.09472
▁identification	-9.09711
▁abundance	-9.09893
▁18	-9.09945
▁release	-9.1003
▁clusters	-9.102
▁extent	-9.10231
▁typically	-9.10374
▁motion	-9.10423
▁event	-9.10503
▁constraints	-9.10594
▁temporal	-9.10707
▁largely	-9.10755
▁limb	-9.10858
▁latter	-9.10886
▁secondary	-9.10926
▁movements	-9.1096
est	-9.11072
▁useful	-9.11073
▁behavioral	-9.11316
▁open	-9.11429
ial	-9.11858
▁air	-9.11895
▁output	-9.12038
▁2005).	-9.12049
▁generate	-9.12053
▁computational	-9.12089
▁sound	-9.12096
ve	-9.12282
▁algorithm	-9.1249
▁2009;	-9.12538
▁near	-9.12703
▁stimulus	-9.12822
▁strategies	-9.12975
▁hybrid	-9.13017
Additional	-9.13301
▁view	-9.13409
▁sample	-9.13452
▁All	-9.13616
▁CO	-9.13616
▁slow	-9.13779
▁vivo	-9.13918
▁uptake	-9.14013
▁explanation	-9.14027
ox	-9.14151
11	-9.14168
▁usually	-9.1423
▁explained	-9.14272
▁con	-9.14278
▁2000;	-9.14345
ting	-9.14383
▁k	-9.14398
▁flies	-9.14444
▁resulted	-9.145
▁nodes	-9.14644
▁putative	-9.14683
▁roles	-9.14684
con	-9.14701
pt	-9.14835
▁require	-9.14944
▁They	-9.1496
▁organism	-9.15026
▁represents	-9.15075
▁framework	-9.15194
▁success	-9.1528
▁α	-9.15335
ne	-9.15491
▁measure	-9.15535
▁genera	-9.15673
ner	-9.15759
▁act	-9.15832
▁sp	-9.1611
▁min	-9.16116
▁2001)	-9.16164
▁internal	-9.16411
un	-9.16863
▁modeling	-9.16886
▁detection	-9.16911
▁diet	-9.16977
ard	-9.17235
yl	-9.17398
ha	-9.17421
▁Further	-9.17488
β	-9.17622
▁running	-9.17742
▁fully	-9.17861
▁magnitude	-9.17967
▁analyzed	-9.17976
▁optimal	-9.18075
▁periods	-9.18082
▁respect	-9.18118
▁Since	-9.18136
▁seem	-9.18202
▁n	-9.18221
▁advantage	-9.18371
▁chemical	-9.18451
▁intron	-9.18468
▁instance	-9.18704
▁interest	-9.18794
▁With	-9.18837
▁tend	-9.18998
▁already	-9.19042
12	-9.19078
ti	-9.19208
▁now	-9.19209
▁take	-9.19254
▁rapidly	-9.19308
▁walking	-9.19372
▁egg	-9.19629
▁hosts	-9.19683
▁sufficient	-9.19726
▁shared	-9.19832
▁almost	-9.19891
▁stable	-9.19982
▁phenotypes	-9.20171
▁1999;	-9.20316
▁majority	-9.20457
▁detailed	-9.20501
▁earlier	-9.20502
▁geographic	-9.20593
▁true	-9.20619
all	-9.2064
▁intracellular	-9.20707
▁vary	-9.20763
▁down	-9.20858
▁orientation	-9.20884
min	-9.20889
▁input	-9.20897
▁subsequent	-9.21098
ba	-9.21194
mer	-9.21218
▁lost	-9.21268
▁residues	-9.21322
▁plasma	-9.21444
▁laboratory	-9.21517
▁simulation	-9.2152
▁3)	-9.21606
ak	-9.21669
▁Given	-9.21693
▁requires	-9.21713
▁feedback	-9.21722
▁exchange	-9.21748
▁versus	-9.2178
▁trout	-9.22014
▁joint	-9.22015
▁Despite	-9.2219
▁restricted	-9.22224
▁substitution	-9.22351
▁ground	-9.22415
▁external	-9.22454
ex	-9.22708
].	-9.22799
▁robust	-9.22842
▁ATP	-9.22853
▁side	-9.22862
▁showing	-9.22906
nt	-9.22932
▁contains	-9.22966
▁quality	-9.23031
▁possibly	-9.23054
▁forms	-9.23288
ot	-9.23309
land	-9.23628
▁1).	-9.23979
▁capture	-9.23982
▁complexes	-9.24061
▁literature	-9.24235
▁currently	-9.24251
▁full	-9.24268
▁gain	-9.24286
one	-9.24385
▁biochemical	-9.24477
▁dataset	-9.24575
▁plasticity	-9.24692
▁learning	-9.24814
▁proportion	-9.24855
▁di	-9.24901
▁2013)	-9.24981
▁ants	-9.25185
▁2010;	-9.253
▁feature	-9.25424
protein	-9.25431
▁points	-9.25439
▁states	-9.25473
▁six	-9.2549
▁widely	-9.2556
▁15	-9.2565
fold	-9.25656
im	-9.25664
▁fluid	-9.25713
▁numbers	-9.25742
▁First	-9.25857
▁bats	-9.25857
▁having	-9.25866
▁later	-9.25913
▁Additionally	-9.26146
▁followed	-9.26335
Based	-9.26392
▁nucleotide	-9.26437
▁stem	-9.26527
▁dependent	-9.26693
▁sensitive	-9.26838
▁competition	-9.26844
▁zebrafish	-9.26876
▁established	-9.27089
▁De	-9.27091
▁fin	-9.27131
age	-9.2754
▁probability	-9.27739
▁Both	-9.27753
▁13	-9.28265
▁threshold	-9.28291
▁choice	-9.283
▁inferred	-9.28335
▁primarily	-9.28424
▁material	-9.28592
ig	-9.28615
▁neural	-9.28685
▁random	-9.28767
▁dis	-9.28792
▁simulations	-9.28796
▁Using	-9.289
em	-9.29043
▁posterior	-9.29177
▁'	-9.29203
ip	-9.2976
▁regulated	-9.29901
▁terrestrial	-9.29946
▁leg	-9.29946
▁standard	-9.30018
▁steady	-9.30057
di	-9.30092
▁parasite	-9.3028
▁deep	-9.30333
▁profiles	-9.30351
▁angle	-9.30418
▁consider	-9.30438
▁propose	-9.30498
▁bi	-9.30608
▁carbon	-9.30694
▁sources	-9.30745
▁availability	-9.30793
▁11	-9.30835
▁horizontal	-9.30914
▁acclimation	-9.30933
▁activities	-9.30986
▁divergent	-9.30987
▁broad	-9.30987
▁nest	-9.31124
▁branch	-9.3125
▁olfactory	-9.31274
▁containing	-9.31537
▁secretion	-9.31567
▁freshwater	-9.31759
mann	-9.31814
▁led	-9.32009
ins	-9.32013
▁signalling	-9.32088
▁good	-9.32093
▁variables	-9.32258
▁entire	-9.32275
▁complexity	-9.32298
▁according	-9.32326
▁datasets	-9.32521
▁action	-9.32612
▁1998;	-9.32616
50	-9.32652
▁consequence	-9.32657
▁crucial	-9.32702
▁apparent	-9.32862
rich	-9.32919
▁parallel	-9.33039
▁highest	-9.33247
▁lipid	-9.33367
▁experience	-9.33479
▁linear	-9.33526
▁accumulation	-9.33582
▁melanogaster	-9.33615
▁extensive	-9.33616
ab	-9.33669
ary	-9.33719
▁core	-9.33836
▁hybridization	-9.33894
▁exist	-9.33936
▁intra	-9.33985
▁location	-9.34024
▁faster	-9.34094
▁stability	-9.34124
▁North	-9.34285
ley	-9.34446
▁Dur	-9.34595
la	-9.34697
Q	-9.34704
▁scenario	-9.34758
▁vertical	-9.34818
▁shift	-9.34826
▁maintenance	-9.3484
ang	-9.34876
▁taxonomic	-9.3512
▁separate	-9.35208
▁motor	-9.35217
▁real	-9.35312
ph	-9.3535
▁alone	-9.35354
▁maintained	-9.35406
▁Nevertheless	-9.35474
▁turn	-9.3564
▁trait	-9.35644
▁unlikely	-9.3565
▁search	-9.36127
],	-9.36183
▁inhibition	-9.36215
▁substantial	-9.36286
▁liver	-9.36287
▁extreme	-9.36422
▁tail	-9.36733
▁aspects	-9.36815
20	-9.36834
▁just	-9.36887
▁amplitude	-9.36895
ini	-9.36899
▁bio	-9.36973
▁balance	-9.37045
▁comparative	-9.37101
ga	-9.37192
▁pH	-9.37291
▁distributed	-9.37672
op	-9.37795
▁2002).	-9.37813
▁independently	-9.37815
per	-9.37816
▁1999)	-9.37875
▁leads	-9.38002
▁green	-9.38169
000	-9.38198
▁why	-9.38228
▁deg	-9.38263
▁statistical	-9.38345
sp	-9.38489
▁timing	-9.38536
ct	-9.38548
▁Most	-9.38656
▁strength	-9.38674
▁reveal	-9.3868
▁respond	-9.38726
▁intermediate	-9.38787
▁date	-9.38824
▁African	-9.38862
▁eggs	-9.3887
▁sizes	-9.38922
▁Similarly	-9.3907
▁16	-9.3937
▁cardiac	-9.39577
▁coli	-9.39721
▁intensity	-9.39727
▁unclear	-9.39857
▁theory	-9.40006
▁ancient	-9.40067
-2	-9.40181
▁possess	-9.40197
▁behavioural	-9.40234
▁+	-9.40269
ow	-9.4037
▁evolve	-9.40397
▁report	-9.40438
▁includes	-9.40446
▁rise	-9.4047
▁stimulation	-9.40495
les	-9.40503
▁Some	-9.40631
line	-9.4066
▁southern	-9.40667
▁Several	-9.40701
▁phosphorylation	-9.40792
▁codon	-9.40978
▁metabolites	-9.41029
▁modules	-9.41096
▁place	-9.41128
▁efficient	-9.41179
ts	-9.41215
▁focus	-9.41226
▁coding	-9.41407
cell	-9.41456
▁late	-9.41459
▁Previous	-9.41493
rs	-9.41548
po	-9.41565
▁resources	-9.41585
▁contribution	-9.41662
▁eukaryotic	-9.41766
▁distributions	-9.41791
▁embryos	-9.41792
70	-9.41827
▁instead	-9.41837
ob	-9.41923
▁1997;	-9.41923
sh	-9.41935
▁matrix	-9.42016
▁physical	-9.42029
▁series	-9.42042
▁estimation	-9.42123
▁background	-9.42288
▁characters	-9.4235
▁examine	-9.42493
ize	-9.42527
▁compare	-9.42541
▁assess	-9.42548
▁confirmed	-9.42592
▁develop	-9.42634
▁assumed	-9.42682
▁[1,	-9.42802
2)	-9.42976
▁base	-9.43165
▁motifs	-9.43357
▁focused	-9.43376
▁colour	-9.43602
▁anti	-9.4362
▁specifically	-9.43635
2+	-9.43659
ron	-9.43679
▁bias	-9.43695
▁eye	-9.43752
▁climate	-9.43854
▁30	-9.43893
ium	-9.44191
▁breeding	-9.44215
▁positions	-9.44241
▁tests	-9.4425
▁share	-9.44279
▁calculated	-9.44384
be	-9.44428
▁whose	-9.44445
▁sequencing	-9.44479
▁neutral	-9.44519
▁original	-9.44575
▁skin	-9.4467
▁aquatic	-9.44769
▁24	-9.44853
▁pair	-9.44862
ty	-9.44919
▁risk	-9.44996
▁regulate	-9.45105
▁experimentally	-9.45107
▁identical	-9.4514
▁numerous	-9.45179
▁others	-9.45214
▁trade	-9.45269
▁consumption	-9.45325
▁course	-9.4533
▁locus	-9.45338
▁speeds	-9.45352
▁typical	-9.45635
▁predator	-9.45655
▁behaviors	-9.45723
▁existence	-9.45811
▁Another	-9.45923
mat	-9.45958
▁poly	-9.45998
▁resolution	-9.46111
▁tri	-9.46134
▁locomotor	-9.46188
▁2014)	-9.46228
▁perform	-9.46251
tri	-9.46315
▁depends	-9.46344
▁always	-9.46406
▁self	-9.46413
level	-9.46439
io	-9.46547
▁eukaryotes	-9.4655
▁UV	-9.46557
but	-9.46582
▁limit	-9.46614
ies	-9.46627
▁escape	-9.4663
▁northern	-9.46667
▁clock	-9.46702
▁commonly	-9.46709
ence	-9.46832
▁fraction	-9.46853
▁thereby	-9.46865
▁motif	-9.46872
oc	-9.46887
▁organ	-9.46894
ea	-9.46908
▁radiation	-9.47002
▁allowed	-9.47006
▁Africa	-9.47024
▁w	-9.4709
▁gill	-9.47154
▁recognition	-9.47166
▁quantitative	-9.47178
▁anterior	-9.47241
▁photo	-9.47257
▁integration	-9.47292
▁MHC	-9.47637
▁taken	-9.47665
out	-9.47673
▁completely	-9.47684
▁2011;	-9.477
▁called	-9.47749
▁trans	-9.47753
▁[22]	-9.47774
ten	-9.47833
lin	-9.4797
▁frequently	-9.48001
▁[12]	-9.48143
▁distances	-9.48157
▁status	-9.4818
▁great	-9.48203
▁subject	-9.48251
▁compounds	-9.48271
▁[3]	-9.48276
▁extended	-9.48312
pi	-9.48399
▁describe	-9.48399
▁transmission	-9.48405
ell	-9.4844
▁diseases	-9.48527
mediated	-9.48657
▁mate	-9.48671
▁investigation	-9.48687
▁variants	-9.48816
str	-9.4895
terminal	-9.48987
ub	-9.49032
▁vitro	-9.49054
16	-9.49124
▁reconstruction	-9.49159
▁processing	-9.49197
▁introns	-9.49253
▁memory	-9.49285
▁Hence	-9.4936
▁fixed	-9.49363
▁predators	-9.4958
▁hypothesized	-9.49582
▁comprehensive	-9.49593
▁dorsal	-9.49599
gene	-9.49724
15	-9.49979
end	-9.50048
ella	-9.50077
▁weight	-9.50132
▁eyes	-9.50164
▁expect	-9.50389
▁[6]	-9.50417
▁[8]	-9.50421
–2	-9.50693
▁(2)	-9.50698
▁candidate	-9.50722
▁published	-9.50723
▁inference	-9.50811
▁stochastic	-9.50969
▁classes	-9.5104
▁proliferation	-9.5107
▁net	-9.51175
▁mediated	-9.51199
▁consequences	-9.51199
▁third	-9.51342
▁influenced	-9.5141
▁virus	-9.5143
bo	-9.51486
▁represented	-9.51577
▁capable	-9.51586
▁mode	-9.51592
fi	-9.51596
▁reason	-9.51735
gu	-9.51869
13	-9.51965
▁activated	-9.52079
▁taxon	-9.52094
▁comparable	-9.52146
den	-9.52175
▁Le	-9.52209
▁Many	-9.52285
▁Co	-9.52361
▁topology	-9.52373
▁experienced	-9.52416
▁Ta	-9.52501
▁degradation	-9.52562
▁providing	-9.52649
ensis	-9.52746
▁(1)	-9.52826
▁color	-9.52902
▁extant	-9.52929
▁decreases	-9.52956
▁half	-9.5301
▁organization	-9.53022
▁1)	-9.53026
inae	-9.53082
ran	-9.5309
▁1996;	-9.53105
▁indeed	-9.53175
q	-9.53215
▁significance	-9.53328
▁ex	-9.53379
▁elegans	-9.53448
▁techniques	-9.53611
tt	-9.53656
▁address	-9.53682
▁ion	-9.53683
▁interact	-9.53685
▁past	-9.53692
▁slightly	-9.5381
▁enhanced	-9.53821
▁fossil	-9.53862
ula	-9.53895
▁causes	-9.53931
▁Li	-9.53988
of	-9.54011
▁mutant	-9.54012
oid	-9.54037
▁bone	-9.54223
▁17	-9.54264
▁insights	-9.54413
▁axis	-9.54425
▁Sch	-9.54463
▁idea	-9.54499
▁downstream	-9.5462
▁parental	-9.54673
▁rare	-9.5474
▁yield	-9.548
▁respiratory	-9.54855
▁existing	-9.54945
▁display	-9.55001
▁mitochondria	-9.55087
▁accuracy	-9.55098
▁aerobic	-9.55103
▁allowing	-9.55105
▁supports	-9.55106
ist	-9.55262
▁manner	-9.55315
ni	-9.55384
▁Second	-9.55385
▁comparisons	-9.55432
CA	-9.55457
▁branches	-9.55465
▁adults	-9.55481
▁plays	-9.55604
▁ammonia	-9.55678
▁agreement	-9.55767
▁assumption	-9.55786
▁ventral	-9.56032
▁organs	-9.56166
▁improve	-9.56186
▁skeletal	-9.56219
▁overlap	-9.56222
▁error	-9.56329
▁contraction	-9.56356
▁depend	-9.56444
pod	-9.56454
▁More	-9.56468
▁copy	-9.56524
▁substrates	-9.56622
▁physiology	-9.56654
▁[23]	-9.56685
ap	-9.56876
▁preference	-9.56891
▁Bayesian	-9.56959
tin	-9.56983
▁copies	-9.57041
bi	-9.57058
▁controlled	-9.57142
▁section	-9.57156
▁insulin	-9.57179
▁14	-9.57212
▁documented	-9.57457
▁acoustic	-9.57648
less	-9.57677
▁viruses	-9.57677
▁until	-9.5768
▁energetic	-9.57705
▁characteristic	-9.57717
▁Di	-9.57789
und	-9.57986
▁noted	-9.58107
▁haplotypes	-9.58199
ka	-9.58245
▁chromosomes	-9.5833
▁La	-9.58387
tion	-9.58579
▁making	-9.58609
▁No	-9.58624
gen	-9.58658
reviewed	-9.58702
▁exhibited	-9.58725
▁perhaps	-9.58796
he	-9.58814
▁appropriate	-9.58842
ina	-9.58918
▁land	-9.58941
▁hence	-9.58965
▁left	-9.59
▁hyper	-9.59001
red	-9.59001
▁measures	-9.59116
▁authors	-9.59173
▁induce	-9.59173
▁occurring	-9.59197
▁kinematics	-9.5927
▁driven	-9.59285
▁[18]	-9.59336
▁achieved	-9.59513
▁mathematical	-9.59524
▁occurrence	-9.5954
▁extension	-9.59568
▁nearly	-9.59605
▁kinase	-9.59649
53	-9.59653
1)	-9.59661
▁translation	-9.59697
▁parasites	-9.59755
▁avoid	-9.59757
▁South	-9.59762
▁likelihood	-9.59874
▁maternal	-9.59993
▁1994;	-9.60009
▁variance	-9.60099
▁parts	-9.60104
▁term	-9.60226
▁serve	-9.60227
▁mono	-9.60244
▁fungi	-9.60287
▁formed	-9.60297
ome	-9.60354
▁extracellular	-9.60382
14	-9.6041
AR	-9.60436
▁involving	-9.60466
max	-9.60477
▁depending	-9.60588
▁infer	-9.6065
▁conclusion	-9.60686
▁explore	-9.60718
▁100	-9.60726
▁insight	-9.60736
▁ca	-9.60744
▁2000).	-9.60761
▁Q	-9.60793
▁challenge	-9.60811
ey	-9.60821
▁itself	-9.60875
▁cycles	-9.60875
▁calcium	-9.609
▁facilitate	-9.60902
▁considerable	-9.60962
▁1,	-9.61103
▁wall	-9.61154
▁Cl	-9.61219
▁[24]	-9.61336
▁fat	-9.61369
▁application	-9.61475
▁[15]	-9.615
▁blue	-9.61594
▁back	-9.61727
fer	-9.6177
▁Con	-9.61772
▁1995;	-9.61781
▁pathogen	-9.61899
▁winter	-9.619
▁remaining	-9.61915
binding	-9.61999
▁white	-9.62033
▁living	-9.6205
tra	-9.62117
oph	-9.62129
ide	-9.62212
▁classification	-9.62296
▁[17]	-9.62335
ability	-9.62356
ier	-9.62365
da	-9.62377
▁colony	-9.6239
▁right	-9.62469
▁recorded	-9.62482
ted	-9.62543
▁drag	-9.62584
▁enough	-9.62686
▁discussed	-9.62779
▁acting	-9.62837
▁gradient	-9.62938
hi	-9.6303
▁continuous	-9.63034
▁upper	-9.63113
▁European	-9.63171
▁Among	-9.63216
▁obtain	-9.63335
▁[14]	-9.63395
▁shifts	-9.63547
▁clustering	-9.63551
▁seasonal	-9.63727
▁Other	-9.63746
▁link	-9.63805
▁equal	-9.63819
ris	-9.63843
▁spectral	-9.63854
30	-9.63875
▁teleost	-9.63905
▁legs	-9.64034
▁encoding	-9.64035
▁wings	-9.64124
▁makes	-9.6413
if	-9.64234
▁mostly	-9.64247
▁database	-9.64253
▁fly	-9.64255
▁altered	-9.64391
▁specificity	-9.64423
▁Pro	-9.64468
▁intake	-9.64494
▁promoter	-9.64593
▁Ro	-9.64714
▁widespread	-9.64774
▁comparing	-9.64909
res	-9.65048
▁million	-9.65055
▁[27]	-9.65088
▁tools	-9.65136
▁allele	-9.65171
▁scales	-9.65211
cer	-9.65375
▁accurate	-9.6541
▁[19]	-9.65427
sensitive	-9.65448
▁depth	-9.65471
▁monophyletic	-9.65496
ns	-9.65601
▁rule	-9.65616
5%	-9.65627
▁gas	-9.65672
▁distinguish	-9.65678
quite	-9.65722
▁testing	-9.65807
1-	-9.65873
▁weak	-9.65952
uc	-9.66067
▁integrated	-9.66071
▁Even	-9.66099
▁tool	-9.66125
▁genetically	-9.66208
▁basic	-9.6641
▁questions	-9.66457
ism	-9.66521
▁variations	-9.6659
▁maximal	-9.66663
▁PO	-9.66694
II	-9.66717
▁shorter	-9.6676
▁zone	-9.66765
▁sampled	-9.66772
wide	-9.66792
▁St	-9.66805
▁functionally	-9.66835
ance	-9.66859
▁node	-9.67048
mon	-9.67102
pro	-9.67159
▁profile	-9.67177
▁easily	-9.67183
2-	-9.67245
▁understood	-9.67505
▁element	-9.67608
tr	-9.67647
▁note	-9.6768
▁[26]	-9.677
▁duplications	-9.67741
▁genotype	-9.67785
▁fundamental	-9.67931
au	-9.68002
ica	-9.68078
by	-9.68135
iv	-9.68177
▁examples	-9.68227
▁dominant	-9.68264
osa	-9.68276
▁America	-9.68283
▁kinetic	-9.68356
we	-9.68361
ge	-9.68361
▁partial	-9.68529
ole	-9.68559
ie	-9.68626
BP	-9.68653
▁embryonic	-9.68954
▁seven	-9.68963
▁alignment	-9.69036
CO	-9.69086
do	-9.69143
▁forward	-9.69197
▁Al	-9.69306
▁substitutions	-9.69393
▁mid	-9.69437
▁own	-9.69467
▁polymorphism	-9.69486
▁reducing	-9.69602
▁1993;	-9.69758
▁regarding	-9.69874
▁Ne	-9.69917
▁pressures	-9.69919
▁phylogenies	-9.69935
▁collected	-9.6997
▁Atlantic	-9.69989
▁conducted	-9.70026
25	-9.70109
▁1995)	-9.70243
▁0	-9.70393
▁opposite	-9.70504
chi	-9.70543
her	-9.70668
av	-9.70704
▁connected	-9.70723
▁Two	-9.70742
▁meta	-9.7086
▁extremely	-9.70925
▁genotypes	-9.70979
▁[29]	-9.7104
rus	-9.71062
▁stiffness	-9.71079
▁From	-9.71187
▁changing	-9.71193
▁pheromone	-9.71368
▁sequenced	-9.71533
▁adaptations	-9.71636
▁composed	-9.71652
▁acute	-9.71654
▁He	-9.71695
phy	-9.71748
▁rest	-9.71841
▁phenomenon	-9.71845
▁recovery	-9.71927
▁fibers	-9.71964
▁channels	-9.72025
▁simultaneously	-9.72062
▁communication	-9.72379
▁coral	-9.72385
▁outside	-9.72398
-3	-9.7246
lan	-9.72546
regulated	-9.72894
▁limits	-9.72973
ru	-9.7299
▁treatments	-9.73103
▁conversion	-9.73241
▁channel	-9.73278
▁move	-9.73389
▁black	-9.73586
▁1996)	-9.73604
▁Mo	-9.73612
▁pathogens	-9.73626
▁situation	-9.73745
▁layer	-9.73787
▁simply	-9.73792
▁load	-9.73831
▁fluctuations	-9.73866
▁drift	-9.7389
60	-9.74024
▁coupled	-9.74132
▁alter	-9.7414
ev	-9.74153
▁1994)	-9.74163
▁largest	-9.74188
▁segments	-9.74214
coding	-9.7423
atus	-9.7423
▁reference	-9.74288
▁exercise	-9.74304
▁juvenile	-9.74323
▁introduced	-9.74378
▁Also	-9.74389
ps	-9.7439
mol	-9.74444
▁[31]	-9.74682
▁rely	-9.74684
▁evaluate	-9.747
▁adapted	-9.747
▁presumably	-9.74717
▁robustness	-9.74752
18	-9.74786
▁positively	-9.74786
▁solution	-9.74825
▁absent	-9.74829
▁seed	-9.74881
▁achieve	-9.75042
▁1993)	-9.75074
▁2012;	-9.75126
pp	-9.75282
▁calls	-9.75422
ward	-9.75425
▁minimal	-9.75529
▁x	-9.75636
▁reach	-9.75642
▁So	-9.75654
AT	-9.7566
▁affinity	-9.75661
▁resource	-9.75687
▁systematic	-9.75725
ose	-9.75741
▁Consequently	-9.75828
▁mutants	-9.75829
▁sense	-9.75846
▁death	-9.75876
▁interpretation	-9.75913
▁call	-9.75987
▁employed	-9.76018
▁enhance	-9.76166
der	-9.76208
ens	-9.76216
▁peptide	-9.7624
ov	-9.76291
▁transcripts	-9.76388
ities	-9.76394
ep	-9.76457
▁double	-9.76476
▁acceleration	-9.76504
ite	-9.76534
▁fruit	-9.76592
▁viral	-9.76686
▁recognized	-9.7672
ver	-9.76749
▁affects	-9.76833
▁distal	-9.76897
▁improved	-9.77155
▁turtles	-9.77228
3,	-9.77278
▁colleagues	-9.77344
▁diverged	-9.77378
our	-9.77501
▁steps	-9.77605
▁character	-9.77633
▁vocal	-9.7765
go	-9.77732
▁final	-9.77762
▁benefit	-9.77796
ei	-9.77894
▁nervous	-9.77906
▁ranges	-9.77913
▁products	-9.77942
▁minimum	-9.77957
▁beyond	-9.77957
▁Ar	-9.77965
▁supporting	-9.77965
▁units	-9.78012
▁spring	-9.78017
▁1:	-9.78029
▁separated	-9.78063
▁respiration	-9.78162
dimensional	-9.78262
▁aim	-9.78269
▁[33]	-9.78312
▁foot	-9.78329
amp	-9.78369
▁repeated	-9.78564
▁suitable	-9.78575
che	-9.78741
ative	-9.78803
▁involves	-9.78877
over	-9.78909
▁Recent	-9.78909
ical	-9.78932
▁developing	-9.78972
▁poorly	-9.79052
▁algorithms	-9.79151
▁determining	-9.79155
▁predation	-9.79158
va	-9.79234
▁jaw	-9.79258
▁successful	-9.79281
▁hormone	-9.79299
▁bird	-9.79466
ari	-9.79477
ec	-9.79526
▁onset	-9.79617
▁theoretical	-9.79637
▁varying	-9.79658
▁circadian	-9.79662
▁next	-9.79666
▁benefits	-9.79684
eri	-9.79722
▁split	-9.79723
▁root	-9.7975
ud	-9.79815
▁j	-9.79821
ans	-9.79825
▁relation	-9.79829
▁Ha	-9.79848
ates	-9.79855
▁combinations	-9.79915
▁give	-9.79929
▁Asia	-9.7994
▁specimens	-9.79945
▁unit	-9.79961
AP	-9.8005
▁ago	-9.80138
▁associations	-9.80146
▁apical	-9.80186
▁training	-9.80318
▁50	-9.80484
gi	-9.80485
▁identifying	-9.8057
▁1990;	-9.80573
▁greatly	-9.80574
lic	-9.80594
▁edge	-9.80625
▁surprising	-9.80633
▁nutrient	-9.80668
▁surrounding	-9.8067
▁task	-9.80728
▁exon	-9.80774
▁spread	-9.80893
▁abundant	-9.80921
▁considering	-9.81005
▁assume	-9.81076
▁center	-9.81096
▁Alternatively	-9.81198
▁opsin	-9.81229
▁partially	-9.8128
▁tropical	-9.81404
si	-9.81427
aw	-9.81452
ller	-9.81454
▁25	-9.81512
▁tumor	-9.8154
▁Arabidopsis	-9.81663
▁American	-9.81674
);	-9.81741
ile	-9.81742
▁homologous	-9.81771
▁super	-9.81817
▁encoded	-9.81924
▁deletion	-9.81958
▁remained	-9.81961
PR	-9.81986
▁Mb	-9.82016
▁ROS	-9.82051
▁nor	-9.82071
▁Similar	-9.8212
▁cm	-9.82168
▁maintaining	-9.82196
▁becomes	-9.82264
▁observe	-9.82273
▁duplicated	-9.82298
▁extinction	-9.82327
▁%	-9.82352
izing	-9.82632
▁path	-9.82648
▁necessarily	-9.82679
kin	-9.8268
▁emergence	-9.82714
▁problems	-9.82719
▁correlations	-9.8274
art	-9.82815
▁GC	-9.82832
▁<	-9.82897
ales	-9.82919
▁Ba	-9.8296
▁Europe	-9.83001
▁isoforms	-9.83021
▁correct	-9.83104
▁equivalent	-9.83113
▁subfamily	-9.83225
▁neuro	-9.83243
▁identity	-9.83325
tro	-9.83327
▁elastic	-9.83339
▁fluxes	-9.8336
▁appeared	-9.83401
▁ant	-9.83409
▁frequent	-9.83412
ax	-9.83444
▁4).	-9.83444
tus	-9.83601
▁lengths	-9.83606
17	-9.83714
associated	-9.83747
▁stroke	-9.8378
▁auto	-9.83783
▁segment	-9.83839
▁NO	-9.83907
▁substantially	-9.83913
▁moving	-9.83917
▁fungal	-9.83976
ack	-9.83994
▁st	-9.84011
that	-9.84018
19	-9.84022
▁optimization	-9.84145
▁define	-9.84168
▁constraint	-9.84223
▁except	-9.84301
▁growing	-9.84304
▁once	-9.84308
▁tendon	-9.84309
▁producing	-9.84407
▁New	-9.84462
pa	-9.8457
way	-9.84587
▁resting	-9.84634
▁ER	-9.84692
▁Sp	-9.84722
▁shell	-9.84802
▁Lo	-9.84943
▁Pleistocene	-9.84959
▁too	-9.84982
▁vector	-9.85046
▁confirm	-9.85079
ind	-9.85103
▁bat	-9.85341
▁eight	-9.85357
40	-9.85368
▁attention	-9.85401
act	-9.85453
▁fatty	-9.85522
fish	-9.85619
▁representation	-9.85628
isation	-9.85647
▁modulation	-9.85678
▁loop	-9.85736
▁salt	-9.85751
▁Pa	-9.85799
▁CA	-9.85837
▁gut	-9.85866
aceae	-9.85897
▁incomplete	-9.8607
▁1992;	-9.86082
▁ambient	-9.86089
state	-9.86103
▁diffusion	-9.86114
▁intrinsic	-9.86156
▁regulating	-9.86168
▁consists	-9.86182
▁[2].	-9.8622
▁regression	-9.86293
pe	-9.86296
▁1991;	-9.86305
–3	-9.86334
rr	-9.86383
▁vs	-9.86477
▁limitation	-9.8649
▁season	-9.86541
▁implications	-9.86551
▁division	-9.86567
▁conclude	-9.86655
▁2008)	-9.86666
▁peripheral	-9.86679
▁vision	-9.86679
▁cerevisiae	-9.86847
j	-9.86892
▁[2,	-9.87027
▁paralogs	-9.87047
▁acquired	-9.87122
▁fit	-9.87126
▁prevent	-9.8714
▁[34]	-9.87231
▁successfully	-9.87324
▁carried	-9.87352
▁who	-9.87366
▁implies	-9.87409
ys	-9.87458
▁[35]	-9.87501
▁locations	-9.8751
Ma	-9.87523
▁module	-9.87566
▁marker	-9.87571
▁climatic	-9.87652
ach	-9.87663
▁avian	-9.87684
▁transcript	-9.8771
▁beneficial	-9.87747
▁demographic	-9.87747
▁biosynthesis	-9.87748
▁hetero	-9.8776
▁switch	-9.87772
so	-9.87815
ida	-9.87889
▁Mc	-9.8789
▁apoptosis	-9.87917
▁colonies	-9.8792
my	-9.87985
▁newly	-9.88031
▁scaling	-9.88087
▁introgression	-9.88088
ort	-9.88091
▁1998).	-9.88095
▁feed	-9.88168
▁se	-9.8828
−	-9.88326
ros	-9.88349
▁absolute	-9.88383
▁semi	-9.88447
▁start	-9.8847
▁decline	-9.88472
▁miRNA	-9.88532
▁nerve	-9.88552
ong	-9.88561
▁historical	-9.88591
▁modern	-9.88601
▁phylogeographic	-9.8877
eno	-9.888
▁narrow	-9.88883
▁evolving	-9.88898
▁placed	-9.88931
▁simulated	-9.89118
▁para	-9.89216
3)	-9.89237
▁Of	-9.8934
▁poor	-9.89396
ure	-9.89405
▁modified	-9.89492
oma	-9.89498
▁[4,	-9.89514
▁replication	-9.89573
▁[3,	-9.89596
▁song	-9.89618
▁storage	-9.8963
dy	-9.89754
▁hybrids	-9.8977
▁rat	-9.89849
▁evident	-9.8986
SA	-9.8991
lum	-9.89966
▁subunits	-9.89987
▁lizards	-9.9002
▁product	-9.90033
▁representing	-9.90033
▁auditory	-9.90034
sis	-9.90044
▁eu	-9.90139
▁requirements	-9.90161
▁geographical	-9.90187
▁driving	-9.90207
▁immunity	-9.90208
▁empirical	-9.90251
▁salinity	-9.90257
len	-9.90407
▁reasons	-9.90417
▁acquisition	-9.90497
▁2,	-9.90663
▁databases	-9.90667
▁toward	-9.90726
▁1991)	-9.90773
ug	-9.90779
▁lung	-9.9079
▁upstream	-9.90795
▁discovery	-9.90812
mit	-9.9082
▁correspond	-9.90873
tor	-9.9092
▁1992)	-9.90957
▁East	-9.90995
%	-9.91017
▁rotation	-9.91036
▁drugs	-9.91158
▁attributed	-9.91163
▁microarray	-9.91255
ren	-9.91273
▁stronger	-9.91326
▁TF	-9.91441
rin	-9.91485
▁young	-9.91489
▁my	-9.91509
▁exception	-9.91517
▁islands	-9.9152
▁metabolite	-9.91525
▁proximal	-9.91548
sen	-9.91576
▁colonization	-9.91607
▁face	-9.91628
▁goal	-9.91662
sc	-9.91667
▁characterize	-9.91715
▁hard	-9.91796
▁40	-9.91829
▁western	-9.91891
ou	-9.919
pho	-9.91901
▁phases	-9.9191
time	-9.92006
▁niche	-9.92014
mp	-9.92089
▁dark	-9.92089
▁splicing	-9.92093
▁percentage	-9.92139
▁seawater	-9.92148
cul	-9.92179
▁medium	-9.92196
▁apparently	-9.92254
▁MR	-9.92254
ym	-9.92265
▁actually	-9.92323
▁bo	-9.92325
▁analyze	-9.92356
▁effort	-9.92369
▁miRNAs	-9.92385
▁discrimination	-9.92434
▁macro	-9.92521
hr	-9.92528
▁arm	-9.9253
cy	-9.92609
▁eastern	-9.92641
▁Bo	-9.9269
▁loading	-9.92726
▁reliable	-9.92735
ocytes	-9.92761
ura	-9.92786
▁considerably	-9.92794
car	-9.92808
▁drive	-9.92847
▁architecture	-9.92855
▁chain	-9.92894
▁supply	-9.92908
▁fusion	-9.92941
▁amounts	-9.93051
▁CD	-9.93096
ger	-9.93101
alis	-9.93182
mi	-9.93274
ana	-9.93309
▁modifications	-9.93322
▁[36]	-9.93357
▁involve	-9.93365
▁edges	-9.93373
▁mm	-9.93383
▁1989;	-9.934
species	-9.93428
▁PPI	-9.93435
▁dive	-9.93456
king	-9.93503
ish	-9.93537
not	-9.93556
▁diameter	-9.93565
▁oscillations	-9.93609
▁detail	-9.93651
▁contained	-9.93705
▁snakes	-9.93842
▁reflects	-9.93854
▁bound	-9.93936
▁[4].	-9.93958
▁recovered	-9.93975
▁Rh	-9.94012
▁limitations	-9.94135
tal	-9.94144
▁directional	-9.9436
▁actual	-9.94404
▁Ka	-9.94425
▁ways	-9.94435
vers	-9.94484
▁antioxidant	-9.94493
▁Under	-9.94533
▁wave	-9.94565
▁excretion	-9.94648
▁invertebrates	-9.94689
▁decreasing	-9.94709
▁exclusively	-9.94777
▁sounds	-9.94945
▁ligand	-9.94949
▁differentially	-9.94975
▁Sa	-9.9525
▁workers	-9.95359
▁[6,	-9.9566
▁rats	-9.95852
▁heterogeneity	-9.95867
▁similarities	-9.95888
▁originated	-9.95928
▁HGT	-9.95966
ay	-9.95988
par	-9.9599
▁induction	-9.95991
▁Recently	-9.96021
▁issue	-9.96049
fr	-9.9606
▁exists	-9.96098
▁review	-9.96132
low	-9.96151
▁[5].	-9.96169
▁After	-9.96174
ER	-9.96184
▁concept	-9.9623
mic	-9.96258
ring	-9.96299
4,	-9.96308
▁primates	-9.96326
▁dietary	-9.96378
▁details	-9.96414
▁perturbations	-9.96477
lar	-9.96534
▁[9].	-9.96565
▁[7].	-9.96655
▁specialized	-9.96656
▁mortality	-9.96667
▁separation	-9.96667
▁hearing	-9.96667
▁kg	-9.96768
▁pigment	-9.96783
wa	-9.96824
▁curve	-9.96854
▁peptides	-9.96904
▁passive	-9.96975
▁GO	-9.96977
▁subunit	-9.96999
ja	-9.97005
▁generations	-9.97159
▁fibres	-9.97161
▁ratios	-9.9726
ick	-9.97284
▁subsequently	-9.97316
▁indirect	-9.97336
▁22	-9.97348
▁Mi	-9.9739
▁complement	-9.97402
ern	-9.97424
▁trials	-9.97428
wi	-9.97523
▁According	-9.9753
▁moment	-9.97577
regulation	-9.97582
oidea	-9.97584
▁trend	-9.97598
▁live	-9.97646
▁absorption	-9.97719
▁list	-9.97754
▁2013;	-9.97772
▁conclusions	-9.9778
▁homeostasis	-9.97785
2%	-9.97798
▁year	-9.97808
▁chloroplast	-9.98035
▁Gene	-9.98055
▁Ho	-9.98075
▁rDNA	-9.98107
▁gait	-9.98108
PP	-9.98143
▁mmol	-9.98236
▁released	-9.98301
▁brood	-9.98349
▁needs	-9.98352
ors	-9.98367
+/	-9.98479
▁Overall	-9.98543
▁former	-9.98574
▁regulators	-9.98601
▁away	-9.9861
▁surfaces	-9.98636
rum	-9.98707
▁severe	-9.98725
▁rainbow	-9.98727
▁molecule	-9.98749
▁perspective	-9.9879
▁fed	-9.98821
▁iron	-9.9884
▁interpreted	-9.98897
▁Po	-9.98898
ful	-9.98902
▁off	-9.98917
▁[7,	-9.98948
▁Ra	-9.98981
▁every	-9.99011
▁ML	-9.99149
▁resolve	-9.9916
ber	-9.99177
ple	-9.99197
▁Me	-9.99206
▁depression	-9.9924
▁haplotype	-9.99254
cal	-9.99267
side	-9.99287
▁intact	-9.99298
▁enriched	-9.9936
▁embryo	-9.99394
ator	-9.99431
▁map	-9.99439
▁access	-9.99449
▁precise	-9.99484
▁adjacent	-9.99614
▁hind	-9.99646
▁again	-9.99787
▁demands	-9.99814
▁endogenous	-9.99869
▁orthologs	-9.99895
▁Within	-9.99907
ek	-9.99917
▁community	-9.99932
▁o	-9.99969
▁analysed	-10.0011
▁modulate	-10.0011
▁teleosts	-10.0013
▁native	-10.0014
▁diploid	-10.0019
▁nm	-10.0029
▁Sea	-10.003
lu	-10.003
▁III	-10.0038
ich	-10.0043
▁designed	-10.0043
▁explored	-10.0045
ised	-10.005
▁Specifically	-10.0051
▁generating	-10.0066
▁1997).	-10.0069
▁[10].	-10.0071
2].	-10.0077
▁subspecies	-10.0079
▁ones	-10.0082
▁[5,	-10.0085
▁localization	-10.0087
▁promote	-10.0088
▁studying	-10.0105
▁transitions	-10.0108
▁procedure	-10.0127
▁varies	-10.0128
▁inside	-10.0133
▁ecology	-10.0135
▁affecting	-10.0139
▁terminal	-10.014
▁know	-10.0141
▁modelling	-10.0157
▁barriers	-10.0158
▁synthetic	-10.0158
▁regard	-10.0164
ric	-10.0166
bl	-10.0167
▁pulse	-10.0168
▁1988;	-10.0169
sch	-10.0177
▁mouth	-10.0178
era	-10.0186
▁plastid	-10.0186
▁apply	-10.0189
CC	-10.019
ock	-10.0191
▁kinetics	-10.0192
▁added	-10.0193
▁slower	-10.0196
▁neuronal	-10.02
▁hypo	-10.0203
▁1990)	-10.0204
day	-10.0206
▁temperate	-10.0207
▁[9,	-10.0214
▁Ch	-10.0215
▁Hz	-10.0217
▁unpublished	-10.0223
▁graph	-10.0226
▁mis	-10.0229
▁tract	-10.0233
▁transduction	-10.0233
mes	-10.0234
▁subset	-10.0234
yn	-10.0238
▁chromosomal	-10.0242
▁fewer	-10.0243
▁gland	-10.0244
▁origins	-10.0248
▁technique	-10.0251
tes	-10.0255
▁coefficient	-10.0259
ster	-10.0264
▁belong	-10.0269
rid	-10.0271
▁missing	-10.0272
▁pool	-10.0275
▁respective	-10.0276
▁influences	-10.0279
CR	-10.0283
IP	-10.0299
▁similarly	-10.03
▁bind	-10.0306
▁virulence	-10.0309
ear	-10.0317
▁initiation	-10.0318
▁diving	-10.0323
oss	-10.0324
▁effectively	-10.0331
▁portion	-10.0339
▁controls	-10.0343
▁reached	-10.0353
▁representative	-10.0361
MC	-10.0363
▁constrained	-10.0365
▁measurement	-10.0368
°	-10.037
▁retina	-10.0371
phi	-10.0375
▁Wolbachia	-10.0377
ST	-10.0378
mar	-10.0379
▁enable	-10.038
▁exons	-10.0383
▁[11].	-10.0384
▁consensus	-10.0384
cl	-10.0395
▁zero	-10.0396
▁older	-10.0403
▁nitrogen	-10.0404
▁constructed	-10.0413
ser	-10.0415
▁statistically	-10.0416
▁subfamilies	-10.0417
▁car	-10.0429
cin	-10.0429
▁extend	-10.0432
▁challenges	-10.0436
▁done	-10.0438
▁favor	-10.0439
▁initially	-10.0443
▁arise	-10.0446
▁mechanistic	-10.045
▁flexibility	-10.0457
▁mature	-10.0457
▁adapt	-10.0458
FA	-10.047
▁deleterious	-10.047
▁false	-10.0477
▁algae	-10.0478
▁never	-10.0478
▁5-	-10.0481
▁establish	-10.0496
▁obvious	-10.0498
▁Instead	-10.0504
▁lacking	-10.0504
iform	-10.0516
▁shallow	-10.0518
▁[13].	-10.0524
▁run	-10.0529
▁middle	-10.053
▁discrete	-10.0531
▁demonstrates	-10.0535
▁closer	-10.0536
▁return	-10.0538
▁expenditure	-10.0544
▁traditional	-10.0552
4%	-10.0563
▁(3)	-10.0564
▁modes	-10.0564
expression	-10.0565
▁sleep	-10.0565
▁reflected	-10.0568
▁objective	-10.0582
▁infected	-10.0582
▁investigations	-10.0589
▁fixation	-10.0593
▁collection	-10.0594
▁fine	-10.0604
▁Sh	-10.0604
▁stride	-10.061
▁implicated	-10.0615
3%	-10.0617
▁intervals	-10.0618
▁array	-10.0625
▁[8,	-10.0627
▁cr	-10.0628
▁salmon	-10.0629
▁reduces	-10.0631
throughput	-10.0632
ko	-10.0633
PC	-10.0633
▁2008),	-10.0638
▁varied	-10.0639
▁clinical	-10.0646
Pa	-10.065
▁bp	-10.066
90	-10.0661
ATPase	-10.0664
que	-10.0667
▁lift	-10.0673
▁connectivity	-10.0674
▁forest	-10.0675
▁discovered	-10.0688
▁transient	-10.0688
▁TFs	-10.0692
▁2010)	-10.0694
▁ranging	-10.0697
ino	-10.0709
3].	-10.0721
gr	-10.0724
▁reasonable	-10.0724
▁unable	-10.0724
hu	-10.0726
▁assembly	-10.0728
▁glacial	-10.0735
RS	-10.0739
eng	-10.0741
5)	-10.0741
eg	-10.0745
▁minor	-10.0747
▁insertion	-10.0749
▁prolonged	-10.0751
▁nucleus	-10.0752
HT	-10.0755
▁tandem	-10.0756
▁patients	-10.0756
▁contributed	-10.0761
▁ten	-10.0761
▁spectrum	-10.0762
cus	-10.0762
▁constitute	-10.0773
▁dry	-10.0776
▁corresponds	-10.0779
▁consistently	-10.0779
▁[10,	-10.078
ons	-10.078
tis	-10.0783
mb	-10.0783
▁changed	-10.0786
nes	-10.0794
▁seals	-10.0796
▁controlling	-10.0797
▁exact	-10.0799
▁[41]	-10.0801
▁opportunity	-10.0804
▁themselves	-10.0818
▁scenarios	-10.0821
8%	-10.0822
▁repair	-10.0827
▁night	-10.0831
▁extra	-10.0832
▁landscape	-10.0832
▁interspecific	-10.0835
▁flying	-10.0837
▁swim	-10.0838
7%	-10.084
▁modification	-10.0846
▁biomass	-10.0846
▁kidney	-10.0853
▁monophyly	-10.086
▁chicken	-10.0864
▁follow	-10.0864
han	-10.088
▁member	-10.0881
▁image	-10.0888
group	-10.0892
▁China	-10.0896
38	-10.0897
▁mapping	-10.0903
▁Or	-10.0906
▁transcriptome	-10.0912
▁predicts	-10.0924
▁confidence	-10.0928
▁equilibrium	-10.0932
▁column	-10.0936
▁PC	-10.0938
▁comprise	-10.0959
▁sh	-10.0965
rm	-10.0965
▁equations	-10.0966
▁mixed	-10.0969
▁miR	-10.0971
▁intraspecific	-10.0972
▁interacting	-10.0978
▁1989)	-10.099
functional	-10.0993
ations	-10.1
▁Do	-10.1
▁intestine	-10.1007
▁description	-10.101
▁frogs	-10.1012
▁summary	-10.1014
▁homologs	-10.1016
▁progression	-10.1016
ood	-10.1016
▁acts	-10.102
▁transporters	-10.1021
▁artificial	-10.1022
vo	-10.1024
▁orthologous	-10.1029
6%	-10.1038
ok	-10.1039
▁En	-10.1042
▁record	-10.1044
▁elevation	-10.1049
▁gap	-10.1051
cor	-10.1051
tu	-10.1052
▁[40]	-10.1052
▁boundary	-10.1057
▁cone	-10.1058
AC	-10.1059
▁silk	-10.1063
▁gills	-10.1071
▁1985;	-10.1072
rh	-10.1074
▁nutritional	-10.1075
▁assessed	-10.1076
▁retained	-10.1079
▁survive	-10.1086
▁reports	-10.1094
yr	-10.1099
▁classical	-10.1099
▁PI	-10.1101
hl	-10.1106
cap	-10.1117
▁accurately	-10.112
▁definition	-10.1121
▁expanded	-10.1124
▁ITS	-10.1126
▁jet	-10.1127
▁intestinal	-10.1131
▁software	-10.1135
▁leaf	-10.1135
RP	-10.1135
27	-10.1136
▁CR	-10.1139
26	-10.1141
data	-10.1142
▁But	-10.1142
▁errors	-10.1143
▁5).	-10.1146
▁uses	-10.1147
▁opening	-10.115
▁bar	-10.1161
oli	-10.1162
lus	-10.1164
▁28	-10.1166
▁signature	-10.1168
▁interface	-10.1171
▁negatively	-10.1175
▁sand	-10.1177
▁[16].	-10.118
▁0.1	-10.1181
4)	-10.1183
▁synonymous	-10.1185
▁reveals	-10.1185
▁score	-10.1188
ped	-10.119
▁urea	-10.1191
▁endemic	-10.1192
▁NF	-10.1194
▁[42]	-10.1197
▁repeat	-10.123
▁epithelial	-10.1231
3–	-10.1231
mel	-10.1233
▁innate	-10.1245
▁daily	-10.125
1/	-10.1252
cho	-10.1252
ves	-10.1254
▁Wnt	-10.1255
▁2015).	-10.126
cr	-10.1266
with	-10.1273
tan	-10.1274
comp	-10.128
▁construct	-10.1281
bu	-10.1283
▁Mediterranean	-10.1284
▁microbial	-10.1286
▁pronounced	-10.1286
ible	-10.1292
▁delay	-10.1295
▁IL	-10.1295
▁inner	-10.1296
▁resolved	-10.1296
▁powerful	-10.1296
▁limiting	-10.1303
▁plane	-10.1303
▁equation	-10.1306
▁demand	-10.1312
▁displacement	-10.1315
ert	-10.1339
RNA	-10.1339
br	-10.1344
▁enter	-10.1345
▁0.5	-10.1347
▁quickly	-10.1348
▁str	-10.1359
▁shortening	-10.1364
▁preferences	-10.1379
▁namely	-10.138
▁thrust	-10.1381
▁[20].	-10.1386
▁evaluated	-10.1387
dis	-10.1394
▁neither	-10.1396
which	-10.14
▁[13,	-10.1403
▁inbreeding	-10.1406
▁chronic	-10.1408
berg	-10.141
▁sometimes	-10.1411
▁classified	-10.1411
gl	-10.1414
▁fins	-10.1427
▁culture	-10.1438
▁epithelium	-10.144
▁snails	-10.1447
▁hydrodynamic	-10.1447
ML	-10.1448
non	-10.1449
▁assumptions	-10.145
▁fold	-10.1452
▁old	-10.1453
▁ms	-10.1454
▁plausible	-10.1455
▁sympatric	-10.1455
MS	-10.1456
Ca	-10.1477
▁Central	-10.1477
pha	-10.1479
▁electro	-10.148
▁Pe	-10.1485
▁transferred	-10.1487
▁belonging	-10.1489
▁moderate	-10.1494
▁cal	-10.1495
▁silico	-10.1499
▁stance	-10.1501
▁Per	-10.1503
▁River	-10.1509
▁spiders	-10.1513
MP	-10.1518
▁hypoxic	-10.1521
▁differs	-10.1523
▁encode	-10.1525
Cl	-10.1526
ski	-10.1528
ene	-10.1532
▁homology	-10.1533
▁adhesion	-10.1544
inus	-10.1546
cre	-10.1549
▁mentioned	-10.1549
▁[11,	-10.1552
Co	-10.1555
▁Be	-10.1557
branch	-10.1558
▁1987;	-10.156
set	-10.1563
▁membranes	-10.1565
SC	-10.1567
▁anaerobic	-10.1568
24	-10.1572
LR	-10.1573
free	-10.1573
▁inhibitor	-10.1574
▁ST	-10.1577
cu	-10.1578
fin	-10.1582
▁rodents	-10.1587
▁dives	-10.1589
▁follows	-10.1603
▁enrichment	-10.1604
▁targeted	-10.161
▁pa	-10.1616
▁create	-10.1623
▁topological	-10.1626
▁summer	-10.1627
Ch	-10.1629
▁barrier	-10.1629
▁repeats	-10.1636
▁actively	-10.1637
▁phospho	-10.1648
▁anatomical	-10.1656
ius	-10.1658
▁disc	-10.166
TA	-10.1661
▁Col	-10.1662
▁2005)	-10.1666
▁outcome	-10.1667
▁Car	-10.1669
▁rRNA	-10.1673
▁fall	-10.1673
▁pure	-10.1677
tz	-10.1679
unt	-10.168
▁fate	-10.1683
▁her	-10.1686
amine	-10.1687
▁FA	-10.1694
mm	-10.1695
▁compound	-10.1698
▁Ex	-10.17
▁linkage	-10.1703
▁photoreceptors	-10.1706
▁treated	-10.1707
▁1988)	-10.1716
derived	-10.1717
field	-10.1717
▁cortisol	-10.1717
trans	-10.1723
aria	-10.1728
▁lactate	-10.1731
val	-10.1733
▁neo	-10.1735
▁causing	-10.174
▁efforts	-10.174
▁Ga	-10.1745
▁attachment	-10.1755
▁1983;	-10.1778
▁[12,	-10.1778
PS	-10.178
Figs	-10.1781
▁Note	-10.1798
▁removal	-10.1808
▁investment	-10.1809
▁signatures	-10.1811
80	-10.1811
▁object	-10.1812
▁warm	-10.1817
▁[21].	-10.1829
▁match	-10.1839
▁orders	-10.1844
▁striking	-10.1849
▁select	-10.1856
▁ensure	-10.1862
▁conflict	-10.1868
▁contributes	-10.1877
water	-10.1881
▁yellow	-10.1882
▁Mar	-10.1886
▁methylation	-10.1891
▁Th	-10.1896
such	-10.1897
▁burst	-10.1899
receptor	-10.1909
▁posture	-10.1911
▁marked	-10.1911
▁extensively	-10.1915
qui	-10.1916
▁displayed	-10.1917
▁connections	-10.1922
▁attack	-10.1923
)(	-10.1927
▁island	-10.1928
▁assigned	-10.1932
ung	-10.1932
▁valuable	-10.1947
▁Ko	-10.1951
▁isolates	-10.1954
TR	-10.196
▁predominantly	-10.1961
▁nematodes	-10.1962
▁failure	-10.1963
▁[44]	-10.1964
ulin	-10.1966
▁pollen	-10.197
▁PS	-10.1973
▁stores	-10.1974
▁ultimately	-10.1974
▁ch	-10.1975
▁produces	-10.1979
▁2010),	-10.1979
9].	-10.1983
▁care	-10.1986
▁referred	-10.1987
▁interval	-10.2004
▁purifying	-10.2009
▁regulator	-10.201
och	-10.2012
▁1984;	-10.2017
▁3,	-10.2026
▁catalytic	-10.2033
▁addressed	-10.2034
qu	-10.2041
7].	-10.2043
▁cryptic	-10.205
MR	-10.205
▁2009	-10.2052
▁tRNA	-10.2056
▁perturbation	-10.2057
▁hair	-10.2061
▁torpor	-10.2064
▁23	-10.2065
CS	-10.2073
▁vortex	-10.208
test	-10.2088
▁repertoire	-10.2095
▁actin	-10.2096
▁route	-10.2097
▁reverse	-10.2098
▁cuticle	-10.2111
▁remarkable	-10.2111
▁unexpected	-10.2111
vis	-10.2116
▁integrate	-10.2121
amb	-10.2125
row	-10.2125
▁excess	-10.2133
▁Lake	-10.2137
ean	-10.2141
▁bodies	-10.2143
▁aspect	-10.2145
nic	-10.2156
ano	-10.216
▁hypothesize	-10.2161
▁express	-10.2165
▁undergo	-10.2168
las	-10.2171
▁turnover	-10.2176
▁restriction	-10.2178
▁sc	-10.2179
▁epi	-10.2196
▁smooth	-10.2198
▁bending	-10.2199
▁polymorphisms	-10.2203
23	-10.2203
ham	-10.2206
▁flexible	-10.2206
▁researchers	-10.2213
▁build	-10.2214
8].	-10.2218
▁26	-10.2219
▁overlapping	-10.2222
▁heterogeneous	-10.2222
fl	-10.2222
▁starting	-10.2225
▁defense	-10.2225
sta	-10.2226
▁rich	-10.2227
▁retain	-10.2229
▁agree	-10.223
▁scope	-10.223
lit	-10.2232
▁Yet	-10.2236
▁quantify	-10.2238
optera	-10.2241
▁specialization	-10.2248
DNA	-10.2252
▁injection	-10.2257
ification	-10.2258
▁SR	-10.2266
▁coupling	-10.227
▁migratory	-10.2275
▁Only	-10.2279
▁cave	-10.228
▁assessment	-10.229
▁MC	-10.2294
▁uncertainty	-10.2295
ull	-10.2296
ena	-10.2296
6].	-10.2304
let	-10.231
za	-10.2311
▁house	-10.2323
▁relate	-10.2325
itz	-10.2332
▁usage	-10.2338
35	-10.2346
▁readily	-10.2351
▁proportional	-10.2352
▁takes	-10.2356
▁differentiated	-10.2359
eck	-10.236
▁contractions	-10.2361
▁Asian	-10.2361
MA	-10.2362
▁electron	-10.2362
▁tip	-10.2362
▁investigating	-10.2363
▁Kr	-10.2363
▁discriminate	-10.2369
EC	-10.2376
▁world	-10.2382
▁arthropods	-10.2383
▁top	-10.2385
▁weeks	-10.2385
RT	-10.2386
▁distant	-10.2387
ction	-10.2387
▁elicit	-10.2391
▁1987)	-10.2399
▁2009),	-10.2399
▁Futu	-10.2401
▁isoform	-10.2405
▁[16,	-10.2408
▁preferred	-10.2409
▁[45]	-10.2411
▁divided	-10.2411
▁partly	-10.2416
▁dose	-10.2416
▁elucidate	-10.2418
▁go	-10.2424
▁appearance	-10.2427
▁Bar	-10.2428
▁immediately	-10.2433
▁ocean	-10.2433
▁code	-10.2446
▁regime	-10.2446
▁microsatellite	-10.2446
▁became	-10.2448
ya	-10.2449
gal	-10.2451
▁placement	-10.2453
Na	-10.2457
▁communities	-10.2473
▁behaviours	-10.2475
▁invasion	-10.2481
genic	-10.2482
+-	-10.2486
▁informative	-10.2493
▁whales	-10.2495
pr	-10.2496
▁Hox	-10.2496
▁60	-10.2497
▁directed	-10.25
▁inhibit	-10.2501
▁differed	-10.2506
▁sustained	-10.2509
▁competitive	-10.2511
morph	-10.2514
▁outer	-10.252
▁recruitment	-10.2522
▁2007),	-10.2527
▁honey	-10.253
▁regardless	-10.2531
od	-10.2532
▁determination	-10.2538
▁created	-10.2545
tar	-10.2546
▁Gr	-10.2547
▁endo	-10.2552
▁applications	-10.2552
▁arrangement	-10.2554
▁deal	-10.2557
ost	-10.2557
tch	-10.2564
oides	-10.2569
200	-10.2572
▁2011)	-10.2577
late	-10.2583
▁avoidance	-10.2584
don	-10.2587
▁overcome	-10.2588
▁ankle	-10.2588
▁imply	-10.2589
ified	-10.2591
CT	-10.2602
22	-10.2602
▁1985)	-10.2605
0–	-10.2606
yer	-10.261
most	-10.2611
▁biologically	-10.2613
▁soil	-10.2614
▁Bi	-10.2614
▁chosen	-10.2617
▁dependence	-10.262
▁challenging	-10.2621
▁criteria	-10.2621
▁enzymatic	-10.2624
▁kinematic	-10.2629
▁That	-10.2634
log	-10.2639
▁crabs	-10.2645
▁assays	-10.2647
▁accompanied	-10.2647
▁jumping	-10.2652
▁sexes	-10.2658
▁removed	-10.2662
▁failed	-10.2669
32	-10.267
▁assay	-10.2671
▁1982;	-10.2671
▁relevance	-10.2671
▁operate	-10.2672
▁refugia	-10.2672
▁offer	-10.2673
▁validation	-10.2675
▁special	-10.2677
▁[25].	-10.2677
fe	-10.2679
characterization	-10.268
▁asexual	-10.268
acclimated	-10.2681
SP	-10.2686
▁consisting	-10.2687
▁gradients	-10.269
ria	-10.269
−1)	-10.2691
▁Pacific	-10.2691
▁parasitic	-10.2692
orn	-10.2695
led	-10.27
ogenesis	-10.2704
▁ideal	-10.2704
▁inhibitors	-10.2711
75	-10.2712
▁lab	-10.2713
▁fields	-10.2716
cut	-10.2718
▁prominent	-10.2721
▁[15,	-10.2724
▁Hb	-10.2728
fa	-10.2736
ven	-10.2736
▁leaves	-10.2737
▁immuno	-10.2737
ani	-10.2739
AS	-10.2745
▁entirely	-10.2746
NT	-10.2752
▁connect	-10.2755
4].	-10.2756
DR	-10.2767
ik	-10.2769
▁involvement	-10.2773
▁discuss	-10.2775
Each	-10.2777
▁1986;	-10.278
▁calibration	-10.2788
▁somewhat	-10.2788
▁carp	-10.2795
▁nine	-10.2796
▁[14,	-10.28
▁ice	-10.2803
ular	-10.2805
▁principle	-10.2808
az	-10.2817
▁correlate	-10.282
▁predictive	-10.282
including	-10.2825
▁thresholds	-10.2831
iz	-10.2833
containing	-10.2834
▁infections	-10.2834
▁connection	-10.2836
▁Studies	-10.2839
▁velocities	-10.2839
▁lowest	-10.2842
▁21	-10.2851
▁wind	-10.2853
▁brown	-10.2859
ess	-10.2875
▁Hsp	-10.2885
ett	-10.2889
can	-10.2897
▁span	-10.2899
28	-10.2901
▁AS	-10.2903
▁examining	-10.2907
del	-10.2907
▁Compar	-10.2907
ions	-10.2909
BS	-10.2911
▁tasks	-10.2913
▁ME	-10.2917
load	-10.2917
▁diapause	-10.2925
▁neuron	-10.2927
▁1981;	-10.2933
▁longitudinal	-10.2933
1–	-10.2933
ases	-10.294
▁counter	-10.2942
▁taking	-10.2942
▁height	-10.2959
▁arms	-10.2962
▁hemolymph	-10.2967
▁measuring	-10.2967
▁shed	-10.297
▁inhibitory	-10.2975
▁behind	-10.2976
▁lipids	-10.2977
▁protection	-10.2977
▁increasingly	-10.298
▁Eu	-10.2983
▁machinery	-10.2985
▁bootstrap	-10.2993
rp	-10.2994
pul	-10.2994
▁transformation	-10.2998
▁filter	-10.3
▁pitch	-10.3001
La	-10.3002
▁pigments	-10.3003
▁Micro	-10.3006
men	-10.3006
offs	-10.3006
▁en	-10.3006
▁equally	-10.301
▁fiber	-10.3016
▁ribosomal	-10.3019
▁alterations	-10.302
▁sa	-10.3021
app	-10.3026
rate	-10.3027
▁1.	-10.3029
▁zebra	-10.3036
▁predicting	-10.3037
▁myo	-10.3038
▁MT	-10.3046
▁hormones	-10.3046
▁angles	-10.3047
▁compensate	-10.3049
▁otherwise	-10.3049
▁chromatin	-10.3054
▁corals	-10.306
▁maturation	-10.3062
▁drop	-10.3062
▁zones	-10.3064
ise	-10.3069
▁simultaneous	-10.3075
▁TLR	-10.3079
▁suction	-10.308
▁odour	-10.3086
▁mixture	-10.3086
▁1),	-10.3087
▁Model	-10.3089
▁rarely	-10.309
▁property	-10.3098
ld	-10.3099
▁35	-10.31
▁activate	-10.3103
▁played	-10.3105
▁2]	-10.3112
▁nutrients	-10.3114
▁block	-10.3116
pla	-10.3118
▁naturally	-10.312
▁Mya	-10.3123
▁retention	-10.3123
▁decision	-10.313
▁received	-10.3132
thy	-10.3133
▁localized	-10.3134
▁ear	-10.3135
▁stretch	-10.3136
pl	-10.3139
▁residue	-10.3139
ero	-10.314
GA	-10.314
▁courtship	-10.3141
▁RH	-10.3146
▁2011	-10.3149
▁principal	-10.3154
▁Tri	-10.3154
ott	-10.3157
▁advantages	-10.3167
▁jump	-10.3167
▁Tb	-10.3177
▁purpose	-10.3183
▁solutions	-10.3187
▁shock	-10.3194
▁trajectories	-10.3202
▁losses	-10.3204
sum	-10.3206
▁symbionts	-10.321
▁exhibits	-10.3212
▁north	-10.3213
▁suppression	-10.3213
hn	-10.3219
▁caudal	-10.3221
radi	-10.3222
▁issues	-10.3223
▁consequently	-10.3223
▁magnetic	-10.3228
char	-10.3228
▁CORT	-10.323
til	-10.3233
old	-10.3241
ix	-10.3242
▁particle	-10.3246
oni	-10.3252
ck	-10.3262
67	-10.3269
▁[46]	-10.3274
▁Fa	-10.3275
zo	-10.3278
▁breast	-10.3282
▁squid	-10.3282
▁add	-10.3282
▁chance	-10.3282
De	-10.3283
▁mosquito	-10.3285
▁emerged	-10.329
odon	-10.3291
▁baseline	-10.3293
▁attempt	-10.3294
eu	-10.3296
▁SW	-10.3296
ray	-10.3296
omorph	-10.3301
nate	-10.3303
▁transporter	-10.3303
gar	-10.3305
▁links	-10.3309
use	-10.331
▁highlight	-10.331
1%	-10.331
ory	-10.3314
▁believe	-10.3321
▁partners	-10.3324
well	-10.3338
▁tension	-10.3338
▁branching	-10.334
▁Su	-10.3343
▁beginning	-10.3344
▁vascular	-10.3349
ith	-10.3352
▁2008	-10.3354
▁methodology	-10.3356
▁directions	-10.3357
lia	-10.3357
9%	-10.3357
icus	-10.3358
29	-10.3359
▁[28].	-10.3361
▁desiccation	-10.3362
▁contributing	-10.3371
▁hatching	-10.3379
▁My	-10.3383
▁spp	-10.3385
ll	-10.3388
van	-10.339
://	-10.3398
▁contributions	-10.3406
com	-10.3411
ale	-10.3413
▁trunk	-10.3416
AD	-10.3418
iformes	-10.3418
▁limbs	-10.342
▁loops	-10.3421
wing	-10.3424
▁Results	-10.3425
▁bars	-10.3427
su	-10.3427
▁none	-10.3431
▁reconstructed	-10.3439
elli	-10.3441
▁enables	-10.3441
▁NH	-10.3441
▁objects	-10.3445
▁nematode	-10.3452
▁Pi	-10.3452
▁im	-10.3464
▁oxidation	-10.3465
6)	-10.3465
▁SC	-10.3465
▁web	-10.3468
▁[17,	-10.347
▁annotation	-10.3471
▁hours	-10.3472
lis	-10.3477
▁2011),	-10.3479
▁codons	-10.348
1].	-10.3487
▁cavity	-10.3497
cro	-10.3499
▁frog	-10.35
▁unusual	-10.3502
▁27	-10.3503
▁fasting	-10.3503
▁index	-10.3516
▁juveniles	-10.3517
▁foragers	-10.3517
▁2006),	-10.3518
▁birth	-10.3524
nal	-10.3527
ble	-10.3528
▁50%	-10.353
▁Phylogenetic	-10.3533
▁accumulate	-10.3538
▁believed	-10.3538
treated	-10.3543
▁closed	-10.3548
▁solely	-10.3549
▁4,	-10.355
▁ne	-10.3551
order	-10.3554
genome	-10.3558
▁epigenetic	-10.3561
▁joints	-10.3564
5].	-10.3568
MT	-10.357
▁mosquitoes	-10.3575
▁validated	-10.3579
▁home	-10.3579
mal	-10.3581
CD	-10.3582
NA	-10.3585
bar	-10.3587
▁rearrangements	-10.3587
pin	-10.3591
▁melan	-10.3593
100	-10.3595
▁km	-10.3597
▁gr	-10.3602
▁numerical	-10.3606
▁[48]	-10.3609
BA	-10.3609
▁flat	-10.3613
sky	-10.3613
▁candidates	-10.3614
▁front	-10.3618
▁grow	-10.3626
▁stored	-10.3634
Ps	-10.3634
▁mechanics	-10.3643
yan	-10.3646
▁progress	-10.3648
▁2005),	-10.3656
ants	-10.3658
cle	-10.3659
▁coefficients	-10.3662
▁utilize	-10.3666
domain	-10.3673
▁cascade	-10.3675
▁2016)	-10.3676
▁invertebrate	-10.3679
body	-10.3683
ual	-10.3683
PO	-10.369
St	-10.3693
▁his	-10.3701
pan	-10.3705
▁dehydrogenase	-10.3707
▁[18,	-10.3708
▁suppress	-10.3711
▁yolk	-10.3717
▁capabilities	-10.3717
qua	-10.3722
▁pectoral	-10.3723
▁vast	-10.3738
▁soft	-10.3739
▁th	-10.3741
▁2007	-10.3742
▁Cor	-10.3743
▁combine	-10.3743
nch	-10.3745
▁translational	-10.3746
phosphate	-10.3748
▁stop	-10.3755
illa	-10.3759
▁categories	-10.3763
▁normally	-10.3772
▁manipulation	-10.3778
▁favour	-10.3782
▁bee	-10.3783
▁subjected	-10.3786
▁AP	-10.3793
ice	-10.3794
▁2010	-10.38
▁meal	-10.38
▁walk	-10.3804
5°	-10.3806
NP	-10.3806
LS	-10.3808
▁Methods	-10.381
▁Wood	-10.3811
▁cue	-10.3817
Al	-10.3822
▁cover	-10.3825
▁log	-10.3825
▁forming	-10.3826
air	-10.3826
emb	-10.3827
▁coastal	-10.3828
Sch	-10.3829
RF	-10.3831
▁2002)	-10.385
▁Australia	-10.3858
▁[47]	-10.3858
▁fail	-10.3859
▁implemented	-10.3866
▁thin	-10.3866
▁Accordingly	-10.3867
history	-10.3871
living	-10.3872
▁odor	-10.3872
ious	-10.3879
21	-10.388
BI	-10.3884
▁1983)	-10.3885
PI	-10.3895
▁conspecific	-10.3895
▁SNPs	-10.3899
LP	-10.3901
▁rice	-10.3905
▁track	-10.391
▁glands	-10.3914
▁clones	-10.3916
nn	-10.3926
▁PCR	-10.393
SS	-10.3935
▁u	-10.3935
▁employ	-10.3938
position	-10.3941
▁[49]	-10.3943
▁slope	-10.3945
▁circuits	-10.3949
▁sugar	-10.3959
▁coloration	-10.3962
RE	-10.3965
▁recover	-10.3966
▁peri	-10.3967
▁metazoan	-10.3969
▁glycogen	-10.3977
▁DA	-10.3981
gan	-10.3982
ever	-10.3982
▁crustaceans	-10.3982
▁swing	-10.3983
▁annotated	-10.3983
▁argue	-10.3985
▁sorting	-10.3988
▁onto	-10.399
▁aerodynamic	-10.3999
▁lactation	-10.3999
▁somatic	-10.4002
▁High	-10.4005
▁kHz	-10.4008
▁scores	-10.4011
▁van	-10.4028
ks	-10.4045
▁amplification	-10.4046
fo	-10.4047
Net	-10.405
▁[10	-10.4052
▁broader	-10.4064
▁facilitated	-10.4067
pen	-10.4069
▁carry	-10.4073
▁he	-10.4073
▁fecundity	-10.4075
▁evolutionarily	-10.4075
▁evaluation	-10.4082
▁optic	-10.4087
▁PD	-10.4087
AG	-10.4087
▁sum	-10.4088
▁allocation	-10.4091
IN	-10.4091
▁reptiles	-10.4094
tho	-10.4098
expressed	-10.4101
▁y	-10.4104
▁Conversely	-10.4104
▁analyzing	-10.4104
▁perception	-10.4104
▁morphologically	-10.4106
CL	-10.4114
ai	-10.4115
▁introduction	-10.4123
45	-10.4128
▁hip	-10.4133
▁months	-10.4141
ulation	-10.4153
▁symbiont	-10.4154
▁[10]	-10.4154
▁complicated	-10.417
▁PR	-10.4176
ane	-10.4178
ath	-10.4188
▁causal	-10.4189
feeding	-10.4189
▁histories	-10.4191
▁11]	-10.4192
LC	-10.4192
2).	-10.4195
▁construction	-10.4195
92	-10.4196
▁plan	-10.42
▁chamber	-10.4201
-4	-10.4201
▁replacement	-10.4202
active	-10.4206
▁advantageous	-10.4207
▁flowers	-10.4208
▁IGF	-10.421
▁digestive	-10.4211
nu	-10.4219
▁trends	-10.422
▁1984)	-10.422
OX	-10.4224
▁2014;	-10.4226
▁benthic	-10.4227
▁regulates	-10.423
har	-10.4235
▁engineering	-10.4244
▁toxic	-10.4245
▁stresses	-10.4248
▁superfamily	-10.425
▁[20,	-10.425
▁variant	-10.4252
ki	-10.4262
▁thaliana	-10.4269
▁CS	-10.4277
▁gives	-10.4277
trophic	-10.4279
▁circuit	-10.4281
▁stimulated	-10.4287
▁spider	-10.4291
▁turtle	-10.4291
PA	-10.4294
▁knockout	-10.4296
▁Gal	-10.4302
▁aimed	-10.4302
▁retinal	-10.4306
▁Nonetheless	-10.4308
▁relatives	-10.4312
DH	-10.4312
▁Am	-10.4313
AM	-10.4314
physiological	-10.4317
dh	-10.4319
ological	-10.4323
▁hydrogen	-10.4332
▁convergence	-10.4338
rot	-10.4343
cha	-10.4347
bol	-10.4347
frequency	-10.4347
▁[19,	-10.4348
▁6).	-10.4351
▁situ	-10.4356
▁wake	-10.4357
5,	-10.4359
▁Vi	-10.4361
▁exert	-10.4366
▁GR	-10.4367
▁biased	-10.4369
▁carbohydrate	-10.4371
▁concluded	-10.4372
lock	-10.4374
▁regional	-10.4374
▁abdominal	-10.4377
▁combining	-10.4377
▁fuel	-10.4378
▁notion	-10.4384
nk	-10.4385
▁deeper	-10.4386
▁decay	-10.4387
target	-10.4387
med	-10.4388
ade	-10.439
▁ring	-10.4391
▁topologies	-10.4397
IM	-10.4405
▁boundaries	-10.4407
▁diets	-10.4415
▁qualitative	-10.4424
▁plastic	-10.4425
▁river	-10.4426
▁coordination	-10.4427
▁photoreceptor	-10.4432
▁29	-10.4435
▁imposed	-10.4435
▁[30].	-10.4438
▁speculate	-10.4443
phase	-10.4444
▁par	-10.4445
▁demonstrating	-10.4447
▁interpret	-10.4454
▁metal	-10.4458
34	-10.4458
▁dB	-10.4461
▁argued	-10.4461
▁[32]	-10.4471
▁fragments	-10.4472
▁anoxia	-10.4477
▁particles	-10.4478
▁slowly	-10.4485
▁mediate	-10.449
▁protect	-10.4496
▁VEGF	-10.4498
▁centre	-10.4502
36	-10.4504
▁mol	-10.4506
▁targeting	-10.4507
▁[30]	-10.4513
ines	-10.4513
Le	-10.4515
▁therapeutic	-10.4517
▁pi	-10.4517
▁paired	-10.4523
▁fH	-10.4524
lli	-10.4525
▁inputs	-10.4528
▁saturation	-10.4537
▁persist	-10.4539
Bo	-10.4541
▁accepted	-10.4542
▁discussion	-10.4543
83	-10.4546
▁uniform	-10.4546
▁collagen	-10.4547
population	-10.4548
▁na	-10.4553
acc	-10.4556
▁Boolean	-10.4557
▁images	-10.4557
69	-10.4563
▁lymph	-10.4567
3-	-10.4568
▁chemo	-10.4569
▁Taken	-10.457
▁come	-10.4572
▁PA	-10.4572
▁trigger	-10.4573
▁indication	-10.4577
▁COM	-10.4579
int	-10.4579
NS	-10.4582
▁costly	-10.4585
▁AT	-10.4587
▁width	-10.4588
▁encounter	-10.4588
▁Gu	-10.4591
▁pairwise	-10.4598
bil	-10.4611
▁etc	-10.4615
▁asymmetry	-10.4618
▁coast	-10.4618
▁17]	-10.4625
▁concerning	-10.4631
▁utilized	-10.4633
▁DR	-10.4634
▁minimize	-10.4634
▁Ge	-10.4642
▁TE	-10.4647
▁7)	-10.4647
▁biogeographic	-10.4648
leg	-10.4648
▁convergent	-10.4649
▁excluded	-10.4651
ker	-10.4653
▁IV	-10.4657
▁pseudo	-10.4658
▁antennal	-10.4661
cephal	-10.4665
▁12]	-10.4666
▁wavelength	-10.4666
▁user	-10.4668
▁Importantly	-10.4669
▁me	-10.467
▁moths	-10.4672
▁homo	-10.4676
▁suffer	-10.4679
Br	-10.4686
▁detecting	-10.4687
ue	-10.469
▁cha	-10.4693
ition	-10.4693
▁contractile	-10.4699
▁frame	-10.4702
▁morph	-10.4705
▁dramatically	-10.4711
▁inclusion	-10.4712
rea	-10.4716
▁Ac	-10.4717
▁Hu	-10.4719
▁curves	-10.4721
▁Ber	-10.4724
▁platform	-10.473
▁beetles	-10.4741
spir	-10.4741
▁induces	-10.4743
▁sac	-10.4744
mod	-10.4744
range	-10.4745
–1)	-10.4745
ophora	-10.4754
var	-10.4755
▁PP	-10.476
pper	-10.476
▁quantified	-10.4762
ze	-10.4767
▁10]	-10.4767
ook	-10.4768
▁14]	-10.477
ME	-10.4771
▁32	-10.4771
tre	-10.478
▁circulating	-10.4781
▁shear	-10.4782
▁unlike	-10.4782
▁gl	-10.4783
mid	-10.4788
▁NR	-10.4789
ocyte	-10.4789
▁intense	-10.4792
▁window	-10.4792
▁resistant	-10.4798
▁explicitly	-10.4799
0)	-10.48
▁proximity	-10.4802
tel	-10.4806
▁[13]	-10.4811
▁15]	-10.4813
▁alpha	-10.4814
biased	-10.4814
6,	-10.4818
▁Due	-10.4822
▁south	-10.4822
▁hy	-10.4823
▁greatest	-10.4836
▁sufficiently	-10.4838
▁How	-10.484
▁regular	-10.4841
▁[9]	-10.4841
▁program	-10.4842
pal	-10.4842
▁wet	-10.4843
▁efficiently	-10.485
mis	-10.4852
▁Har	-10.4855
cher	-10.4857
lea	-10.4862
▁comprising	-10.4864
▁opsins	-10.487
are	-10.4872
▁building	-10.4874
hel	-10.4876
▁[22,	-10.4876
▁recordings	-10.4883
▁col	-10.4884
▁motility	-10.4885
▁picture	-10.4885
▁injury	-10.4885
▁abilities	-10.4887
▁muscular	-10.4889
GS	-10.4889
▁differing	-10.489
▁Rab	-10.4893
GC	-10.4894
▁ecologically	-10.4897
ew	-10.4897
ema	-10.4898
▁waves	-10.4901
uk	-10.4901
sia	-10.4902
▁GA	-10.4903
▁World	-10.4906
▁indicative	-10.4906
SE	-10.4909
ult	-10.491
▁reward	-10.4913
ense	-10.4913
▁4)	-10.4914
ij	-10.4914
▁Bio	-10.4915
▁hibernation	-10.4916
▁broadly	-10.4916
▁arose	-10.4917
▁fibre	-10.492
▁Sc	-10.4921
linear	-10.4923
▁16]	-10.4923
▁disruption	-10.4931
matic	-10.4946
▁Go	-10.4953
TF	-10.4957
▁mal	-10.4957
▁Third	-10.4958
▁kind	-10.496
▁3-	-10.4962
▁mt	-10.4962
▁ongoing	-10.4963
▁rules	-10.4964
▁Analysis	-10.4968
▁[50]	-10.4971
istic	-10.4979
▁apparatus	-10.4979
▁Unlike	-10.4981
▁1979;	-10.4989
▁realistic	-10.499
eus	-10.4992
▁sun	-10.4994
Mo	-10.4995
▁48	-10.4997
▁20]	-10.5002
▁lakes	-10.5003
▁crab	-10.5003
▁SO	-10.501
▁dynamical	-10.5011
tract	-10.5011
▁digestion	-10.5012
▁ancestors	-10.5021
ology	-10.5021
▁learn	-10.5022
▁impacts	-10.5027
▁proto	-10.5027
48	-10.5029
▁45	-10.5032
▁dramatic	-10.504
called	-10.5041
linked	-10.5044
ux	-10.5045
▁feather	-10.5045
1).	-10.5051
Re	-10.5055
▁hindlimb	-10.5055
mus	-10.5058
▁tracheal	-10.5062
▁clustered	-10.5068
▁seal	-10.5082
▁GH	-10.5084
▁precursor	-10.5087
=1	-10.5089
▁Chi	-10.5091
▁describing	-10.5095
▁0.2	-10.5098
▁morphs	-10.5099
DS	-10.5105
▁reconstruct	-10.5105
▁knee	-10.5106
site	-10.5107
▁[11]	-10.5112
▁myosin	-10.5116
wise	-10.512
▁situations	-10.5121
▁examination	-10.5127
▁underlie	-10.513
▁conditioning	-10.5131
pre	-10.5133
▁performing	-10.5133
▁Whether	-10.5138
▁Together	-10.5148
▁utilization	-10.5148
▁1981)	-10.5148
▁duplicates	-10.5149
▁adjust	-10.5149
▁reproduce	-10.5156
▁crickets	-10.516
Ha	-10.5162
▁cytoplasmic	-10.5162
▁encodes	-10.5167
▁words	-10.517
IC	-10.5171
▁JH	-10.5174
▁2003	-10.5179
▁harbor	-10.5182
TP	-10.5188
▁mutational	-10.5188
▁Bur	-10.5188
▁MP	-10.5188
▁exclude	-10.5188
positive	-10.5189
bound	-10.5191
▁Miocene	-10.5193
▁bite	-10.5198
▁tracking	-10.5199
▁initiate	-10.5199
Gs	-10.5204
▁break	-10.5205
▁relaxed	-10.5206
▁trajectory	-10.5213
▁comes	-10.5214
gon	-10.5219
7)	-10.5223
aa	-10.5223
▁Br	-10.5223
Ro	-10.5226
▁[32].	-10.5226
▁circles	-10.5227
flow	-10.523
▁put	-10.5234
inter	-10.5236
driven	-10.5243
▁eventually	-10.5245
▁susceptibility	-10.5245
▁freezing	-10.5245
▁exogenous	-10.5245
AA	-10.5246
▁introduce	-10.5247
▁2006	-10.5248
▁solid	-10.525
▁subjects	-10.5251
▁adhesive	-10.5256
▁fertilization	-10.5256
rd	-10.5256
uch	-10.5258
86	-10.5259
▁Du	-10.526
▁nectar	-10.5267
▁tendency	-10.5267
▁18]	-10.5273
▁allopatric	-10.5278
▁permeability	-10.5278
▁persistence	-10.5278
IR	-10.528
▁1980;	-10.5281
▁compatible	-10.5282
defined	-10.5287
sson	-10.5288
▁median	-10.5298
SR	-10.5299
▁regimes	-10.5302
▁peaks	-10.5305
-6	-10.5306
▁separately	-10.5309
0.1	-10.5309
▁prefer	-10.5315
▁shaped	-10.5315
▁West	-10.5316
▁roughly	-10.5316
▁consideration	-10.5318
▁maximize	-10.5321
68	-10.5322
▁confer	-10.5322
ita	-10.5323
79	-10.5323
▁Si	-10.5326
Rs	-10.5326
PD	-10.5326
▁[16]	-10.5328
▁organic	-10.5332
▁echolocation	-10.5332
▁wider	-10.5333
77	-10.5333
att	-10.5334
▁reared	-10.5337
▁ligands	-10.5338
▁sexually	-10.5338
▁19]	-10.5341
▁2002),	-10.5344
▁took	-10.5345
CoA	-10.5349
▁Cu	-10.5353
SH	-10.5355
▁switching	-10.5357
▁phosphate	-10.5361
▁MS	-10.5366
▁osmotic	-10.5368
cur	-10.5369
▁detectable	-10.5372
▁phenomena	-10.5375
▁worms	-10.5376
sens	-10.5376
▁complementary	-10.5377
▁[53]	-10.538
▁analytical	-10.5386
▁health	-10.5391
▁TR	-10.5395
▁intriguing	-10.5397
▁lifespan	-10.5397
▁[21,	-10.5399
BD	-10.5404
PE	-10.5412
▁altitude	-10.5415
▁primate	-10.5415
model	-10.5419
▁compensatory	-10.5419
▁lifestyle	-10.542
▁indirectly	-10.542
▁establishment	-10.5421
▁angiosperms	-10.5421
▁beta	-10.5424
▁setting	-10.5429
where	-10.543
osis	-10.5431
IS	-10.5431
▁inhabit	-10.5433
▁ad	-10.5436
hy	-10.544
▁approximation	-10.5441
▁insufficient	-10.5441
known	-10.545
▁media	-10.5451
down	-10.5452
organ	-10.546
otic	-10.5463
▁Consistent	-10.5463
▁cleavage	-10.5463
▁depletion	-10.5463
▁turning	-10.5465
▁kinases	-10.5466
SM	-10.5468
value	-10.5473
▁promising	-10.5474
Es	-10.5478
▁promoters	-10.5484
▁version	-10.5485
AF	-10.5487
▁reciprocal	-10.5491
net	-10.5494
▁2000)	-10.5496
▁teeth	-10.5496
▁Wa	-10.5498
▁conspecifics	-10.5499
▁stressors	-10.5502
▁offers	-10.5509
33	-10.5511
▁tit	-10.5512
▁assuming	-10.5518
▁densities	-10.5519
▁taxonomy	-10.5519
bra	-10.5524
CP	-10.5527
31	-10.5532
▁TGF	-10.5533
▁strand	-10.5534
▁reconstructions	-10.5536
▁domestic	-10.554
▁Wang	-10.554
rap	-10.5549
▁representatives	-10.555
amm	-10.5557
▁13]	-10.5564
▁extinct	-10.5569
▁nocturnal	-10.5574
▁translocation	-10.5575
ably	-10.5575
▁Over	-10.5576
anus	-10.5578
▁AQP	-10.5581
▁distantly	-10.5581
▁mon	-10.5585
▁visible	-10.5585
exp	-10.5586
▁Cha	-10.5588
▁glutamate	-10.5592
▁[52]	-10.5601
▁Pre	-10.5603
▁compass	-10.5608
▁1982)	-10.5608
▁tooth	-10.5609
tell	-10.5609
▁proton	-10.5615
ami	-10.5615
▁asymmetric	-10.5615
▁waters	-10.5616
shi	-10.5617
▁angular	-10.5619
length	-10.562
▁requirement	-10.5622
GT	-10.5623
evolutionary	-10.5624
tur	-10.5625
lated	-10.5637
▁worth	-10.564
▁occupy	-10.5641
▁2004),	-10.5644
▁Unfortunately	-10.5653
▁contrary	-10.5653
▁ontogeny	-10.5653
▁undergone	-10.5654
▁[5]	-10.5656
▁blocks	-10.5656
▁static	-10.5659
▁geographically	-10.5664
je	-10.5669
71	-10.5669
▁lip	-10.5675
0].	-10.5675
▁cis	-10.5676
▁Op	-10.5682
▁23]	-10.5687
▁reflecting	-10.569
1),	-10.5692
▁named	-10.5693
▁recognize	-10.5697
▁starvation	-10.5698
▁synthase	-10.5698
▁incorporated	-10.5698
▁Mor	-10.5699
▁expand	-10.5702
▁[7]	-10.5703
▁gall	-10.5705
▁inhibited	-10.5706
▁Ag	-10.5708
▁accordance	-10.5709
▁donor	-10.571
GP	-10.5713
▁displays	-10.5715
ala	-10.5715
▁pan	-10.5716
top	-10.5717
ning	-10.5719
▁balancing	-10.572
▁ventilation	-10.572
bert	-10.5721
▁Biewener	-10.5722
distance	-10.5724
▁layers	-10.5726
III	-10.5728
▁Data	-10.5729
▁carrying	-10.5731
▁tuning	-10.5731
▁clarify	-10.5732
▁photosynthetic	-10.5732
78	-10.5735
tended	-10.574
lid	-10.5741
▁propulsive	-10.5743
▁CYP	-10.5743
▁coverage	-10.5744
▁Cell	-10.5746
▁raised	-10.5752
▁1977;	-10.5754
▁answer	-10.5766
▁syn	-10.5766
ign	-10.577
light	-10.5771
coming	-10.5774
▁sections	-10.5777
▁originally	-10.5778
▁parent	-10.5779
▁HCO	-10.5779
▁por	-10.5783
▁maps	-10.5796
▁pyruvate	-10.5797
▁SA	-10.5798
▁practical	-10.58
▁Hill	-10.5803
▁axial	-10.581
▁flowering	-10.5811
iii	-10.5811
▁congruent	-10.5811
73	-10.5813
▁lethal	-10.5823
GI	-10.5829
▁differently	-10.5834
ogenic	-10.5834
▁oil	-10.5838
▁hierarchical	-10.5846
7,	-10.585
▁CI	-10.5852
▁EC	-10.5852
▁Protein	-10.5855
▁ontogenetic	-10.5857
▁proper	-10.5859
▁Para	-10.5862
▁36	-10.5869
chemical	-10.5872
▁accumulated	-10.5874
▁correlates	-10.5877
nus	-10.5878
▁musculature	-10.588
▁histone	-10.588
▁locusts	-10.5882
▁pathogenic	-10.5889
▁El	-10.5891
▁Daphnia	-10.5892
rt	-10.5894
▁refer	-10.5901
▁prevalence	-10.5903
ny	-10.5911
▁aid	-10.5911
▁Da	-10.5912
▁Ser	-10.5913
-5	-10.5914
bit	-10.5915
host	-10.5916
▁explanations	-10.5925
▁band	-10.5926
▁earliest	-10.5926
lot	-10.5927
▁proportions	-10.5928
vari	-10.5929
dam	-10.5931
▁mates	-10.5934
pri	-10.5935
▁mountain	-10.5938
▁universal	-10.5938
▁[54]	-10.5942
▁patch	-10.5949
▁Notably	-10.595
▁cysteine	-10.5956
▁steroid	-10.5956
udi	-10.5959
▁Hol	-10.5963
▁accelerated	-10.5971
▁termed	-10.5972
▁polymorphic	-10.5973
▁Clade	-10.5973
cellular	-10.5982
▁viability	-10.5984
ju	-10.5984
▁randomly	-10.5986
▁rodent	-10.5988
▁valid	-10.5994
▁Wilson	-10.5995
▁crayfish	-10.5996
▁sucrose	-10.5996
ney	-10.5997
mark	-10.6002
▁essentially	-10.6006
▁exclusive	-10.6006
▁circular	-10.6007
▁ovarian	-10.6007
▁shrimp	-10.6007
▁wingbeat	-10.6008
▁meso	-10.6009
▁dense	-10.6013
ecto	-10.6015
74	-10.602
phyll	-10.6021
▁participate	-10.6021
▁crown	-10.6022
ites	-10.6024
loop	-10.6026
39	-10.6028
oth	-10.6031
lab	-10.6031
ture	-10.6031
idi	-10.6036
▁HIV	-10.6038
port	-10.6038
▁guide	-10.6041
Fr	-10.6042
▁GABA	-10.6043
▁coordinated	-10.6043
▁degrees	-10.6052
▁twice	-10.6054
▁paradigm	-10.6054
▁antennae	-10.6057
▁Considering	-10.6058
tim	-10.606
EM	-10.606
▁secreted	-10.6062
▁inherent	-10.6065
▁clonal	-10.6067
vel	-10.6068
▁triggered	-10.6074
▁push	-10.6078
du	-10.6085
▁susceptible	-10.6086
▁illustrate	-10.609
ez	-10.609
genetic	-10.6091
▁functionality	-10.6094
▁immediate	-10.61
▁figure	-10.61
▁emerging	-10.6101
▁sensing	-10.6104
▁Mac	-10.6108
▁matching	-10.6108
▁22]	-10.6108
▁grouping	-10.6113
▁[24,	-10.6114
▁modulated	-10.6114
▁tightly	-10.6114
vic	-10.6117
▁forelimb	-10.6118
▁splice	-10.6119
▁sustain	-10.6119
▁comprises	-10.6121
▁project	-10.6122
tum	-10.6123
arch	-10.6124
▁shaping	-10.6125
▁aerial	-10.6126
▁decades	-10.6127
PT	-10.6131
ving	-10.6131
system	-10.6132
▁gained	-10.6132
▁serotonin	-10.6136
▁elephant	-10.6142
▁protocol	-10.6142
▁[2]	-10.6142
pol	-10.6145
ft	-10.6145
sk	-10.6148
▁(19	-10.6154
▁applying	-10.6156
▁editing	-10.6158
▁calculate	-10.6158
▁certainly	-10.616
▁[4]	-10.6165
▁What	-10.6173
DL	-10.6174
plant	-10.6175
▁OR	-10.618
▁paralog	-10.6181
▁Australian	-10.6182
▁[23,	-10.6184
ola	-10.6188
▁defence	-10.6189
▁dolphins	-10.619
sim	-10.6191
▁fragment	-10.6192
▁electric	-10.6193
▁Ph	-10.6195
▁feasible	-10.6195
▁ions	-10.6196
▁viable	-10.6199
Me	-10.6205
▁zinc	-10.6208
ough	-10.6213
▁spent	-10.6216
▁instances	-10.6218
▁derive	-10.6219
base	-10.6219
▁goldfish	-10.622
▁estimating	-10.6231
▁compartment	-10.6232
▁upregulated	-10.624
▁1978;	-10.6243
▁transmembrane	-10.6243
▁nonlinear	-10.6247
▁pigeons	-10.6255
▁diurnal	-10.6255
▁annual	-10.6256
▁meet	-10.6257
emia	-10.6259
▁200	-10.6261
▁alignments	-10.6286
▁qu	-10.6289
▁ubiquitous	-10.6291
mean	-10.6292
▁stationary	-10.6293
▁patches	-10.6297
▁TM	-10.6298
parasite	-10.63
▁2),	-10.6304
mate	-10.6306
▁systematically	-10.6308
yo	-10.6309
▁eco	-10.6312
▁moth	-10.6318
PCR	-10.6319
▁continue	-10.6321
ivity	-10.6321
▁AR	-10.6324
ink	-10.633
▁agents	-10.6334
▁24]	-10.6335
▁Rho	-10.6336
shaped	-10.6339
ery	-10.634
pon	-10.6341
▁GS	-10.6342
▁kb	-10.6343
from	-10.6344
▁rank	-10.6346
▁Group	-10.6351
▁desert	-10.6351
▁amphibians	-10.6354
▁relies	-10.6355
▁preferentially	-10.6358
GE	-10.6363
▁precision	-10.6363
▁compensation	-10.6363
▁urine	-10.6364
▁tight	-10.6364
▁closest	-10.6364
▁litter	-10.6364
uri	-10.6365
ulate	-10.6374
▁built	-10.6375
independent	-10.6378
▁Mus	-10.6378
▁homing	-10.6387
▁cAMP	-10.6389
▁exploit	-10.6391
▁binds	-10.6392
ress	-10.6392
▁dominance	-10.6394
▁captured	-10.6394
▁Three	-10.6399
ifera	-10.6407
▁cap	-10.6407
form	-10.6411
▁null	-10.6413
▁pulses	-10.6413
▁paralogous	-10.6413
▁lake	-10.6421
ms	-10.6426
▁conservative	-10.6431
▁adopt	-10.6432
▁nests	-10.6433
ight	-10.6433
▁keep	-10.6436
▁IR	-10.6436
▁upregulation	-10.644
high	-10.6451
▁homolog	-10.6452
▁patterning	-10.6455
Ba	-10.6461
flu	-10.6461
▁Not	-10.6461
500	-10.6464
▁BMR	-10.6471
ogen	-10.6472
▁interference	-10.6472
▁SNP	-10.6472
▁27]	-10.6477
▁grouped	-10.6479
▁2005	-10.6483
▁integrating	-10.6491
pec	-10.6495
▁fossils	-10.6495
▁inherited	-10.6497
▁operating	-10.6497
▁attractive	-10.6497
ians	-10.6497
▁searching	-10.6499
Ar	-10.65
▁dogs	-10.6501
▁multicellular	-10.6504
AL	-10.6505
▁medial	-10.6508
65	-10.6511
▁compartments	-10.6515
▁Comparison	-10.6521
iidae	-10.6521
▁attempts	-10.6522
▁90	-10.6522
activated	-10.6523
▁attraction	-10.6523
bin	-10.6529
▁reaching	-10.6531
▁Antarctic	-10.6532
▁extract	-10.6537
▁paths	-10.6542
▁wasps	-10.6542
▁excellent	-10.6546
▁priori	-10.6557
▁incubation	-10.6558
▁midgut	-10.6558
▁testosterone	-10.6558
▁regeneration	-10.656
▁Phy	-10.6565
ff	-10.6573
PK	-10.6575
▁simulate	-10.6581
▁torque	-10.6583
▁initiated	-10.6586
▁ml	-10.6588
▁33	-10.6591
▁Pan	-10.6591
▁NP	-10.6592
▁Fu	-10.6594
eni	-10.6595
▁Van	-10.6598
▁consist	-10.66
typical	-10.6601
blast	-10.6604
8)	-10.6605
▁dating	-10.6605
SI	-10.6606
▁[38]	-10.6608
omic	-10.6615
evolution	-10.6616
▁count	-10.6617
pu	-10.6619
▁Xenopus	-10.662
▁utility	-10.662
SL	-10.6622
▁[57]	-10.6624
▁contexts	-10.6631
▁RA	-10.6631
▁parents	-10.6632
IV	-10.6632
▁Ocean	-10.6632
vol	-10.6634
▁feathers	-10.6642
▁wood	-10.6644
▁polarization	-10.6646
▁MA	-10.6657
▁opportunities	-10.6657
▁capability	-10.6658
bio	-10.6658
▁AD	-10.6658
64	-10.6659
▁conventional	-10.666
▁outcomes	-10.6663
lam	-10.6669
▁applicable	-10.6669
▁0.3	-10.6673
▁[55]	-10.6674
uring	-10.668
▁Smith	-10.668
▁duplicate	-10.6681
▁sharing	-10.6682
▁kept	-10.6682
▁26]	-10.6684
▁wavelengths	-10.6686
▁covered	-10.6687
▁tube	-10.669
genomic	-10.6699
▁crystal	-10.6699
▁aggressive	-10.6706
▁travel	-10.6706
▁transmitted	-10.6707
▁[20]	-10.671
pos	-10.6715
▁Different	-10.6718
▁butterflies	-10.6719
▁responsiveness	-10.672
step	-10.6722
▁tubules	-10.6723
▁[39]	-10.6723
▁polar	-10.6723
▁cDNA	-10.6724
▁dimensions	-10.6729
▁NKA	-10.6732
▁improvement	-10.6736
76	-10.6745
▁preparation	-10.6745
▁carotenoid	-10.6745
hin	-10.6745
▁File	-10.6746
▁rhythms	-10.6747
▁cones	-10.6748
▁loads	-10.675
▁spectra	-10.6752
▁5,	-10.6753
▁originate	-10.6753
▁2003),	-10.6754
▁1979)	-10.6757
adapted	-10.6758
▁law	-10.6762
ef	-10.6764
▁hold	-10.6765
▁exploration	-10.677
▁aggregation	-10.677
▁Western	-10.677
▁flower	-10.677
zy	-10.677
▁dimer	-10.6772
▁read	-10.6776
▁[37]	-10.6778
dia	-10.6778
▁2012),	-10.6778
▁Poly	-10.6778
▁highlights	-10.6782
osome	-10.6784
▁penguins	-10.6786
▁vectors	-10.6791
▁fashion	-10.6795
▁knockdown	-10.6795
▁toxicity	-10.6798
onic	-10.6799
din	-10.68
▁germ	-10.68
▁Ste	-10.6802
regulatory	-10.6805
▁regarded	-10.6815
UC	-10.6816
sea	-10.6819
▁probable	-10.682
▁cytochrome	-10.682
▁Ju	-10.682
▁characterised	-10.6824
▁deletions	-10.6824
▁reserves	-10.6825
▁194	-10.6829
cc	-10.683
▁plus	-10.6831
▁niches	-10.6834
▁man	-10.6835
▁25]	-10.6835
EP	-10.684
99	-10.6841
▁continuously	-10.6845
▁difficulty	-10.6847
▁allelic	-10.685
▁adjustments	-10.6853
▁cranial	-10.6858
▁elongation	-10.6859
▁Ab	-10.6862
37	-10.6867
▁preced	-10.6867
▁Mal	-10.6867
▁get	-10.6869
▁bottom	-10.687
▁differentiate	-10.687
ech	-10.687
▁discrepancy	-10.6871
0.00	-10.6877
troph	-10.6878
▁personal	-10.688
▁[37].	-10.688
▁transcriptomic	-10.6881
▁venom	-10.6883
▁hydrophobic	-10.6883
▁meaning	-10.6885
activation	-10.6889
2),	-10.6892
▁extrinsic	-10.6896
▁plate	-10.6896
▁[26,	-10.6897
rb	-10.6902
▁synaptic	-10.6904
▁lag	-10.6904
▁Che	-10.6905
4-	-10.691
▁slight	-10.6915
▁deterministic	-10.6916
chy	-10.6918
Clark	-10.6925
▁ethanol	-10.6934
▁flapping	-10.6934
▁precisely	-10.6935
▁kPa	-10.6936
0°	-10.6939
▁antigen	-10.6939
oll	-10.6945
▁urchin	-10.6947
▁Lee	-10.6949
▁lizard	-10.695
rac	-10.6952
▁fluorescence	-10.6953
▁worker	-10.6962
▁Bu	-10.6963
hol	-10.6963
▁1980)	-10.6967
oh	-10.6969
nia	-10.6974
▁pump	-10.6974
▁8]	-10.6987
▁[56]	-10.6988
ridge	-10.6992
▁(3	-10.6994
▁silencing	-10.6998
▁enabled	-10.6999
speed	-10.7004
▁MI	-10.7007
▁10-	-10.7007
▁serves	-10.701
zi	-10.701
▁generates	-10.7011
▁coevolution	-10.7011
▁scheme	-10.7015
▁bring	-10.7016
▁retro	-10.7017
part	-10.7024
ati	-10.7026
▁whale	-10.7028
▁du	-10.703
47	-10.703
▁preparations	-10.7036
AB	-10.7041
hydr	-10.7046
▁novo	-10.7048
▁skeleton	-10.705
▁decisions	-10.7054
point	-10.7054
▁thoracic	-10.7056
dic	-10.7058
▁routes	-10.7061
TC	-10.7061
pers	-10.7062
▁associate	-10.7067
▁Fe	-10.7067
stra	-10.7071
▁cardiovascular	-10.7076
An	-10.7077
▁Lu	-10.7081
long	-10.7082
▁trace	-10.7084
▁seeds	-10.7093
▁glycolytic	-10.7102
▁cichlid	-10.7107
▁actions	-10.7108
▁Trans	-10.7109
org	-10.7114
▁gave	-10.7115
▁arrest	-10.7118
▁ha	-10.7122
ken	-10.7122
▁relaxation	-10.7129
MM	-10.7131
▁AM	-10.7133
Li	-10.7137
rP	-10.714
ops	-10.7141
uck	-10.7142
▁warming	-10.7143
atory	-10.7153
▁HSP	-10.7153
▁advanced	-10.7155
▁San	-10.7156
▁algal	-10.7156
▁SM	-10.7159
▁incorporate	-10.716
▁Likewise	-10.7167
lon	-10.7168
▁Ru	-10.7174
▁SWS	-10.7178
▁expansions	-10.7178
▁biodiversity	-10.718
▁circulation	-10.718
▁incorporation	-10.718
▁bridge	-10.7184
▁spatially	-10.7184
▁implementation	-10.7187
▁acclimated	-10.7191
▁Williams	-10.7195
▁trained	-10.7195
ova	-10.72
birds	-10.7202
▁1975;	-10.7206
▁opposed	-10.7208
▁cichlids	-10.7214
▁cod	-10.7215
▁highlighted	-10.7218
▁imp	-10.7224
▁canonical	-10.7227
EA	-10.7228
aker	-10.7229
DP	-10.723
▁Early	-10.7233
▁Sal	-10.7233
▁preliminary	-10.7233
▁[25,	-10.7233
oper	-10.7241
GO	-10.7241
▁IS	-10.7245
▁subtypes	-10.7246
▁aegypti	-10.7246
▁geometric	-10.7246
▁contrasting	-10.7246
wer	-10.7248
pot	-10.7249
▁cope	-10.7254
▁screen	-10.7257
start	-10.7257
▁Besides	-10.7259
▁Man	-10.7261
▁Pla	-10.7262
▁preventing	-10.7263
▁RNAs	-10.727
▁(5	-10.7275
osomes	-10.7282
▁annotations	-10.7283
mers	-10.7284
▁envelope	-10.7285
▁Qu	-10.7293
dS	-10.7294
els	-10.7296
▁competing	-10.7299
▁longevity	-10.7299
0.5	-10.73
▁[38].	-10.7301
▁apart	-10.7304
▁assessing	-10.7308
ora	-10.731
▁parsimony	-10.7312
▁deviation	-10.732
▁statistics	-10.732
▁Ri	-10.7321
▁screening	-10.7323
▁30]	-10.7329
▁folding	-10.733
BC	-10.7334
PG	-10.7336
GR	-10.7338
▁giving	-10.7339
▁gradual	-10.7339
aph	-10.7339
press	-10.7341
▁28]	-10.7342
product	-10.7344
▁periodic	-10.7346
▁operon	-10.7347
Mar	-10.7347
▁exactly	-10.735
▁invasive	-10.7352
▁partitioning	-10.7353
SD	-10.7353
gy	-10.7356
▁homogeneous	-10.7359
▁cooling	-10.7362
lat	-10.7363
▁BMP	-10.7367
FP	-10.7367
▁Notch	-10.7368
uff	-10.7369
using	-10.7374
meric	-10.7374
▁illustrated	-10.7374
▁skull	-10.7379
▁Whereas	-10.7379
▁computation	-10.7381
▁http	-10.7386
▁computer	-10.7386
▁outgroup	-10.7388
ford	-10.7388
EF	-10.7392
▁Class	-10.7392
▁energetically	-10.7399
▁EST	-10.7399
▁ODE	-10.7404
rtner	-10.7407
▁attached	-10.7413
▁forests	-10.7413
OD	-10.7413
▁store	-10.7413
▁margin	-10.7414
▁Then	-10.7417
▁2012	-10.7419
ned	-10.7419
▁CC	-10.742
zz	-10.7423
▁extends	-10.7428
▁stimulate	-10.7428
▁becoming	-10.7429
▁adding	-10.7429
▁react	-10.7429
ret	-10.7431
flex	-10.7434
▁0.8	-10.7437
▁mRNAs	-10.7445
▁gambiae	-10.7446
▁da	-10.7449
▁symbols	-10.7452
▁[25]	-10.7453
angle	-10.7456
▁met	-10.7458
He	-10.7459
▁[21]	-10.7459
▁meaningful	-10.7459
▁survey	-10.7461
Ho	-10.7461
cine	-10.7461
▁larva	-10.7468
ploid	-10.747
▁younger	-10.7473
▁spontaneous	-10.7473
2/	-10.7476
▁QTL	-10.7476
▁RNAi	-10.7477
▁Inter	-10.7479
▁0.6	-10.7479
▁notable	-10.748
illi	-10.7481
▁prokaryotes	-10.7481
▁proven	-10.7481
CM	-10.7486
▁antibody	-10.7487
▁reductions	-10.7487
▁backward	-10.7488
TG	-10.7489
▁modeled	-10.749
▁mammal	-10.7495
▁receive	-10.7495
▁strike	-10.7497
▁thousands	-10.7498
▁rigid	-10.75
▁navigation	-10.75
▁CT	-10.7508
▁queens	-10.751
bp	-10.751
▁Taylor	-10.7513
ago	-10.7518
▁mimic	-10.7525
▁functioning	-10.7526
▁approximate	-10.7527
Sp	-10.7529
▁assignment	-10.753
▁Ku	-10.7532
tolerant	-10.7536
▁box	-10.7539
▁systemic	-10.7539
fu	-10.7541
▁Northern	-10.7542
▁mar	-10.7545
▁cur	-10.755
▁obligate	-10.755
axis	-10.7551
▁aging	-10.7552
▁[39].	-10.7552
▁cuticular	-10.7554
▁subtle	-10.7554
mating	-10.7558
▁trial	-10.7564
▁1.5	-10.7567
▁straight	-10.7567
▁counterparts	-10.7568
66	-10.7571
trop	-10.7575
▁emerge	-10.7579
▁influenza	-10.7581
▁easy	-10.7581
phylogenetically	-10.7585
iana	-10.7586
▁glycerol	-10.7587
EN	-10.7589
sub	-10.7589
mata	-10.7596
▁Southern	-10.7596
▁100%	-10.7596
▁modify	-10.7598
uro	-10.7599
▁[59]	-10.76
head	-10.7603
▁promoting	-10.761
▁2000),	-10.761
terminus	-10.761
CH	-10.7615
▁redox	-10.7615
▁east	-10.7615
▁mg	-10.7615
▁RMR	-10.7618
▁Indian	-10.7621
▁argument	-10.7622
▁criterion	-10.7622
▁intervention	-10.7622
▁mandible	-10.7622
▁probabilities	-10.7622
▁matter	-10.7625
ester	-10.7627
▁normalized	-10.7629
▁thick	-10.7629
▁floral	-10.7638
▁37	-10.7638
DA	-10.764
▁repeatedly	-10.7643
function	-10.7645
▁endocrine	-10.7649
▁lamprey	-10.7649
▁repression	-10.765
▁Pol	-10.7651
cf	-10.7656
▁organismal	-10.7664
56	-10.7667
▁aphid	-10.7671
▁nucleotides	-10.7673
▁inactive	-10.7674
▁lens	-10.7674
▁acetate	-10.7677
▁reef	-10.768
▁grey	-10.7685
▁antioxidants	-10.7685
▁electrical	-10.769
54	-10.7691
▁thickness	-10.7692
▁begin	-10.7694
eli	-10.7695
▁CP	-10.7702
▁disrupt	-10.7704
▁dimorphism	-10.7704
▁34	-10.7705
▁29]	-10.7705
▁visualization	-10.7705
▁elicited	-10.7706
ese	-10.7708
how	-10.7711
▁phage	-10.7714
▁1977)	-10.7718
▁coordinate	-10.7718
inger	-10.7719
ule	-10.772
▁38	-10.772
NF	-10.7725
rn	-10.773
tidae	-10.773
▁[27,	-10.7733
tru	-10.7736
▁honeybees	-10.7737
ges	-10.7741
▁impaired	-10.7743
▁computed	-10.7743
▁activating	-10.7745
▁impossible	-10.7746
▁tongue	-10.7746
▁remodeling	-10.7746
▁LC	-10.7746
▁oriented	-10.7749
EG	-10.775
rc	-10.7751
▁star	-10.7754
▁Ni	-10.7757
▁reversible	-10.776
▁secretory	-10.776
acea	-10.7764
▁PIN	-10.777
AU	-10.7771
▁deprivation	-10.7774
▁capacities	-10.7774
▁proteome	-10.7774
box	-10.7775
▁orient	-10.7778
vin	-10.7782
▁metamorphosis	-10.7788
▁analogous	-10.7788
ND	-10.7792
rop	-10.7795
▁progenitor	-10.7798
rag	-10.78
▁repetitive	-10.7801
▁snail	-10.7802
▁moments	-10.7815
▁propulsion	-10.7815
84	-10.7817
oster	-10.7817
put	-10.7818
▁surprisingly	-10.7822
▁[43].	-10.7827
▁photosynthesis	-10.783
▁LWS	-10.783
▁rec	-10.783
ivo	-10.7831
▁raises	-10.7832
ah	-10.7834
opt	-10.7837
▁cytoplasm	-10.784
▁facilitates	-10.784
lived	-10.784
▁whereby	-10.7845
▁And	-10.7847
gel	-10.7848
run	-10.7848
▁appendages	-10.7851
polar	-10.7855
▁partner	-10.7858
iber	-10.7858
this	-10.786
▁IC	-10.7861
▁mu	-10.7862
In	-10.7866
lip	-10.7871
▁radiations	-10.7872
rib	-10.7873
▁32]	-10.7881
▁rock	-10.7882
ency	-10.7883
▁primitive	-10.7886
▁placental	-10.789
▁selfing	-10.7892
▁isometric	-10.7894
▁RT	-10.7896
▁caution	-10.79
▁reversal	-10.79
▁lumen	-10.79
▁dual	-10.7903
▁unrelated	-10.7903
▁Lauder	-10.7904
individual	-10.7913
▁eIF	-10.7915
▁finches	-10.7918
▁tadpoles	-10.792
▁95%	-10.7921
▁encountered	-10.7923
▁Red	-10.7924
▁distinguished	-10.7924
▁contradict	-10.7927
▁glycolysis	-10.7928
▁continued	-10.793
ryl	-10.7933
ides	-10.7933
▁Cas	-10.7938
▁implying	-10.7941
▁arthropod	-10.7947
▁enhancement	-10.7947
tric	-10.7952
right	-10.7959
▁polymerase	-10.7959
▁CH	-10.7964
lc	-10.7965
57	-10.7965
▁arises	-10.7965
ural	-10.7968
▁rhythmic	-10.7968
ono	-10.7969
▁explaining	-10.7969
▁diagnostic	-10.797
▁1978)	-10.797
▁remove	-10.7971
▁pools	-10.7972
▁ecosystems	-10.7975
▁hundreds	-10.7977
▁matched	-10.7978
▁perceived	-10.7978
▁markedly	-10.798
▁biases	-10.798
ds	-10.798
▁cut	-10.7981
tia	-10.7982
OR	-10.7983
▁captive	-10.7984
▁che	-10.7987
sin	-10.7988
▁lo	-10.7988
uber	-10.799
3).	-10.7994
▁Ver	-10.7995
back	-10.7997
▁driver	-10.7998
▁queen	-10.8002
ote	-10.8003
▁correctly	-10.8004
dd	-10.8006
▁0.9	-10.8006
gna	-10.8006
▁exhibiting	-10.8008
rod	-10.8009
▁thermo	-10.8011
lay	-10.8012
▁profound	-10.8013
▁transmit	-10.8014
▁deformation	-10.802
▁replaced	-10.802
▁gradually	-10.8027
▁emphasize	-10.8028
▁ob	-10.8029
5–	-10.8029
▁RF	-10.8031
bro	-10.8031
▁sign	-10.8034
4+	-10.8037
▁preserved	-10.8038
▁sw	-10.8038
▁fungus	-10.8041
EL	-10.8043
pair	-10.8046
▁durations	-10.8048
MI	-10.8048
breeding	-10.8052
▁Caenorhabditis	-10.8056
▁Following	-10.8056
▁redundancy	-10.8056
▁verified	-10.8056
▁pelagic	-10.8059
▁describes	-10.8064
▁FW	-10.8064
▁9]	-10.8067
▁choose	-10.807
▁intertidal	-10.8071
chromosome	-10.8074
▁Like	-10.8076
odi	-10.8079
▁principles	-10.808
▁landing	-10.8081
▁milk	-10.8084
▁nuclei	-10.8085
BM	-10.8087
9)	-10.8087
▁possesses	-10.8093
▁MAPK	-10.8095
nd	-10.8096
tens	-10.8097
▁biomechanical	-10.8099
▁started	-10.8099
▁antagonistic	-10.8102
▁10%	-10.8103
▁6,	-10.8103
synonymous	-10.8108
ota	-10.8109
▁inferences	-10.811
obacter	-10.8111
▁scaffold	-10.8113
▁stabilize	-10.8114
centric	-10.8116
▁0.4	-10.8116
pur	-10.8117
▁influenc	-10.8119
▁projection	-10.8121
▁inflammatory	-10.8122
▁rub	-10.8124
▁1974;	-10.8127
▁entities	-10.8127
▁owing	-10.8129
▁calculations	-10.8131
▁strict	-10.8133
chin	-10.8139
▁1976;	-10.8142
▁haemolymph	-10.8142
▁heavy	-10.8142
▁migrate	-10.8142
▁nested	-10.8146
▁delayed	-10.8146
ele	-10.8148
itu	-10.8149
▁resist	-10.8155
▁rhythm	-10.8155
lines	-10.8156
bel	-10.8158
▁amongst	-10.8158
▁ubiquitin	-10.817
▁Peninsula	-10.8171
negative	-10.8173
▁snake	-10.8176
▁row	-10.8178
osine	-10.818
▁phyla	-10.818
▁video	-10.818
▁Species	-10.8185
▁Understanding	-10.8185
▁[3	-10.8197
▁KEGG	-10.82
▁LPS	-10.8201
▁conflicting	-10.8201
▁reactive	-10.8207
▁−	-10.8208
▁gravity	-10.8212
▁PCO	-10.8213
▁0.7	-10.8213
▁kinds	-10.8213
▁arising	-10.8215
studied	-10.8217
▁tunnel	-10.8229
▁prokaryotic	-10.8229
▁bottleneck	-10.8235
▁look	-10.8235
▁locally	-10.8235
▁Green	-10.8238
▁3),	-10.8239
▁Ter	-10.824
▁ganglion	-10.8243
▁phylogenomic	-10.8243
▁dolphin	-10.8249
Gr	-10.825
▁[28]	-10.825
▁Sub	-10.8253
ulus	-10.8253
▁focusing	-10.8255
rec	-10.8257
also	-10.8269
▁butterfly	-10.8272
▁metazoans	-10.8274
▁explains	-10.8275
1]	-10.8276
IL	-10.8284
▁weakly	-10.8285
▁homologues	-10.8287
▁entry	-10.8287
network	-10.8288
▁modular	-10.8291
ctic	-10.8294
NC	-10.8296
▁relatedness	-10.8301
▁conspicuous	-10.8302
▁recombinant	-10.8302
▁fatigue	-10.8302
▁mapped	-10.8303
▁mediating	-10.8303
omy	-10.8306
▁70	-10.8311
cies	-10.8313
▁additive	-10.8313
▁tru	-10.8314
▁focal	-10.8317
itis	-10.832
tail	-10.8324
▁HP	-10.8326
Ka	-10.8327
▁canal	-10.8328
▁PL	-10.8329
▁threat	-10.833
▁geometry	-10.8331
▁bass	-10.8332
▁5'	-10.8337
▁moved	-10.8342
▁pig	-10.8343
▁activator	-10.8344
▁residual	-10.8346
pass	-10.8346
▁serine	-10.8351
▁tag	-10.8358
▁cultures	-10.8359
▁[1–3]	-10.836
▁insertions	-10.8362
▁hearts	-10.8364
▁responded	-10.8373
▁[2	-10.8373
oids	-10.8374
▁31]	-10.8378
▁importantly	-10.838
reg	-10.8382
▁chicks	-10.8382
▁1998)	-10.8386
▁Tra	-10.8388
OM	-10.8389
types	-10.8389
▁2001	-10.8389
NAT	-10.839
▁cooperative	-10.839
▁sparse	-10.839
▁suggestion	-10.8391
xi	-10.8391
▁compete	-10.8398
▁Un	-10.84
▁31	-10.8401
▁[29,	-10.8405
▁working	-10.841
▁extracted	-10.841
▁yields	-10.8414
▁33]	-10.8417
▁abiotic	-10.8418
▁basolateral	-10.842
▁category	-10.842
▁plumage	-10.842
▁quantity	-10.842
▁management	-10.842
rix	-10.8421
graph	-10.8423
eth	-10.8424
ras	-10.8425
ori	-10.8425
▁7]	-10.8428
gh	-10.843
▁[28,	-10.8435
▁saline	-10.8436
▁programs	-10.8437
▁Late	-10.8439
▁Island	-10.8442
▁ectotherms	-10.8443
▁successive	-10.8444
loss	-10.8447
2]	-10.8449
▁acquire	-10.845
uma	-10.8452
▁mat	-10.8452
▁ortholog	-10.8455
▁ph	-10.8459
88	-10.8461
▁strictly	-10.8463
▁unicellular	-10.8464
▁fertility	-10.8466
▁spite	-10.8467
▁deposition	-10.8469
▁practice	-10.8479
81	-10.8484
▁allometric	-10.8487
▁uncertain	-10.8493
▁radical	-10.8494
▁accelerate	-10.8495
▁sharp	-10.8496
ara	-10.8498
GL	-10.8498
▁deviations	-10.85
NO	-10.8501
gn	-10.8504
▁searches	-10.8504
limited	-10.8505
▁constrain	-10.8506
▁(<	-10.851
▁SI	-10.8511
▁1997)	-10.8517
icular	-10.8517
▁style	-10.8519
▁3'	-10.8521
▁iso	-10.8523
▁2002	-10.8524
▁computationally	-10.8525
▁problematic	-10.8525
▁humidity	-10.8525
ada	-10.8525
Sh	-10.8531
▁name	-10.8535
▁BLAST	-10.8535
rat	-10.8537
▁descent	-10.854
▁pseudogenes	-10.8541
Ko	-10.8547
▁indicator	-10.8548
aud	-10.855
▁LD	-10.855
▁sequential	-10.8551
▁Hy	-10.8553
▁interplay	-10.8554
▁Rather	-10.8554
▁White	-10.8554
▁[30,	-10.8554
0.3	-10.8555
▁massive	-10.8556
▁Wil	-10.856
▁document	-10.8567
▁rays	-10.8574
▁currents	-10.8576
▁label	-10.8576
▁configuration	-10.858
▁held	-10.858
▁counteract	-10.8583
▁80	-10.8585
ozoa	-10.8594
▁Mat	-10.8595
▁language	-10.8599
▁symbiotic	-10.8599
activity	-10.8602
▁lac	-10.8603
▁validate	-10.8606
aga	-10.8607
▁[9],	-10.8609
▁SS	-10.8614
TI	-10.8617
▁AA	-10.8619
▁2001),	-10.8623
▁antagonist	-10.8625
▁obstacle	-10.8626
▁govern	-10.8628
ebb	-10.8629
▁enabling	-10.8629
▁inflammation	-10.8629
▁matrices	-10.8629
▁template	-10.8629
▁flexion	-10.8629
genes	-10.863
▁freeze	-10.8631
▁catch	-10.8635
Figures	-10.8636
)]	-10.8638
male	-10.864
▁1972;	-10.8644
▁disadvantage	-10.8644
Burrows	-10.8645
▁presents	-10.8648
▁photoperiod	-10.8656
▁inheritance	-10.866
▁modularity	-10.8662
mass	-10.8666
▁Meta	-10.8666
▁distinctive	-10.8666
▁Lys	-10.8667
▁aggregate	-10.8667
▁incline	-10.867
▁2004	-10.867
▁Gl	-10.8671
▁chose	-10.8671
▁turns	-10.8672
▁ERK	-10.8674
▁inhibits	-10.8678
▁DE	-10.8679
▁pore	-10.8681
NG	-10.8683
▁aphids	-10.8683
▁rearing	-10.8685
▁bones	-10.8687
ela	-10.8689
▁efflux	-10.869
▁latency	-10.869
▁responsive	-10.8692
▁grass	-10.8693
▁probe	-10.8694
▁angiosperm	-10.8702
NR	-10.8703
▁SL	-10.8703
▁calling	-10.8705
▁[60]	-10.8705
▁biologists	-10.8706
▁try	-10.8708
▁ribosome	-10.871
clade	-10.8716
▁proved	-10.8718
▁protrusion	-10.8721
▁mantle	-10.8721
▁imaging	-10.8721
▁Bl	-10.8722
▁burrow	-10.8725
▁domestication	-10.8727
▁2000	-10.8734
▁tyrosine	-10.8736
oral	-10.8736
▁cla	-10.8739
▁activates	-10.8741
▁localities	-10.8741
▁6)	-10.8741
▁attract	-10.8741
▁TH	-10.8747
▁shark	-10.8749
▁optimum	-10.8751
▁friction	-10.8751
nc	-10.8753
▁drawn	-10.8756
▁LTM	-10.8756
▁notably	-10.8758
▁render	-10.8761
▁propagation	-10.8766
▁Though	-10.8767
▁suite	-10.8768
▁constitutive	-10.8769
win	-10.8771
▁rotational	-10.8774
▁burrowing	-10.8775
▁34]	-10.8777
▁ancestry	-10.8782
▁karyotype	-10.8782
▁2015;	-10.8787
urus	-10.8789
▁Par	-10.879
nning	-10.8791
▁sponge	-10.8796
▁sharks	-10.8799
▁invest	-10.8803
seq	-10.8806
▁vegetation	-10.8813
▁unresolved	-10.8814
icola	-10.8814
▁2013),	-10.8816
▁viewed	-10.8817
▁generic	-10.8818
SB	-10.8819
orum	-10.8826
▁uncover	-10.8827
▁pheromones	-10.8827
▁beetle	-10.8827
virus	-10.8832
▁promotes	-10.8833
63	-10.8841
▁altering	-10.8843
▁Genetic	-10.8846
2°	-10.885
▁transcribed	-10.8857
7–	-10.8861
py	-10.8862
▁mini	-10.8874
▁confined	-10.8874
▁efficacy	-10.8874
▁fairly	-10.8874
▁bear	-10.8877
▁neck	-10.8877
▁tolerate	-10.8878
▁delivery	-10.8878
▁adopted	-10.8881
green	-10.8884
▁pups	-10.8888
▁1000	-10.889
▁controversial	-10.889
▁Tr	-10.889
loc	-10.8895
▁NA	-10.8895
▁advance	-10.8896
stone	-10.8897
▁effectiveness	-10.8899
sperm	-10.89
▁aligned	-10.89
▁superior	-10.8906
▁big	-10.8906
▁Ad	-10.8907
▁effector	-10.8908
enni	-10.891
▁ABC	-10.8914
ries	-10.8916
97	-10.8917
▁public	-10.8919
▁malaria	-10.8921
▁defining	-10.8921
Ne	-10.8924
▁spawning	-10.8931
▁beam	-10.8933
dr	-10.8934
▁ages	-10.8935
Di	-10.8936
▁carotenoids	-10.8936
▁contemporary	-10.8937
▁resemble	-10.8937
locus	-10.8938
▁gaps	-10.8946
▁neighboring	-10.8946
▁4]	-10.8949
▁knock	-10.8951
Gi	-10.8951
▁cooperation	-10.8952
▁Mu	-10.8954
rel	-10.8962
▁Can	-10.8964
▁smallest	-10.8964
▁hydro	-10.8972
49	-10.8973
▁simplified	-10.8984
▁[61]	-10.8984
▁op	-10.8984
▁geological	-10.8984
▁kDa	-10.8985
▁yaw	-10.8985
▁Jo	-10.8988
rog	-10.8998
93	-10.8999
▁dehydration	-10.8999
▁shifted	-10.9001
▁sensu	-10.9001
▁debate	-10.9002
▁pull	-10.9002
▁VS	-10.9004
▁plot	-10.9007
▁encompass	-10.9009
▁inconsistent	-10.901
▁1973;	-10.9015
opsis	-10.9025
▁oral	-10.9026
cis	-10.9029
▁2-	-10.9031
▁consistency	-10.9031
▁creating	-10.9031
▁35]	-10.9032
▁500	-10.9034
FL	-10.9038
▁Ly	-10.9038
▁TNF	-10.9039
▁attributes	-10.9046
▁sensitivities	-10.9047
▁mya	-10.9047
▁EMG	-10.9051
▁[4	-10.9052
aka	-10.9053
▁discover	-10.9055
cycle	-10.9056
▁stickleback	-10.9064
tional	-10.907
▁redundant	-10.9071
▁accounted	-10.9073
duction	-10.9073
▁selectively	-10.9074
BL	-10.9074
▁suppressed	-10.9075
▁spin	-10.908
▁weaker	-10.908
▁apo	-10.9085
▁dominated	-10.9085
▁forage	-10.9086
▁precursors	-10.909
dus	-10.9091
▁detrimental	-10.9094
▁conductance	-10.9095
▁mut	-10.9095
▁adequate	-10.9097
▁spend	-10.9097
0.2	-10.91
89	-10.9105
ili	-10.9107
▁ever	-10.9109
▁antibodies	-10.911
▁corticosterone	-10.911
72	-10.9111
ists	-10.9112
lk	-10.9113
▁pest	-10.9114
ope	-10.9117
▁structured	-10.9117
▁arid	-10.9122
46	-10.9125
▁arterial	-10.9126
iff	-10.9129
▁Fish	-10.9133
Lo	-10.9137
RA	-10.9141
▁article	-10.9142
▁adipose	-10.9142
▁finally	-10.9145
MDH	-10.9146
▁39]	-10.915
▁polyploid	-10.9153
met	-10.9157
▁affinities	-10.9158
▁killifish	-10.9158
▁export	-10.9159
▁Math	-10.9159
▁confirms	-10.9167
▁check	-10.9168
▁cyanobacteria	-10.9169
▁SMR	-10.9169
war	-10.917
SF	-10.9171
▁Myr	-10.9171
▁2:	-10.9172
▁anatomy	-10.9174
▁instar	-10.918
▁quantitatively	-10.9181
▁landmarks	-10.9184
▁ni	-10.9187
▁expressing	-10.9188
erv	-10.9189
▁Differences	-10.919
▁FBA	-10.9194
▁exponential	-10.9194
anti	-10.9197
stein	-10.9197
PN	-10.9198
uli	-10.9199
▁freely	-10.9203
worm	-10.9203
▁cilia	-10.9204
▁Network	-10.9206
▁California	-10.9206
▁desired	-10.9206
▁physiologically	-10.9206
▁[10],	-10.9211
ira	-10.9211
omys	-10.9218
▁harbour	-10.9222
▁progeny	-10.9222
▁estrogen	-10.9222
▁pharmacological	-10.9222
▁modest	-10.9223
cen	-10.9224
translational	-10.9225
▁spiral	-10.9225
▁cyclic	-10.9227
▁recording	-10.9231
▁sparrows	-10.9233
Type	-10.9236
▁flows	-10.9237
lop	-10.9237
▁Saccharomyces	-10.9238
▁extensor	-10.9238
▁hot	-10.924
▁determines	-10.924
▁purposes	-10.9241
cia	-10.9242
▁z	-10.9244
-1,	-10.9246
58	-10.9252
▁Significant	-10.9254
▁inferring	-10.9255
▁20%	-10.9257
▁oscillation	-10.9258
cluster	-10.9268
▁Cretaceous	-10.927
▁circumstances	-10.927
▁compliance	-10.927
zon	-10.9272
▁mutual	-10.9273
▁[43]	-10.9273
▁formal	-10.9274
▁reflex	-10.9275
▁threads	-10.928
ram	-10.9282
▁tra	-10.9285
▁bladder	-10.9286
▁vital	-10.9286
▁Speakman	-10.9289
▁richness	-10.9289
▁Ig	-10.9293
enberg	-10.9301
▁admixture	-10.9302
▁synergistic	-10.9302
AST	-10.9303
ernal	-10.9307
▁bouts	-10.9309
▁extending	-10.9312
transcriptional	-10.9317
section	-10.9317
▁inducing	-10.9318
▁curvature	-10.9319
▁segregation	-10.9321
▁postulated	-10.9326
▁upward	-10.9326
Ra	-10.9334
▁hormonal	-10.9335
▁profiling	-10.9335
▁requiring	-10.9335
▁Eastern	-10.9336
valent	-10.9337
▁cytosolic	-10.9338
TT	-10.934
layer	-10.9344
▁materials	-10.9345
▁optical	-10.9349
▁aggression	-10.9351
▁Her	-10.9352
▁prove	-10.9356
▁amplified	-10.936
▁suited	-10.9367
www	-10.9367
▁PE	-10.9369
▁structurally	-10.937
450	-10.9372
▁Ja	-10.9378
▁genetics	-10.9378
▁exponent	-10.9383
▁remarkably	-10.9384
▁compact	-10.9384
▁toadfish	-10.9385
3]	-10.9386
▁6]	-10.9388
▁HR	-10.9396
▁permit	-10.9396
▁continental	-10.9398
erman	-10.9399
▁facilitating	-10.94
▁oxidase	-10.94
omics	-10.9403
iae	-10.9405
▁difficulties	-10.9406
▁syndrome	-10.9416
▁testis	-10.9417
▁distinction	-10.9418
▁8)	-10.9418
Po	-10.942
etz	-10.942
▁sole	-10.9424
rio	-10.9424
▁reject	-10.9428
▁HE	-10.9429
▁filtering	-10.943
af	-10.9434
▁1998),	-10.944
▁gonad	-10.9443
mas	-10.9445
▁impulse	-10.9449
▁auxin	-10.9449
42	-10.945
▁agent	-10.945
▁eliminate	-10.9452
▁restrict	-10.9453
IT	-10.9457
▁bears	-10.9457
▁Brown	-10.9457
ona	-10.9459
▁fig	-10.9461
▁integrity	-10.9466
7]	-10.9466
▁fla	-10.9467
▁gray	-10.9471
▁2013	-10.9474
▁lacks	-10.9477
▁works	-10.9478
band	-10.948
▁revealing	-10.9482
▁accommodate	-10.9482
▁1976)	-10.9482
▁WGD	-10.9483
▁stream	-10.949
▁ste	-10.9495
▁coalescent	-10.9499
▁arboreal	-10.9499
▁possibilities	-10.9499
significant	-10.9499
▁advances	-10.9499
ond	-10.9506
lla	-10.9509
oo	-10.9509
cel	-10.951
6–	-10.9512
4°	-10.9513
▁rod	-10.9513
▁Middle	-10.9515
▁cholesterol	-10.9515
▁microscopy	-10.9515
<0.05)	-10.9515
ould	-10.9518
▁predominant	-10.952
key	-10.9531
▁meiotic	-10.9532
▁straightforward	-10.9532
modulating	-10.9532
06	-10.9536
55	-10.9538
▁archaeal	-10.9539
des	-10.9539
aki	-10.9541
rine	-10.9545
▁topic	-10.9545
▁interacts	-10.9546
▁bacterium	-10.9549
▁assign	-10.9553
▁[5	-10.9554
other	-10.9556
▁sediment	-10.9556
omorpha	-10.9563
▁protective	-10.9568
FF	-10.9568
core	-10.957
now	-10.9573
family	-10.958
eau	-10.9581
▁[31,	-10.9584
phe	-10.9584
▁haplogroup	-10.9584
sized	-10.9586
▁prone	-10.9594
atum	-10.9595
▁Molecular	-10.9598
▁emission	-10.9599
▁persistent	-10.9601
▁brief	-10.9602
print	-10.9603
▁Em	-10.9604
▁matches	-10.9611
▁consumed	-10.9611
▁accounts	-10.9614
pG	-10.9617
arm	-10.9617
▁breathing	-10.9618
▁shapes	-10.9619
▁tibia	-10.9626
xa	-10.9626
FR	-10.9626
▁pyr	-10.963
▁paternal	-10.9632
▁wheat	-10.9632
▁Markov	-10.9632
▁incorporating	-10.9633
▁accessory	-10.9633
▁la	-10.964
▁scan	-10.9642
syn	-10.9643
acid	-10.9643
▁kin	-10.9645
Lear	-10.9645
▁gaits	-10.9646
▁carrier	-10.9649
8°	-10.9651
▁tetra	-10.9659
▁1986).	-10.9661
producing	-10.9663
▁attempted	-10.9664
▁century	-10.9665
▁mild	-10.9666
▁stand	-10.9666
▁Cal	-10.9669
▁Te	-10.967
▁influx	-10.9671
▁climbing	-10.9673
▁synthesized	-10.9674
ID	-10.9675
▁7,	-10.9675
▁reporter	-10.9677
col	-10.9678
▁albeit	-10.9681
▁[5],	-10.9681
▁fluorescent	-10.9682
▁tilapia	-10.9682
▁SD	-10.9682
▁crossing	-10.9685
▁droplets	-10.9693
▁concerted	-10.9694
▁[11],	-10.9695
59	-10.9696
▁GP	-10.9696
▁38]	-10.9697
▁abdomen	-10.9699
▁heavily	-10.9699
▁[62]	-10.9699
▁arrays	-10.97
▁CL	-10.9701
▁arc	-10.9702
ectin	-10.9703
ces	-10.9707
inc	-10.9708
▁36]	-10.9709
▁dates	-10.9717
▁tetrapods	-10.9725
▁west	-10.9731
▁Wi	-10.9731
▁exploring	-10.9733
Ga	-10.9735
▁reaches	-10.9735
▁Secondly	-10.9736
▁supplementary	-10.9739
▁stressful	-10.9742
▁Au	-10.9746
85	-10.9748
opo	-10.9748
▁accounting	-10.9748
▁telomere	-10.975
▁concomitant	-10.975
human	-10.9754
aci	-10.9754
▁Onc	-10.9756
44	-10.9757
▁assumes	-10.9758
▁logical	-10.976
wood	-10.9765
▁query	-10.9767
▁worldwide	-10.9768
aaa	-10.9768
▁individually	-10.9769
ators	-10.977
▁Bra	-10.9771
▁fragmentation	-10.9773
toxin	-10.9774
bat	-10.9776
▁specification	-10.9776
▁panel	-10.9784
▁trn	-10.9785
▁filament	-10.9789
▁cytokines	-10.9798
▁1.0	-10.9798
▁constitutes	-10.98
▁mismatch	-10.98
▁1974)	-10.9801
emi	-10.9801
▁Iberian	-10.9802
hen	-10.9806
▁dN	-10.9814
▁[13],	-10.9815
▁enhances	-10.982
▁organized	-10.9823
CK	-10.9831
lateral	-10.9837
▁indels	-10.984
eh	-10.9844
mount	-10.9846
neurotransmitter	-10.9852
▁1971;	-10.9852
▁Surprisingly	-10.9852
▁buoyancy	-10.9852
▁contrasts	-10.9852
ES	-10.9855
▁exceed	-10.9857
Changes	-10.986
Cyc	-10.9863
▁steep	-10.9863
▁axes	-10.987
▁Type	-10.9872
supported	-10.9873
▁vesicles	-10.9877
▁pigmentation	-10.988
chromatic	-10.9881
▁calculation	-10.9881
▁enhancing	-10.9882
2–	-10.9882
▁contract	-10.9884
▁responding	-10.9885
▁fresh	-10.9886
▁radial	-10.989
▁conformation	-10.9892
assi	-10.9898
▁fur	-10.9898
▁(10	-10.9901
▁belongs	-10.9903
▁dosage	-10.9903
▁behave	-10.9907
response	-10.9907
path	-10.9908
▁4),	-10.991
▁filaments	-10.991
cula	-10.9911
▁inactivation	-10.9918
▁CG	-10.992
TM	-10.9922
▁lose	-10.9925
ette	-10.9932
▁Wal	-10.9933
▁crustacean	-10.9933
▁NHE	-10.9934
▁genomics	-10.9937
▁tendons	-10.9937
▁mobility	-10.9938
▁morphologies	-10.9938
▁bilaterian	-10.9938
cat	-10.994
▁downregulation	-10.994
iaceae	-10.9941
▁Den	-10.9941
▁nearby	-10.9942
oda	-10.9942
▁solve	-10.9942
represented	-10.9942
▁translate	-10.9943
▁Martin	-10.9943
43	-10.9944
sulf	-10.9948
▁familiar	-10.9955
▁Johnson	-10.9955
ali	-10.9956
▁routine	-10.9959
▁[2],	-10.9962
▁ram	-10.9962
xfr	-10.9964
▁comparatively	-10.9969
▁machine	-10.9971
▁generalized	-10.9971
▁occupied	-10.9972
▁package	-10.9972
▁SBML	-10.9972
▁bright	-10.9973
▁divergences	-10.9975
pis	-10.9976
▁chi	-10.9977
▁Cer	-10.9979
▁masses	-10.9985
▁cylinder	-10.9989
rim	-10.999
▁cetaceans	-10.9993
borne	-11
▁crosses	-11.0001
more	-11.0003
▁[7],	-11.0003
▁rib	-11.0005
▁pointed	-11.0007
▁[64]	-11.0007
▁soon	-11.0008
▁MY	-11.0011
eye	-11.002
▁cycling	-11.002
▁sarcomere	-11.0024
rip	-11.0025
▁pose	-11.0026
▁[32,	-11.0027
▁explicit	-11.0029
AMP	-11.003
left	-11.003
▁today	-11.003
▁favored	-11.0034
▁transfers	-11.0037
ffer	-11.0038
▁abnormal	-11.0041
▁substances	-11.0041
▁1972)	-11.0042
▁raise	-11.0043
ima	-11.0046
▁staining	-11.0047
odes	-11.0051
▁MYA	-11.0052
▁assist	-11.0053
94	-11.0056
▁ray	-11.0059
▁technologies	-11.0059
3°	-11.0059
BR	-11.0061
ash	-11.0061
rad	-11.0063
▁denote	-11.0063
lac	-11.0064
DB	-11.0066
▁OS	-11.0067
▁Tak	-11.0073
nan	-11.0075
▁references	-11.008
chus	-11.0088
▁voltage	-11.0094
molecular	-11.01
▁acidification	-11.01
▁40]	-11.0101
▁linking	-11.0102
▁inverse	-11.0105
structure	-11.0107
▁synteny	-11.0112
▁[63]	-11.0112
Mc	-11.0122
▁compute	-11.0123
DD	-11.0126
ibility	-11.0129
some	-11.0131
▁prevalent	-11.0132
tory	-11.0132
▁expectations	-11.0132
▁implement	-11.0138
▁runs	-11.014
▁converted	-11.0145
▁mobile	-11.0147
▁noteworthy	-11.0147
▁transgenic	-11.0148
▁[4],	-11.0153
▁Fox	-11.0153
ground	-11.0154
raw	-11.0155
▁depths	-11.0156
▁Assum	-11.0156
▁List	-11.0159
Whit	-11.016
▁vibration	-11.0164
▁diagram	-11.0165
3/	-11.017
▁Mut	-11.017
atic	-11.0171
uter	-11.0171
phen	-11.0172
▁Wehner	-11.0175
▁handling	-11.0175
▁chemicals	-11.018
▁expectation	-11.0181
▁anthropogenic	-11.0182
▁unchanged	-11.0182
▁biosynthetic	-11.0182
▁therapy	-11.0183
▁NADH	-11.0185
▁mole	-11.0189
ometric	-11.019
▁learned	-11.0193
▁latitude	-11.0201
▁[8],	-11.0202
▁prevents	-11.0202
▁inhabiting	-11.0203
Lx	-11.0208
nat	-11.0209
▁Experimental	-11.0209
▁parasitism	-11.0214
01	-11.0214
▁overexpression	-11.0214
▁logic	-11.0215
TE	-11.0216
▁vortices	-11.0218
▁Fr	-11.0219
▁intergenic	-11.0222
▁impose	-11.0223
▁pectoralis	-11.0224
▁41]	-11.0226
lap	-11.0229
▁reli	-11.0231
▁fauna	-11.0233
▁Japanese	-11.0236
▁plume	-11.0236
▁Human	-11.0241
gBa	-11.0242
▁TCA	-11.0242
▁infect	-11.0243
▁records	-11.0245
▁[1],	-11.025
sectional	-11.0252
▁converge	-11.0252
▁integrative	-11.0253
▁feet	-11.0253
▁collapse	-11.0253
▁flexor	-11.0253
▁swarm	-11.0253
oz	-11.0254
▁retraction	-11.0254
95	-11.0255
▁sides	-11.0257
aff	-11.0263
lim	-11.0263
▁elimination	-11.0271
05	-11.0271
▁LRR	-11.0272
▁Genome	-11.0272
quality	-11.0272
▁offset	-11.0273
nger	-11.0274
▁consume	-11.0277
▁defects	-11.0277
▁fo	-11.0278
tone	-11.0281
62	-11.0283
▁mussels	-11.0284
hand	-11.0287
▁neuromasts	-11.0287
nidae	-11.0287
▁Evidence	-11.0289
▁sodium	-11.0289
dwelling	-11.0289
▁format	-11.029
▁frontal	-11.0293
▁analyse	-11.0293
▁exceptions	-11.0293
▁Storey	-11.0295
nose	-11.0301
▁mother	-11.0301
nest	-11.0303
▁vertebral	-11.0306
▁cartilage	-11.0307
▁hypothetical	-11.0307
▁negligible	-11.0307
▁cord	-11.0308
▁graphs	-11.0309
▁cox	-11.0311
yne	-11.0312
▁cat	-11.0314
▁helps	-11.0318
▁ends	-11.0319
▁grown	-11.0321
▁300	-11.0322
▁[16],	-11.0325
▁cognitive	-11.0325
▁worm	-11.0327
meter	-11.0328
Mi	-11.0336
▁Old	-11.0337
▁locust	-11.0339
▁21].	-11.034
uni	-11.034
▁trophic	-11.0341
▁visit	-11.0343
▁sponges	-11.0345
▁lesser	-11.0351
5]	-11.0358
▁assembled	-11.0361
▁arisen	-11.0362
distinguishable	-11.0365
▁LGT	-11.0373
▁mutually	-11.0375
▁option	-11.0375
▁conjunction	-11.0379
▁leaving	-11.0379
▁sudden	-11.0379
▁microorganisms	-11.0379
▁shunt	-11.038
ising	-11.038
had	-11.0382
▁concentrated	-11.0383
▁titin	-11.0391
▁5].	-11.0392
via	-11.0394
▁forced	-11.0394
uW	-11.0398
▁5)	-11.041
▁COI	-11.0412
▁lies	-11.0413
▁Madagascar	-11.0415
▁transverse	-11.0415
▁disorders	-11.0416
▁RP	-11.0416
sign	-11.0417
cyto	-11.0417
▁stabilizing	-11.042
ifying	-11.0421
▁tribe	-11.0421
▁gape	-11.0428
▁spacer	-11.0432
▁diversified	-11.0433
▁[34,	-11.0434
▁anchor	-11.0435
ilis	-11.0436
▁border	-11.0437
tailed	-11.0438
wal	-11.044
▁mainland	-11.0443
▁trachea	-11.0444
▁potent	-11.0449
▁elsewhere	-11.0451
pel	-11.0453
▁oscillatory	-11.0456
▁qualitatively	-11.0457
▁Long	-11.0457
ranging	-11.0462
▁epithelia	-11.0464
-10	-11.0465
haus	-11.0468
▁fluctuating	-11.0469
▁fourth	-11.047
▁ND	-11.0474
▁[3],	-11.0474
▁phosphatase	-11.0478
▁stressor	-11.0481
▁sensor	-11.0482
class	-11.0485
▁Han	-11.0486
▁Regardless	-11.0487
▁labeled	-11.049
micro	-11.0493
▁Syn	-11.0498
▁covering	-11.0498
opsin	-11.0505
▁swimbladder	-11.0506
▁cancers	-11.0507
1/2	-11.0509
▁leave	-11.0511
OP	-11.0512
lytic	-11.0514
▁(4)	-11.0517
▁hel	-11.0518
▁breath	-11.0518
▁exerted	-11.0519
▁pha	-11.052
carp	-11.052
▁Through	-11.0523
deficient	-11.0524
▁cortex	-11.0524
▁protease	-11.0524
▁waveform	-11.0525
▁oviposition	-11.0525
▁items	-11.0525
▁alternate	-11.0525
▁forelimbs	-11.0535
▁roll	-11.0541
▁bile	-11.0542
▁0.01	-11.0542
▁defensive	-11.0542
▁reviews	-11.0542
▁reside	-11.0543
▁EF	-11.0546
▁EGFR	-11.0547
forming	-11.0548
▁[14],	-11.0552
▁42	-11.0554
▁OA	-11.0556
▁del	-11.056
▁Perhaps	-11.0561
ua	-11.0561
]).	-11.0561
▁claim	-11.0562
98	-11.0564
▁dog	-11.0565
▁rotate	-11.0566
▁virtually	-11.0568
▁conduct	-11.0573
▁37]	-11.0573
▁clicks	-11.0574
US	-11.0575
▁improving	-11.0579
▁stabilization	-11.0579
▁tuberculosis	-11.0579
▁stomach	-11.0579
▁intensities	-11.0579
▁compression	-11.0583
ments	-11.0585
rk	-11.0585
▁claw	-11.0587
etic	-11.0588
▁Tur	-11.059
▁declines	-11.0594
aging	-11.0597
▁assemblage	-11.0597
▁gastrocnemius	-11.0597
▁ventricle	-11.0597
▁rhabdom	-11.0597
▁Cre	-11.0598
4]	-11.0598
ext	-11.06
▁cyto	-11.0603
▁Young	-11.0605
iger	-11.0605
▁marginal	-11.0607
▁concern	-11.0607
08	-11.0614
▁import	-11.0615
sti	-11.0616
▁taste	-11.0616
▁catalyze	-11.0618
87	-11.0619
▁glycoprotein	-11.0619
▁beat	-11.0621
▁click	-11.0621
▁manual	-11.0622
▁came	-11.0622
chain	-11.0624
hydroxy	-11.0624
▁hepatic	-11.0634
▁nevertheless	-11.0634
aba	-11.0637
82	-11.0637
▁[21],	-11.0643
▁phylum	-11.0645
only	-11.0646
▁normoxic	-11.0653
▁propensity	-11.0653
▁whilst	-11.0653
▁bipedal	-11.0653
▁[12],	-11.0657
▁tumors	-11.0659
DM	-11.0662
Aae	-11.0664
▁Pliocene	-11.0666
▁convert	-11.0668
▁bifurcation	-11.0671
▁heterozygosity	-11.0671
▁phosphorylated	-11.0672
Car	-11.0673
▁PM	-11.0675
▁Alu	-11.0675
duct	-11.0676
▁Dis	-11.0676
Ja	-11.0677
▁determinant	-11.0677
▁chains	-11.0678
morphic	-11.068
▁progressive	-11.0681
peak	-11.0681
▁trail	-11.0687
▁bands	-11.0688
▁arch	-11.069
▁radius	-11.069
▁stick	-11.069
▁subsets	-11.0691
motor	-11.0693
▁GFP	-11.0695
creased	-11.0697
▁Neo	-11.07
7°	-11.0702
▁webs	-11.0706
▁pelvic	-11.0709
mot	-11.0709
▁Large	-11.0712
▁Hel	-11.0713
▁44	-11.0714
▁sexta	-11.0714
▁phyto	-11.0715
▁Ve	-11.0715
coupled	-11.0719
thal	-11.0719
▁constants	-11.0721
▁Lepidoptera	-11.0721
▁files	-11.0721
▁LA	-11.0722
NV	-11.0724
ark	-11.0726
▁1999),	-11.073
▁segmental	-11.0731
▁DS	-11.0733
Fj	-11.0734
−2	-11.0738
▁healthy	-11.0738
auer	-11.0739
copy	-11.0739
cot	-11.0744
▁approaching	-11.0745
▁quantities	-11.0746
▁absorb	-11.0746
▁gastric	-11.0747
life	-11.0751
▁AMP	-11.0762
▁strongest	-11.0764
▁bearing	-11.0764
▁optimized	-11.0765
▁resolving	-11.0765
▁nestlings	-11.0766
▁reviewed	-11.0767
▁India	-11.0767
▁dead	-11.0769
▁procedures	-11.0769
▁treat	-11.077
▁doses	-11.0773
▁bottlenecks	-11.0775
DE	-11.0776
evolving	-11.0779
▁underwater	-11.0779
rach	-11.078
▁pen	-11.078
▁Hetero	-11.0781
▁balanced	-11.0783
▁expensive	-11.0783
▁plateau	-11.0784
▁39	-11.0785
stress	-11.0786
▁2.5	-11.0787
ATP	-11.0788
amino	-11.0788
▁catfish	-11.079
imp	-11.079
mur	-11.0794
▁signs	-11.0799
▁generalist	-11.0801
luc	-11.0801
▁kingdom	-11.0802
▁uncovered	-11.0805
▁Pho	-11.0806
=0	-11.0807
▁Firstly	-11.0807
▁thread	-11.0809
amide	-11.081
▁verify	-11.0811
bI	-11.0812
▁helix	-11.0814
ral	-11.0818
▁solitary	-11.0821
▁underwent	-11.0821
▁prevented	-11.0821
▁morphometric	-11.0821
▁holds	-11.0822
Cv	-11.0822
spin	-11.0825
▁proteomic	-11.0828
▁biotic	-11.0832
▁Effect	-11.084
1;	-11.0842
▁repressor	-11.0844
▁concepts	-11.0844
apa	-11.0845
posed	-11.085
<	-11.0852
db	-11.0853
▁Escherichia	-11.0859
▁collision	-11.0859
▁technology	-11.0859
▁motivation	-11.086
▁Marshall	-11.0866
▁antibiotic	-11.0867
dri	-11.0868
▁evidenced	-11.0868
▁Nu	-11.0877
▁dopamine	-11.0878
iro	-11.088
wan	-11.088
▁microRNA	-11.0881
strain	-11.0893
▁relations	-11.0893
LT	-11.0893
▁Sox	-11.0895
▁traditionally	-11.0895
▁autosomal	-11.0897
▁gliding	-11.0897
▁[67]	-11.0897
▁binary	-11.0897
▁pathogenesis	-11.0898
▁loud	-11.0899
▁SLC	-11.0903
Her	-11.0905
prot	-11.0905
▁minutes	-11.091
▁GI	-11.0911
ogram	-11.0913
ostom	-11.0914
▁specialist	-11.0915
▁lowland	-11.0915
terior	-11.0916
MBP	-11.0918
standing	-11.0919
▁tethered	-11.0923
▁junction	-11.0924
▁parasitoid	-11.0924
▁endosymbiont	-11.0924
▁spore	-11.0924
present	-11.0925
▁endosymbionts	-11.0926
▁odorant	-11.0927
ode	-11.0934
▁AL	-11.0934
▁presumed	-11.0935
although	-11.0935
▁reliably	-11.0935
▁removing	-11.0936
▁RI	-11.0938
▁blot	-11.0938
▁dispersed	-11.0943
▁attractor	-11.0945
tub	-11.0947
rank	-11.0948
▁scarce	-11.0954
▁assimilation	-11.0955
▁[6],	-11.0957
▁oldest	-11.0957
▁motions	-11.0961
▁herein	-11.0964
MD	-11.0965
▁alternatively	-11.0966
eff	-11.0967
eeu	-11.0967
4–	-11.0971
ches	-11.0972
▁arousal	-11.0973
▁androgen	-11.0974
▁validity	-11.0977
▁colonized	-11.0982
hold	-11.0988
ophytes	-11.0991
RM	-11.0991
▁ejaculate	-11.0992
▁incongruence	-11.0992
▁scientific	-11.0992
▁1971)	-11.0992
▁exclusion	-11.0992
▁mac	-11.0994
▁mothers	-11.0994
600	-11.0995
▁replicate	-11.0997
▁42]	-11.0997
▁receiver	-11.0998
▁HIF	-11.1
▁correction	-11.1003
9]	-11.1007
edge	-11.1007
▁cultured	-11.1008
▁monkeys	-11.101
blue	-11.101
▁Chinese	-11.1011
▁Clearly	-11.1012
▁accessions	-11.1013
omo	-11.1013
▁CNS	-11.1014
open	-11.1015
enter	-11.1016
GD	-11.1019
transport	-11.1029
▁[18],	-11.1029
▁popular	-11.1031
▁LGM	-11.1034
▁parsimonious	-11.104
▁square	-11.1042
SW	-11.1043
bridge	-11.1043
▁inversion	-11.1044
▁den	-11.1047
glucose	-11.1047
Williams	-11.1048
▁shore	-11.1048
▁proceed	-11.105
▁leak	-11.105
OS	-11.1057
▁predictor	-11.106
▁toxins	-11.1061
▁crypt	-11.1065
ify	-11.1066
▁incorrect	-11.1069
▁probabilistic	-11.107
▁Glu	-11.107
▁vice	-11.1072
oligo	-11.1073
▁settings	-11.1076
▁2014),	-11.1081
hE	-11.1082
▁aims	-11.1082
exposed	-11.1087
▁Maximum	-11.1088
▁copulation	-11.1088
▁tetraploid	-11.1089
▁round	-11.1089
▁[33,	-11.109
▁Plant	-11.1091
▁Jones	-11.1092
▁hub	-11.1096
▁Islands	-11.1098
▁wasp	-11.1099
▁Currently	-11.1099
itch	-11.1105
GG	-11.1107
cardi	-11.1107
▁integral	-11.1108
▁meiosis	-11.1108
▁refuge	-11.1108
▁tuned	-11.1108
03	-11.111
▁Part	-11.1115
▁archaea	-11.1119
▁30%	-11.1122
▁Up	-11.1122
▁definitive	-11.1127
▁acuity	-11.1127
▁Japan	-11.1127
▁transform	-11.1129
▁recurrent	-11.113
▁rivers	-11.113
▁chill	-11.1133
▁reflectance	-11.1133
ky	-11.1133
▁additionally	-11.1136
+=	-11.1138
ovi	-11.1143
lina	-11.1144
encoded	-11.1145
SO	-11.1146
nrfifHhDYfgasaac	-11.1146
▁mirror	-11.1147
feaa	-11.1148
▁[15],	-11.1149
DI	-11.1154
▁clearance	-11.1154
▁specimen	-11.1158
lv	-11.116
▁SE	-11.116
▁surround	-11.1162
qV	-11.1162
▁glutamine	-11.1163
▁TC	-11.1164
▁bonds	-11.1164
▁moult	-11.1166
▁classic	-11.1167
▁1997),	-11.1167
▁[17],	-11.1173
uf	-11.1175
Xat	-11.1176
▁flanking	-11.1181
▁potentials	-11.1181
▁pregnancy	-11.1186
▁[65]	-11.1186
▁paraphyletic	-11.1186
▁DM	-11.1187
▁promoted	-11.1188
▁moves	-11.1193
rought	-11.1193
IF	-11.1193
Xdb	-11.1194
rmoregulatory	-11.1195
▁inability	-11.1196
▁ES	-11.1199
rian	-11.12
fK	-11.1201
▁segregat	-11.1203
wavelength	-11.1204
▁resembles	-11.1205
▁fascicle	-11.1205
▁normoxia	-11.1205
▁programming	-11.1205
▁[35,	-11.1206
▁90%	-11.1206
iol	-11.1207
▁founder	-11.1207
▁fitting	-11.1207
▁walls	-11.1216
fly	-11.1218
either	-11.1224
▁toxin	-11.1225
lium	-11.1225
onia	-11.1228
rist	-11.1229
▁cockroaches	-11.123
▁Four	-11.1233
▁SV	-11.1235
rium	-11.1237
51	-11.1238
▁hindlimbs	-11.124
NE	-11.1241
▁Bacteria	-11.1245
▁irrespective	-11.1245
▁Tu	-11.1246
▁versa	-11.1248
▁metric	-11.1248
▁compromise	-11.1249
▁cyclin	-11.1249
▁extraction	-11.1251
▁eel	-11.1251
▁trip	-11.1253
▁honeybee	-11.1257
04	-11.1261
▁interested	-11.1263
▁combinatorial	-11.1264
▁(20	-11.1269
retin	-11.1269
rig	-11.1273
roid	-11.1283
▁buffer	-11.1283
▁clone	-11.1284
▁interfere	-11.1285
4).	-11.1286
▁delimitation	-11.1287
▁horn	-11.1288
cos	-11.1295
▁digest	-11.1296
▁radio	-11.1298
▁JA	-11.1299
ulating	-11.1302
mRNA	-11.1307
▁Shi	-11.1307
▁tolerant	-11.131
Rh	-11.1311
ila	-11.1312
▁44]	-11.1319
▁reads	-11.1321
▁MG	-11.1321
▁orthologues	-11.1322
▁glucocorticoid	-11.1324
▁outperform	-11.1324
▁weights	-11.1324
▁horizontally	-11.1325
▁uni	-11.1325
miRNA	-11.1325
3−	-11.1327
Mb	-11.1329
void	-11.1332
▁NC	-11.1335
▁TS	-11.1336
▁Low	-11.1337
▁hemi	-11.134
300	-11.1341
▁PH	-11.1343
Wa	-11.1343
▁cofactor	-11.1347
HC	-11.1347
07	-11.1349
peptide	-11.1349
▁q	-11.1353
ceptive	-11.1355
mmer	-11.1357
▁warmer	-11.1359
eria	-11.1359
▁processed	-11.1359
lio	-11.1359
▁administration	-11.1363
▁microbes	-11.1363
▁existed	-11.1365
▁Sto	-11.1369
▁triggers	-11.137
▁positioned	-11.1374
▁MO	-11.1375
▁[20],	-11.1376
ool	-11.1378
try	-11.1379
nz	-11.138
osomal	-11.138
sexual	-11.1382
▁automated	-11.1383
▁eutherian	-11.1383
▁giant	-11.1383
0.4	-11.1384
▁anal	-11.139
talk	-11.139
▁hubs	-11.1392
▁[51].	-11.1394
ui	-11.1397
▁spike	-11.1398
▁eliminated	-11.14
tine	-11.14
LM	-11.1402
▁evaluating	-11.1403
▁branchial	-11.1403
▁latitudes	-11.1404
▁ciliary	-11.1405
▁accessible	-11.1412
▁(4	-11.1413
mt	-11.1419
▁Reynolds	-11.142
▁unravel	-11.1423
▁sought	-11.1423
formed	-11.1423
▁TFBS	-11.1424
quadr	-11.1426
▁selecting	-11.1426
fit	-11.1431
aj	-11.1436
▁compress	-11.1439
▁corroborate	-11.144
▁pulmonary	-11.1443
▁venous	-11.1443
▁device	-11.1443
▁rejected	-11.1444
▁GATA	-11.1444
burg	-11.1448
▁microsatellites	-11.1449
▁RNase	-11.1449
▁45]	-11.1449
▁adjusted	-11.1449
▁charge	-11.145
▁weighted	-11.1451
▁Epi	-11.1451
▁interactome	-11.1454
NM	-11.1457
▁illustrates	-11.1459
▁deer	-11.1463
▁mosaic	-11.1463
▁safety	-11.1464
▁43	-11.147
dio	-11.1471
▁mere	-11.1474
▁disturbance	-11.1479
▁nerves	-11.148
▁ovary	-11.1483
▁[66]	-11.1483
Cr	-11.1491
▁Er	-11.1492
▁pad	-11.1496
▁molt	-11.1497
▁operation	-11.1499
qq	-11.15
▁endothelial	-11.1504
▁preclude	-11.1504
▁AFLP	-11.1504
▁settlement	-11.1505
▁arginine	-11.1505
west	-11.1506
▁lie	-11.1506
otropic	-11.1512
▁thorax	-11.1514
▁physically	-11.1516
kar	-11.1517
ifolia	-11.152
Mor	-11.152
▁amphioxus	-11.1524
▁unaffected	-11.1524
▁8,	-11.1525
stage	-11.1525
▁chimpanzee	-11.1529
▁Somero	-11.1529
taxis	-11.1532
atura	-11.1534
▁insert	-11.1539
▁Sim	-11.1543
▁tap	-11.1544
▁deficiency	-11.1544
▁incidence	-11.1544
▁Sta	-11.1545
▁ingestion	-11.1546
▁43]	-11.1548
NK	-11.155
▁GRN	-11.1552
▁CF	-11.1556
▁kernel	-11.1564
▁termination	-11.1564
rain	-11.1565
▁plotted	-11.1565
▁structuring	-11.1567
6°	-11.1571
node	-11.1571
dip	-11.1572
▁ATPase	-11.1575
▁oocytes	-11.1579
spanning	-11.1583
▁inhibiting	-11.1583
▁seek	-11.1584
Vg	-11.1584
▁dissipation	-11.1585
▁unstable	-11.1587
▁pads	-11.159
even	-11.1592
uz	-11.1596
▁Genes	-11.1597
rez	-11.1598
▁sticklebacks	-11.1603
▁catabolism	-11.1605
▁melatonin	-11.1605
▁150	-11.1607
▁downward	-11.1609
▁80%	-11.1609
▁3]	-11.1614
Hb	-11.1614
▁Lin	-11.1618
▁stiff	-11.1619
▁gains	-11.1619
▁Ger	-11.1625
▁drainage	-11.1625
▁quantification	-11.1625
▁trehalose	-11.1625
▁viscosity	-11.1625
▁hummingbirds	-11.1626
expressing	-11.1629
▁leuc	-11.1629
▁week	-11.163
ttle	-11.1632
Gu	-11.1633
▁paleo	-11.1633
▁began	-11.1636
BF	-11.1638
▁cricket	-11.1644
▁constituent	-11.1646
lm	-11.165
▁confirming	-11.1654
ister	-11.1655
▁ORF	-11.1655
▁optimize	-11.1656
▁flights	-11.1657
▁inversions	-11.1658
tomy	-11.1659
▁FST	-11.1664
▁nitrite	-11.1666
▁rigorous	-11.1666
▁9,	-11.1667
▁attracted	-11.1669
Smith	-11.167
kov	-11.1671
▁engage	-11.1673
▁clutch	-11.1681
ison	-11.1682
▁drivers	-11.1685
▁arranged	-11.1687
▁retrotransposon	-11.1687
▁vicariance	-11.1687
▁infectious	-11.1687
▁enlarged	-11.1691
▁cytokine	-11.1691
▁metrics	-11.1695
▁allometry	-11.1696
▁outputs	-11.1697
tein	-11.17
▁tau	-11.1704
▁glide	-11.1705
▁jaws	-11.1705
▁11,	-11.1707
▁Plasmodium	-11.1707
▁closure	-11.1707
▁ensemble	-11.1707
oco	-11.1709
▁5%	-11.171
idase	-11.1711
▁47]	-11.1715
▁SP	-11.1717
▁avoiding	-11.1721
▁outcrossing	-11.1728
▁maize	-11.1728
▁41	-11.1729
▁[37,	-11.1729
41	-11.1729
▁cor	-11.1729
▁theoretically	-11.1738
cke	-11.1741
TEF	-11.1743
▁experiencing	-11.1749
▁microtubule	-11.1749
▁reliability	-11.1749
▁PPAR	-11.175
ivorous	-11.1753
▁jumps	-11.1753
tendon	-11.1755
derma	-11.1757
table	-11.1758
▁junctions	-11.1761
iso	-11.1761
▁paralogues	-11.1762
both	-11.1767
▁abbreviations	-11.1769
▁applies	-11.1769
▁concatenated	-11.1769
▁pancreatic	-11.1769
▁viscous	-11.1769
▁indices	-11.177
▁slopes	-11.1773
▁attain	-11.1774
▁conditional	-11.1774
▁diverge	-11.1776
▁continues	-11.1777
▁antenna	-11.1779
▁PV	-11.178
▁vent	-11.1781
▁spores	-11.1781
▁autumn	-11.179
▁Great	-11.1791
▁upstroke	-11.1792
▁mated	-11.1793
dactylus	-11.1795
gram	-11.1797
▁perfect	-11.18
▁carbohydrates	-11.1803
▁prim	-11.1805
▁Symbiodinium	-11.1811
▁opossum	-11.1811
ened	-11.1811
LA	-11.1815
▁Bon	-11.182
▁zoo	-11.1829
▁Expression	-11.1832
▁disparity	-11.1832
▁sophisticated	-11.1832
utilizing	-11.1832
▁fleas	-11.1835
▁places	-11.1838
▁lungs	-11.1838
gas	-11.1847
black	-11.1847
rina	-11.1848
▁alteration	-11.1849
▁patient	-11.1852
copulatory	-11.1853
▁composite	-11.1853
ln	-11.1853
▁Mean	-11.1855
▁Cro	-11.1857
▁IP	-11.1862
enia	-11.1864
▁reversed	-11.1868
TL	-11.1869
▁Comp	-11.1871
▁CDK	-11.1871
▁Miller	-11.1872
▁hsp	-11.1873
▁endurance	-11.1874
▁hidden	-11.1874
▁trafficking	-11.1874
apping	-11.1878
viruses	-11.1879
▁brevi	-11.188
CF	-11.1882
Sa	-11.1883
regulate	-11.1885
▁contacts	-11.1892
▁blocked	-11.1894
Ta	-11.1894
▁Lymnaea	-11.1895
▁emphasis	-11.1895
▁Bor	-11.1896
▁characterizing	-11.1897
▁stay	-11.1897
▁allopolyploid	-11.19
▁locate	-11.1902
▁manipulated	-11.1904
▁geo	-11.1911
96	-11.1912
▁strengthen	-11.1915
▁synchronous	-11.1916
link	-11.1917
▁EOD	-11.1918
▁crest	-11.1922
chia	-11.1922
▁perch	-11.1929
▁2014	-11.1932
▁recommend	-11.1937
ON	-11.1937
▁rearrangement	-11.1938
tune	-11.1939
▁isolate	-11.1939
▁supposed	-11.1941
6]	-11.1943
▁dance	-11.1944
▁melanin	-11.1946
horn	-11.1951
▁unless	-11.1951
arc	-11.1951
▁injected	-11.1953
nov	-11.1955
▁plots	-11.1957
iness	-11.1959
▁copepod	-11.1959
▁expanding	-11.1961
phasic	-11.1961
chrom	-11.1966
▁monomer	-11.1967
ocer	-11.1967
▁basin	-11.1968
▁PG	-11.1971
▁bursts	-11.1982
▁repress	-11.1984
▁bond	-11.1984
kel	-11.1985
Par	-11.1989
HL	-11.1995
▁laterally	-11.1999
▁identifies	-11.2
▁instantaneous	-11.2
▁resonance	-11.2
▁mucus	-11.2001
nell	-11.2002
▁users	-11.2009
hose	-11.2011
nuclear	-11.2011
fic	-11.2012
psi	-11.2017
▁hierarchy	-11.2021
▁laevis	-11.2021
▁improves	-11.2022
Bur	-11.2023
▁feeder	-11.2025
▁WT	-11.2028
▁Dickinson	-11.2028
▁nesting	-11.2033
▁bases	-11.2033
cker	-11.2033
▁arena	-11.2034
▁elucidated	-11.2036
Davis	-11.2039
▁Pri	-11.2042
▁propagate	-11.2043
▁1970;	-11.2043
▁spacing	-11.2043
▁terrain	-11.2043
▁challenged	-11.2045
▁US	-11.2047
▁dominate	-11.205
▁keeping	-11.2051
▁portions	-11.206
▁commercial	-11.2064
▁gibbon	-11.2064
▁reductase	-11.2064
▁sympatry	-11.2064
▁bilateral	-11.2065
TH	-11.2066
▁biogenesis	-11.2067
stream	-11.2068
▁disperse	-11.2073
▁biomarkers	-11.2075
▁haplogroups	-11.2075
eta	-11.2075
▁marsupials	-11.2077
PL	-11.208
09	-11.2084
nid	-11.2084
▁classifier	-11.2085
▁vitamin	-11.2085
▁immunological	-11.2086
jo	-11.2088
▁Non	-11.2093
meta	-11.2094
organism	-11.2095
▁DI	-11.2095
▁men	-11.2095
los	-11.2097
▁EM	-11.2099
LL	-11.21
gluco	-11.2103
OV	-11.2106
▁scoring	-11.2107
▁pup	-11.2109
chrome	-11.2112
▁arrows	-11.2115
▁mediates	-11.2117
▁[25],	-11.2117
▁haem	-11.2121
▁rhodopsin	-11.2123
dactyl	-11.2123
Hu	-11.2124
▁Monte	-11.2128
▁Individual	-11.2128
▁1967;	-11.2128
▁tumour	-11.2128
CI	-11.2135
▁48]	-11.2136
ographic	-11.2137
▁tick	-11.2137
▁Bre	-11.2138
▁cytosol	-11.2146
▁tuna	-11.2149
▁caspase	-11.215
▁japonica	-11.215
▁paracellular	-11.2151
▁subcellular	-11.2154
▁subtype	-11.2157
muscle	-11.2159
animal	-11.2159
▁obtaining	-11.2159
values	-11.216
▁touch	-11.2169
▁displaying	-11.2169
adrenergic	-11.2171
▁maturity	-11.2171
▁serum	-11.2173
▁lions	-11.2174
▁fix	-11.2177
▁formulation	-11.2178
▁RE	-11.218
▁0.05	-11.2184
▁vertically	-11.2191
▁acidic	-11.2193
vent	-11.2193
▁consecutive	-11.2193
▁ganglia	-11.2193
▁eyespot	-11.2194
prop	-11.2195
▁bioinformatics	-11.2195
▁master	-11.2196
▁dimension	-11.2198
gger	-11.22
▁lifetime	-11.2201
▁starch	-11.2208
auto	-11.2213
▁starts	-11.2214
aspe	-11.2215
▁visually	-11.2217
factor	-11.222
▁manipulations	-11.2224
▁inertia	-11.2225
▁instability	-11.2225
xin	-11.2226
▁falls	-11.2226
LDH	-11.2228
▁Tre	-11.223
8]	-11.2234
▁facultative	-11.2236
▁irregular	-11.2236
▁symbiosis	-11.2236
▁transposon	-11.2236
subunit	-11.2246
▁inertial	-11.2248
▁preserve	-11.225
cross	-11.225
▁chaperone	-11.2258
▁Eqn	-11.2264
▁recruited	-11.2274
▁pharyngeal	-11.2275
▁dysfunction	-11.2278
▁transported	-11.2278
▁ANOVA	-11.2279
▁buccal	-11.228
▁library	-11.228
▁femur	-11.228
▁proxy	-11.228
▁PK	-11.2281
ulos	-11.2284
▁fits	-11.2284
▁sprint	-11.2285
agus	-11.2289
▁ver	-11.229
▁elongated	-11.2294
ules	-11.2294
plast	-11.2296
=2	-11.2298
directed	-11.2299
▁subordinate	-11.2303
OG	-11.2307
▁sect	-11.2309
race	-11.2312
▁exit	-11.2315
▁[19],	-11.2319
gaard	-11.232
▁economic	-11.2321
coll	-11.2322
▁anoxic	-11.2323
▁vocalizations	-11.2323
▁morphogenesis	-11.2324
▁mediator	-11.2324
▁pole	-11.2327
▁NE	-11.2329
▁averaged	-11.2331
Du	-11.2342
▁cortical	-11.2345
▁semantic	-11.2345
rie	-11.2345
▁GL	-11.2345
▁seemingly	-11.2346
▁sugars	-11.2348
wait	-11.2352
ected	-11.2355
▁defenses	-11.2358
▁Previously	-11.2359
▁draw	-11.2359
flies	-11.2361
allo	-11.2362
mini	-11.2362
roch	-11.2366
▁adverse	-11.2367
▁discrepancies	-11.2367
▁stoichiometric	-11.2367
▁[38,	-11.2368
lex	-11.237
▁49]	-11.2372
aster	-11.2372
▁[51]	-11.2375
mura	-11.2375
▁46]	-11.2377
▁renal	-11.2377
▁accomplished	-11.2377
▁establishing	-11.238
FT	-11.2384
Graham	-11.2386
rmoregulation	-11.2386
▁macrophages	-11.2388
▁biofilm	-11.2389
▁epidermal	-11.2389
▁illumination	-11.2389
▁1973)	-11.2389
▁mutated	-11.2391
Har	-11.2391
▁mites	-11.2392
▁Pf	-11.2395
▁confounding	-11.2399
▁cloned	-11.2404
rier	-11.2406
▁asymmetrical	-11.2411
▁noisy	-11.2411
ipes	-11.2412
▁repeatability	-11.2413
▁acetyl	-11.2422
▁proline	-11.2425
▁ruf	-11.2427
▁coincides	-11.243
▁PPIs	-11.243
tant	-11.2431
▁excursion	-11.2433
▁[36,	-11.2434
take	-11.2437
▁Generally	-11.2437
▁IF	-11.2439
shift	-11.2446
▁72	-11.2447
▁symmetrical	-11.2448
▁agonist	-11.2452
▁progenitors	-11.2455
▁temporally	-11.2455
▁ambiguous	-11.2456
▁isotope	-11.2456
▁pathological	-11.2457
▁begins	-11.2457
oxy	-11.2458
▁translated	-11.2463
▁marsupial	-11.2464
▁landmark	-11.2465
800	-11.2465
▁employing	-11.2468
aye	-11.2471
Lee	-11.2476
▁elaborate	-11.2478
▁embedded	-11.2478
▁serious	-11.2478
urs	-11.2479
▁crack	-11.248
▁impair	-11.2482
▁UCP	-11.2482
▁BP	-11.2482
▁bud	-11.2486
▁ingested	-11.2489
▁Uni	-11.2489
1.2	-11.2489
▁subgroups	-11.2493
▁subgroup	-11.2494
▁roo	-11.2494
▁desirable	-11.25
▁liquid	-11.25
▁40%	-11.25
▁downstroke	-11.2501
▁primers	-11.2506
Da	-11.2507
zen	-11.2509
▁thermodynamic	-11.2517
▁percent	-11.2522
▁camouflage	-11.2522
▁congruence	-11.2522
▁multivariate	-11.2522
▁people	-11.2522
▁Quaternary	-11.2523
▁finite	-11.2527
limb	-11.2527
▁subnetworks	-11.2531
xb	-11.2532
▁adjustment	-11.2534
50%	-11.2536
▁Leu	-11.2539
▁Gra	-11.2541
▁chromatophore	-11.2545
▁daughter	-11.2545
▁senescence	-11.2545
▁sensilla	-11.2545
▁bulk	-11.2545
▁Ciona	-11.2545
▁selectivity	-11.2546
ulatus	-11.2546
transferase	-11.2546
ail	-11.2546
cular	-11.2548
generation	-11.255
▁therein	-11.2551
cyst	-11.2551
▁stimulates	-11.2552
▁damaged	-11.2552
bach	-11.2552
▁dashed	-11.2555
▁tetrapod	-11.2555
olo	-11.2555
ibb	-11.2557
▁bell	-11.2559
lidae	-11.2562
▁effectors	-11.2567
▁contralateral	-11.2567
▁superficial	-11.2567
8–	-11.2567
▁plug	-11.2568
▁hypertrophy	-11.2568
▁bra	-11.2573
▁Fl	-11.2573
▁classify	-11.2574
▁hope	-11.2578
▁Hymenoptera	-11.258
▁traces	-11.2581
▁heterospecific	-11.2582
▁BC	-11.2585
cells	-11.2589
▁hovering	-11.259
▁delays	-11.2592
▁lysine	-11.2592
▁16,	-11.2594
rick	-11.2595
▁DGC	-11.261
▁ticks	-11.261
last	-11.261
Seq	-11.2611
▁rings	-11.2612
▁fracture	-11.2612
▁1969;	-11.2612
catenin	-11.2612
▁pupae	-11.2614
▁domesticated	-11.2615
▁regularly	-11.2618
▁Southeast	-11.262
▁nucleo	-11.2625
▁projects	-11.2626
▁predatory	-11.263
▁holo	-11.263
▁Sequence	-11.2635
▁artefact	-11.2635
▁budget	-11.2635
▁firing	-11.2635
▁Multiple	-11.2635
▁tank	-11.2635
▁polarized	-11.2637
▁occasionally	-11.2644
lag	-11.2648
▁methyl	-11.2649
female	-11.265
▁spinal	-11.2651
when	-11.2651
▁Gi	-11.2655
▁salamanders	-11.2655
▁Im	-11.2655
▁hatchlings	-11.2656
▁attributable	-11.2657
▁cultivated	-11.2657
▁vertebrae	-11.2657
▁squirrels	-11.2661
▁recruit	-11.2662
▁LH	-11.2665
▁names	-11.2666
▁organelles	-11.2668
▁rough	-11.2668
▁Mil	-11.2673
▁collect	-11.2674
▁Gly	-11.2678
nar	-11.268
▁ventilatory	-11.268
▁scallop	-11.268
▁gamma	-11.268
hou	-11.2681
sample	-11.2682
Go	-11.2684
▁cyt	-11.2685
▁concerns	-11.2686
ebr	-11.2694
first	-11.2695
▁tradeoff	-11.2695
▁400	-11.2696
0.8	-11.2701
ama	-11.2702
▁chick	-11.2703
▁Contrary	-11.2703
▁hypothalamus	-11.2703
▁latitudinal	-11.2703
▁erythrocyte	-11.2703
▁concurrent	-11.2704
▁properly	-11.2706
▁dia	-11.2716
bearing	-11.2718
▁text	-11.2719
▁sensors	-11.2724
▁ultra	-11.2726
▁Comparative	-11.2727
▁fire	-11.2732
▁cyanobacterial	-11.2733
▁Str	-11.2737
▁vesicle	-11.2738
▁creates	-11.2738
▁execut	-11.2745
▁reading	-11.2747
5%)	-11.2752
▁sonar	-11.2752
▁HA	-11.2754
▁encounters	-11.2754
rob	-11.2758
cott	-11.2762
▁axon	-11.2763
▁shortest	-11.2769
▁partition	-11.277
▁Guinea	-11.2772
▁Roberts	-11.2773
▁hyoid	-11.2773
coil	-11.2775
▁PT	-11.2781
▁soluble	-11.2785
▁Archaea	-11.2785
▁ID	-11.2787
Mu	-11.2788
proteobacteria	-11.2789
▁mining	-11.2791
ylation	-11.2791
▁cent	-11.2792
▁symmetry	-11.2794
cep	-11.2796
▁pin	-11.28
▁excessive	-11.28
ptera	-11.28
una	-11.2801
▁descriptions	-11.2808
▁looking	-11.2809
▁LP	-11.281
▁diverging	-11.281
▁compromised	-11.2814
zygotic	-11.2815
mut	-11.2816
▁linearly	-11.2816
Linnaeus	-11.2817
▁computing	-11.2817
▁confident	-11.2817
▁ligament	-11.2817
▁sibling	-11.2818
▁polarity	-11.2822
typic	-11.2822
▁14,	-11.2822
▁AMPK	-11.2824
▁30°	-11.2828
▁bugs	-11.2831
analysis	-11.2834
sensitivity	-11.2834
▁His	-11.2838
▁Arg	-11.2839
▁mind	-11.284
▁falciparum	-11.284
▁musculoskeletal	-11.284
▁imbalance	-11.284
▁[39,	-11.2841
▁connective	-11.2845
lec	-11.2847
phylo	-11.285
▁Current	-11.285
RI	-11.2852
▁habit	-11.2853
▁ti	-11.2854
▁lobster	-11.2854
1°	-11.2854
▁Sand	-11.2857
▁der	-11.286
▁Insect	-11.2863
▁captivity	-11.2863
▁[69]	-11.2863
▁[68]	-11.2863
▁preservation	-11.2865
▁stock	-11.2865
▁1986)	-11.2869
▁exceeds	-11.287
▁methodological	-11.2871
escent	-11.2881
▁bumblebees	-11.2886
▁Population	-11.2887
▁acted	-11.2892
bird	-11.2898
▁Ci	-11.29
ifer	-11.2903
vector	-11.2904
▁colours	-11.2906
prey	-11.2907
▁technical	-11.291
▁blind	-11.291
leu	-11.2912
olytic	-11.2913
thio	-11.2918
▁CV	-11.292
▁duct	-11.292
▁alarm	-11.2921
rica	-11.2921
amo	-11.2924
▁inform	-11.2924
▁manually	-11.2926
control	-11.2927
weight	-11.2928
▁drives	-11.293
▁LG	-11.2931
▁5),	-11.2932
▁glutathione	-11.2933
▁shelter	-11.2933
▁hemisphere	-11.2933
nge	-11.2933
▁inverted	-11.2933
Do	-11.294
methyl	-11.2941
▁tips	-11.2944
▁49	-11.2949
▁favoured	-11.2952
▁breeds	-11.2954
▁subterranean	-11.2956
▁hydrocarbon	-11.2956
▁foreign	-11.2957
▁echo	-11.2961
▁essentiality	-11.2962
▁disrupted	-11.2962
mix	-11.2964
▁Its	-11.2967
location	-11.2968
▁pairing	-11.297
neu	-11.297
▁intermediates	-11.2973
▁lobe	-11.2974
▁putatively	-11.2974
▁COX	-11.2976
pg	-11.2977
▁blubber	-11.298
▁mellifera	-11.298
▁separating	-11.298
tree	-11.298
▁haploid	-11.2983
▁scent	-11.2985
etti	-11.2988
efficient	-11.2995
▁See	-11.2996
▁ecosystem	-11.2996
▁transit	-11.2996
▁pass	-11.2998
▁neuromuscular	-11.3003
omes	-11.3005
▁laying	-11.3006
▁directionality	-11.3012
▁update	-11.3013
▁preferential	-11.3014
▁evoked	-11.302
temporal	-11.3022
▁Act	-11.3022
▁possessing	-11.3023
▁opposing	-11.3027
▁switches	-11.3027
▁Del	-11.3027
▁quantifying	-11.3027
▁fitted	-11.3029
▁finch	-11.303
ophil	-11.3036
▁120	-11.3037
▁nonsynonymous	-11.3037
LE	-11.304
▁sweep	-11.3043
version	-11.3043
▁oceanic	-11.3046
▁50]	-11.3046
▁Anopheles	-11.305
▁metabolomic	-11.305
▁wound	-11.305
▁surge	-11.305
▁think	-11.305
▁severely	-11.3051
▁Ur	-11.3054
▁trailing	-11.3057
▁atrophy	-11.3059
two	-11.3059
Per	-11.306
omycetes	-11.3061
▁51]	-11.3062
180	-11.3063
odo	-11.3064
▁cyst	-11.3064
▁dys	-11.3066
▁Gram	-11.3066
responsive	-11.3069
qual	-11.3073
▁coherent	-11.3074
▁subgenus	-11.3074
▁embryogenesis	-11.3074
lineage	-11.3075
▁[41,	-11.3077
proteins	-11.308
▁Ang	-11.308
▁augment	-11.3081
ED	-11.3083
local	-11.3084
▁protists	-11.3085
▁proteasome	-11.3089
normal	-11.3093
2.1	-11.3094
▁stereo	-11.3095
▁mixing	-11.3096
▁calcification	-11.3097
▁diabetes	-11.3097
▁easier	-11.3097
▁heterodimer	-11.3097
Con	-11.3103
▁Hypo	-11.3104
▁Anderson	-11.3106
▁intensive	-11.3108
▁defences	-11.3109
▁MF	-11.3112
▁1996),	-11.3114
▁amphibian	-11.3115
▁Clark	-11.3116
aabeqaa	-11.3121
▁diffuse	-11.3121
▁defend	-11.3121
Gaai	-11.3122
▁resident	-11.3124
▁correspondence	-11.3124
ending	-11.3127
▁undergoing	-11.3128
▁odours	-11.3128
hardt	-11.3132
▁cascades	-11.3132
▁returned	-11.3133
oviruses	-11.3134
▁1999	-11.3135
▁inducible	-11.3139
hereafter	-11.314
aldehyde	-11.3145
▁heritable	-11.3145
cz	-11.315
arth	-11.3152
egg	-11.3152
than	-11.3155
▁filters	-11.3155
▁standing	-11.3158
mag	-11.3159
▁55	-11.3168
▁periphery	-11.3169
▁subdivision	-11.3169
▁Variation	-11.3169
▁digit	-11.317
▁orange	-11.317
▁mineral	-11.3181
Cas	-11.3185
▁lys	-11.3187
▁CpG	-11.3187
thus	-11.3188
vas	-11.319
adbaqaaeGac	-11.3192
xNi	-11.3192
▁exhaustive	-11.3192
▁rabbit	-11.3192
▁glycine	-11.3192
caught	-11.3193
▁phospholipid	-11.3193
Walker	-11.3193
fsY	-11.3193
▁positives	-11.3194
tent	-11.3196
ility	-11.3197
Bu	-11.3198
▁25%	-11.3198
turn	-11.3198
▁obstacles	-11.3198
PM	-11.32
dXdb	-11.3209
stat	-11.3211
▁raising	-11.3216
▁dsRNA	-11.3216
▁murine	-11.3217
elt	-11.3217
▁FL	-11.3218
▁automatically	-11.3218
▁EGF	-11.3218
▁retractor	-11.3224
LO	-11.3225
▁exploited	-11.3226
▁digital	-11.3226
▁mill	-11.3234
▁HEA	-11.3234
▁plasmid	-11.3237
iensis	-11.3238
▁maintains	-11.324
▁descend	-11.324
▁mechanosensory	-11.324
▁pleiotropic	-11.324
▁treadmill	-11.324
▁breakdown	-11.3241
comb	-11.3249
▁amplitudes	-11.3249
▁Iso	-11.3251
▁accelerations	-11.3254
▁CRF	-11.3256
▁dissect	-11.3259
random	-11.3262
▁obviously	-11.3263
▁hermaphrodites	-11.3264
▁aversive	-11.3264
▁supertree	-11.3265
▁hinder	-11.3266
▁EO	-11.3268
erson	-11.3271
▁CE	-11.3271
▁perceive	-11.3275
ido	-11.3275
▁nutrition	-11.3276
▁tone	-11.328
▁innovation	-11.3284
effect	-11.3285
▁HT	-11.3285
▁compliant	-11.3288
▁voluntary	-11.3288
▁spine	-11.3289
▁volumes	-11.3292
▁fus	-11.3292
epae	-11.3292
▁elementary	-11.3293
stance	-11.3296
Pro	-11.3298
▁positioning	-11.3299
▁hamsters	-11.33
▁([	-11.3302
▁energetics	-11.3303
east	-11.3303
Bar	-11.3303
▁progressively	-11.3305
UTR	-11.3306
▁shares	-11.3307
▁decade	-11.3309
▁pl	-11.3311
▁Materials	-11.3313
▁premature	-11.3313
▁iterative	-11.3313
▁[70]	-11.3313
qGq	-11.3314
▁subfunctionaliz	-11.3315
change	-11.3316
opus	-11.3322
▁dated	-11.3327
emp	-11.3328
actin	-11.3329
CG	-11.333
▁21,	-11.3332
unc	-11.3333
▁9)	-11.3334
▁let	-11.3335
▁Malpighian	-11.3337
▁hotspot	-11.3337
isch	-11.3337
opoda	-11.3338
▁performs	-11.334
tsch	-11.3341
▁concert	-11.3344
▁monitor	-11.3344
▁Next	-11.3345
▁manage	-11.3345
▁resultant	-11.3345
▁10,	-11.3351
▁race	-11.3352
▁predictable	-11.3353
ometry	-11.3357
▁pseudogene	-11.3359
▁47	-11.336
▁relating	-11.3361
qai	-11.3363
▁crosstalk	-11.3363
▁setup	-11.3373
▁protocols	-11.3375
▁contents	-11.3379
dra	-11.338
filled	-11.3383
▁pocket	-11.3385
▁virgin	-11.3385
▁Again	-11.3386
▁ventricular	-11.3386
1–3	-11.3387
▁seasons	-11.3391
▁Lastly	-11.3394
▁modelled	-11.3397
▁considerations	-11.34
used	-11.3401
lets	-11.3402
read	-11.3404
▁architectures	-11.3407
▁pumping	-11.3407
gastropod	-11.3409
▁Mexico	-11.341
▁deficit	-11.341
▁graphical	-11.3413
sensu	-11.3415
▁centrality	-11.3418
02	-11.3419
▁permanent	-11.3421
▁Pax	-11.3425
▁cation	-11.3428
▁ornament	-11.3429
▁specify	-11.3429
▁GRF	-11.3432
▁MAT	-11.3433
▁intuitive	-11.3433
▁ovaries	-11.3434
Dawson	-11.3435
▁bimodal	-11.3435
logic	-11.3435
illo	-11.3437
▁Lang	-11.3438
HR	-11.3439
ado	-11.3447
▁25°	-11.345
▁Rose	-11.3451
▁cockroach	-11.3453
▁70%	-11.3455
▁demonstration	-11.3459
▁vulnerable	-11.3459
asso	-11.3463
▁Met	-11.3472
No	-11.3474
▁table	-11.3476
▁plates	-11.3479
▁refers	-11.3479
▁Myc	-11.348
▁tricho	-11.3481
generating	-11.3483
▁Rhcg	-11.3483
▁lengthening	-11.3484
▁discern	-11.3485
▁downregulated	-11.3488
arian	-11.3491
▁Apo	-11.3492
▁alters	-11.3495
▁elephants	-11.3497
▁symmetric	-11.35
▁listed	-11.3501
▁bend	-11.3504
▁norm	-11.3505
eger	-11.3505
▁colors	-11.3506
umerous	-11.3507
▁libraries	-11.3508
▁alcohol	-11.3508
hara	-11.3509
▁colonisation	-11.3509
alth	-11.352
TRA	-11.3526
▁train	-11.3528
fishes	-11.3532
▁medaka	-11.3533
▁descending	-11.3533
average	-11.3533
▁simpler	-11.3534
▁inbred	-11.3534
Ph	-11.3534
▁RBC	-11.3542
pine	-11.3546
▁conform	-11.3554
glacial	-11.3554
rak	-11.3554
▁colon	-11.3554
▁monitoring	-11.3557
cycl	-11.3559
▁IT	-11.3564
stem	-11.3568
▁filled	-11.3571
▁compensated	-11.3572
▁DH	-11.3574
▁King	-11.3574
▁46	-11.3579
▁survived	-11.358
▁antimicrobial	-11.3582
▁lepidopteran	-11.3582
▁game	-11.3583
▁FM	-11.3583
▁dependency	-11.3584
carbon	-11.3584
▁disturbances	-11.3587
LD	-11.3597
▁Land	-11.36
script	-11.3602
▁genital	-11.3605
Thompson	-11.3607
▁[28],	-11.3617
▁Farrell	-11.363
▁Fo	-11.363
gated	-11.3632
▁conclusive	-11.3632
▁flagellum	-11.3632
▁cattle	-11.3633
▁cast	-11.3637
fall	-11.3638
▁handle	-11.3643
fast	-11.3644
▁suppressor	-11.3646
ridae	-11.3646
▁180	-11.3649
▁blocking	-11.3651
idium	-11.3655
▁probes	-11.3657
▁Eocene	-11.3657
facial	-11.3657
▁trotting	-11.3658
▁CTmax	-11.3658
▁lowered	-11.3661
▁neighbors	-11.3662
2.5	-11.3665
para	-11.3666
iformis	-11.3668
▁backgrounds	-11.3668
0.7	-11.367
▁vir	-11.3674
DV	-11.3676
▁EWL	-11.368
▁NADPH	-11.3682
lack	-11.3683
+]	-11.3685
▁Webb	-11.3686
ship	-11.3689
lie	-11.369
▁triple	-11.3693
▁interpreting	-11.3693
▁breaks	-11.3697
▁focuses	-11.3698
▁responds	-11.3699
▁horses	-11.3703
▁inserted	-11.3703
Harrison	-11.3707
▁[71]	-11.3707
▁piece	-11.3707
▁ablation	-11.3708
bodied	-11.3708
Alexander	-11.3709
hawk	-11.3711
▁globin	-11.3712
=3	-11.3714
▁globally	-11.3716
▁perturbed	-11.3716
▁thorough	-11.3719
nder	-11.3721
▁collective	-11.3722
▁Amphi	-11.3723
▁detoxification	-11.3732
▁intermittent	-11.3732
▁[40,	-11.3733
▁dimorphic	-11.3734
▁presentation	-11.3735
▁homoplasy	-11.3735
elo	-11.3737
abd	-11.3739
▁diminish	-11.3741
▁Tc	-11.3742
▁Amazon	-11.3742
▁65	-11.3743
▁waste	-11.3748
ardi	-11.3753
▁salmonids	-11.3754
▁imprinting	-11.3758
▁letters	-11.3758
▁aware	-11.3759
▁serial	-11.3759
ulo	-11.3759
ovirus	-11.376
▁attractiveness	-11.376
complex	-11.376
▁fermentation	-11.3762
▁Myo	-11.3764
▁Johnston	-11.3766
hydro	-11.3766
▁SF	-11.3767
▁TB	-11.377
▁oct	-11.377
▁Systems	-11.3774
▁Nox	-11.378
▁chemotaxis	-11.3783
▁deviate	-11.3784
▁contamination	-11.3784
▁innervation	-11.3786
▁NI	-11.3789
▁Eurasian	-11.3791
▁underestimate	-11.3795
▁Lind	-11.3798
MO	-11.38
▁align	-11.3803
▁eukaryote	-11.3807
logical	-11.3808
▁elbow	-11.3808
▁hagfish	-11.3808
▁breed	-11.381
▁von	-11.3814
shore	-11.3815
▁mito	-11.3815
▁exceptional	-11.3832
-3-	-11.3833
▁expense	-11.3834
Wilson	-11.3837
▁Small	-11.3838
▁colouration	-11.3839
0.6	-11.3845
▁replicates	-11.3847
▁nucle	-11.3851
▁possessed	-11.3854
▁simplest	-11.3856
▁echinoderm	-11.3859
▁vicinity	-11.3859
▁reflection	-11.386
▁60%	-11.3862
▁FGF	-11.3862
▁organisation	-11.3863
▁Black	-11.3863
▁prostate	-11.3865
ku	-11.3869
▁manipulate	-11.3871
▁synthesize	-11.3871
1.1	-11.3877
▁LI	-11.3878
hard	-11.388
▁lemurs	-11.3884
▁spiracles	-11.3884
▁Functional	-11.3885
▁lysozyme	-11.3885
▁surviving	-11.3885
▁Examples	-11.3886
▁conceptual	-11.3887
▁transposition	-11.3887
▁besides	-11.3888
▁specified	-11.3889
▁Cap	-11.3893
zero	-11.3899
▁scaled	-11.3901
▁Males	-11.3901
idia	-11.3901
phil	-11.3906
▁octopamine	-11.3911
▁proboscis	-11.3911
▁addressing	-11.3911
▁rotations	-11.3917
▁depress	-11.3921
▁tentacles	-11.3922
Wood	-11.3924
▁Oct	-11.3925
▁slip	-11.3935
▁cytoskeleton	-11.3936
twitch	-11.3936
▁swelling	-11.3936
▁reticulum	-11.3938
▁artifact	-11.394
▁52]	-11.3941
▁extracts	-11.3943
HP	-11.3949
▁crop	-11.3949
▁identifiability	-11.3949
▁gaze	-11.395
▁Eurasia	-11.3954
going	-11.3955
▁hits	-11.3959
▁Min	-11.396
▁TEs	-11.3961
▁CHH	-11.3961
▁improvements	-11.3962
▁exoskeleton	-11.3962
▁tactile	-11.3962
▁turbulence	-11.3962
▁Lep	-11.3964
▁mandibular	-11.3966
▁favorable	-11.3968
beat	-11.397
▁coexist	-11.3972
▁indicators	-11.3973
ello	-11.398
▁determinants	-11.3981
▁vessels	-11.3981
▁hypothesised	-11.3982
▁SH	-11.3986
▁modulus	-11.3988
Jensen	-11.3988
▁obscure	-11.3988
▁oligomer	-11.3989
▁Macro	-11.3993
▁Later	-11.3994
▁PTH	-11.3995
▁degraded	-11.3997
ceae	-11.4004
pterid	-11.4005
agon	-11.401
▁chemosensory	-11.4014
▁genotypic	-11.4014
▁pipeline	-11.4014
▁vibrations	-11.4014
▁salivary	-11.4015
▁dynamically	-11.4015
▁[42,	-11.4017
▁horse	-11.4019
ston	-11.402
aq	-11.4021
▁Hap	-11.4021
▁Mur	-11.4022
▁orthology	-11.4025
▁apoptotic	-11.4027
▁cavefish	-11.4027
NH	-11.4029
▁PER	-11.4031
▁highlighting	-11.4032
▁hydrolysis	-11.404
▁minimizing	-11.404
▁ommatidia	-11.404
▁chitin	-11.4041
▁bony	-11.4041
▁uniquely	-11.405
▁replace	-11.4051
ISH	-11.4053
▁roots	-11.4055
▁stated	-11.4055
▁deposited	-11.4056
▁pine	-11.4058
▁ranged	-11.4059
▁interpretations	-11.4059
▁fructose	-11.4066
▁guarantee	-11.4066
▁paternity	-11.4066
▁tunicate	-11.4066
▁1968;	-11.4066
▁doubt	-11.4066
▁ChIP	-11.4067
▁curated	-11.4068
▁supplement	-11.4071
▁kill	-11.4071
130	-11.4074
lem	-11.4078
eter	-11.4081
▁[58].	-11.4083
▁frames	-11.4083
▁quasi	-11.4091
▁counts	-11.4092
▁synthetase	-11.4092
▁glass	-11.4092
▁emitted	-11.4092
Tibet	-11.4093
PPI	-11.4093
rf	-11.4093
▁dictate	-11.4094
▁enhancer	-11.4095
▁bill	-11.4097
gui	-11.4098
▁buffering	-11.4098
▁sink	-11.4108
▁diminished	-11.4109
▁charged	-11.411
▁sort	-11.4111
ien	-11.4116
▁archipelago	-11.4118
▁immature	-11.4118
▁territory	-11.4118
▁unpredictable	-11.4118
▁silent	-11.4118
▁21]	-11.4118
▁covariance	-11.412
▁Gro	-11.4123
▁cnidarian	-11.4124
stoma	-11.4136
▁exceptionally	-11.4141
▁mix	-11.4143
▁ordinary	-11.4144
▁turned	-11.4145
▁ectothermic	-11.4146
▁settle	-11.4146
▁metabolically	-11.4147
neutral	-11.4151
trivial	-11.4152
adult	-11.4154
▁Kar	-11.4157
▁hibernating	-11.4159
▁episodes	-11.416
▁labeling	-11.416
▁75	-11.416
1.5	-11.4161
ipping	-11.4163
viridae	-11.4166
▁molar	-11.4168
signal	-11.4169
▁lay	-11.417
▁calculating	-11.4171
▁recipient	-11.4171
▁productivity	-11.4172
▁inspection	-11.4172
▁drought	-11.4173
▁SAM	-11.4174
▁Ty	-11.4176
region	-11.4176
predict	-11.4178
▁Indo	-11.4178
▁Neuro	-11.4178
▁entering	-11.4179
force	-11.418
ography	-11.4182
▁Animals	-11.4183
▁circum	-11.4183
▁closing	-11.4184
▁completed	-11.4184
▁Mel	-11.4185
▁surveys	-11.4186
▁schemes	-11.4189
ctus	-11.4189
moto	-11.419
▁Bel	-11.4193
cadherin	-11.4197
▁migrating	-11.4197
dc	-11.4199
▁plasmids	-11.4203
▁vessel	-11.4204
▁Homo	-11.4205
▁3:	-11.4205
▁lobsters	-11.4207
immer	-11.4209
EX	-11.4212
▁Hart	-11.4215
▁exo	-11.4216
▁coat	-11.422
vert	-11.4221
▁obscur	-11.4223
▁porpoise	-11.4224
▁abstract	-11.4224
motion	-11.4225
Bennet	-11.4227
pterus	-11.4229
iceps	-11.423
hm	-11.4231
existing	-11.4232
▁Schmidt	-11.4232
▁sparrow	-11.4232
▁anion	-11.4239
omonas	-11.424
▁neofunctionaliz	-11.4241
throp	-11.4246
▁foundation	-11.4246
Cooper	-11.4247
▁ref	-11.425
▁irradiance	-11.425
▁siRNA	-11.425
▁harmonic	-11.425
▁hive	-11.425
▁implant	-11.4251
▁migrants	-11.4251
▁sero	-11.4253
▁vein	-11.4259
▁setae	-11.4261
▁carefully	-11.4263
▁TRP	-11.4263
trial	-11.4275
▁burden	-11.4277
▁helpful	-11.4282
400	-11.4282
▁odors	-11.4283
yte	-11.4286
lower	-11.4287
▁diversifying	-11.4288
Chen	-11.4289
death	-11.4289
▁Oligocene	-11.429
▁arbitrary	-11.4303
▁diatom	-11.4303
▁Sec	-11.4304
▁prerequisite	-11.4304
tropical	-11.4306
optimal	-11.4309
▁constructing	-11.4312
▁Pcrit	-11.4312
▁speculated	-11.4313
glu	-11.4316
atter	-11.4318
▁Pyr	-11.4321
eating	-11.4321
▁IM	-11.4322
▁moderately	-11.4323
▁splits	-11.4324
▁coincide	-11.4327
▁54	-11.4327
▁proteomes	-11.4329
▁leptin	-11.433
▁afferents	-11.4332
▁expos	-11.4335
hybrid	-11.4338
▁demanding	-11.4338
▁satellite	-11.4339
▁infra	-11.434
▁oocyte	-11.434
▁adhere	-11.4341
0.03	-11.4342
Ku	-11.4342
forward	-11.4345
▁scattered	-11.4345
▁GenBank	-11.4346
▁Kor	-11.4347
▁locomotory	-11.435
▁CEACAM	-11.4357
▁garden	-11.4357
▁Arctic	-11.4358
rust	-11.436
▁squares	-11.4363
▁shifting	-11.4364
▁deposit	-11.4364
▁Bass	-11.4367
▁recognised	-11.4368
methylated	-11.4368
▁fragmented	-11.4368
ncRNA	-11.4371
▁cup	-11.4371
heim	-11.4374
▁Pseudo	-11.4375
migrant	-11.4382
10)	-11.4383
▁continuum	-11.4384
▁musculus	-11.4384
▁unequal	-11.4384
▁replicator	-11.4384
▁triploid	-11.4385
▁exchanger	-11.4386
environment	-11.4388
▁1998	-11.4392
▁operons	-11.4393
▁finger	-11.4394
mont	-11.4395
tten	-11.4396
stranded	-11.4397
▁cats	-11.4397
epi	-11.4405
3.1	-11.4405
▁absorbed	-11.4408
phox	-11.4409
dive	-11.441
gastrointestinal	-11.4411
▁adulthood	-11.4411
▁elusive	-11.4411
▁follicle	-11.4411
▁stimulating	-11.4411
▁anemone	-11.4411
▁myoglobin	-11.4411
▁quail	-11.4411
current	-11.4415
▁faced	-11.4419
▁songs	-11.442
fed	-11.4421
toxic	-11.4422
▁reinforce	-11.4422
1.7	-11.4424
generated	-11.4427
▁proteases	-11.4433
▁segmentation	-11.4434
2.2	-11.4435
▁introduc	-11.4437
▁ciliate	-11.4438
▁Metabolic	-11.4438
▁tactic	-11.4438
▁want	-11.4443
▁DO	-11.4445
HCO	-11.4447
▁biting	-11.4447
▁maneuver	-11.4449
▁droplet	-11.4449
▁proteomics	-11.4454
▁aforementioned	-11.4465
▁agricultural	-11.4465
▁peculiar	-11.4465
▁Relative	-11.4465
▁endoderm	-11.4465
▁scanning	-11.4465
▁passage	-11.4466
▁oscillator	-11.4469
▁independence	-11.4471
▁depict	-11.4475
hatch	-11.4479
Fe	-11.4487
▁drastic	-11.449
▁(‘	-11.449
▁2015),	-11.449
HE	-11.4491
▁Golgi	-11.4492
▁valley	-11.4492
▁nasal	-11.4493
▁Test	-11.4496
▁Time	-11.4496
▁entail	-11.4498
ococcus	-11.4498
UV	-11.4499
synaptic	-11.45
▁Subsequently	-11.4502
inflammatory	-11.4502
▁Stra	-11.4502
while	-11.4502
growth	-11.4502
▁partitions	-11.4505
▁Mon	-11.4506
rom	-11.451
▁hemocytes	-11.4511
▁glyco	-11.4518
▁Bay	-11.4518
▁capillary	-11.4519
▁1966;	-11.4519
▁analysing	-11.4519
▁biomedical	-11.4519
▁budding	-11.4519
FBA	-11.4521
xyl	-11.4522
▁hatch	-11.4522
▁uneven	-11.4523
▁Ben	-11.4526
▁GTPase	-11.4528
conserved	-11.453
▁pollinator	-11.4531
▁pollinators	-11.4535
▁permits	-11.4536
rill	-11.4538
▁overestimate	-11.454
▁51	-11.4546
▁angiogenesis	-11.4547
▁arrival	-11.4547
▁bleaching	-11.4547
▁hopping	-11.4547
▁identifiable	-11.4547
▁1975).	-11.4549
poly	-11.455
▁granulo	-11.455
▁carboxy	-11.4553
def	-11.4558
▁appendage	-11.4559
mond	-11.4562
▁duck	-11.4563
UT	-11.4565
culus	-11.4568
120	-11.4571
▁gel	-11.4574
▁conceivable	-11.4574
▁haltere	-11.4574
▁osmoregulatory	-11.4574
▁reservoir	-11.4574
▁unidirectional	-11.4574
▁cpDNA	-11.4574
▁gross	-11.4575
▁Kim	-11.4576
sequence	-11.4584
▁pHi	-11.4586
variable	-11.4589
rest	-11.459
▁neighbouring	-11.459
cock	-11.4595
▁abrupt	-11.4601
▁pulex	-11.4601
▁supra	-11.4602
▁firm	-11.4602
▁folds	-11.4604
▁served	-11.4606
▁darkness	-11.4607
▁Ec	-11.4611
ventral	-11.4613
▁unusually	-11.4614
▁critically	-11.4615
infected	-11.4616
erry	-11.4621
▁pit	-11.4627
▁attenuation	-11.4629
▁dissociation	-11.4629
▁implicit	-11.4629
▁Mer	-11.4629
Prot	-11.4632
ault	-11.4638
▁king	-11.4641
Schul	-11.4641
0.05	-11.4647
ji	-11.4648
▁crops	-11.4653
front	-11.4654
▁Tet	-11.4656
▁proximate	-11.4657
▁[43,	-11.4658
▁invade	-11.4659
lori	-11.4661
▁planar	-11.4664
after	-11.4665
▁ADP	-11.4666
resistant	-11.4668
phosphorylation	-11.4668
number	-11.4669
▁mori	-11.467
▁mega	-11.4672
▁careful	-11.4673
▁depicted	-11.4674
▁quick	-11.4674
groups	-11.4675
▁PHA	-11.4679
Tr	-11.4682
▁contributor	-11.4684
▁crowding	-11.4684
▁territorial	-11.4684
▁revision	-11.4684
▁huge	-11.4684
▁Jayne	-11.4685
▁drastically	-11.4686
▁anurans	-11.4691
▁hepatocytes	-11.4692
▁divers	-11.4695
▁formula	-11.4695
▁views	-11.4696
▁intestinalis	-11.4697
eva	-11.4699
trophy	-11.4702
▁chromatic	-11.4704
cord	-11.4705
▁Full	-11.4706
case	-11.4707
▁suggestive	-11.4708
Glu	-11.4708
cad	-11.4711
1-2	-11.4712
▁[73]	-11.4712
▁NECs	-11.4713
▁phages	-11.4714
▁deliver	-11.4716
formation	-11.4718
▁lever	-11.472
ticus	-11.4725
▁hundred	-11.4726
▁ultimate	-11.4727
)[	-11.4727
▁solved	-11.4734
round	-11.4736
▁GSH	-11.4738
▁[72]	-11.474
▁blend	-11.474
▁54]	-11.4741
FS	-11.4743
mia	-11.4745
▁reconstructing	-11.4747
▁mitigate	-11.4749
lov	-11.475
http	-11.4753
▁Zhang	-11.4762
▁Sol	-11.4762
plasma	-11.4765
▁excluding	-11.4765
myc	-11.4767
▁assortative	-11.4768
▁leatherback	-11.4768
▁amplify	-11.4768
▁cassette	-11.4768
▁NKCC	-11.4768
series	-11.4771
▁testes	-11.4773
▁lobes	-11.4778
▁panels	-11.4778
▁Nilsson	-11.4779
rx	-11.4789
▁Bru	-11.4791
▁aestivation	-11.4796
genesis	-11.4797
▁mixtures	-11.4804
▁Vir	-11.4805
▁fight	-11.4805
▁56]	-11.4807
▁CAT	-11.4811
▁parasitoids	-11.4812
▁organelle	-11.4812
LI	-11.4816
▁fused	-11.4819
▁simplicity	-11.4824
Hammond	-11.4824
▁invariant	-11.4824
ocytic	-11.4833
▁pip	-11.484
▁restore	-11.4841
Green	-11.4842
▁masking	-11.4844
▁bivalves	-11.4849
▁localize	-11.4852
▁Caribbean	-11.4852
▁cumulative	-11.4852
▁epistasis	-11.4852
▁nitrate	-11.4852
▁bream	-11.4852
▁methodologies	-11.4852
ucker	-11.4853
▁perfusion	-11.4854
Kr	-11.4863
Stevens	-11.4867
▁saturated	-11.4871
▁tea	-11.4877
element	-11.4879
▁gravi	-11.488
▁mesenchymal	-11.488
▁phylogeography	-11.488
▁subtilis	-11.488
▁spectrometry	-11.488
▁thermogenesis	-11.4881
static	-11.4881
▁Depend	-11.4881
▁1970)	-11.4881
▁spotted	-11.4881
▁reliance	-11.4881
viral	-11.4882
Hol	-11.4886
▁strikes	-11.4887
work	-11.4888
▁configurations	-11.4888
▁soleus	-11.489
▁continent	-11.489
▁sediments	-11.4895
▁shoulder	-11.4896
igu	-11.4904
plan	-11.4907
▁heuristic	-11.4909
releasing	-11.4909
▁facing	-11.4909
▁therapies	-11.4909
▁epistatic	-11.4909
▁Wainwright	-11.491
rge	-11.491
▁Cys	-11.4911
▁hybridisation	-11.4914
cili	-11.4914
▁Exp	-11.4915
DO	-11.4915
▁Male	-11.4917
pathogen	-11.4918
itter	-11.4923
Brown	-11.4923
Gal	-11.4923
For	-11.4927
flight	-11.4929
▁CoM	-11.4929
▁fasted	-11.4931
ophilus	-11.4931
aris	-11.4936
autonomous	-11.4937
▁serotonergic	-11.4937
▁succinate	-11.4937
▁satisfy	-11.4937
▁alligator	-11.4937
▁excitation	-11.4937
▁granules	-11.4938
elle	-11.4939
▁coincident	-11.494
▁rerio	-11.4944
▁bout	-11.4946
▁consisted	-11.4948
except	-11.4955
sca	-11.4959
▁Wright	-11.496
▁IFN	-11.4961
wind	-11.4962
▁ligase	-11.4966
▁sliding	-11.4966
▁[75]	-11.4966
owski	-11.4967
▁1.2	-11.4969
▁barb	-11.4976
▁ESTs	-11.4976
metric	-11.4976
volu	-11.4976
zer	-11.4978
idine	-11.4979
▁56	-11.4979
rew	-11.4981
▁Nme	-11.4984
▁Zn	-11.4987
▁debated	-11.499
nucleotide	-11.4991
▁250	-11.4991
LN	-11.4994
▁dissolved	-11.4994
▁flutter	-11.4994
▁medicine	-11.4994
▁Neotropical	-11.4994
▁outbreak	-11.4995
▁pipiens	-11.4995
finned	-11.4998
▁acidosis	-11.5002
▁degenerate	-11.5003
▁antigenic	-11.5006
bill	-11.5006
tetra	-11.5011
▁pea	-11.5024
▁gastropods	-11.5024
ania	-11.5025
▁Herr	-11.503
▁spikes	-11.503
▁57	-11.5034
▁exceeding	-11.5035
▁squamate	-11.5035
▁Mountains	-11.5037
▁Moore	-11.5039
enzyme	-11.5039
▁flagella	-11.5044
established	-11.5045
▁artificially	-11.5047
▁55]	-11.5049
▁decapod	-11.5052
▁fidelity	-11.5052
▁fission	-11.5052
▁hemoglobin	-11.5052
▁mesoderm	-11.5052
Pi	-11.5054
▁Still	-11.5055
stained	-11.5056
▁deduced	-11.5057
▁conditioned	-11.5059
▁rho	-11.5059
▁objectives	-11.5062
▁collectively	-11.5066
▁happened	-11.5068
▁spot	-11.5071
▁protected	-11.5072
▁acyl	-11.5072
▁defect	-11.5073
Flux	-11.5076
▁Sk	-11.5076
▁corroborated	-11.5078
▁grade	-11.5079
inositol	-11.508
▁enormous	-11.508
▁spermatozoa	-11.508
▁vegetative	-11.508
▁cohort	-11.508
utter	-11.5081
▁mitosis	-11.5081
▁governed	-11.5084
▁recoil	-11.5085
▁arrow	-11.5085
▁retrieved	-11.5087
encoding	-11.5087
▁versions	-11.509
▁beats	-11.5092
RING	-11.5092
hot	-11.5094
▁postulate	-11.51
▁cnidarians	-11.5102
▁Basin	-11.5103
▁sky	-11.5106
▁osmolality	-11.5109
▁frond	-11.5109
▁endosymbiotic	-11.5109
▁superoxide	-11.511
▁pond	-11.511
▁elevations	-11.5125
▁novelty	-11.5126
▁persisted	-11.5129
▁penguin	-11.5129
olar	-11.513
▁STAT	-11.513
▁mechano	-11.5131
Blob	-11.5132
▁Ran	-11.5137
▁quadrupedal	-11.5138
▁[1–4]	-11.5138
▁deleted	-11.5138
▁voles	-11.5139
▁interconnected	-11.514
▁reefs	-11.514
▁corrected	-11.5148
▁glue	-11.5152
▁spiny	-11.5153
▁53]	-11.5154
compatible	-11.5157
▁USA	-11.5163
▁accordingly	-11.5167
syllable	-11.5167
▁atmospheric	-11.5167
▁alternating	-11.5167
▁stringent	-11.5167
▁Wolf	-11.5168
chel	-11.5169
anthus	-11.5169
▁uninfected	-11.517
▁depleted	-11.5172
MV	-11.5174
▁breaking	-11.5175
Van	-11.5179
ties	-11.5181
▁glob	-11.5181
stroke	-11.5182
▁Cry	-11.5183
▁consuming	-11.5184
through	-11.5185
▁edit	-11.5187
▁claws	-11.519
▁tens	-11.5191
▁manifest	-11.5192
kawa	-11.5194
Cha	-11.5196
▁Taiwan	-11.5197
▁centromere	-11.5197
▁wheel	-11.5197
▁Alaska	-11.5197
▁1967)	-11.5197
lav	-11.5198
▁compositional	-11.5199
▁theories	-11.52
▁favourable	-11.5201
▁natal	-11.5204
▁sweeps	-11.5206
▁ROM	-11.5207
▁PKA	-11.5212
▁Direct	-11.5212
▁couple	-11.5213
growing	-11.5215
▁transformed	-11.5223
▁Val	-11.5225
▁amphi	-11.5226
▁temporary	-11.5226
▁[74]	-11.5226
Richard	-11.5226
▁Aedes	-11.5227
▁Kiss	-11.5228
▁conflicts	-11.523
bacteria	-11.523
▁hour	-11.5236
▁designated	-11.524
▁divide	-11.5242
Anderson	-11.5244
onta	-11.5244
SSR	-11.5247
▁simplification	-11.5255
▁chloride	-11.5255
▁biogeographical	-11.5257
▁Bro	-11.5258
etter	-11.526
▁falling	-11.5261
▁reproducing	-11.5261
ington	-11.5264
rgic	-11.5266
scens	-11.5271
▁Perry	-11.5274
▁swimmers	-11.5275
▁constitutively	-11.528
▁benchmark	-11.5284
▁epidermis	-11.5284
▁prompt	-11.5285
▁1968)	-11.5285
▁offered	-11.5289
▁ionic	-11.529
▁cerebral	-11.5296
▁sheet	-11.53
supplementary	-11.5304
=4	-11.5307
▁navigational	-11.5312
▁herbivores	-11.5314
▁asymptotic	-11.5314
▁clues	-11.5314
▁stressed	-11.5315
rz	-11.5315
▁gametes	-11.5317
▁goals	-11.5317
▁pivotal	-11.5319
GAP	-11.5322
▁trap	-11.5324
▁domesticus	-11.5328
▁spreading	-11.5331
predator	-11.5334
▁multigene	-11.5334
▁AU	-11.5336
placing	-11.5339
▁avoided	-11.5343
▁paradox	-11.5343
▁applicability	-11.5344
▁biogeography	-11.5344
▁concordant	-11.5344
▁territories	-11.5344
▁blade	-11.5344
▁autosomes	-11.5344
▁searched	-11.5344
▁RBCs	-11.5345
▁collecting	-11.5346
ILP	-11.5355
▁attach	-11.5357
1.0	-11.5357
▁Tyr	-11.5359
tip	-11.5361
aaaaa	-11.5362
▁tubule	-11.5366
▁routinely	-11.5366
▁leech	-11.5368
▁ECM	-11.537
▁59	-11.537
▁Zealand	-11.5373
▁multilocus	-11.5376
abe	-11.538
acanth	-11.5381
▁pupal	-11.5385
▁Evans	-11.5386
▁NOS	-11.5392
dynamic	-11.5393
▁underestimated	-11.5393
adaptation	-11.5393
essential	-11.5393
▁Much	-11.5394
▁Regarding	-11.5403
▁barnacle	-11.5403
▁lamellae	-11.5403
phagous	-11.5403
▁maternally	-11.5404
▁Sym	-11.5404
▁[44,	-11.5404
<0.05	-11.5405
▁keratin	-11.5406
▁situated	-11.5407
thermic	-11.5407
▁empirically	-11.541
UP	-11.5416
▁substitute	-11.5423
▁projections	-11.5424
theria	-11.5429
chan	-11.543
uca	-11.5432
▁APC	-11.5432
▁fifth	-11.5433
▁simulating	-11.5433
▁arrangements	-11.5435
▁streams	-11.5438
▁happen	-11.5441
▁proof	-11.5442
▁GPCRs	-11.5444
▁warrant	-11.5446
▁May	-11.5449
4.5	-11.545
selective	-11.5454
▁raw	-11.5456
▁bow	-11.5457
stable	-11.5458
▁recall	-11.5459
▁tracer	-11.5461
clin	-11.5462
McDonald	-11.5463
▁Achilles	-11.5463
▁Diamond	-11.5463
▁Jurassic	-11.5463
▁Pathway	-11.5463
▁choosing	-11.5463
▁drinking	-11.5463
▁entrance	-11.5463
▁misleading	-11.5463
▁transposable	-11.5463
▁Smad	-11.5463
▁flea	-11.5464
meth	-11.5464
▁cardio	-11.5465
▁iteration	-11.5465
▁curation	-11.5472
▁impacted	-11.5474
▁[58]	-11.5474
oyle	-11.5476
dark	-11.5482
▁modulator	-11.5486
▁passerine	-11.5488
▁integrin	-11.5489
▁basins	-11.5491
▁Near	-11.5492
▁remodelling	-11.5493
▁histological	-11.5493
▁potato	-11.5493
▁thyroid	-11.5493
idea	-11.5493
▁allosteric	-11.5493
▁convey	-11.5493
mimetic	-11.5493
supervised	-11.5493
▁polyphyletic	-11.5494
▁deeply	-11.5495
▁disruptive	-11.5497
▁MH	-11.5499
0.9	-11.5502
grade	-11.5503
▁Hen	-11.5504
ider	-11.5506
raft	-11.5509
Wang	-11.551
▁modifying	-11.5516
▁valve	-11.5519
▁ecdysteroid	-11.5523
Swanson	-11.5523
▁countries	-11.5523
▁ranking	-11.5524
▁duty	-11.5525
▁filamentous	-11.5526
▁heme	-11.5529
▁BL	-11.5533
▁summarized	-11.5535
▁scatter	-11.5537
Hill	-11.5538
ellus	-11.5541
▁caterpillars	-11.5543
uda	-11.5552
▁ascertain	-11.5553
▁dwarf	-11.5553
▁mangrove	-11.5553
▁medical	-11.5553
▁backcross	-11.5554
▁Morris	-11.5555
▁cephalopods	-11.5561
▁screens	-11.5564
▁Any	-11.5568
jun	-11.5569
membrane	-11.5575
▁inversely	-11.5576
▁excitatory	-11.5583
▁ipsilateral	-11.5583
▁observable	-11.5583
▁pufferfish	-11.5583
▁convincing	-11.5583
▁science	-11.5583
▁subpopulations	-11.5584
▁Database	-11.5584
▁chirp	-11.5584
▁[46,	-11.5585
▁scene	-11.5585
▁plastids	-11.5586
▁playback	-11.5587
▁marks	-11.5588
▁basi	-11.5598
▁colonize	-11.5601
▁FOX	-11.5601
OH	-11.5605
adaptive	-11.5606
ender	-11.5606
▁Prim	-11.5609
lethal	-11.561
fusion	-11.561
▁necessity	-11.5614
▁simulans	-11.5614
▁varieties	-11.5614
▁guard	-11.5614
▁rescue	-11.5614
▁reasonably	-11.5616
▁burrows	-11.5619
each	-11.5619
▁57]	-11.5622
▁58]	-11.5626
▁20°	-11.5632
▁spines	-11.5634
space	-11.5635
▁undergoes	-11.5636
West	-11.5637
▁1996	-11.5637
▁methionine	-11.5644
▁hunting	-11.5644
▁session	-11.5644
▁GnRH	-11.5645
▁loose	-11.5646
aspartate	-11.5647
sensing	-11.5647
▁impairment	-11.5648
▁heading	-11.5649
▁flagellar	-11.5649
▁conformational	-11.565
ratio	-11.5654
▁realized	-11.5655
▁suspect	-11.5658
arbor	-11.566
constitut	-11.566
mu	-11.5661
▁toothed	-11.5661
▁returning	-11.5662
▁190	-11.5668
generational	-11.5668
▁concordance	-11.5675
▁isotopic	-11.5675
▁Coast	-11.5675
▁formulated	-11.5676
▁TRIM	-11.5676
▁synchronization	-11.5677
▁feeders	-11.568
▁MTU	-11.5683
▁latent	-11.5684
▁Carlo	-11.5684
▁fertile	-11.5684
▁1997	-11.5685
▁Nan	-11.5686
▁LE	-11.5688
▁grows	-11.5692
▁outward	-11.5692
eae	-11.5692
▁impede	-11.5693
cht	-11.5701
▁Alexander	-11.5704
▁rain	-11.5704
▁gate	-11.5705
=5	-11.5705
▁breadth	-11.5706
▁[76]	-11.5706
▁ecotypes	-11.5706
▁mantis	-11.5707
▁thermally	-11.5707
ibly	-11.5707
▁orchid	-11.5707
▁arg	-11.571
scribed	-11.5716
▁nestling	-11.5717
▁Prior	-11.5717
▁Weber	-11.5718
▁EL	-11.5722
▁adequately	-11.5731
▁lives	-11.5731
infection	-11.5734
▁syntenic	-11.5736
▁avenue	-11.5736
▁implied	-11.5736
▁[4–6]	-11.5736
▁buzz	-11.5737
under	-11.5739
▁adjusting	-11.5744
▁axons	-11.5746
▁momentum	-11.5748
▁molluscs	-11.5748
▁disorder	-11.5752
uchi	-11.5756
far	-11.5759
natural	-11.5761
▁tide	-11.5767
threonine	-11.5767
▁bHLH	-11.5767
▁dissipate	-11.5767
tension	-11.5768
▁polyp	-11.5768
biotic	-11.5768
▁subtropical	-11.577
▁airflow	-11.577
articular	-11.5771
ostoma	-11.5773
▁War	-11.5778
▁Muller	-11.578
▁chela	-11.5789
lipid	-11.579
foot	-11.5797
▁hummingbird	-11.5797
▁disparate	-11.5798
▁discharge	-11.5798
▁silence	-11.5798
▁synchrony	-11.5799
▁transplant	-11.58
▁intronic	-11.5808
▁Females	-11.5811
▁fastest	-11.5812
▁strikingly	-11.582
▁ESC	-11.5828
▁1%	-11.5828
▁bottlenose	-11.5829
▁discordance	-11.5829
▁disulfide	-11.5829
▁evaporative	-11.5829
▁zooplankton	-11.5829
▁Factor	-11.5829
▁Simulation	-11.583
▁attacks	-11.5831
▁fulfill	-11.5831
700	-11.5831
laying	-11.5832
▁cp	-11.5834
▁striped	-11.5838
▁declined	-11.5841
▁hum	-11.5845
▁interactive	-11.585
hall	-11.5855
lau	-11.586
▁Analyse	-11.586
▁luminal	-11.586
▁cultivation	-11.586
▁undulation	-11.586
▁danger	-11.5861
▁Biology	-11.5862
▁deflection	-11.5863
▁generator	-11.5867
▁motivated	-11.5867
▁58	-11.587
▁3.5	-11.5871
▁refined	-11.5871
inner	-11.5875
poor	-11.5875
▁52	-11.5876
▁eels	-11.5878
vr	-11.5878
▁fundamentally	-11.5885
Biewener	-11.5887
ancy	-11.5888
▁epidemic	-11.5892
▁1964;	-11.5892
▁stepping	-11.5892
▁homologue	-11.5893
▁coexistence	-11.5894
▁precipitation	-11.5895
▁[45,	-11.5898
NI	-11.5903
▁ranked	-11.5905
▁skew	-11.5906
▁SOD	-11.5908
uis	-11.591
segment	-11.5919
▁toads	-11.5921
intron	-11.5921
▁Morphological	-11.5923
▁microhabitat	-11.5923
▁plesiomorphic	-11.5923
▁proposal	-11.5923
▁simplify	-11.5923
▁Evolutionary	-11.5924
▁Research	-11.5924
▁oyster	-11.5924
▁coarse	-11.5924
▁mimicry	-11.5927
direct	-11.5927
▁NaCl	-11.5929
7.5	-11.5931
▁playing	-11.5931
chl	-11.5932
▁chordates	-11.5941
▁updated	-11.5941
ozo	-11.5941
▁corn	-11.5944
▁oxide	-11.5947
Au	-11.595
restricted	-11.595
hormone	-11.595
oxidant	-11.5954
house	-11.5954
▁spermatogenesis	-11.5954
▁solute	-11.5954
▁harmful	-11.5955
▁bulb	-11.5955
▁entity	-11.5955
▁formalism	-11.5956
▁cease	-11.5957
▁leucine	-11.5958
teen	-11.5962
▁flank	-11.5962
eur	-11.5966
very	-11.5966
▁gonadal	-11.5969
▁rocky	-11.5969
▁caveat	-11.5971
▁Higher	-11.5974
▁extrapolat	-11.5977
white	-11.5982
swimming	-11.5982
course	-11.5982
Jones	-11.5982
erythr	-11.5985
▁exceeded	-11.5986
▁OXPHOS	-11.5986
▁coalescence	-11.5986
▁eggshell	-11.5986
▁incipient	-11.5986
▁python	-11.5986
▁contradictory	-11.5987
▁unsteady	-11.5988
▁triggering	-11.5998
Danio	-11.6
▁SCN	-11.6003
early	-11.6006
▁attribute	-11.6006
eather	-11.601
San	-11.6011
resolution	-11.6015
▁bubble	-11.6018
▁frozen	-11.6018
▁afford	-11.6018
▁annelid	-11.6019
▁appropriately	-11.602
▁batch	-11.6022
▁PRR	-11.6022
▁emerges	-11.6022
stigma	-11.6023
rov	-11.6024
▁gram	-11.6026
▁molting	-11.6027
▁conifer	-11.6029
▁TOR	-11.6036
▁propel	-11.6037
▁66	-11.604
ophila	-11.6042
▁LTR	-11.6042
Ponganis	-11.6049
▁cuttlefish	-11.6049
▁depolarization	-11.6049
▁PPP	-11.6054
▁2015)	-11.6058
▁copper	-11.6061
▁elevate	-11.6062
▁Lower	-11.6064
▁lamina	-11.6064
source	-11.6075
condition	-11.6076
▁59]	-11.6077
▁rational	-11.6077
▁hint	-11.608
▁Robinson	-11.608
▁parametric	-11.608
lier	-11.608
Tobalske	-11.6081
▁overwintering	-11.6081
▁Arabian	-11.6081
▁broken	-11.6081
Zhao	-11.6082
▁Muscle	-11.6082
▁attenuated	-11.6089
▁Ross	-11.6089
▁seasonally	-11.6091
▁outlined	-11.6091
▁continents	-11.6096
▁suspected	-11.6099
2–4	-11.61
▁COG	-11.6103
▁clines	-11.6105
▁Metazoa	-11.6106
▁Park	-11.6107
▁sonic	-11.611
▁severity	-11.6113
▁grasp	-11.6113
▁constantly	-11.6115
▁degeneration	-11.6117
ergic	-11.6118
▁labor	-11.6119
▁midline	-11.6122
▁disappear	-11.6128
▁lend	-11.6132
▁conserve	-11.6132
▁oscillators	-11.6132
peptid	-11.6135
nther	-11.6136
▁LF	-11.6141
▁adductor	-11.6145
▁truncated	-11.6145
▁uplift	-11.6145
▁Alb	-11.6146
▁Pra	-11.6149
▁calibrated	-11.6158
▁deform	-11.6169
Carr	-11.6175
capture	-11.6176
lamellar	-11.6177
▁clutter	-11.6177
▁perpendicular	-11.6177
▁rainforest	-11.6177
▁receiving	-11.6177
▁sheath	-11.6177
▁TG	-11.6183
▁cooler	-11.6183
▁pathogenicity	-11.6184
▁competitors	-11.6185
▁highland	-11.6186
▁AEP	-11.6187
color	-11.6191
strand	-11.6191
protect	-11.6193
ska	-11.6194
▁virtual	-11.6197
▁ignored	-11.6199
▁UTR	-11.62
▁tribes	-11.6206
▁scler	-11.6207
▁elasmobranchs	-11.6207
different	-11.6208
determined	-11.6208
▁briggsae	-11.621
▁capturing	-11.621
▁reprogramming	-11.621
▁recycling	-11.621
▁ascent	-11.6211
▁dental	-11.6211
▁terminate	-11.6212
oste	-11.6212
▁CES	-11.6213
▁overview	-11.6213
▁plantar	-11.6216
▁surveyed	-11.6218
▁spots	-11.6221
▁shortly	-11.6221
maze	-11.6223
▁antibiotics	-11.6229
▁delivered	-11.6229
baum	-11.6231
▁corresponded	-11.6239
ophores	-11.6239
labeled	-11.624
year	-11.6241
▁cage	-11.6241
▁heterozygous	-11.6242
▁insecticide	-11.6242
Simpson	-11.6242
assemble	-11.6243
▁Detail	-11.6243
▁1.3	-11.6243
▁Thr	-11.6243
ball	-11.6246
▁clean	-11.6247
▁5]	-11.6248
▁nano	-11.6249
▁illustrat	-11.625
▁rejection	-11.6251
▁robustly	-11.6255
199	-11.6267
kinase	-11.627
▁fell	-11.6274
▁respirometry	-11.6274
▁backbone	-11.6274
▁secondarily	-11.6274
▁departure	-11.6275
▁phenotypically	-11.6276
ogn	-11.6277
place	-11.6279
▁passerines	-11.628
elia	-11.6284
▁spliced	-11.6285
▁Baker	-11.6293
▁odorants	-11.6294
▁chemistry	-11.6296
▁Information	-11.6303
▁dissimilar	-11.6305
Taylor	-11.6306
posterior	-11.6306
▁oysters	-11.6306
▁aberrant	-11.6307
▁heritability	-11.6307
▁reinhardtii	-11.6307
▁humoral	-11.6307
▁narrower	-11.6309
▁lot	-11.6309
▁passively	-11.631
▁volatile	-11.6313
▁1.1	-11.6315
▁unambiguously	-11.6317
▁month	-11.632
▁deuterostomes	-11.6334
Johnson	-11.6339
Peters	-11.6339
▁rbcL	-11.634
▁Dlx	-11.634
▁1966)	-11.634
▁Various	-11.634
▁delineate	-11.634
selected	-11.6346
▁hit	-11.6348
▁exploitation	-11.6351
▁locality	-11.6351
▁cow	-11.6353
▁loaded	-11.6355
▁increment	-11.6358
▁alanine	-11.6367
▁SPL	-11.6368
▁hem	-11.6369
▁ease	-11.6369
▁Brazil	-11.6371
▁Wiltschko	-11.6371
Myc	-11.6372
▁tubes	-11.6372
▁cutaneous	-11.6373
▁mammary	-11.6373
▁raptor	-11.6373
▁interneurons	-11.6373
▁ocelli	-11.6373
▁[77]	-11.6373
<0.001	-11.6373
grad	-11.6373
▁Earth	-11.6381
▁thoroughly	-11.6389
▁mention	-11.639
rane	-11.6394
esser	-11.6397
▁HF	-11.6399
tier	-11.6401
▁nmol	-11.6402
bred	-11.6405
surface	-11.6405
▁Baltic	-11.6405
▁creation	-11.6406
▁disequilibrium	-11.6406
frame	-11.6406
▁Ten	-11.6406
▁[47,	-11.6407
▁marking	-11.6407
reared	-11.6408
▁derivatives	-11.6409
acetyl	-11.6412
▁macaques	-11.6412
▁canals	-11.6414
▁provision	-11.6414
augh	-11.6423
wick	-11.6423
▁spec	-11.6434
▁cool	-11.6436
0.01	-11.6438
▁ectoderm	-11.6438
▁lactating	-11.6438
▁parthenogenesis	-11.6438
disease	-11.6439
▁[48,	-11.6439
▁draft	-11.644
▁eat	-11.6442
▁GRNs	-11.6445
short	-11.6452
occi	-11.6454
▁monitored	-11.6461
num	-11.6462
ROS	-11.6467
▁synapses	-11.647
▁homeostatic	-11.6472
▁optomotor	-11.6472
▁reminiscent	-11.6472
▁inorganic	-11.6472
phospho	-11.6472
▁Italy	-11.6473
ichthys	-11.6473
▁harm	-11.6474
▁1990	-11.648
▁neuropeptide	-11.648
▁Out	-11.6481
new	-11.6482
▁neglected	-11.6484
any	-11.6488
▁95	-11.6491
▁flora	-11.6492
validation	-11.6493
tele	-11.6495
crit	-11.6501
egr	-11.6505
▁tryptophan	-11.6505
▁undertaken	-11.6505
▁deserve	-11.6505
▁1969)	-11.6505
globin	-11.6505
▁tRNase	-11.6506
▁postglacial	-11.6507
▁constriction	-11.6508
▁ORFs	-11.651
▁lethality	-11.6512
▁Dec	-11.6513
▁recogniz	-11.6517
0.04	-11.6518
xH	-11.6524
▁MIR	-11.6524
▁ageing	-11.6529
▁2.0	-11.6531
ocephalus	-11.6535
von	-11.6536
▁%)	-11.6536
▁Manduca	-11.6538
▁modalities	-11.6538
▁sinensis	-11.6538
▁uncertainties	-11.6538
depth	-11.6539
▁Mitochondrial	-11.6539
▁postprandial	-11.6539
=6	-11.6539
▁Tro	-11.654
▁Water	-11.6544
plastic	-11.6547
tella	-11.6553
▁volatiles	-11.6566
▁yielding	-11.6569
▁polymer	-11.657
▁hairs	-11.657
▁achieving	-11.6572
▁compelling	-11.6572
▁hallmark	-11.6572
▁reconcile	-11.6572
▁cloning	-11.6572
▁gymnosperm	-11.6572
▁humid	-11.6572
phenotype	-11.6573
aya	-11.658
▁mussel	-11.6581
▁stalk	-11.6581
▁Hunt	-11.6582
▁ponds	-11.6582
▁bundles	-11.6584
▁[13	-11.6589
rabi	-11.6602
▁CRISPR	-11.6605
▁Ontology	-11.6605
▁endemism	-11.6605
▁manipulating	-11.6605
▁solving	-11.6605
▁nymphs	-11.6606
reproductive	-11.6607
▁rose	-11.6607
▁Mono	-11.6609
▁Bennett	-11.661
▁implication	-11.6615
▁Rep	-11.6621
▁maneuvers	-11.6624
neo	-11.6625
▁publicly	-11.6633
▁helices	-11.6635
arrow	-11.6636
▁holding	-11.6637
▁guppies	-11.6639
▁turbulent	-11.6639
▁sheep	-11.6639
▁[5–7]	-11.6639
▁intercept	-11.6639
approximately	-11.6641
▁germline	-11.6641
gaart	-11.6645
▁innovations	-11.6645
cyt	-11.6647
▁displaced	-11.6648
▁incorporates	-11.6657
▁tarsal	-11.6657
▁decora	-11.6657
▁neuropeptides	-11.6665
3–5	-11.6666
icum	-11.6669
ART	-11.6671
▁hypothalamic	-11.6673
▁damping	-11.6673
▁steering	-11.6673
▁Ucrit	-11.6675
third	-11.6675
[14]	-11.6675
▁Alps	-11.6677
▁supplementation	-11.6678
▁chimpanzees	-11.6678
▁visualize	-11.668
▁palm	-11.6681
▁Apart	-11.6682
▁minute	-11.6683
▁SSD	-11.6684
▁Cape	-11.6689
▁monocots	-11.6692
▁stochasticity	-11.6693
▁emit	-11.67
▁posit	-11.6702
▁nM	-11.6703
▁annelids	-11.6704
▁brackish	-11.6706
▁incubated	-11.6706
▁1965;	-11.6706
▁planktonic	-11.6706
▁[2–4]	-11.6706
▁dorsoventral	-11.6707
▁nurse	-11.6707
▁densely	-11.671
▁rising	-11.6711
climate	-11.6711
▁kya	-11.6712
▁agonistic	-11.6712
▁digits	-11.6716
▁Lepto	-11.672
▁96	-11.6721
▁ducks	-11.6725
▁Rad	-11.6725
▁CPG	-11.6728
due	-11.6734
natal	-11.6737
neuron	-11.6738
Ru	-11.6739
▁elucidating	-11.674
▁histidine	-11.674
▁industrial	-11.674
▁suc	-11.6741
▁Selection	-11.6742
controlled	-11.6744
occur	-11.6745
▁Var	-11.6755
▁rps	-11.6755
▁bath	-11.6756
McC	-11.6761
▁neutrality	-11.6762
▁mollusks	-11.6763
▁amniote	-11.6775
▁allozyme	-11.6775
▁ammonium	-11.6775
▁irreversible	-11.6775
▁metastasis	-11.6775
Nielsen	-11.6775
▁gigas	-11.6775
▁epitope	-11.6775
▁dorso	-11.6775
▁methanol	-11.6775
▁tensile	-11.6775
▁reinforcement	-11.6777
cutting	-11.6778
temperature	-11.6778
▁valves	-11.6779
Martin	-11.678
▁predate	-11.6787
frac	-11.6787
▁equi	-11.6794
quin	-11.6795
exposure	-11.6798
ologists	-11.6802
Butler	-11.6803
▁subclades	-11.6806
exon	-11.6807
▁sterile	-11.6809
▁alkaline	-11.6809
▁postnatal	-11.6811
▁consequent	-11.6812
▁Marsh	-11.6812
▁mitogenome	-11.6813
▁asked	-11.6813
▁laid	-11.6815
▁Fra	-11.6816
▁races	-11.6816
▁echoes	-11.6817
▁anticipated	-11.6822
▁tidal	-11.6823
utz	-11.6826
nick	-11.683
▁geckos	-11.6831
▁reality	-11.6833
▁61]	-11.6834
▁partitioned	-11.6834
mission	-11.6841
▁epaxial	-11.6843
▁obesity	-11.6843
▁[3–5]	-11.6843
▁Hemisphere	-11.6843
▁polypeptide	-11.6845
breathing	-11.6848
between	-11.6848
▁likewise	-11.6848
–40	-11.6849
▁UT	-11.6851
▁distortion	-11.6852
olic	-11.6853
▁positional	-11.6854
▁NAD	-11.6857
utt	-11.686
▁owl	-11.6864
hill	-11.6865
▁ERV	-11.6865
cast	-11.6868
▁ingest	-11.6874
▁Remarkably	-11.6878
▁euryhaline	-11.6878
▁vitellogenin	-11.6878
▁analogue	-11.6878
▁remote	-11.6878
▁neurogenesis	-11.6878
▁analog	-11.6881
▁standardized	-11.689
▁rounds	-11.6895
▁habits	-11.6896
code	-11.6898
▁predictors	-11.6902
▁veins	-11.6902
phyletic	-11.691
▁synonym	-11.691
▁pacemaker	-11.6912
▁lesions	-11.6917
degree	-11.6917
▁accept	-11.6918
▁MSP	-11.6927
vertebrate	-11.6933
▁publication	-11.6935
ASP	-11.6935
nez	-11.6937
▁rows	-11.6937
Bra	-11.6937
▁Yu	-11.6938
▁NMDA	-11.6939
self	-11.6943
▁symptoms	-11.6945
regulating	-11.6946
Kooyman	-11.6947
▁remnant	-11.6947
▁GLUT	-11.6947
▁housekeeping	-11.6947
▁guan	-11.695
▁[51,	-11.6951
▁PDE	-11.6953
▁furthermore	-11.6955
▁MSC	-11.6956
▁Gen	-11.6957
▁statistic	-11.6959
eminal	-11.6964
▁coexpression	-11.6966
GFP	-11.6967
▁cyclical	-11.6971
topic	-11.6973
▁Char	-11.6979
▁mask	-11.6979
Irschick	-11.6982
▁mitochondrion	-11.6982
▁proteolytic	-11.6982
Saharan	-11.6982
▁utilise	-11.6982
▁endothermic	-11.6982
▁bidirectional	-11.6983
▁electrode	-11.6985
▁circuitry	-11.6988
Daniel	-11.6989
▁68	-11.6991
▁pollination	-11.6991
zoan	-11.6991
▁leader	-11.6992
▁60]	-11.6992
▁Strait	-11.6993
▁MSV	-11.6993
▁gecko	-11.6994
▁withstand	-11.6996
▁Fisher	-11.7
▁grain	-11.7001
▁summarize	-11.7003
▁transitional	-11.7004
▁Cross	-11.7005
▁fill	-11.701
programmed	-11.7012
▁1975)	-11.7013
limiting	-11.7014
▁catecholamine	-11.7017
▁convenient	-11.7017
▁homogeneity	-11.7017
▁mutagenesis	-11.7017
▁sativa	-11.7017
▁americanus	-11.7017
▁bristle	-11.7017
▁speculation	-11.7017
▁discriminating	-11.7018
▁bistable	-11.7018
▁specialised	-11.7019
▁drawing	-11.702
modal	-11.7021
suggest	-11.7023
velocity	-11.7023
isso	-11.7023
localization	-11.7025
cancer	-11.7026
road	-11.7027
etal	-11.7028
▁die	-11.703
▁AOX	-11.704
▁stripes	-11.7042
▁Gray	-11.7045
hart	-11.7046
▁complicat	-11.705
▁enhancers	-11.705
▁dispersion	-11.7052
▁Italian	-11.7052
▁CFTR	-11.7053
▁unidentified	-11.7053
workers	-11.7057
component	-11.7058
stimulated	-11.7058
mbi	-11.7063
▁85	-11.7063
▁Stein	-11.7065
▁roost	-11.7067
▁Multi	-11.7068
iella	-11.7068
0.06	-11.707
▁kJ	-11.707
▁Hall	-11.7078
night	-11.7079
assa	-11.7085
▁Anti	-11.7086
▁Collectively	-11.7087
▁Increasing	-11.7087
▁cytoskeletal	-11.7087
▁leukocyte	-11.7087
▁notothenioid	-11.7087
▁enamel	-11.7087
▁osteoblast	-11.7087
Lighton	-11.7087
▁mitotic	-11.7089
alanine	-11.7094
▁Experiments	-11.7098
▁merge	-11.7099
square	-11.7104
plasmic	-11.7104
oideae	-11.7105
▁Jun	-11.7111
▁MIP	-11.7111
▁fighting	-11.7118
▁dormancy	-11.7122
▁osmoregulation	-11.7122
▁submerged	-11.7122
▁shoot	-11.7122
▁[78]	-11.7123
Jacob	-11.7123
▁lectin	-11.7127
▁[14	-11.7129
▁cline	-11.7131
map	-11.7133
▁saccades	-11.7133
▁Cheng	-11.7139
▁anticipate	-11.7144
▁Tricho	-11.7147
Secor	-11.7148
▁VI	-11.7153
bacter	-11.7153
▁Gondwana	-11.7158
▁Nematostella	-11.7158
▁accumulating	-11.7158
Schneider	-11.7158
▁autophagy	-11.7158
1–4	-11.7161
▁MAP	-11.7161
▁inherently	-11.7162
geographic	-11.7166
▁priority	-11.7167
Miller	-11.7167
▁typ	-11.7168
effective	-11.7168
▁Jackson	-11.717
▁0.02	-11.717
hat	-11.7171
Hansen	-11.7172
▁fluctuation	-11.7175
▁Card	-11.7178
rove	-11.718
▁chordate	-11.7181
▁optimis	-11.7188
=10	-11.719
▁incident	-11.7193
▁Members	-11.7193
▁Cluster	-11.7194
▁ErbB	-11.7194
▁Gulf	-11.7194
▁ascending	-11.7194
▁slime	-11.7194
▁shedding	-11.7194
permeable	-11.7194
▁Jan	-11.7199
▁historically	-11.7205
udo	-11.7205
▁Cdc	-11.7211
▁Pap	-11.7222
▁artifacts	-11.7224
▁decipher	-11.7229
Arnold	-11.7229
▁Adult	-11.723
▁barcoding	-11.7232
▁breakage	-11.7232
▁NW	-11.7233
▁looked	-11.7235
▁comb	-11.7235
▁osteo	-11.7243
▁predominate	-11.7244
supplemented	-11.725
▁perfectly	-11.7252
▁publications	-11.7252
▁elongate	-11.7253
▁Cyto	-11.7253
ville	-11.7254
otrophic	-11.7256
▁reproductively	-11.7261
▁sphere	-11.7263
▁glaciations	-11.7263
▁emphasized	-11.7263
deprived	-11.7265
▁[7–9]	-11.7265
▁dedicated	-11.7265
▁bovine	-11.7265
▁declining	-11.7265
▁Section	-11.7266
lich	-11.7267
▁arrestin	-11.7284
▁erect	-11.7285
tRNA	-11.7287
▁citr	-11.7288
▁solar	-11.7293
▁62]	-11.7299
▁cloud	-11.7301
▁ultrasound	-11.7301
▁neurite	-11.7301
▁aromatic	-11.7301
▁capsule	-11.7301
▁virulent	-11.7301
▁cited	-11.7301
Hofmann	-11.7302
▁forewing	-11.7302
▁happens	-11.7307
▁1.4	-11.7308
▁timescale	-11.7308
▁splitting	-11.7308
▁branched	-11.7311
▁protist	-11.7321
▁said	-11.7326
▁Last	-11.7326
processing	-11.733
▁attained	-11.733
▁Holocene	-11.7337
▁catabolic	-11.7337
▁rostral	-11.7337
▁auratus	-11.7337
▁heterozygote	-11.7338
▁punct	-11.7341
characterized	-11.7344
mouth	-11.7347
continent	-11.7347
cost	-11.7354
have	-11.7354
Jo	-11.7356
Land	-11.7357
▁SDA	-11.7357
▁tentacle	-11.7357
▁Gold	-11.736
fur	-11.7364
▁say	-11.737
amination	-11.737
▁chlorophyll	-11.7373
▁hypercapnia	-11.7373
▁mobilization	-11.7373
▁empty	-11.7373
▁parthenogenetic	-11.7373
▁decomposition	-11.7374
▁drawback	-11.7374
▁microscopic	-11.7374
▁ionocytes	-11.7378
▁Why	-11.738
▁acceptor	-11.7387
Mac	-11.7393
small	-11.7393
▁Subsequent	-11.7397
▁secrete	-11.7399
Hochachka	-11.741
▁children	-11.741
▁asynchronous	-11.741
▁Andean	-11.7411
locating	-11.7414
▁dim	-11.7415
▁invoked	-11.7417
▁saw	-11.7418
▁1995	-11.7419
pathway	-11.7421
law	-11.7422
▁pineal	-11.7422
▁camera	-11.7423
EST	-11.7426
▁Female	-11.7431
▁Trp	-11.7434
▁occasional	-11.7439
▁exponentially	-11.7439
▁deter	-11.7442
proliferative	-11.7446
▁Asterisks	-11.7446
▁ascidian	-11.7446
▁contigs	-11.7446
▁heterologous	-11.7446
▁flood	-11.7446
cqWG	-11.7447
▁Work	-11.7448
▁refinement	-11.7449
▁rear	-11.745
▁outliers	-11.745
▁MDA	-11.7453
▁PEP	-11.7454
▁synchronized	-11.7455
▁allocated	-11.7456
potential	-11.7457
▁pace	-11.7458
▁killing	-11.7459
drug	-11.7459
PSC	-11.7464
▁timescales	-11.7465
▁Grosell	-11.7477
▁Wu	-11.748
▁Gli	-11.7481
▁Values	-11.7483
▁demography	-11.7483
▁fluctuate	-11.7483
▁messenger	-11.7483
▁vorticity	-11.7483
▁Positive	-11.7483
▁carboxylase	-11.7483
▁erroneous	-11.7483
▁tempting	-11.7483
▁Aqp	-11.7483
erk	-11.7483
▁pinpoint	-11.7483
▁[50,	-11.7485
rini	-11.7487
▁subclass	-11.7488
anum	-11.7494
nitro	-11.7494
mammalian	-11.7494
saturated	-11.7495
▁Garland	-11.7497
▁grasses	-11.7497
Walsh	-11.7497
▁ribo	-11.7499
measured	-11.7501
▁lunge	-11.7502
▁AHR	-11.7508
▁alpine	-11.7509
▁caste	-11.7509
▁guided	-11.751
▁mud	-11.7511
ABC	-11.7513
▁PCA	-11.7516
▁generality	-11.7516
▁Altogether	-11.752
▁Relationship	-11.752
▁asterisk	-11.752
▁initiating	-11.752
▁doubling	-11.752
▁Post	-11.7521
dependence	-11.7524
▁killer	-11.7532
▁2015	-11.7532
▁longest	-11.7539
▁lean	-11.754
3.0	-11.7543
▁subnetwork	-11.7548
fecting	-11.7549
▁Chang	-11.755
pil	-11.7552
strict	-11.7552
▁harvest	-11.7556
▁sculpin	-11.7556
▁sulfide	-11.7557
▁drone	-11.7557
▁[8–10]	-11.7559
▁GPCR	-11.756
temp	-11.7563
Bartol	-11.7564
▁Upper	-11.7565
▁Andes	-11.7578
▁taxonomically	-11.758
▁questioned	-11.758
▁helped	-11.7581
▁15°	-11.7583
▁passed	-11.7584
▁10°	-11.7584
▁supergroup	-11.7589
▁concerned	-11.759
▁horizon	-11.7593
Sinclair	-11.7594
▁Paramecium	-11.7594
▁Salmonella	-11.7594
▁sapiens	-11.7594
▁geese	-11.7594
▁nominal	-11.7595
▁odontocetes	-11.7596
▁brightness	-11.7596
▁tiger	-11.7598
▁2016;	-11.7602
▁crawling	-11.7606
▁mir	-11.7606
▁prevailing	-11.7608
▁63]	-11.7624
▁MMR	-11.7625
▁calci	-11.7627
connect	-11.7627
▁stabilized	-11.7629
face	-11.7629
▁dinoflagellates	-11.7631
▁Weddell	-11.7631
▁thermogenic	-11.7632
▁noticed	-11.7633
▁MLC	-11.7634
▁Branch	-11.7634
▁daytime	-11.7638
▁nucleosome	-11.7639
▁labelled	-11.764
0.07	-11.7643
▁PIP	-11.7648
▁Spo	-11.7649
▁Tree	-11.7659
▁distort	-11.7659
▁automatic	-11.7668
▁fibril	-11.7668
▁maximise	-11.7668
▁Malawi	-11.7668
▁alveolar	-11.7668
▁pombe	-11.7668
▁[79]	-11.7668
▁hydrostatic	-11.7668
▁[49,	-11.7669
▁Possibl	-11.7669
▁weather	-11.7669
▁France	-11.767
▁mTOR	-11.7671
directional	-11.768
found	-11.7682
▁trappin	-11.7683
representation	-11.7687
▁adapting	-11.7691
▁circle	-11.7693
ORF	-11.7694
nberg	-11.7697
▁UVS	-11.7702
McMahon	-11.7705
▁audiogram	-11.7705
▁endonuclease	-11.7705
▁tubulin	-11.7705
▁lncRNAs	-11.7706
▁Thomas	-11.7706
▁spatiotemporal	-11.7706
▁barcode	-11.7706
▁abnormalities	-11.7707
glyco	-11.7707
▁barley	-11.771
▁1994	-11.7714
large	-11.7718
▁grasshoppers	-11.7719
▁cyp	-11.7722
methylation	-11.7726
▁pooled	-11.7727
▁Lab	-11.7727
▁ramp	-11.7731
▁ignore	-11.7734
ophorus	-11.7735
1.3	-11.7736
▁placenta	-11.7743
▁funnel	-11.7743
▁refugium	-11.7743
▁stabilis	-11.7743
▁americana	-11.7743
immunoreactive	-11.7743
Stewart	-11.7743
▁approximated	-11.7743
4.1	-11.7743
▁minimise	-11.7743
berger	-11.7744
▁mutualism	-11.7745
▁Chen	-11.7745
▁grand	-11.7756
▁decided	-11.7756
helix	-11.7758
photo	-11.7761
Poecil	-11.7768
ODE	-11.777
▁15%	-11.7771
▁exploiting	-11.7781
▁Balkan	-11.7781
▁granular	-11.7781
▁onychophoran	-11.7781
▁ovulation	-11.7781
Hughes	-11.7781
▁hydration	-11.7781
Vogel	-11.7781
▁Nv	-11.7782
▁Biological	-11.7783
hydrolase	-11.7783
▁dauer	-11.7784
3.3	-11.7784
▁foil	-11.7785
▁Short	-11.7786
▁magna	-11.7798
▁accomplish	-11.7802
▁shorten	-11.7802
0.000	-11.7802
10%	-11.7808
▁disentangle	-11.7809
▁Srinivasan	-11.781
▁hexa	-11.7813
▁colder	-11.7813
▁Hydro	-11.7815
ecker	-11.7815
▁Mann	-11.7818
burn	-11.7818
amylase	-11.7819
▁Dictyostelium	-11.7819
▁emperor	-11.7819
▁herbivorous	-11.7819
▁memories	-11.7819
▁microbiota	-11.7819
▁sagittal	-11.7819
▁sedentary	-11.7819
▁urinary	-11.7819
Chittka	-11.7819
▁Birds	-11.7819
▁hexapod	-11.7819
▁germination	-11.782
▁northward	-11.7821
text	-11.7822
▁Typically	-11.7823
molar	-11.7824
▁intercellular	-11.7825
especially	-11.7834
developed	-11.7834
MY	-11.7834
AQP	-11.7834
acting	-11.7837
▁LHC	-11.784
ruct	-11.7843
Qu	-11.7847
▁filtered	-11.7855
▁Whilst	-11.7857
▁antennule	-11.7857
▁carnivore	-11.7857
▁extraordinary	-11.7857
▁genotyping	-11.7857
▁girdle	-11.7857
▁glomeruli	-11.7857
▁salinities	-11.7857
▁rival	-11.7857
▁dilute	-11.7857
▁neighborhood	-11.7857
▁Complex	-11.7857
Geiser	-11.7857
▁Diptera	-11.7858
▁Apis	-11.7859
▁uphill	-11.786
▁protostomes	-11.786
▁breakpoints	-11.7862
▁oxidized	-11.7863
▁SVM	-11.7867
chner	-11.7868
visual	-11.7874
Ex	-11.7875
▁bank	-11.789
▁estradiol	-11.7891
lasting	-11.7892
▁carcinoma	-11.7895
▁heavier	-11.7895
▁homozygous	-11.7895
▁scientists	-11.7895
▁tympana	-11.7895
▁ploidy	-11.7895
▁associative	-11.7896
▁exemplified	-11.7898
▁genitalia	-11.7898
logy	-11.7906
▁Chown	-11.7907
Or	-11.7907
▁spawn	-11.7909
consuming	-11.7911
soluble	-11.7911
MAPK	-11.7912
grass	-11.7915
Webb	-11.7918
harm	-11.792
▁Collett	-11.7921
▁confirmation	-11.7925
2/3	-11.7925
connected	-11.7926
esophageal	-11.7933
▁Traditional	-11.7933
▁circulatory	-11.7933
▁expert	-11.7933
▁chondr	-11.7933
Schmitt	-11.7933
▁subgraphs	-11.7934
▁Predict	-11.7934
▁braking	-11.7934
▁MRCs	-11.7934
▁absorbance	-11.7934
▁Little	-11.7935
▁Rub	-11.7935
beta	-11.7939
▁unbiased	-11.7943
▁ABA	-11.7944
acyl	-11.7945
relative	-11.7948
aceous	-11.7949
altitude	-11.7949
▁decide	-11.7958
▁refine	-11.796
▁anuran	-11.7963
oder	-11.7965
▁dilution	-11.7972
▁filtration	-11.7972
▁illuminate	-11.7972
▁measurable	-11.7972
▁whisker	-11.7972
▁superfamilies	-11.7972
Nawata	-11.7972
▁completion	-11.7973
Hedrick	-11.7973
▁fovea	-11.7973
▁generalization	-11.7976
▁prime	-11.7976
oud	-11.7977
phage	-11.7978
▁coincid	-11.7981
▁preceded	-11.7984
eq	-11.7984
tissue	-11.7988
injected	-11.7988
parasitic	-11.7988
▁palaeo	-11.7989
central	-11.7989
mtDNA	-11.7989
dig	-11.7994
saving	-11.7994
▁disjunct	-11.7996
▁MMP	-11.8007
▁stretched	-11.8008
▁traffic	-11.801
ager	-11.801
▁enigmatic	-11.801
Edwards	-11.801
▁southeastern	-11.8011
▁pedal	-11.8012
▁peroxide	-11.8012
▁specialisation	-11.8013
total	-11.8014
▁optimisation	-11.8016
Higham	-11.8017
phenol	-11.8017
▁trot	-11.8018
▁None	-11.8022
▁testable	-11.8026
depend	-11.8026
kk	-11.8027
canonical	-11.8028
▁COT	-11.803
production	-11.8034
▁cetacean	-11.804
▁guidance	-11.8049
▁impressive	-11.8049
▁osmolyte	-11.8049
▁stonechats	-11.8049
▁freedom	-11.8049
▁cranio	-11.8049
▁cytotoxic	-11.8049
▁unisexual	-11.8049
▁cytogenetic	-11.805
▁multimodal	-11.8051
▁entrain	-11.8051
▁Ost	-11.8052
speaker	-11.8055
▁GSK	-11.8066
▁macaque	-11.808
Hart	-11.8082
▁crucia	-11.8083
▁hydroxyl	-11.8084
PV	-11.8086
▁gallop	-11.8088
▁spatio	-11.8088
▁cyprinid	-11.8088
▁fascia	-11.8088
▁Natural	-11.8088
▁NCBI	-11.8089
XY	-11.8089
Ladich	-11.8089
▁assayed	-11.8089
▁MCMC	-11.809
▁Body	-11.8091
▁postural	-11.8093
ogon	-11.8099
▁instrument	-11.8101
termini	-11.8104
▁projected	-11.8105
vascular	-11.8106
latt	-11.8108
▁DEE	-11.8108
20%	-11.8113
▁colonis	-11.8114
▁dye	-11.8115
▁Buck	-11.8118
▁fibroblasts	-11.8118
=8	-11.8119
ilia	-11.8124
▁spontaneously	-11.8126
maximizing	-11.8127
▁giraffe	-11.8127
▁imprinted	-11.8127
▁inadequate	-11.8127
▁reassortment	-11.8127
▁stoichiometry	-11.8127
▁unequivocal	-11.8127
▁unexplored	-11.8127
▁ectopic	-11.8127
▁spheroid	-11.8127
▁alleviate	-11.8127
▁command	-11.8127
▁discontinuous	-11.8127
ophyta	-11.8128
contraction	-11.813
▁suboptimal	-11.8131
trained	-11.8133
▁flicker	-11.8133
▁Acc	-11.8133
▁neighbor	-11.8135
▁Tetra	-11.8135
▁DMS	-11.8136
▁Petri	-11.8138
dominance	-11.8146
balance	-11.8146
thorax	-11.8146
▁masked	-11.8146
▁Sar	-11.8146
zu	-11.8149
theoretic	-11.8154
▁forager	-11.8155
▁degrade	-11.8156
▁briefly	-11.8158
Denny	-11.8161
▁Halo	-11.8165
▁Tetrahymena	-11.8166
▁Triassic	-11.8166
▁schizophrenia	-11.8166
▁soybean	-11.8166
▁navigate	-11.8166
▁echolocating	-11.8166
Chapman	-11.8166
yama	-11.8168
▁emergent	-11.8169
▁ATF	-11.8171
faunal	-11.8172
colonial	-11.8184
compete	-11.8196
chloro	-11.8197
▁mV	-11.8199
[8]	-11.82
mycin	-11.8204
▁statement	-11.8204
▁diaphragm	-11.8206
▁Gaussian	-11.8206
▁[6–8]	-11.8206
▁assemblies	-11.8206
▁1963;	-11.8206
▁harsh	-11.8206
▁bandwidth	-11.8206
▁carries	-11.8207
▁traced	-11.8207
▁metapopulation	-11.8208
001	-11.8209
▁replicated	-11.821
▁Chloro	-11.8211
▁sword	-11.8211
▁naive	-11.8213
▁0.001	-11.8214
odd	-11.8219
anz	-11.8222
▁innervat	-11.8225
[20]	-11.8225
▁warranted	-11.8228
▁bin	-11.8229
▁chord	-11.8244
▁Plateau	-11.8245
▁biomechanics	-11.8245
▁continual	-11.8245
▁incompatibility	-11.8245
▁luminescence	-11.8245
▁trypanosomatid	-11.8245
▁Pearson	-11.8245
▁sterility	-11.8245
▁midbrain	-11.8246
▁descendants	-11.8246
▁retreat	-11.8247
▁GTP	-11.8252
▁Bayes	-11.8252
legged	-11.8256
▁uniformly	-11.8257
▁Nelson	-11.8264
▁usefulness	-11.8265
apoptotic	-11.8265
[18]	-11.8265
▁64]	-11.8272
oxidation	-11.8273
▁attempting	-11.8274
Lukowiak	-11.8285
▁acquiring	-11.8285
▁albicans	-11.8285
▁guinea	-11.8285
▁loggerhead	-11.8285
▁perceptual	-11.8285
▁pervasive	-11.8285
▁uncommon	-11.8285
▁Support	-11.8285
▁overwhelm	-11.8285
▁chromophore	-11.8285
▁spindle	-11.8285
▁Simmons	-11.8285
▁purine	-11.8285
▁hindbrain	-11.8285
▁neuropil	-11.8286
▁10,000	-11.8287
▁primer	-11.8295
yph	-11.8302
metabolic	-11.8305
▁participat	-11.8315
▁sinus	-11.8316
▁pinnipeds	-11.8318
chal	-11.8323
qaaiab	-11.8324
Thom	-11.8324
▁bryozoan	-11.8325
▁homeobox	-11.8325
▁genealogical	-11.8325
▁snout	-11.8325
▁ontology	-11.8325
▁slave	-11.8327
▁Toll	-11.8328
▁env	-11.8329
▁AVT	-11.8331
▁pituitary	-11.8344
The	-11.8345
maximum	-11.8346
migration	-11.8346
▁Hemi	-11.8347
▁CHC	-11.8354
▁grip	-11.8356
enz	-11.8358
DAR	-11.836
▁necessitate	-11.8365
▁subgenera	-11.8365
▁SMAD	-11.8366
▁solvent	-11.8367
dell	-11.8373
▁Unti	-11.8384
[15]	-11.8386
hetero	-11.8398
▁Few	-11.8402
▁outlier	-11.8404
▁cartilaginous	-11.8405
▁corridor	-11.8405
▁diagnosis	-11.8405
▁economy	-11.8405
▁emersion	-11.8405
▁polychaete	-11.8405
▁subdivided	-11.8405
▁synapomorphies	-11.8405
▁covariation	-11.8405
▁1758)	-11.8405
Phillips	-11.8405
▁quasispecies	-11.8406
▁savings	-11.8406
▁dinucleotide	-11.8406
▁interglacial	-11.8408
▁pain	-11.8408
Oncorhynchus	-11.8408
▁montane	-11.8411
▁lysis	-11.8411
▁chelicerate	-11.8413
▁Rio	-11.8421
eries	-11.8421
▁Rap	-11.8427
thoracic	-11.8427
▁tuber	-11.8427
▁join	-11.8427
selection	-11.8428
▁manifested	-11.8428
▁chemically	-11.8429
culture	-11.8429
▁morphotypes	-11.843
about	-11.8436
▁bioinformatic	-11.8441
▁gamete	-11.8444
zygote	-11.8445
▁multitude	-11.8445
▁oscillating	-11.8445
▁SERCA	-11.8445
▁parasitiz	-11.8445
▁Mtb	-11.8446
▁sprinting	-11.845
▁singing	-11.845
▁chroma	-11.8451
▁compartmentaliz	-11.8452
▁leeches	-11.8453
tinae	-11.8454
▁cultivars	-11.8455
▁accompanying	-11.8458
NOS	-11.8461
▁CSA	-11.8465
Vi	-11.8467
parameter	-11.8467
Pacific	-11.8468
▁Eq	-11.847
–18	-11.8474
▁denoted	-11.8477
▁Ellington	-11.848
▁maxima	-11.848
▁afferent	-11.8482
▁players	-11.8483
▁save	-11.8483
▁marmoratus	-11.8486
▁undoubted	-11.8486
▁unfamiliar	-11.8486
▁cognate	-11.8486
▁logistic	-11.8487
▁tomato	-11.8488
XX	-11.8491
▁citrate	-11.8496
▁encompasses	-11.85
▁neighbour	-11.8502
▁DDI	-11.8503
▁slide	-11.8508
▁rendering	-11.8509
▁HPA	-11.8509
▁goes	-11.8515
osity	-11.8515
glycosylation	-11.8517
▁TAG	-11.8518
▁maximally	-11.852
▁lice	-11.8521
Chi	-11.8522
▁Temperature	-11.8526
▁nomenclature	-11.8526
▁olfaction	-11.8526
▁overlooked	-11.8526
▁submitted	-11.8526
▁hindgut	-11.8526
▁averaging	-11.8526
▁eccentric	-11.8526
▁fabp	-11.8526
▁SINE	-11.8527
▁missed	-11.8528
feld	-11.8533
patric	-11.8536
GH	-11.8536
▁Crypt	-11.8536
▁Increase	-11.854
▁lungfish	-11.8544
▁Yang	-11.8544
Evans	-11.855
chromosomal	-11.855
muscular	-11.855
▁expresses	-11.8556
▁inducer	-11.8557
making	-11.8562
▁Leishmania	-11.8567
▁[13–15]	-11.8567
▁aeruginosa	-11.8567
▁default	-11.8567
▁gluconeogenesis	-11.8567
▁interstitial	-11.8567
▁manoeuvre	-11.8567
▁primordial	-11.8567
▁xenobiotic	-11.8567
▁[10–12]	-11.8567
▁Rattus	-11.8567
▁coiled	-11.8568
▁silkworm	-11.8568
Reilly	-11.8571
▁safe	-11.8573
▁hoc	-11.8575
tidal	-11.8577
PIN	-11.8592
ethyl	-11.8594
▁filling	-11.8596
eastern	-11.8596
osum	-11.8597
1.4	-11.8599
Collin	-11.8606
Costantini	-11.8608
▁cholinergic	-11.8608
▁dendritic	-11.8608
▁polynomial	-11.8608
▁stamen	-11.8608
Menzel	-11.8608
▁eusocial	-11.8608
▁torsion	-11.8609
▁Gorb	-11.8611
▁Larva	-11.8613
nephr	-11.8614
▁SSU	-11.8614
▁Wake	-11.8616
▁remainder	-11.8617
5,000	-11.8622
linearity	-11.8623
▁reinforced	-11.8629
▁AIC	-11.8632
▁1.6	-11.8634
biological	-11.8636
▁unambiguous	-11.8636
endo	-11.8641
ophyceae	-11.8647
ADP	-11.8649
▁counterpart	-11.8649
absorptive	-11.8649
▁notochord	-11.8649
▁prolixus	-11.8649
▁resilin	-11.8649
▁peninsula	-11.8649
▁[80]	-11.8649
▁gastrulation	-11.8649
▁chewing	-11.865
▁parrot	-11.8651
plicative	-11.8651
▁Chrom	-11.8651
energy	-11.8653
▁stag	-11.8656
hypo	-11.8656
microenvironment	-11.8658
▁hook	-11.8662
▁Ferr	-11.8662
philic	-11.8674
locked	-11.8676
▁Prote	-11.8678
▁adaptor	-11.8682
▁specificities	-11.8682
▁optima	-11.8685
evolved	-11.8687
origin	-11.8689
▁switched	-11.869
▁Intriguingly	-11.8691
▁endotherms	-11.8691
▁observing	-11.8691
▁swallow	-11.8691
▁uncoupling	-11.8691
▁Bradley	-11.8691
▁patens	-11.8692
▁skyline	-11.8694
Robertson	-11.8694
▁steeper	-11.8705
2+]	-11.8706
▁Along	-11.8706
▁bold	-11.8708
▁recognis	-11.8715
[17]	-11.8716
ianus	-11.8718
Cyprin	-11.8725
▁EMT	-11.8728
▁fox	-11.8731
Montgomery	-11.8732
▁baboon	-11.8732
▁prospect	-11.8732
▁repetition	-11.8732
▁resembling	-11.8732
▁stomatopod	-11.8732
▁supplied	-11.8732
▁tropics	-11.8732
▁honest	-11.8732
renewal	-11.8732
▁nitric	-11.8733
▁airborne	-11.8735
See	-11.8736
vet	-11.8738
▁Combin	-11.8757
occurrence	-11.8758
maximal	-11.8758
within	-11.8758
[10]	-11.8758
Met	-11.8766
word	-11.8773
▁opportunistic	-11.8774
▁pacificus	-11.8774
▁vestibular	-11.8774
▁perennial	-11.8774
Proteobacteria	-11.8774
▁sloth	-11.8774
▁Meanwhile	-11.8774
▁linker	-11.8776
▁bigger	-11.8777
▁conduction	-11.8782
▁pet	-11.8783
▁reproduced	-11.8785
▁tried	-11.8795
dominant	-11.8798
“	-11.8801
▁delimit	-11.8805
▁HPD	-11.8805
▁tempo	-11.8809
▁ferment	-11.8809
violet	-11.8815
▁allopatry	-11.8816
▁bradycardia	-11.8816
▁estimator	-11.8816
▁heteroclitus	-11.8816
▁Blake	-11.8816
▁Melan	-11.8817
▁NCX	-11.882
▁substance	-11.8821
▁patchy	-11.8839
satellite	-11.8842
treatment	-11.8842
[11]	-11.8843
▁stretches	-11.8843
▁EPO	-11.8848
catalyzed	-11.8851
▁68]	-11.8852
▁Photo	-11.8853
▁intermedia	-11.8856
▁pursuit	-11.8858
▁aquaporin	-11.8858
▁entropy	-11.8858
▁kairomone	-11.8858
▁marmoset	-11.8858
▁transparent	-11.8858
▁unprecedented	-11.8858
▁biochemistry	-11.8858
▁GDF	-11.8858
▁transepithelial	-11.8858
▁mutualistic	-11.8858
Madsen	-11.8859
▁[54,	-11.886
ITS	-11.8872
▁accession	-11.8873
0.02	-11.8876
contaminated	-11.8877
aries	-11.8883
▁myco	-11.8885
Marshall	-11.8885
[12]	-11.8886
hem	-11.8894
keletal	-11.8894
Passer	-11.8897
flying	-11.8897
▁saliva	-11.8898
stimulatory	-11.89
▁accelerating	-11.89
▁rupture	-11.89
▁stagnalis	-11.89
▁promise	-11.89
▁underscore	-11.89
Alonso	-11.89
▁pigeon	-11.8901
▁synapse	-11.8902
▁lemur	-11.8902
▁laminar	-11.8912
▁rolling	-11.8914
ACE	-11.8915
Barr	-11.8917
2.8	-11.8924
▁Meso	-11.8935
▁transiently	-11.8938
▁digging	-11.8942
▁eliminating	-11.8942
▁endangered	-11.8942
▁gravitational	-11.8942
▁midshipman	-11.8942
▁nonetheless	-11.8942
▁damaging	-11.8942
▁melanoma	-11.8944
▁glaciation	-11.8945
▁nothing	-11.8946
Shi	-11.8949
▁operational	-11.8952
▁GPR	-11.8957
▁nearest	-11.896
▁bad	-11.8963
▁CCR	-11.897
climatic	-11.8971
density	-11.8971
▁provisioning	-11.8973
uridae	-11.8975
ique	-11.8977
▁weaken	-11.8978
▁estuarine	-11.8985
▁guppy	-11.8985
▁myocardium	-11.8985
▁orthogonal	-11.8985
▁prolactin	-11.8985
▁shuffling	-11.8985
▁viviparous	-11.8985
▁fascin	-11.8985
▁Theoretical	-11.8985
▁cystatin	-11.8985
▁aperture	-11.8985
▁Control	-11.8985
▁benign	-11.8985
▁cocoon	-11.8985
▁TTS	-11.8985
▁shrew	-11.8985
▁adipocyte	-11.8985
▁mucin	-11.8986
▁Cancer	-11.8987
▁defective	-11.8987
▁combat	-11.8988
▁macrophage	-11.8988
▁ridges	-11.8989
▁pyloric	-11.8989
▁fever	-11.8995
▁photoperiodic	-11.8995
Gillis	-11.8998
▁PAH	-11.9007
morphological	-11.9009
▁PKC	-11.9009
▁carbonate	-11.9013
Schmidt	-11.9014
▁arrive	-11.9014
▁repressed	-11.9019
stability	-11.9023
▁biophysical	-11.9027
▁damselfish	-11.9027
▁epidemiological	-11.9027
▁evolvability	-11.9027
▁paucity	-11.9027
▁reorganization	-11.9027
▁quiescent	-11.9027
▁gestation	-11.9027
▁otolith	-11.9027
▁mounting	-11.9028
▁wrist	-11.9029
▁elasmobranch	-11.903
▁gender	-11.9031
▁hatchling	-11.9033
▁dung	-11.9036
▁Siberian	-11.9036
neural	-11.9044
lepid	-11.9047
▁coma	-11.9048
arthropod	-11.9058
[19]	-11.9058
[13]	-11.9058
▁TEP	-11.906
ophilic	-11.9061
▁NOX	-11.9065
Surlykke	-11.907
▁Alzheimer	-11.907
▁acclimatization	-11.907
▁bipartite	-11.907
▁crocodilian	-11.907
▁groove	-11.907
▁manuscript	-11.907
▁potassium	-11.907
▁verification	-11.9071
▁bistability	-11.9071
▁golden	-11.9073
▁Platy	-11.9073
▁orthologue	-11.9075
▁monkey	-11.9075
[7]	-11.9079
▁subclade	-11.9081
▁Spir	-11.9087
▁boxes	-11.9089
oxygen	-11.9098
these	-11.9101
▁traveling	-11.9111
Braun	-11.9113
Hildebrand	-11.9113
▁luminance	-11.9113
▁speculative	-11.9113
▁catalase	-11.9113
▁magnet	-11.9113
▁protraction	-11.9113
▁contour	-11.9113
▁metabolize	-11.9114
ordinate	-11.9116
▁bivalve	-11.9118
▁salamander	-11.9118
▁neuromast	-11.9118
▁thousand	-11.9118
joining	-11.9121
▁complicate	-11.9125
▁entered	-11.9127
▁innervated	-11.9132
▁pupil	-11.914
30%	-11.9144
ndez	-11.9154
Jun	-11.9155
▁celestial	-11.9157
▁encourage	-11.9157
▁flycatcher	-11.9157
▁irradiation	-11.9157
▁lyrata	-11.9157
▁premaxilla	-11.9157
▁women	-11.9157
▁morning	-11.9157
▁krill	-11.9158
▁boreal	-11.9159
guez	-11.9161
▁Panama	-11.9162
▁formant	-11.9162
▁KCN	-11.9164
osmotic	-11.9166
▁accord	-11.9176
headed	-11.9176
serine	-11.9178
▁latest	-11.9182
▁tether	-11.9183
▁finer	-11.9184
▁homogeniz	-11.9196
itive	-11.9197
▁altitudinal	-11.92
▁phagocytosis	-11.92
▁sporadic	-11.92
▁pentose	-11.92
▁spleen	-11.92
▁singular	-11.92
▁forebrain	-11.92
▁neurodegenerati	-11.92
▁layout	-11.9201
phal	-11.921
▁papillae	-11.9211
wave	-11.9212
▁engineered	-11.9214
▁1980	-11.9217
math	-11.9219
IAA	-11.9222
omus	-11.9223
RNase	-11.9231
zaki	-11.9231
abilities	-11.9233
▁Close	-11.9234
strom	-11.9236
Cohen	-11.9239
▁transgene	-11.9242
▁efficiencies	-11.9244
▁endothermy	-11.9244
▁sequester	-11.9244
▁shuttle	-11.9244
▁circumvent	-11.9244
▁intricate	-11.9244
▁trapped	-11.9244
glucan	-11.9246
▁[53,	-11.9248
▁rationale	-11.9261
▁AMF	-11.9262
▁polyploidy	-11.9262
▁gather	-11.9264
▁restored	-11.9265
▁Hep	-11.9266
clad	-11.9271
▁engaged	-11.9273
ogamy	-11.9286
▁coded	-11.9287
▁insulat	-11.9287
▁Heliconius	-11.9288
▁mykiss	-11.9288
▁oviparous	-11.9288
▁vulgaris	-11.9288
▁Sexual	-11.9288
▁floor	-11.9288
▁antisense	-11.9288
▁infinite	-11.9288
compensat	-11.9288
▁Gymno	-11.9288
▁1992	-11.9289
▁MCF	-11.929
▁passing	-11.929
▁conducting	-11.9301
▁fear	-11.9302
flat	-11.9312
▁Mark	-11.9314
evolve	-11.9314
▁discrimina	-11.9317
▁EFL	-11.9323
▁mite	-11.9324
basal	-11.9326
▁armigera	-11.9332
▁chaperonin	-11.9332
▁dependencies	-11.9332
▁limpet	-11.9332
▁recessive	-11.9332
Cavagna	-11.9332
▁bluegill	-11.9332
▁crater	-11.9332
▁inclination	-11.9332
▁beaked	-11.9333
▁Mart	-11.9334
▁worse	-11.9334
▁deuterostome	-11.9339
00,000	-11.9344
▁proportionally	-11.9345
GEM	-11.9354
noise	-11.9355
flux	-11.9365
transcript	-11.9366
4.0	-11.9366
pelagic	-11.9366
▁Mega	-11.9368
▁experimentation	-11.9374
▁Cameroon	-11.9376
Alvarez	-11.9376
Burggren	-11.9376
▁[11–13]	-11.9376
▁bioluminescence	-11.9376
▁dividing	-11.9376
▁glioma	-11.9376
▁proteolysis	-11.9376
▁geography	-11.9376
Snyder	-11.9376
▁advertisement	-11.9376
Gibbs	-11.9386
▁lion	-11.9387
▁PGC	-11.9388
uel	-11.94
▁NCC	-11.9401
▁pay	-11.9402
163	-11.9412
SNPs	-11.9413
▁65]	-11.9414
Witt	-11.9415
▁1991	-11.942
▁Beyond	-11.942
▁Environmental	-11.942
▁ambiguity	-11.942
▁ballistic	-11.942
▁deceleration	-11.942
▁opponent	-11.942
▁purified	-11.942
▁pastoris	-11.9421
▁Vibrio	-11.9421
▁serving	-11.9421
▁Canada	-11.9421
▁Strong	-11.9422
super	-11.9426
▁Super	-11.9427
▁RPS	-11.9427
▁flap	-11.9427
▁introgressed	-11.9428
▁snow	-11.9436
▁intrinsically	-11.9437
▁inhabited	-11.9444
▁3.2	-11.9451
▁[15	-11.9453
pyr	-11.9455
mentioned	-11.9456
absence	-11.9456
genous	-11.9458
Levin	-11.9458
▁subsp	-11.9461
▁Computational	-11.9465
▁discoideum	-11.9465
▁larynx	-11.9465
▁ensuring	-11.9465
▁cyclase	-11.9465
▁ultraviolet	-11.9465
▁chrys	-11.9466
▁accessibility	-11.9466
▁losing	-11.9467
▁plain	-11.9467
pulse	-11.9473
▁noncoding	-11.9478
▁enforc	-11.9484
correlation	-11.9488
olysis	-11.9488
New	-11.9491
▁Six	-11.9492
nik	-11.9494
likelihood	-11.9501
corrected	-11.9501
QTL	-11.9503
Huey	-11.9508
▁retract	-11.9508
▁Earlier	-11.951
▁eclosion	-11.951
▁inappropriate	-11.951
▁integument	-11.951
▁mushroom	-11.951
▁oscillate	-11.951
immunoreactivity	-11.951
▁eleven	-11.951
▁[81]	-11.951
▁cellulase	-11.951
court	-11.9512
▁robotic	-11.9513
▁clan	-11.9529
▁restricting	-11.9531
▁principally	-11.9532
tsu	-11.9539
▁Mass	-11.954
molecule	-11.9546
[21]	-11.9546
▁fibro	-11.9554
▁Bacillus	-11.9555
▁compatibility	-11.9555
▁exacerbate	-11.9555
▁gregarious	-11.9555
▁tertiary	-11.9555
:(1)	-11.9555
▁capsid	-11.9555
▁brachy	-11.9556
▁advent	-11.9556
▁[55,	-11.9557
▁SCD	-11.9557
▁laser	-11.9557
▁IGFBP	-11.9558
▁GPx	-11.9563
▁Shar	-11.9574
▁communicate	-11.9577
▁redirect	-11.9579
▁tropicalis	-11.9584
▁Thermo	-11.9589
speciation	-11.9592
joint	-11.9592
▁station	-11.9595
▁transect	-11.9595
Daley	-11.9597
saccharide	-11.9599
▁appetitive	-11.96
▁carotid	-11.96
▁gustatory	-11.96
▁ruminant	-11.96
▁suspension	-11.96
[...]
